/*
 * Copyright (c) 2020, Alliance for Open Media. All rights reserved
 *
 * This source code is subject to the terms of the BSD 2 Clause License and
 * the Alliance for Open Media Patent License 1.0. If the BSD 2 Clause License
 * was not distributed with this source code in the LICENSE file, you can
 * obtain it at www.aomedia.org/license/software. If the Alliance for Open
 * Media Patent License 1.0 was not distributed with this source code in the
 * PATENTS file, you can obtain it at www.aomedia.org/license/patent.
 */

#include "av1/tflite_models/intra_frame_model/qp0_90_quadtree.h"

const unsigned char qp0_90_quadtree_model_tflite_data[] = {
  0x1c, 0x00, 0x00, 0x00, 0x54, 0x46, 0x4c, 0x33, 0x14, 0x00, 0x20, 0x00, 0x1c,
  0x00, 0x18, 0x00, 0x14, 0x00, 0x10, 0x00, 0x0c, 0x00, 0x00, 0x00, 0x08, 0x00,
  0x04, 0x00, 0x14, 0x00, 0x00, 0x00, 0x1c, 0x00, 0x00, 0x00, 0x80, 0x00, 0x00,
  0x00, 0xd8, 0x00, 0x00, 0x00, 0x88, 0x16, 0x00, 0x00, 0x98, 0x16, 0x00, 0x00,
  0x34, 0xab, 0x00, 0x00, 0x03, 0x00, 0x00, 0x00, 0x01, 0x00, 0x00, 0x00, 0x04,
  0x00, 0x00, 0x00, 0x82, 0xd3, 0xff, 0xff, 0x0c, 0x00, 0x00, 0x00, 0x1c, 0x00,
  0x00, 0x00, 0x38, 0x00, 0x00, 0x00, 0x0f, 0x00, 0x00, 0x00, 0x73, 0x65, 0x72,
  0x76, 0x69, 0x6e, 0x67, 0x5f, 0x64, 0x65, 0x66, 0x61, 0x75, 0x6c, 0x74, 0x00,
  0x01, 0x00, 0x00, 0x00, 0x04, 0x00, 0x00, 0x00, 0x9c, 0xff, 0xff, 0xff, 0xa8,
  0x00, 0x00, 0x00, 0x04, 0x00, 0x00, 0x00, 0x06, 0x00, 0x00, 0x00, 0x6f, 0x75,
  0x74, 0x70, 0x75, 0x74, 0x00, 0x00, 0x01, 0x00, 0x00, 0x00, 0x04, 0x00, 0x00,
  0x00, 0xbc, 0xff, 0xff, 0xff, 0xa7, 0x00, 0x00, 0x00, 0x04, 0x00, 0x00, 0x00,
  0x03, 0x00, 0x00, 0x00, 0x69, 0x6d, 0x67, 0x00, 0x02, 0x00, 0x00, 0x00, 0x34,
  0x00, 0x00, 0x00, 0x04, 0x00, 0x00, 0x00, 0xdc, 0xff, 0xff, 0xff, 0xa6, 0x00,
  0x00, 0x00, 0x04, 0x00, 0x00, 0x00, 0x13, 0x00, 0x00, 0x00, 0x43, 0x4f, 0x4e,
  0x56, 0x45, 0x52, 0x53, 0x49, 0x4f, 0x4e, 0x5f, 0x4d, 0x45, 0x54, 0x41, 0x44,
  0x41, 0x54, 0x41, 0x00, 0x08, 0x00, 0x0c, 0x00, 0x08, 0x00, 0x04, 0x00, 0x08,
  0x00, 0x00, 0x00, 0xa5, 0x00, 0x00, 0x00, 0x04, 0x00, 0x00, 0x00, 0x13, 0x00,
  0x00, 0x00, 0x6d, 0x69, 0x6e, 0x5f, 0x72, 0x75, 0x6e, 0x74, 0x69, 0x6d, 0x65,
  0x5f, 0x76, 0x65, 0x72, 0x73, 0x69, 0x6f, 0x6e, 0x00, 0xa7, 0x00, 0x00, 0x00,
  0xac, 0x15, 0x00, 0x00, 0xa4, 0x15, 0x00, 0x00, 0x74, 0x15, 0x00, 0x00, 0x44,
  0x15, 0x00, 0x00, 0x14, 0x15, 0x00, 0x00, 0xc4, 0x14, 0x00, 0x00, 0x74, 0x14,
  0x00, 0x00, 0x24, 0x14, 0x00, 0x00, 0xd4, 0x13, 0x00, 0x00, 0x84, 0x13, 0x00,
  0x00, 0x34, 0x13, 0x00, 0x00, 0xf4, 0x12, 0x00, 0x00, 0xec, 0x12, 0x00, 0x00,
  0xe4, 0x12, 0x00, 0x00, 0xa4, 0x12, 0x00, 0x00, 0x64, 0x12, 0x00, 0x00, 0x14,
  0x12, 0x00, 0x00, 0xc4, 0x11, 0x00, 0x00, 0x74, 0x11, 0x00, 0x00, 0x24, 0x11,
  0x00, 0x00, 0xf4, 0x10, 0x00, 0x00, 0xc4, 0x10, 0x00, 0x00, 0xa4, 0x10, 0x00,
  0x00, 0x8c, 0x10, 0x00, 0x00, 0x58, 0x10, 0x00, 0x00, 0x38, 0x10, 0x00, 0x00,
  0x04, 0x10, 0x00, 0x00, 0xd4, 0x0f, 0x00, 0x00, 0x7c, 0x0f, 0x00, 0x00, 0x4c,
  0x0f, 0x00, 0x00, 0xf4, 0x0e, 0x00, 0x00, 0xa4, 0x0e, 0x00, 0x00, 0x4c, 0x0e,
  0x00, 0x00, 0xbc, 0x0d, 0x00, 0x00, 0x1c, 0x0d, 0x00, 0x00, 0xcc, 0x0c, 0x00,
  0x00, 0x74, 0x0c, 0x00, 0x00, 0x24, 0x0c, 0x00, 0x00, 0xcc, 0x0b, 0x00, 0x00,
  0x3c, 0x0b, 0x00, 0x00, 0x9c, 0x0a, 0x00, 0x00, 0x0c, 0x0a, 0x00, 0x00, 0x04,
  0x0a, 0x00, 0x00, 0xbc, 0x09, 0x00, 0x00, 0x88, 0x09, 0x00, 0x00, 0x40, 0x09,
  0x00, 0x00, 0xe8, 0x08, 0x00, 0x00, 0x6c, 0x08, 0x00, 0x00, 0xfc, 0x07, 0x00,
  0x00, 0xf4, 0x07, 0x00, 0x00, 0xac, 0x07, 0x00, 0x00, 0xa4, 0x07, 0x00, 0x00,
  0x5c, 0x07, 0x00, 0x00, 0x54, 0x07, 0x00, 0x00, 0x4c, 0x07, 0x00, 0x00, 0xf4,
  0x06, 0x00, 0x00, 0xa4, 0x06, 0x00, 0x00, 0x4c, 0x06, 0x00, 0x00, 0xfc, 0x05,
  0x00, 0x00, 0xa4, 0x05, 0x00, 0x00, 0x54, 0x05, 0x00, 0x00, 0xfc, 0x04, 0x00,
  0x00, 0xcc, 0x04, 0x00, 0x00, 0xc4, 0x04, 0x00, 0x00, 0x90, 0x04, 0x00, 0x00,
  0x70, 0x04, 0x00, 0x00, 0x3c, 0x04, 0x00, 0x00, 0x28, 0x04, 0x00, 0x00, 0xf8,
  0x03, 0x00, 0x00, 0xdc, 0x03, 0x00, 0x00, 0xc4, 0x03, 0x00, 0x00, 0xb0, 0x03,
  0x00, 0x00, 0x80, 0x03, 0x00, 0x00, 0x64, 0x03, 0x00, 0x00, 0x5c, 0x03, 0x00,
  0x00, 0x54, 0x03, 0x00, 0x00, 0x4c, 0x03, 0x00, 0x00, 0x44, 0x03, 0x00, 0x00,
  0x3c, 0x03, 0x00, 0x00, 0x34, 0x03, 0x00, 0x00, 0x2c, 0x03, 0x00, 0x00, 0x24,
  0x03, 0x00, 0x00, 0x1c, 0x03, 0x00, 0x00, 0x14, 0x03, 0x00, 0x00, 0x0c, 0x03,
  0x00, 0x00, 0x04, 0x03, 0x00, 0x00, 0xfc, 0x02, 0x00, 0x00, 0xf4, 0x02, 0x00,
  0x00, 0xec, 0x02, 0x00, 0x00, 0xe4, 0x02, 0x00, 0x00, 0xdc, 0x02, 0x00, 0x00,
  0xd4, 0x02, 0x00, 0x00, 0xcc, 0x02, 0x00, 0x00, 0xc4, 0x02, 0x00, 0x00, 0xbc,
  0x02, 0x00, 0x00, 0xb4, 0x02, 0x00, 0x00, 0xac, 0x02, 0x00, 0x00, 0xa4, 0x02,
  0x00, 0x00, 0x9c, 0x02, 0x00, 0x00, 0x94, 0x02, 0x00, 0x00, 0x8c, 0x02, 0x00,
  0x00, 0x84, 0x02, 0x00, 0x00, 0x7c, 0x02, 0x00, 0x00, 0x74, 0x02, 0x00, 0x00,
  0x6c, 0x02, 0x00, 0x00, 0x64, 0x02, 0x00, 0x00, 0x5c, 0x02, 0x00, 0x00, 0x54,
  0x02, 0x00, 0x00, 0x4c, 0x02, 0x00, 0x00, 0x44, 0x02, 0x00, 0x00, 0x3c, 0x02,
  0x00, 0x00, 0x34, 0x02, 0x00, 0x00, 0x2c, 0x02, 0x00, 0x00, 0x24, 0x02, 0x00,
  0x00, 0x1c, 0x02, 0x00, 0x00, 0x14, 0x02, 0x00, 0x00, 0x0c, 0x02, 0x00, 0x00,
  0x04, 0x02, 0x00, 0x00, 0xfc, 0x01, 0x00, 0x00, 0xf4, 0x01, 0x00, 0x00, 0xec,
  0x01, 0x00, 0x00, 0xe4, 0x01, 0x00, 0x00, 0xdc, 0x01, 0x00, 0x00, 0xd4, 0x01,
  0x00, 0x00, 0xcc, 0x01, 0x00, 0x00, 0xc4, 0x01, 0x00, 0x00, 0xbc, 0x01, 0x00,
  0x00, 0xb4, 0x01, 0x00, 0x00, 0xac, 0x01, 0x00, 0x00, 0xa4, 0x01, 0x00, 0x00,
  0x9c, 0x01, 0x00, 0x00, 0x94, 0x01, 0x00, 0x00, 0x8c, 0x01, 0x00, 0x00, 0x84,
  0x01, 0x00, 0x00, 0x7c, 0x01, 0x00, 0x00, 0x74, 0x01, 0x00, 0x00, 0x6c, 0x01,
  0x00, 0x00, 0x64, 0x01, 0x00, 0x00, 0x5c, 0x01, 0x00, 0x00, 0x54, 0x01, 0x00,
  0x00, 0x4c, 0x01, 0x00, 0x00, 0x44, 0x01, 0x00, 0x00, 0x3c, 0x01, 0x00, 0x00,
  0x34, 0x01, 0x00, 0x00, 0x2c, 0x01, 0x00, 0x00, 0x24, 0x01, 0x00, 0x00, 0x1c,
  0x01, 0x00, 0x00, 0x14, 0x01, 0x00, 0x00, 0x0c, 0x01, 0x00, 0x00, 0x04, 0x01,
  0x00, 0x00, 0xfc, 0x00, 0x00, 0x00, 0xf4, 0x00, 0x00, 0x00, 0xec, 0x00, 0x00,
  0x00, 0xe4, 0x00, 0x00, 0x00, 0xdc, 0x00, 0x00, 0x00, 0xd4, 0x00, 0x00, 0x00,
  0xcc, 0x00, 0x00, 0x00, 0xc4, 0x00, 0x00, 0x00, 0xbc, 0x00, 0x00, 0x00, 0xb4,
  0x00, 0x00, 0x00, 0xac, 0x00, 0x00, 0x00, 0xa4, 0x00, 0x00, 0x00, 0x9c, 0x00,
  0x00, 0x00, 0x94, 0x00, 0x00, 0x00, 0x8c, 0x00, 0x00, 0x00, 0x6c, 0x00, 0x00,
  0x00, 0x04, 0x00, 0x00, 0x00, 0x52, 0xd7, 0xff, 0xff, 0x04, 0x00, 0x00, 0x00,
  0x58, 0x00, 0x00, 0x00, 0x0c, 0x00, 0x00, 0x00, 0x08, 0x00, 0x0e, 0x00, 0x08,
  0x00, 0x04, 0x00, 0x08, 0x00, 0x00, 0x00, 0x10, 0x00, 0x00, 0x00, 0x28, 0x00,
  0x00, 0x00, 0x00, 0x00, 0x06, 0x00, 0x08, 0x00, 0x04, 0x00, 0x06, 0x00, 0x00,
  0x00, 0x04, 0x00, 0x00, 0x00, 0x01, 0x00, 0x00, 0x00, 0xec, 0x03, 0x00, 0x00,
  0x00, 0x00, 0x0a, 0x00, 0x10, 0x00, 0x0c, 0x00, 0x08, 0x00, 0x04, 0x00, 0x0a,
  0x00, 0x00, 0x00, 0x01, 0x00, 0x00, 0x00, 0x02, 0x00, 0x00, 0x00, 0x04, 0x00,
  0x00, 0x00, 0x06, 0x00, 0x00, 0x00, 0x32, 0x2e, 0x31, 0x36, 0x2e, 0x30, 0x00,
  0x00, 0xb6, 0xd7, 0xff, 0xff, 0x04, 0x00, 0x00, 0x00, 0x10, 0x00, 0x00, 0x00,
  0x32, 0x2e, 0x32, 0x2e, 0x30, 0x00, 0x00, 0x00, 0x00, 0x00, 0x00, 0x00, 0x00,
  0x00, 0x00, 0x00, 0xa4, 0x93, 0xff, 0xff, 0xa8, 0x93, 0xff, 0xff, 0xac, 0x93,
  0xff, 0xff, 0xb0, 0x93, 0xff, 0xff, 0xb4, 0x93, 0xff, 0xff, 0xb8, 0x93, 0xff,
  0xff, 0xbc, 0x93, 0xff, 0xff, 0xc0, 0x93, 0xff, 0xff, 0xc4, 0x93, 0xff, 0xff,
  0xc8, 0x93, 0xff, 0xff, 0xcc, 0x93, 0xff, 0xff, 0xd0, 0x93, 0xff, 0xff, 0xd4,
  0x93, 0xff, 0xff, 0xd8, 0x93, 0xff, 0xff, 0xdc, 0x93, 0xff, 0xff, 0xe0, 0x93,
  0xff, 0xff, 0xe4, 0x93, 0xff, 0xff, 0xe8, 0x93, 0xff, 0xff, 0xec, 0x93, 0xff,
  0xff, 0xf0, 0x93, 0xff, 0xff, 0xf4, 0x93, 0xff, 0xff, 0xf8, 0x93, 0xff, 0xff,
  0xfc, 0x93, 0xff, 0xff, 0x00, 0x94, 0xff, 0xff, 0x04, 0x94, 0xff, 0xff, 0x08,
  0x94, 0xff, 0xff, 0x0c, 0x94, 0xff, 0xff, 0x10, 0x94, 0xff, 0xff, 0x14, 0x94,
  0xff, 0xff, 0x18, 0x94, 0xff, 0xff, 0x1c, 0x94, 0xff, 0xff, 0x20, 0x94, 0xff,
  0xff, 0x24, 0x94, 0xff, 0xff, 0x28, 0x94, 0xff, 0xff, 0x2c, 0x94, 0xff, 0xff,
  0x30, 0x94, 0xff, 0xff, 0x34, 0x94, 0xff, 0xff, 0x38, 0x94, 0xff, 0xff, 0x3c,
  0x94, 0xff, 0xff, 0x40, 0x94, 0xff, 0xff, 0x44, 0x94, 0xff, 0xff, 0x48, 0x94,
  0xff, 0xff, 0x4c, 0x94, 0xff, 0xff, 0x50, 0x94, 0xff, 0xff, 0x54, 0x94, 0xff,
  0xff, 0x58, 0x94, 0xff, 0xff, 0x5c, 0x94, 0xff, 0xff, 0x60, 0x94, 0xff, 0xff,
  0x64, 0x94, 0xff, 0xff, 0x68, 0x94, 0xff, 0xff, 0x6c, 0x94, 0xff, 0xff, 0x70,
  0x94, 0xff, 0xff, 0x74, 0x94, 0xff, 0xff, 0x78, 0x94, 0xff, 0xff, 0x7c, 0x94,
  0xff, 0xff, 0x80, 0x94, 0xff, 0xff, 0x84, 0x94, 0xff, 0xff, 0x88, 0x94, 0xff,
  0xff, 0x8c, 0x94, 0xff, 0xff, 0x90, 0x94, 0xff, 0xff, 0x94, 0x94, 0xff, 0xff,
  0x98, 0x94, 0xff, 0xff, 0x9c, 0x94, 0xff, 0xff, 0xa0, 0x94, 0xff, 0xff, 0xa4,
  0x94, 0xff, 0xff, 0xa8, 0x94, 0xff, 0xff, 0xac, 0x94, 0xff, 0xff, 0xb0, 0x94,
  0xff, 0xff, 0xb4, 0x94, 0xff, 0xff, 0xb8, 0x94, 0xff, 0xff, 0xbc, 0x94, 0xff,
  0xff, 0xc0, 0x94, 0xff, 0xff, 0xc4, 0x94, 0xff, 0xff, 0xc8, 0x94, 0xff, 0xff,
  0xcc, 0x94, 0xff, 0xff, 0xd0, 0x94, 0xff, 0xff, 0xd4, 0x94, 0xff, 0xff, 0xd8,
  0x94, 0xff, 0xff, 0xdc, 0x94, 0xff, 0xff, 0xe0, 0x94, 0xff, 0xff, 0xe4, 0x94,
  0xff, 0xff, 0xe8, 0x94, 0xff, 0xff, 0xec, 0x94, 0xff, 0xff, 0xf0, 0x94, 0xff,
  0xff, 0xf4, 0x94, 0xff, 0xff, 0xf8, 0x94, 0xff, 0xff, 0xfc, 0x94, 0xff, 0xff,
  0x00, 0x95, 0xff, 0xff, 0x04, 0x95, 0xff, 0xff, 0x08, 0x95, 0xff, 0xff, 0x0c,
  0x95, 0xff, 0xff, 0x3e, 0xd9, 0xff, 0xff, 0x04, 0x00, 0x00, 0x00, 0x0c, 0x00,
  0x00, 0x00, 0x01, 0x00, 0x00, 0x00, 0x02, 0x00, 0x00, 0x00, 0x01, 0x00, 0x00,
  0x00, 0x56, 0xd9, 0xff, 0xff, 0x04, 0x00, 0x00, 0x00, 0x20, 0x00, 0x00, 0x00,
  0x00, 0x00, 0x00, 0x00, 0x00, 0x00, 0x00, 0x00, 0x01, 0x00, 0x00, 0x00, 0x01,
  0x00, 0x00, 0x00, 0x01, 0x00, 0x00, 0x00, 0x01, 0x00, 0x00, 0x00, 0x00, 0x00,
  0x00, 0x00, 0x00, 0x00, 0x00, 0x00, 0x82, 0xd9, 0xff, 0xff, 0x04, 0x00, 0x00,
  0x00, 0x04, 0x00, 0x00, 0x00, 0x00, 0x00, 0x00, 0x00, 0x92, 0xd9, 0xff, 0xff,
  0x04, 0x00, 0x00, 0x00, 0x08, 0x00, 0x00, 0x00, 0x00, 0x00, 0x00, 0x00, 0x00,
  0x00, 0x00, 0x00, 0xa6, 0xd9, 0xff, 0xff, 0x04, 0x00, 0x00, 0x00, 0x09, 0x00,
  0x00, 0x00, 0xfc, 0x07, 0x28, 0xf6, 0x40, 0x81, 0x00, 0xfc, 0x22, 0x00, 0x00,
  0x00, 0xbe, 0xd9, 0xff, 0xff, 0x04, 0x00, 0x00, 0x00, 0x20, 0x00, 0x00, 0x00,
  0x00, 0x00, 0x00, 0x00, 0x00, 0x00, 0x00, 0x00, 0x00, 0x00, 0x00, 0x00, 0x00,
  0x00, 0x00, 0x00, 0x00, 0x00, 0x00, 0x00, 0x00, 0x00, 0x00, 0x00, 0x00, 0x00,
  0x00, 0x00, 0x00, 0x00, 0x00, 0x00, 0xea, 0xd9, 0xff, 0xff, 0x04, 0x00, 0x00,
  0x00, 0x04, 0x00, 0x00, 0x00, 0x81, 0x7f, 0x7f, 0x7f, 0xfa, 0xd9, 0xff, 0xff,
  0x04, 0x00, 0x00, 0x00, 0x24, 0x00, 0x00, 0x00, 0xf7, 0xc3, 0xea, 0x11, 0x0e,
  0x7f, 0xd9, 0x13, 0x53, 0xb8, 0xc5, 0x10, 0xee, 0xe6, 0xdd, 0x1b, 0xdc, 0x2a,
  0xa9, 0x43, 0x81, 0xf3, 0x81, 0x7f, 0xff, 0xff, 0xee, 0x0a, 0xfc, 0xff, 0xd0,
  0x20, 0x54, 0xfc, 0xab, 0x1e, 0x2a, 0xda, 0xff, 0xff, 0x04, 0x00, 0x00, 0x00,
  0x10, 0x00, 0x00, 0x00, 0xc1, 0xf6, 0x8d, 0x81, 0x3e, 0x05, 0x74, 0x7f, 0x00,
  0x81, 0xf5, 0xf2, 0x02, 0x7f, 0x01, 0x01, 0x46, 0xda, 0xff, 0xff, 0x04, 0x00,
  0x00, 0x00, 0x24, 0x00, 0x00, 0x00, 0xfa, 0xfc, 0xdc, 0x02, 0xf8, 0xfa, 0xdc,
  0xef, 0x0b, 0x0e, 0xf8, 0x03, 0x06, 0x09, 0xf9, 0xfa, 0xe2, 0xdb, 0x81, 0x14,
  0x81, 0x81, 0x19, 0x81, 0x04, 0x03, 0xf9, 0x07, 0xfb, 0xf4, 0xc8, 0x05, 0xf0,
  0xec, 0xf4, 0xd9, 0x48, 0x96, 0xff, 0xff, 0x7a, 0xda, 0xff, 0xff, 0x04, 0x00,
  0x00, 0x00, 0x20, 0x00, 0x00, 0x00, 0x7f, 0x51, 0x85, 0x33, 0x77, 0xe8, 0xaf,
  0x81, 0x7f, 0x69, 0xe0, 0x5b, 0xcd, 0xf9, 0xb1, 0x81, 0x81, 0x72, 0x08, 0x09,
  0x00, 0x00, 0x00, 0x00, 0x58, 0x81, 0xcc, 0xfe, 0x20, 0xe8, 0x81, 0xfb, 0xa6,
  0xda, 0xff, 0xff, 0x04, 0x00, 0x00, 0x00, 0x48, 0x00, 0x00, 0x00, 0x7a, 0xf4,
  0xed, 0xfe, 0x57, 0x7f, 0x81, 0x23, 0x29, 0xf9, 0x06, 0x01, 0xd8, 0x7f, 0xec,
  0x07, 0x16, 0x01, 0xb1, 0x03, 0xee, 0x7f, 0x15, 0xff, 0x7f, 0x81, 0xf4, 0x81,
  0x7f, 0x81, 0x01, 0x96, 0x4b, 0x0a, 0x81, 0x04, 0xd2, 0x7f, 0xe5, 0x96, 0xf7,
  0xfa, 0x26, 0xf9, 0xe4, 0x7f, 0xf3, 0x7f, 0x2e, 0x13, 0xf4, 0x1b, 0xa9, 0x7f,
  0xcb, 0x2c, 0x2b, 0xfb, 0x1b, 0x08, 0x04, 0x81, 0xfe, 0x2f, 0x0d, 0x06, 0xd6,
  0x04, 0xfe, 0x7f, 0x08, 0xf8, 0xfa, 0xda, 0xff, 0xff, 0x04, 0x00, 0x00, 0x00,
  0x40, 0x00, 0x00, 0x00, 0xf7, 0xea, 0xff, 0x13, 0x81, 0x00, 0x06, 0xf3, 0xe8,
  0x0d, 0x0a, 0x7f, 0xef, 0x00, 0x8c, 0xcb, 0x60, 0x6d, 0xba, 0x7f, 0x2d, 0x00,
  0xd9, 0x84, 0xe5, 0xba, 0x0b, 0xe7, 0xe5, 0x00, 0x22, 0x7f, 0xe9, 0x09, 0xe6,
  0xf1, 0x7f, 0x00, 0x03, 0xec, 0xd8, 0x7f, 0xe1, 0x9c, 0x04, 0x00, 0xae, 0x06,
  0x9d, 0xd1, 0x7f, 0xd2, 0xef, 0x00, 0x03, 0xfe, 0x66, 0x66, 0x27, 0x3d, 0x32,
  0x00, 0x10, 0x81, 0x46, 0xdb, 0xff, 0xff, 0x04, 0x00, 0x00, 0x00, 0x48, 0x00,
  0x00, 0x00, 0xf5, 0xe7, 0x5d, 0xf8, 0xf5, 0x02, 0xe4, 0xce, 0xfa, 0x32, 0x7f,
  0xf6, 0x03, 0x05, 0x01, 0xba, 0x01, 0x03, 0x1a, 0x05, 0xfc, 0x08, 0x0c, 0xf3,
  0x7f, 0x81, 0x21, 0x7f, 0x81, 0x75, 0x2c, 0x7e, 0x25, 0xd2, 0x7d, 0x2e, 0x09,
  0x7f, 0x7f, 0x81, 0x0d, 0x19, 0x25, 0xf0, 0x05, 0xfd, 0xce, 0x23, 0x10, 0x66,
  0x5f, 0xf3, 0x04, 0x28, 0xdc, 0x50, 0x12, 0x16, 0x51, 0xff, 0xf4, 0x05, 0x20,
  0xd7, 0x0d, 0x12, 0x15, 0x03, 0xfb, 0x12, 0xf2, 0x2f, 0x9a, 0xdb, 0xff, 0xff,
  0x04, 0x00, 0x00, 0x00, 0x40, 0x00, 0x00, 0x00, 0x02, 0x11, 0x0f, 0x11, 0xe4,
  0x7f, 0x10, 0xe6, 0x2d, 0x81, 0x1c, 0x08, 0x11, 0x1f, 0x0f, 0x0f, 0xec, 0x14,
  0xe1, 0x12, 0xd4, 0x3e, 0x7f, 0x85, 0x00, 0x00, 0x00, 0x00, 0x00, 0x00, 0x00,
  0x00, 0x45, 0x81, 0xe3, 0xfe, 0x1e, 0x20, 0x0e, 0xfc, 0xf4, 0x2f, 0x2f, 0x14,
  0x81, 0x8e, 0x1a, 0x4e, 0x05, 0xe0, 0x81, 0xef, 0x05, 0x06, 0x23, 0xeb, 0x03,
  0x27, 0xdf, 0x81, 0xfb, 0x12, 0xd5, 0x04, 0xe6, 0xdb, 0xff, 0xff, 0x04, 0x00,
  0x00, 0x00, 0x48, 0x00, 0x00, 0x00, 0xfd, 0xf0, 0xf0, 0x81, 0x0e, 0x22, 0x81,
  0xd1, 0xfe, 0xd8, 0xf1, 0x81, 0x4a, 0x25, 0x54, 0xbe, 0xf5, 0xf8, 0x1f, 0x7f,
  0xff, 0x09, 0x84, 0x01, 0x17, 0xd7, 0x7f, 0x7f, 0x4a, 0x1b, 0x3a, 0x81, 0x7f,
  0x81, 0xe4, 0x81, 0x7f, 0x7f, 0xd0, 0xfb, 0xf3, 0xcd, 0x87, 0x7f, 0x4e, 0x48,
  0x31, 0x06, 0x05, 0xff, 0x07, 0x7f, 0x08, 0x1a, 0xb8, 0xb3, 0x0d, 0xe0, 0x2d,
  0x7f, 0x39, 0x2a, 0x02, 0xa0, 0xf1, 0xe1, 0x2c, 0x81, 0x25, 0x0f, 0x98, 0xf5,
  0x3a, 0xdc, 0xff, 0xff, 0x04, 0x00, 0x00, 0x00, 0x40, 0x00, 0x00, 0x00, 0x74,
  0x2a, 0x42, 0x00, 0x3f, 0x26, 0x7f, 0xd7, 0x00, 0x08, 0x08, 0x00, 0x81, 0x00,
  0xae, 0xf9, 0xeb, 0xd5, 0xc4, 0x00, 0xaa, 0xa4, 0xf0, 0x81, 0x3f, 0x99, 0xcc,
  0x00, 0x81, 0xa9, 0xf7, 0x4c, 0x37, 0x05, 0x81, 0x00, 0x02, 0x06, 0x4d, 0xe2,
  0x65, 0xb2, 0xad, 0x00, 0x90, 0x81, 0xce, 0xd4, 0xec, 0x5d, 0x37, 0x00, 0x7f,
  0x2a, 0xb4, 0xc6, 0xf8, 0xfb, 0x08, 0x00, 0xe7, 0x0d, 0xe6, 0x7f, 0x86, 0xdc,
  0xff, 0xff, 0x04, 0x00, 0x00, 0x00, 0x48, 0x00, 0x00, 0x00, 0x81, 0x81, 0x7f,
  0x81, 0x81, 0x7f, 0x81, 0x81, 0x81, 0x81, 0x7f, 0x7f, 0x7f, 0x7f, 0x81, 0x7f,
  0x81, 0x7f, 0x81, 0x7f, 0x81, 0x81, 0x7f, 0x81, 0x81, 0x7f, 0x7f, 0x7f, 0x81,
  0x7f, 0x7f, 0x7f, 0x7f, 0x7f, 0x7f, 0x81, 0x81, 0x7f, 0x7f, 0x81, 0x7f, 0x81,
  0x81, 0x7f, 0x7f, 0x7f, 0x7f, 0x81, 0x81, 0x7f, 0x81, 0x7f, 0x7f, 0x81, 0x81,
  0x81, 0x7f, 0x7f, 0x81, 0x7f, 0x7f, 0x81, 0x7f, 0x7f, 0x81, 0x7f, 0x7f, 0x81,
  0x81, 0x7f, 0x7f, 0x81, 0xac, 0x98, 0xff, 0xff, 0xb0, 0x98, 0xff, 0xff, 0xe2,
  0xdc, 0xff, 0xff, 0x04, 0x00, 0x00, 0x00, 0x36, 0x00, 0x00, 0x00, 0x81, 0x7f,
  0x81, 0x7f, 0x7f, 0x81, 0x7f, 0x7f, 0x81, 0x81, 0x81, 0x81, 0x7f, 0x81, 0x81,
  0x81, 0x7f, 0x81, 0x7f, 0x81, 0x7f, 0x7f, 0x81, 0x7f, 0x81, 0x7f, 0x81, 0x81,
  0x7f, 0x7f, 0x81, 0x81, 0x7f, 0x81, 0x81, 0x7f, 0x81, 0x81, 0x81, 0x81, 0x7f,
  0x81, 0x7f, 0x81, 0x7f, 0x81, 0x7f, 0x7f, 0x7f, 0x81, 0x81, 0x7f, 0x81, 0x81,
  0x00, 0x00, 0xf8, 0x98, 0xff, 0xff, 0x2a, 0xdd, 0xff, 0xff, 0x04, 0x00, 0x00,
  0x00, 0x36, 0x00, 0x00, 0x00, 0x7f, 0x81, 0x81, 0x7f, 0x7f, 0x81, 0x81, 0x7f,
  0x7f, 0x81, 0x7f, 0x7f, 0x7f, 0x7f, 0x7f, 0x7f, 0x7f, 0x81, 0x7f, 0x81, 0x81,
  0x81, 0x81, 0x7f, 0x7f, 0x81, 0x81, 0x81, 0x7f, 0x7f, 0x81, 0x81, 0x81, 0x81,
  0x81, 0x7f, 0x81, 0x81, 0x7f, 0x7f, 0x7f, 0x7f, 0x7f, 0x7f, 0x7f, 0x81, 0x7f,
  0x7f, 0x81, 0x7f, 0x81, 0x7f, 0x81, 0x81, 0x00, 0x00, 0x40, 0x99, 0xff, 0xff,
  0x72, 0xdd, 0xff, 0xff, 0x04, 0x00, 0x00, 0x00, 0x60, 0x00, 0x00, 0x00, 0x00,
  0x00, 0x00, 0x00, 0x00, 0x00, 0x00, 0x00, 0x00, 0x00, 0x00, 0x00, 0x00, 0x00,
  0x00, 0x00, 0x00, 0x00, 0x00, 0x00, 0x00, 0x00, 0x00, 0x00, 0x00, 0x00, 0x00,
  0x00, 0x00, 0x00, 0x00, 0x00, 0x00, 0x00, 0x00, 0x00, 0x00, 0x00, 0x00, 0x00,
  0x00, 0x00, 0x00, 0x00, 0x00, 0x00, 0x00, 0x00, 0x00, 0x00, 0x00, 0x00, 0x00,
  0x00, 0x00, 0x00, 0x00, 0x00, 0x00, 0x00, 0x00, 0x00, 0x00, 0x00, 0x00, 0x00,
  0x00, 0x00, 0x00, 0x00, 0x00, 0x00, 0x00, 0x00, 0x00, 0x00, 0x00, 0x00, 0x00,
  0x00, 0x00, 0x00, 0x00, 0x00, 0x00, 0x00, 0x00, 0x00, 0x00, 0x00, 0x00, 0x00,
  0x00, 0x00, 0x00, 0x00, 0xde, 0xdd, 0xff, 0xff, 0x04, 0x00, 0x00, 0x00, 0x6c,
  0x00, 0x00, 0x00, 0x7f, 0x7f, 0x81, 0x81, 0x81, 0x7f, 0x81, 0x7f, 0x81, 0x81,
  0x7f, 0x81, 0x81, 0x7f, 0x7f, 0x7f, 0x7f, 0x7f, 0x7f, 0x7f, 0x81, 0x81, 0x7f,
  0x7f, 0x7f, 0x81, 0x7f, 0x81, 0x81, 0x81, 0x7f, 0x7f, 0x81, 0x81, 0x7f, 0x7f,
  0x7f, 0x81, 0x7f, 0x7f, 0x81, 0x7f, 0x81, 0x81, 0x81, 0x81, 0x7f, 0x81, 0x81,
  0x81, 0x7f, 0x81, 0x81, 0x81, 0x81, 0x7f, 0x7f, 0x81, 0x81, 0x7f, 0x7f, 0x81,
  0x81, 0x81, 0x81, 0x7f, 0x81, 0x7f, 0x7f, 0x81, 0x7f, 0x7f, 0x7f, 0x7f, 0x7f,
  0x7f, 0x7f, 0x7f, 0x81, 0x81, 0x7f, 0x81, 0x81, 0x7f, 0x7f, 0x81, 0x7f, 0x7f,
  0x81, 0x7f, 0x81, 0x81, 0x81, 0x81, 0x81, 0x7f, 0x81, 0x7f, 0x7f, 0x7f, 0x81,
  0x7f, 0x7f, 0x7f, 0x7f, 0x7f, 0x7f, 0x81, 0x56, 0xde, 0xff, 0xff, 0x04, 0x00,
  0x00, 0x00, 0x48, 0x00, 0x00, 0x00, 0x00, 0x00, 0x00, 0x00, 0x00, 0x00, 0x00,
  0x00, 0x00, 0x00, 0x00, 0x00, 0x00, 0x00, 0x00, 0x00, 0x00, 0x00, 0x00, 0x00,
  0x00, 0x00, 0x00, 0x00, 0x00, 0x00, 0x00, 0x00, 0x00, 0x00, 0x00, 0x00, 0x00,
  0x00, 0x00, 0x00, 0x00, 0x00, 0x00, 0x00, 0x00, 0x00, 0x00, 0x00, 0x00, 0x00,
  0x00, 0x00, 0x00, 0x00, 0x00, 0x00, 0x00, 0x00, 0x00, 0x00, 0x00, 0x00, 0x00,
  0x00, 0x00, 0x00, 0x00, 0x00, 0x00, 0x00, 0x00, 0x00, 0x00, 0x00, 0x00, 0x00,
  0xaa, 0xde, 0xff, 0xff, 0x04, 0x00, 0x00, 0x00, 0x36, 0x00, 0x00, 0x00, 0x81,
  0x7f, 0x7f, 0x7f, 0x81, 0x81, 0x7f, 0x7f, 0x7f, 0x7f, 0x81, 0x7f, 0x81, 0x7f,
  0x81, 0x81, 0x81, 0x7f, 0x81, 0x81, 0x7f, 0x81, 0x7f, 0x7f, 0x7f, 0x7f, 0x7f,
  0x81, 0x7f, 0x81, 0x7f, 0x81, 0x7f, 0x81, 0x7f, 0x81, 0x81, 0x7f, 0x7f, 0x81,
  0x81, 0x7f, 0x81, 0x81, 0x81, 0x81, 0x7f, 0x7f, 0x81, 0x7f, 0x81, 0x81, 0x81,
  0x81, 0x00, 0x00, 0xee, 0xde, 0xff, 0xff, 0x04, 0x00, 0x00, 0x00, 0x24, 0x00,
  0x00, 0x00, 0x00, 0x00, 0x00, 0x00, 0x00, 0x00, 0x00, 0x00, 0x00, 0x00, 0x00,
  0x00, 0x00, 0x00, 0x00, 0x00, 0x00, 0x00, 0x00, 0x00, 0x00, 0x00, 0x00, 0x00,
  0x00, 0x00, 0x00, 0x00, 0x00, 0x00, 0x00, 0x00, 0x00, 0x00, 0x00, 0x00, 0x1e,
  0xdf, 0xff, 0xff, 0x04, 0x00, 0x00, 0x00, 0x36, 0x00, 0x00, 0x00, 0x7f, 0x7f,
  0x24, 0x7f, 0x7f, 0x81, 0x81, 0x81, 0x6f, 0x81, 0x7f, 0x7f, 0x7f, 0x7f, 0x89,
  0x81, 0x81, 0x81, 0x81, 0x7f, 0x2a, 0x7f, 0x7f, 0x7f, 0x81, 0x7f, 0xa1, 0x81,
  0x81, 0x7f, 0x7f, 0x81, 0x93, 0x7f, 0x81, 0x81, 0x7f, 0x81, 0x7f, 0x7f, 0x81,
  0x81, 0x7f, 0x7f, 0xe5, 0x81, 0x7f, 0x81, 0x7f, 0x7f, 0x1b, 0x7f, 0x7f, 0x81,
  0x00, 0x00, 0x34, 0x9b, 0xff, 0xff, 0x66, 0xdf, 0xff, 0xff, 0x04, 0x00, 0x00,
  0x00, 0x80, 0x00, 0x00, 0x00, 0x00, 0x00, 0x00, 0x00, 0x00, 0x00, 0x00, 0x00,
  0x00, 0x00, 0x00, 0x00, 0x00, 0x00, 0x00, 0x00, 0x00, 0x00, 0x00, 0x00, 0x00,
  0x00, 0x00, 0x00, 0x00, 0x00, 0x00, 0x00, 0x00, 0x00, 0x00, 0x00, 0x00, 0x00,
  0x00, 0x00, 0x00, 0x00, 0x00, 0x00, 0x00, 0x00, 0x00, 0x00, 0x00, 0x00, 0x00,
  0x00, 0x00, 0x00, 0x00, 0x00, 0x00, 0x00, 0x00, 0x00, 0x00, 0x00, 0x00, 0x00,
  0x00, 0x00, 0x00, 0x00, 0x00, 0x00, 0x00, 0x00, 0x00, 0x00, 0x00, 0x00, 0x00,
  0x00, 0x00, 0x00, 0x00, 0x00, 0x00, 0x00, 0x00, 0x00, 0x00, 0x00, 0x00, 0x00,
  0x00, 0x00, 0x00, 0x00, 0x00, 0x00, 0x00, 0x00, 0x00, 0x00, 0x00, 0x00, 0x00,
  0x00, 0x00, 0x00, 0x00, 0x00, 0x00, 0x00, 0x00, 0x00, 0x00, 0x00, 0x00, 0x00,
  0x00, 0x00, 0x00, 0x00, 0x00, 0x00, 0x00, 0x00, 0x00, 0x00, 0x00, 0x00, 0x00,
  0x00, 0x00, 0x00, 0xf2, 0xdf, 0xff, 0xff, 0x04, 0x00, 0x00, 0x00, 0x90, 0x00,
  0x00, 0x00, 0x62, 0x81, 0xca, 0x7f, 0x7f, 0x7f, 0x7f, 0xba, 0xfe, 0xf5, 0x0d,
  0x07, 0xdf, 0xfb, 0xe6, 0x26, 0x81, 0x7f, 0x52, 0x81, 0x7f, 0x7f, 0x4e, 0x81,
  0xe3, 0xb6, 0x7f, 0x62, 0xa4, 0x3b, 0xd9, 0xfc, 0xc5, 0x7f, 0x81, 0x81, 0x7f,
  0x81, 0x54, 0x7c, 0x7f, 0x81, 0x0c, 0x7f, 0x09, 0x2b, 0x81, 0x57, 0x39, 0x81,
  0x4f, 0x7f, 0x81, 0x81, 0x71, 0x07, 0x00, 0xe4, 0xe3, 0x03, 0xf0, 0x0b, 0xe4,
  0x1a, 0xcc, 0x81, 0xe6, 0x7f, 0x7f, 0x7f, 0x29, 0xa7, 0xe9, 0xef, 0x75, 0x26,
  0x81, 0x3a, 0x01, 0xca, 0x65, 0x81, 0x37, 0x7f, 0x7f, 0x7f, 0x60, 0xf1, 0x29,
  0x9a, 0xa7, 0x27, 0xb0, 0x7f, 0xe2, 0x7f, 0xd8, 0x7f, 0x4a, 0x81, 0x7f, 0x81,
  0x1c, 0xd3, 0xff, 0xfb, 0x1a, 0xf9, 0xf2, 0xf9, 0xf9, 0xfd, 0x60, 0x7f, 0xf3,
  0x81, 0x7f, 0x81, 0x14, 0xa4, 0xfc, 0xed, 0xfb, 0x0d, 0xf0, 0x00, 0x13, 0x08,
  0xd9, 0x81, 0x1f, 0x7f, 0x81, 0x81, 0xa8, 0x09, 0xf9, 0xe1, 0xf0, 0x07, 0xfe,
  0x22, 0xe4, 0x26, 0x8e, 0xe0, 0xff, 0xff, 0x04, 0x00, 0x00, 0x00, 0x80, 0x00,
  0x00, 0x00, 0x00, 0x00, 0x00, 0x00, 0x00, 0x00, 0x00, 0x00, 0xef, 0x08, 0x7f,
  0x02, 0xdf, 0xfb, 0xdd, 0x12, 0x00, 0x00, 0x00, 0x00, 0x00, 0x00, 0x00, 0x00,
  0x02, 0x05, 0x40, 0x7f, 0xe4, 0xd4, 0x93, 0x78, 0x00, 0x00, 0x00, 0x00, 0x00,
  0x00, 0x00, 0x00, 0x7f, 0x3e, 0x38, 0x3e, 0x87, 0xe8, 0xe6, 0x67, 0x00, 0x00,
  0x00, 0x00, 0x00, 0x00, 0x00, 0x00, 0x4e, 0xc7, 0xcc, 0xab, 0x1a, 0x02, 0x81,
  0x1f, 0x00, 0x00, 0x00, 0x00, 0x00, 0x00, 0x00, 0x00, 0xdb, 0xc7, 0x1a, 0xee,
  0x30, 0x77, 0xfd, 0x7f, 0x00, 0x00, 0x00, 0x00, 0x00, 0x00, 0x00, 0x00, 0xed,
  0x96, 0xe7, 0x2f, 0x3f, 0xfb, 0x96, 0x81, 0x00, 0x00, 0x00, 0x00, 0x00, 0x00,
  0x00, 0x00, 0x0b, 0x3c, 0xdf, 0xa2, 0xd6, 0x7f, 0xdf, 0x22, 0x00, 0x00, 0x00,
  0x00, 0x00, 0x00, 0x00, 0x00, 0x19, 0x29, 0x28, 0xa3, 0xe3, 0x7f, 0xf1, 0x37,
  0x1a, 0xe1, 0xff, 0xff, 0x04, 0x00, 0x00, 0x00, 0x48, 0x00, 0x00, 0x00, 0x01,
  0x0e, 0xeb, 0xfc, 0xaa, 0xcb, 0x57, 0xb7, 0xde, 0xec, 0x1e, 0xed, 0x84, 0x2f,
  0xeb, 0x3c, 0x18, 0x0d, 0xf2, 0xed, 0x81, 0xb4, 0x7f, 0x83, 0x0a, 0xf7, 0x50,
  0xf8, 0xf1, 0x1d, 0x11, 0x96, 0xc4, 0xb2, 0x45, 0x7f, 0x48, 0x81, 0x0e, 0x18,
  0x7f, 0xfd, 0x7f, 0x0d, 0xc5, 0x32, 0x1d, 0x81, 0xf6, 0x10, 0xfb, 0xea, 0xc9,
  0xc6, 0x4e, 0xba, 0xe8, 0x7f, 0x22, 0xfd, 0xce, 0x2a, 0xd4, 0x28, 0xf2, 0x5e,
  0xf3, 0xe7, 0xe6, 0xb7, 0x30, 0xf5, 0x6e, 0xe1, 0xff, 0xff, 0x04, 0x00, 0x00,
  0x00, 0x40, 0x00, 0x00, 0x00, 0xe9, 0x4f, 0x97, 0xc5, 0x7f, 0x28, 0xd7, 0xbe,
  0x81, 0x87, 0xae, 0xb8, 0x32, 0xe2, 0x29, 0xf3, 0xcf, 0x7f, 0x11, 0xfe, 0xe4,
  0x15, 0x1e, 0x54, 0xe6, 0x31, 0x9c, 0x81, 0x50, 0xf7, 0xef, 0xec, 0x08, 0xf8,
  0x9a, 0x81, 0xf7, 0x03, 0xed, 0xfe, 0xdc, 0xe1, 0xec, 0x12, 0x00, 0x7f, 0x30,
  0x26, 0x02, 0xe5, 0xde, 0xfa, 0x81, 0x40, 0x81, 0xb2, 0x2b, 0xff, 0x81, 0xe8,
  0xf3, 0x1f, 0xf8, 0x0c, 0xba, 0xe1, 0xff, 0xff, 0x04, 0x00, 0x00, 0x00, 0x48,
  0x00, 0x00, 0x00, 0xd0, 0x7f, 0x7f, 0x01, 0xe1, 0x4a, 0x1b, 0xaa, 0x17, 0xdd,
  0xe5, 0x19, 0x13, 0x18, 0x18, 0x29, 0x1c, 0xea, 0x19, 0xe8, 0x11, 0x20, 0x28,
  0xd0, 0xcd, 0x69, 0x44, 0x6c, 0x3a, 0xe9, 0xf6, 0x07, 0x4f, 0xc5, 0xf2, 0x82,
  0x7f, 0xe8, 0x9b, 0x74, 0x84, 0x0d, 0x07, 0x62, 0x05, 0x11, 0xe3, 0xd6, 0xa4,
  0x7f, 0xf5, 0x4a, 0xe7, 0x07, 0x54, 0x81, 0x6d, 0xe2, 0xfc, 0xc0, 0x7c, 0x7f,
  0x01, 0x53, 0x81, 0x05, 0x0b, 0x7f, 0x39, 0x3b, 0x7f, 0x81, 0x0e, 0xe2, 0xff,
  0xff, 0x04, 0x00, 0x00, 0x00, 0x40, 0x00, 0x00, 0x00, 0xfa, 0xd4, 0x81, 0xdb,
  0x03, 0x25, 0xe2, 0x51, 0x25, 0x56, 0xee, 0xcf, 0xc3, 0xc7, 0x81, 0xcd, 0x06,
  0x15, 0x81, 0xed, 0x0b, 0xef, 0xfd, 0xe5, 0x66, 0xfc, 0x08, 0x7f, 0x90, 0x10,
  0x79, 0x24, 0x4c, 0xc8, 0x7f, 0x2f, 0xfd, 0x51, 0xa9, 0x2b, 0x28, 0x7f, 0xfd,
  0x1f, 0xe1, 0x1b, 0xed, 0x24, 0xda, 0x64, 0x16, 0xe6, 0xd3, 0x4e, 0x51, 0x7f,
  0xac, 0x7f, 0xf0, 0xd0, 0xcd, 0x17, 0xe3, 0x0e, 0x5a, 0xe2, 0xff, 0xff, 0x04,
  0x00, 0x00, 0x00, 0x90, 0x00, 0x00, 0x00, 0xd7, 0x20, 0xfe, 0x28, 0xbc, 0x7f,
  0x4d, 0x7f, 0xfd, 0x14, 0x3d, 0x26, 0xec, 0x06, 0xf6, 0x05, 0x13, 0xe4, 0x7f,
  0x39, 0xbf, 0x26, 0x6e, 0xfc, 0x7f, 0x7f, 0x81, 0x5b, 0x7f, 0xc3, 0xd9, 0x7f,
  0xde, 0x02, 0x0f, 0x39, 0x81, 0x63, 0x30, 0xb6, 0x06, 0x41, 0x0a, 0x14, 0x0c,
  0xf2, 0xe1, 0x1f, 0x55, 0x81, 0xef, 0x5a, 0xc1, 0x6b, 0xe0, 0x41, 0x06, 0x6d,
  0xeb, 0x6e, 0xed, 0xfe, 0xfb, 0x1b, 0x7f, 0x22, 0x07, 0xe5, 0x0a, 0x25, 0x41,
  0x29, 0x17, 0x26, 0xad, 0x7f, 0x0e, 0x81, 0x43, 0x39, 0x70, 0xf7, 0xe8, 0x0b,
  0xd9, 0x0f, 0xb2, 0x55, 0x00, 0xf2, 0x01, 0x60, 0x0a, 0xd4, 0x7f, 0xad, 0xf7,
  0xdd, 0x09, 0x2b, 0xd5, 0x32, 0x44, 0x5b, 0xfe, 0xf0, 0xee, 0xc5, 0xde, 0xea,
  0xff, 0x3a, 0xfd, 0xed, 0x0a, 0x62, 0xf6, 0x6f, 0x7f, 0x9c, 0x05, 0x04, 0x01,
  0x3c, 0xec, 0xf6, 0xd0, 0x38, 0x04, 0x04, 0x0a, 0x7f, 0x0e, 0x7f, 0x24, 0x9d,
  0x02, 0x36, 0xf3, 0xe6, 0xeb, 0xf5, 0xe5, 0x39, 0xf6, 0xe2, 0xff, 0xff, 0x04,
  0x00, 0x00, 0x00, 0x80, 0x00, 0x00, 0x00, 0x61, 0x81, 0xa3, 0x3f, 0xfb, 0xb8,
  0xc0, 0x5b, 0xc4, 0x5a, 0x41, 0xd9, 0x3f, 0xf1, 0x41, 0x41, 0x08, 0x7f, 0x14,
  0x00, 0x03, 0x01, 0xff, 0x08, 0x00, 0xff, 0x01, 0xfc, 0x00, 0x03, 0x0a, 0x01,
  0xe3, 0x8a, 0xdd, 0x27, 0x55, 0xe4, 0xe2, 0xc1, 0x81, 0x35, 0xff, 0xff, 0x30,
  0x2a, 0xe7, 0x30, 0xdd, 0xcc, 0x1e, 0xdf, 0x3d, 0x2c, 0x53, 0xde, 0x05, 0xbf,
  0xc8, 0x55, 0x05, 0xe8, 0x7f, 0xc6, 0x16, 0xe7, 0x81, 0xee, 0x16, 0x1e, 0xe1,
  0x1f, 0xf4, 0x24, 0x2f, 0xfc, 0x2a, 0x04, 0xf7, 0x42, 0xbd, 0x00, 0xfc, 0xf4,
  0xf6, 0x30, 0xde, 0x5c, 0xf9, 0x0c, 0xfc, 0x00, 0xcb, 0x7f, 0xdd, 0xf9, 0x50,
  0x11, 0x04, 0x19, 0x24, 0xc4, 0x04, 0x96, 0x0d, 0xd5, 0x0a, 0x0a, 0x48, 0x81,
  0x26, 0xf2, 0x15, 0x77, 0xb3, 0xe9, 0xd7, 0x3d, 0x07, 0x44, 0x72, 0x1b, 0x7c,
  0x01, 0x81, 0xe5, 0xe8, 0x1c, 0x82, 0xe3, 0xff, 0xff, 0x04, 0x00, 0x00, 0x00,
  0x48, 0x00, 0x00, 0x00, 0xd7, 0xe6, 0xfd, 0x21, 0x11, 0xf5, 0x05, 0xf5, 0x26,
  0xf1, 0xee, 0x11, 0xd5, 0x81, 0x11, 0x04, 0x06, 0x1c, 0x06, 0xff, 0x10, 0x07,
  0x00, 0xe9, 0x7f, 0x0c, 0xcb, 0x7f, 0xf4, 0xf0, 0xfa, 0x2d, 0x6a, 0x7f, 0x7f,
  0xeb, 0x7f, 0x95, 0x81, 0x7f, 0xd2, 0x2a, 0xcb, 0x06, 0xf5, 0xd2, 0x03, 0xe7,
  0x04, 0x03, 0xf2, 0x12, 0xfb, 0x04, 0x07, 0x2a, 0xda, 0x2e, 0x1d, 0xfe, 0x2a,
  0x0e, 0xfc, 0x7f, 0x23, 0x09, 0xde, 0x04, 0xf8, 0xfd, 0x00, 0x1c, 0xd6, 0xe3,
  0xff, 0xff, 0x04, 0x00, 0x00, 0x00, 0x40, 0x00, 0x00, 0x00, 0xe5, 0x66, 0xe7,
  0x02, 0x6d, 0x29, 0x81, 0x6f, 0xec, 0x14, 0xe8, 0x01, 0xe4, 0xdb, 0x37, 0x81,
  0xe6, 0x5d, 0x40, 0x7f, 0xb7, 0x06, 0xbc, 0x41, 0xbc, 0xfd, 0xa9, 0x13, 0x0d,
  0x81, 0xfe, 0xe0, 0xf2, 0x7f, 0x30, 0x76, 0xf4, 0x09, 0x92, 0x5e, 0x71, 0x00,
  0x7f, 0x20, 0xca, 0xfd, 0x13, 0x1d, 0x36, 0xcf, 0xf3, 0x81, 0x46, 0x07, 0x2c,
  0x0f, 0x44, 0x32, 0x21, 0x36, 0xe7, 0x7f, 0x1e, 0x38, 0x22, 0xe4, 0xff, 0xff,
  0x04, 0x00, 0x00, 0x00, 0x48, 0x00, 0x00, 0x00, 0xf3, 0x10, 0xaf, 0xe2, 0xe3,
  0xfb, 0x46, 0x0c, 0xd0, 0x5c, 0x02, 0x3d, 0xe0, 0x29, 0x14, 0x1f, 0xcf, 0x15,
  0xc7, 0xa4, 0xca, 0xf4, 0x14, 0x13, 0x87, 0x1a, 0xe6, 0xef, 0x81, 0x49, 0x7f,
  0xeb, 0xbf, 0x43, 0x7f, 0x4d, 0xc9, 0x7f, 0x6e, 0x93, 0xf4, 0x1b, 0xba, 0x0e,
  0xe9, 0x29, 0x66, 0xf7, 0x81, 0x9e, 0xce, 0x48, 0xdc, 0x16, 0x1b, 0x1d, 0x87,
  0x7f, 0x67, 0x7f, 0xd1, 0x6d, 0x41, 0x81, 0xe2, 0xda, 0xbf, 0x59, 0xd1, 0xf4,
  0x17, 0x2e, 0x76, 0xe4, 0xff, 0xff, 0x04, 0x00, 0x00, 0x00, 0x20, 0x00, 0x00,
  0x00, 0x44, 0x64, 0x7f, 0xe2, 0xa6, 0x40, 0x47, 0x62, 0x42, 0x70, 0x7f, 0x8e,
  0xc1, 0xb8, 0x13, 0x0d, 0xb9, 0x64, 0x24, 0xfc, 0x11, 0x7f, 0x26, 0x62, 0x4b,
  0x7d, 0x40, 0x7f, 0xc9, 0x25, 0x6f, 0x01, 0xa2, 0xe4, 0xff, 0xff, 0x04, 0x00,
  0x00, 0x00, 0x48, 0x00, 0x00, 0x00, 0xe3, 0xb3, 0x18, 0xda, 0xde, 0x7f, 0x15,
  0x81, 0xac, 0x94, 0x70, 0x81, 0x13, 0x03, 0x27, 0x25, 0xe6, 0xd7, 0x32, 0xa9,
  0x00, 0xf5, 0x02, 0xe3, 0xbd, 0x4e, 0x33, 0xa7, 0xfb, 0xd7, 0x7f, 0x07, 0x81,
  0x7f, 0x7f, 0xa2, 0x81, 0xc2, 0x48, 0xe6, 0xbf, 0x65, 0x1f, 0x03, 0x1b, 0x16,
  0xc3, 0xf4, 0x0a, 0xed, 0xcd, 0x06, 0x1f, 0xf6, 0xf0, 0x09, 0xd3, 0xcc, 0x28,
  0xf9, 0x42, 0xeb, 0x22, 0x0a, 0x11, 0xe4, 0xe2, 0x0b, 0xf1, 0x03, 0x0f, 0x06,
  0xf6, 0xe4, 0xff, 0xff, 0x04, 0x00, 0x00, 0x00, 0x20, 0x00, 0x00, 0x00, 0x0c,
  0xd6, 0xfe, 0xfb, 0x81, 0x49, 0x02, 0xf5, 0x11, 0x25, 0x07, 0x01, 0x20, 0x7f,
  0x97, 0x14, 0x22, 0xfa, 0x16, 0xeb, 0x81, 0xd2, 0xe5, 0x7e, 0x03, 0x07, 0x02,
  0x01, 0x02, 0x0b, 0xfa, 0x7f, 0x22, 0xe5, 0xff, 0xff, 0x04, 0x00, 0x00, 0x00,
  0x24, 0x00, 0x00, 0x00, 0x52, 0xf8, 0x04, 0x0d, 0x0e, 0x19, 0xda, 0xf8, 0x0d,
  0x0e, 0x22, 0x0c, 0x81, 0x81, 0x27, 0xfa, 0xca, 0xa9, 0x3f, 0x02, 0x0d, 0x0d,
  0xe0, 0x1e, 0xfe, 0x07, 0x7f, 0x7f, 0x09, 0x2c, 0x00, 0xb5, 0x0a, 0x21, 0xd9,
  0x79, 0x52, 0xe5, 0xff, 0xff, 0x04, 0x00, 0x00, 0x00, 0x10, 0x00, 0x00, 0x00,
  0xfe, 0x5b, 0x7f, 0x09, 0x60, 0x03, 0x81, 0x03, 0x7f, 0xfe, 0xfe, 0xfd, 0xf2,
  0x8b, 0x1a, 0x7f, 0x6e, 0xe5, 0xff, 0xff, 0x04, 0x00, 0x00, 0x00, 0x24, 0x00,
  0x00, 0x00, 0xda, 0x1f, 0x30, 0x0c, 0xd0, 0x04, 0x14, 0xf1, 0xcd, 0x01, 0xf8,
  0x0c, 0xfe, 0x89, 0x9f, 0xfe, 0x31, 0xff, 0x17, 0x0c, 0xf2, 0xf9, 0xf9, 0xf3,
  0x25, 0x7f, 0x7f, 0xc3, 0x7f, 0xfc, 0x00, 0x7f, 0x09, 0xfe, 0xfd, 0xb7, 0x9e,
  0xe5, 0xff, 0xff, 0x04, 0x00, 0x00, 0x00, 0x08, 0x00, 0x00, 0x00, 0x7f, 0x06,
  0xeb, 0x1f, 0x7f, 0xd1, 0x4e, 0xf9, 0xb2, 0xe5, 0xff, 0xff, 0x04, 0x00, 0x00,
  0x00, 0x10, 0x00, 0x00, 0x00, 0xee, 0x1b, 0x00, 0x00, 0x00, 0x00, 0x00, 0x00,
  0xde, 0x44, 0xff, 0xff, 0xff, 0xff, 0xff, 0xff, 0xce, 0xe5, 0xff, 0xff, 0x04,
  0x00, 0x00, 0x00, 0x20, 0x00, 0x00, 0x00, 0xeb, 0x7f, 0xff, 0xff, 0xff, 0xff,
  0xff, 0xff, 0x29, 0xcf, 0x1a, 0x00, 0x00, 0x00, 0x00, 0x00, 0x82, 0x9d, 0xff,
  0xff, 0xff, 0xff, 0xff, 0xff, 0x76, 0x86, 0x00, 0x00, 0x00, 0x00, 0x00, 0x00,
  0xfa, 0xe5, 0xff, 0xff, 0x04, 0x00, 0x00, 0x00, 0x20, 0x00, 0x00, 0x00, 0x65,
  0x4c, 0x02, 0x00, 0x00, 0x00, 0x00, 0x00, 0x31, 0x3a, 0x00, 0x00, 0x00, 0x00,
  0x00, 0x00, 0x55, 0xf0, 0xff, 0xff, 0xff, 0xff, 0xff, 0xff, 0x1f, 0x70, 0x01,
  0x00, 0x00, 0x00, 0x00, 0x00, 0x26, 0xe6, 0xff, 0xff, 0x04, 0x00, 0x00, 0x00,
  0x40, 0x00, 0x00, 0x00, 0xb9, 0xfa, 0x06, 0x00, 0x00, 0x00, 0x00, 0x00, 0x67,
  0x0a, 0x03, 0x00, 0x00, 0x00, 0x00, 0x00, 0x03, 0x5a, 0x02, 0x00, 0x00, 0x00,
  0x00, 0x00, 0xaf, 0x79, 0xfc, 0xff, 0xff, 0xff, 0xff, 0xff, 0xbe, 0x84, 0x04,
  0x00, 0x00, 0x00, 0x00, 0x00, 0x00, 0x00, 0x00, 0xc0, 0xff, 0xff, 0xff, 0xff,
  0x2e, 0xb2, 0x01, 0x00, 0x00, 0x00, 0x00, 0x00, 0xfa, 0xf5, 0xff, 0xff, 0xff,
  0xff, 0xff, 0xff, 0x72, 0xe6, 0xff, 0xff, 0x04, 0x00, 0x00, 0x00, 0x40, 0x00,
  0x00, 0x00, 0x6d, 0x51, 0x00, 0x00, 0x00, 0x00, 0x00, 0x00, 0x26, 0xfc, 0xff,
  0xff, 0xff, 0xff, 0xff, 0xff, 0xf7, 0xc4, 0x01, 0x00, 0x00, 0x00, 0x00, 0x00,
  0x6a, 0xe5, 0xfe, 0xff, 0xff, 0xff, 0xff, 0xff, 0xa3, 0xe0, 0x00, 0x00, 0x00,
  0x00, 0x00, 0x00, 0x1a, 0x26, 0x00, 0x00, 0x00, 0x00, 0x00, 0x00, 0x46, 0x0d,
  0x00, 0x00, 0x00, 0x00, 0x00, 0x00, 0x97, 0x26, 0x07, 0x00, 0x00, 0x00, 0x00,
  0x00, 0xbe, 0xe6, 0xff, 0xff, 0x04, 0x00, 0x00, 0x00, 0x40, 0x00, 0x00, 0x00,
  0x89, 0xb7, 0xff, 0xff, 0xff, 0xff, 0xff, 0xff, 0x3f, 0x42, 0x00, 0x00, 0x00,
  0x00, 0x00, 0x00, 0xf5, 0x30, 0xff, 0xff, 0xff, 0xff, 0xff, 0xff, 0x00, 0x00,
  0x00, 0xc0, 0xff, 0xff, 0xff, 0xff, 0x95, 0xd1, 0xff, 0xff, 0xff, 0xff, 0xff,
  0xff, 0xee, 0x4d, 0xff, 0xff, 0xff, 0xff, 0xff, 0xff, 0x7a, 0xd8, 0x00, 0x00,
  0x00, 0x00, 0x00, 0x00, 0x31, 0x08, 0x01, 0x00, 0x00, 0x00, 0x00, 0x00, 0x0a,
  0xe7, 0xff, 0xff, 0x04, 0x00, 0x00, 0x00, 0x40, 0x00, 0x00, 0x00, 0x00, 0x57,
  0x00, 0x00, 0x00, 0x00, 0x00, 0x00, 0xc9, 0x65, 0x00, 0x00, 0x00, 0x00, 0x00,
  0x00, 0xec, 0x88, 0x02, 0x00, 0x00, 0x00, 0x00, 0x00, 0xd5, 0x8d, 0xff, 0xff,
  0xff, 0xff, 0xff, 0xff, 0x5c, 0x3b, 0x00, 0x00, 0x00, 0x00, 0x00, 0x00, 0xad,
  0xb3, 0xff, 0xff, 0xff, 0xff, 0xff, 0xff, 0x4c, 0xc0, 0x00, 0x00, 0x00, 0x00,
  0x00, 0x00, 0x8e, 0x4f, 0x01, 0x00, 0x00, 0x00, 0x00, 0x00, 0x56, 0xe7, 0xff,
  0xff, 0x04, 0x00, 0x00, 0x00, 0x30, 0x00, 0x00, 0x00, 0x00, 0x00, 0x00, 0x40,
  0x00, 0x00, 0x00, 0x00, 0x00, 0x00, 0x00, 0xc0, 0xff, 0xff, 0xff, 0xff, 0x80,
  0x00, 0x00, 0xc0, 0xff, 0xff, 0xff, 0xff, 0x40, 0x00, 0x00, 0xc0, 0xff, 0xff,
  0xff, 0xff, 0x00, 0x00, 0x00, 0x40, 0x00, 0x00, 0x00, 0x00, 0x00, 0x00, 0x00,
  0x40, 0x00, 0x00, 0x00, 0x00, 0x92, 0xe7, 0xff, 0xff, 0x04, 0x00, 0x00, 0x00,
  0x30, 0x00, 0x00, 0x00, 0x00, 0x00, 0x00, 0xc0, 0xff, 0xff, 0xff, 0xff, 0x00,
  0x00, 0x00, 0xc0, 0xff, 0xff, 0xff, 0xff, 0x40, 0x00, 0x00, 0xc0, 0xff, 0xff,
  0xff, 0xff, 0x00, 0x00, 0x00, 0xc0, 0xff, 0xff, 0xff, 0xff, 0x80, 0xff, 0xff,
  0xbf, 0xff, 0xff, 0xff, 0xff, 0x80, 0xff, 0xff, 0xbf, 0xff, 0xff, 0xff, 0xff,
  0xa0, 0xa3, 0xff, 0xff, 0xa4, 0xa3, 0xff, 0xff, 0xd6, 0xe7, 0xff, 0xff, 0x04,
  0x00, 0x00, 0x00, 0x30, 0x00, 0x00, 0x00, 0x00, 0x00, 0x00, 0x00, 0x00, 0x00,
  0x00, 0x00, 0x00, 0x00, 0x00, 0x00, 0x00, 0x00, 0x00, 0x00, 0x00, 0x00, 0x00,
  0x00, 0x00, 0x00, 0x00, 0x00, 0x00, 0x00, 0x00, 0x00, 0x00, 0x00, 0x00, 0x00,
  0x00, 0x00, 0x00, 0x00, 0x00, 0x00, 0x00, 0x00, 0x00, 0x00, 0x00, 0x00, 0x00,
  0x00, 0x00, 0x00, 0x12, 0xe8, 0xff, 0xff, 0x04, 0x00, 0x00, 0x00, 0x40, 0x00,
  0x00, 0x00, 0x00, 0x00, 0x00, 0x00, 0x00, 0x00, 0x00, 0x00, 0x00, 0x00, 0x00,
  0x00, 0x00, 0x00, 0x00, 0x00, 0x00, 0x00, 0x00, 0x00, 0x00, 0x00, 0x00, 0x00,
  0x00, 0x00, 0x00, 0x00, 0x00, 0x00, 0x00, 0x00, 0x00, 0x00, 0x00, 0x00, 0x00,
  0x00, 0x00, 0x00, 0x00, 0x00, 0x00, 0x00, 0x00, 0x00, 0x00, 0x00, 0x00, 0x00,
  0x00, 0x00, 0x00, 0x00, 0x00, 0x00, 0x00, 0x00, 0x00, 0x00, 0x00, 0x00, 0x00,
  0x00, 0x5e, 0xe8, 0xff, 0xff, 0x04, 0x00, 0x00, 0x00, 0x40, 0x00, 0x00, 0x00,
  0x54, 0x3c, 0x01, 0x00, 0x00, 0x00, 0x00, 0x00, 0x17, 0xd3, 0x01, 0x00, 0x00,
  0x00, 0x00, 0x00, 0x44, 0x92, 0xfe, 0xff, 0xff, 0xff, 0xff, 0xff, 0xa2, 0x5a,
  0x00, 0x00, 0x00, 0x00, 0x00, 0x00, 0xeb, 0x8b, 0x00, 0x00, 0x00, 0x00, 0x00,
  0x00, 0x03, 0x22, 0x01, 0x00, 0x00, 0x00, 0x00, 0x00, 0x62, 0x6d, 0xfe, 0xff,
  0xff, 0xff, 0xff, 0xff, 0xcb, 0x04, 0xff, 0xff, 0xff, 0xff, 0xff, 0xff, 0xaa,
  0xe8, 0xff, 0xff, 0x04, 0x00, 0x00, 0x00, 0x40, 0x00, 0x00, 0x00, 0x52, 0x59,
  0x01, 0x00, 0x00, 0x00, 0x00, 0x00, 0x86, 0xbe, 0x01, 0x00, 0x00, 0x00, 0x00,
  0x00, 0x33, 0x55, 0x01, 0x00, 0x00, 0x00, 0x00, 0x00, 0x4d, 0xc1, 0x01, 0x00,
  0x00, 0x00, 0x00, 0x00, 0xb9, 0x94, 0x00, 0x00, 0x00, 0x00, 0x00, 0x00, 0x8f,
  0xce, 0x02, 0x00, 0x00, 0x00, 0x00, 0x00, 0x9c, 0x50, 0x01, 0x00, 0x00, 0x00,
  0x00, 0x00, 0x82, 0xce, 0x00, 0x00, 0x00, 0x00, 0x00, 0x00, 0xf6, 0xe8, 0xff,
  0xff, 0x04, 0x00, 0x00, 0x00, 0x40, 0x00, 0x00, 0x00, 0x13, 0x49, 0x0f, 0x00,
  0x00, 0x00, 0x00, 0x00, 0xd5, 0x58, 0x01, 0x00, 0x00, 0x00, 0x00, 0x00, 0x05,
  0xdf, 0x03, 0x00, 0x00, 0x00, 0x00, 0x00, 0x9e, 0x0c, 0xff, 0xff, 0xff, 0xff,
  0xff, 0xff, 0xc9, 0x6f, 0xfd, 0xff, 0xff, 0xff, 0xff, 0xff, 0x7f, 0xb3, 0x00,
  0x00, 0x00, 0x00, 0x00, 0x00, 0x3d, 0xb1, 0xfd, 0xff, 0xff, 0xff, 0xff, 0xff,
  0x24, 0x9a, 0xff, 0xff, 0xff, 0xff, 0xff, 0xff, 0x42, 0xe9, 0xff, 0xff, 0x04,
  0x00, 0x00, 0x00, 0x40, 0x00, 0x00, 0x00, 0xaa, 0x76, 0x01, 0x00, 0x00, 0x00,
  0x00, 0x00, 0xe0, 0xf7, 0xff, 0xff, 0xff, 0xff, 0xff, 0xff, 0x98, 0xdc, 0x00,
  0x00, 0x00, 0x00, 0x00, 0x00, 0x10, 0x2f, 0x03, 0x00, 0x00, 0x00, 0x00, 0x00,
  0x49, 0x8d, 0x00, 0x00, 0x00, 0x00, 0x00, 0x00, 0x7e, 0x8f, 0x05, 0x00, 0x00,
  0x00, 0x00, 0x00, 0x23, 0xb6, 0xfe, 0xff, 0xff, 0xff, 0xff, 0xff, 0xf2, 0xee,
  0xff, 0xff, 0xff, 0xff, 0xff, 0xff, 0x8e, 0xe9, 0xff, 0xff, 0x04, 0x00, 0x00,
  0x00, 0x40, 0x00, 0x00, 0x00, 0xe2, 0x77, 0x00, 0x00, 0x00, 0x00, 0x00, 0x00,
  0xac, 0x95, 0x00, 0x00, 0x00, 0x00, 0x00, 0x00, 0x0a, 0x78, 0xff, 0xff, 0xff,
  0xff, 0xff, 0xff, 0x59, 0xe8, 0x00, 0x00, 0x00, 0x00, 0x00, 0x00, 0xfd, 0x11,
  0x00, 0x00, 0x00, 0x00, 0x00, 0x00, 0xc1, 0x4a, 0x00, 0x00, 0x00, 0x00, 0x00,
  0x00, 0xa7, 0x35, 0x00, 0x00, 0x00, 0x00, 0x00, 0x00, 0xda, 0x97, 0x00, 0x00,
  0x00, 0x00, 0x00, 0x00, 0xda, 0xe9, 0xff, 0xff, 0x04, 0x00, 0x00, 0x00, 0x20,
  0x00, 0x00, 0x00, 0x93, 0xef, 0xff, 0xff, 0xff, 0xff, 0xff, 0xff, 0x6b, 0x28,
  0x01, 0x00, 0x00, 0x00, 0x00, 0x00, 0x54, 0x12, 0x00, 0x00, 0x00, 0x00, 0x00,
  0x00, 0x63, 0x11, 0x00, 0x00, 0x00, 0x00, 0x00, 0x00, 0x06, 0xea, 0xff, 0xff,
  0x04, 0x00, 0x00, 0x00, 0x20, 0x00, 0x00, 0x00, 0xbc, 0x17, 0x00, 0x00, 0x00,
  0x00, 0x00, 0x00, 0x6a, 0x0e, 0x00, 0x00, 0x00, 0x00, 0x00, 0x00, 0xd8, 0x8b,
  0xff, 0xff, 0xff, 0xff, 0xff, 0xff, 0x57, 0x4c, 0x00, 0x00, 0x00, 0x00, 0x00,
  0x00, 0x32, 0xea, 0xff, 0xff, 0x04, 0x00, 0x00, 0x00, 0x20, 0x00, 0x00, 0x00,
  0x02, 0xb3, 0xf1, 0xff, 0xff, 0xff, 0xff, 0xff, 0x79, 0xcc, 0x09, 0x00, 0x00,
  0x00, 0x00, 0x00, 0x9d, 0x7e, 0x06, 0x00, 0x00, 0x00, 0x00, 0x00, 0x17, 0xce,
  0xfc, 0xff, 0xff, 0xff, 0xff, 0xff, 0x30, 0xa6, 0xff, 0xff, 0x34, 0xa6, 0xff,
  0xff, 0x0f, 0x00, 0x00, 0x00, 0x4d, 0x4c, 0x49, 0x52, 0x20, 0x43, 0x6f, 0x6e,
  0x76, 0x65, 0x72, 0x74, 0x65, 0x64, 0x2e, 0x00, 0x01, 0x00, 0x00, 0x00, 0x14,
  0x00, 0x00, 0x00, 0x00, 0x00, 0x0e, 0x00, 0x18, 0x00, 0x14, 0x00, 0x10, 0x00,
  0x0c, 0x00, 0x08, 0x00, 0x04, 0x00, 0x0e, 0x00, 0x00, 0x00, 0x14, 0x00, 0x00,
  0x00, 0x1c, 0x00, 0x00, 0x00, 0x00, 0x16, 0x00, 0x00, 0x04, 0x16, 0x00, 0x00,
  0x08, 0x16, 0x00, 0x00, 0x04, 0x00, 0x00, 0x00, 0x6d, 0x61, 0x69, 0x6e, 0x00,
  0x00, 0x00, 0x00, 0x58, 0x00, 0x00, 0x00, 0xc4, 0x15, 0x00, 0x00, 0x80, 0x15,
  0x00, 0x00, 0x24, 0x15, 0x00, 0x00, 0xe0, 0x14, 0x00, 0x00, 0x8c, 0x14, 0x00,
  0x00, 0x30, 0x14, 0x00, 0x00, 0xfc, 0x13, 0x00, 0x00, 0xb4, 0x13, 0x00, 0x00,
  0x6c, 0x13, 0x00, 0x00, 0x1c, 0x13, 0x00, 0x00, 0xe8, 0x12, 0x00, 0x00, 0xb8,
  0x12, 0x00, 0x00, 0x74, 0x12, 0x00, 0x00, 0x2c, 0x12, 0x00, 0x00, 0xe4, 0x11,
  0x00, 0x00, 0xb0, 0x11, 0x00, 0x00, 0x68, 0x11, 0x00, 0x00, 0x20, 0x11, 0x00,
  0x00, 0xe0, 0x10, 0x00, 0x00, 0xac, 0x10, 0x00, 0x00, 0x7c, 0x10, 0x00, 0x00,
  0x38, 0x10, 0x00, 0x00, 0xf0, 0x0f, 0x00, 0x00, 0xa8, 0x0f, 0x00, 0x00, 0x74,
  0x0f, 0x00, 0x00, 0x2c, 0x0f, 0x00, 0x00, 0xe4, 0x0e, 0x00, 0x00, 0xa4, 0x0e,
  0x00, 0x00, 0x70, 0x0e, 0x00, 0x00, 0x40, 0x0e, 0x00, 0x00, 0xfc, 0x0d, 0x00,
  0x00, 0xb4, 0x0d, 0x00, 0x00, 0x6c, 0x0d, 0x00, 0x00, 0x38, 0x0d, 0x00, 0x00,
  0xf0, 0x0c, 0x00, 0x00, 0xa8, 0x0c, 0x00, 0x00, 0x68, 0x0c, 0x00, 0x00, 0x24,
  0x0c, 0x00, 0x00, 0xf0, 0x0b, 0x00, 0x00, 0xa8, 0x0b, 0x00, 0x00, 0x60, 0x0b,
  0x00, 0x00, 0x28, 0x0b, 0x00, 0x00, 0xf4, 0x0a, 0x00, 0x00, 0xac, 0x0a, 0x00,
  0x00, 0x64, 0x0a, 0x00, 0x00, 0x30, 0x0a, 0x00, 0x00, 0xe8, 0x09, 0x00, 0x00,
  0xa0, 0x09, 0x00, 0x00, 0x68, 0x09, 0x00, 0x00, 0x34, 0x09, 0x00, 0x00, 0xec,
  0x08, 0x00, 0x00, 0xa4, 0x08, 0x00, 0x00, 0x80, 0x08, 0x00, 0x00, 0x48, 0x08,
  0x00, 0x00, 0x14, 0x08, 0x00, 0x00, 0xcc, 0x07, 0x00, 0x00, 0x84, 0x07, 0x00,
  0x00, 0x50, 0x07, 0x00, 0x00, 0x08, 0x07, 0x00, 0x00, 0xc0, 0x06, 0x00, 0x00,
  0x88, 0x06, 0x00, 0x00, 0x54, 0x06, 0x00, 0x00, 0x0c, 0x06, 0x00, 0x00, 0xc4,
  0x05, 0x00, 0x00, 0xa0, 0x05, 0x00, 0x00, 0x68, 0x05, 0x00, 0x00, 0x34, 0x05,
  0x00, 0x00, 0xec, 0x04, 0x00, 0x00, 0xa4, 0x04, 0x00, 0x00, 0x70, 0x04, 0x00,
  0x00, 0x28, 0x04, 0x00, 0x00, 0xe0, 0x03, 0x00, 0x00, 0xa8, 0x03, 0x00, 0x00,
  0x74, 0x03, 0x00, 0x00, 0x2c, 0x03, 0x00, 0x00, 0xe4, 0x02, 0x00, 0x00, 0xc0,
  0x02, 0x00, 0x00, 0x88, 0x02, 0x00, 0x00, 0x54, 0x02, 0x00, 0x00, 0x0c, 0x02,
  0x00, 0x00, 0xc4, 0x01, 0x00, 0x00, 0x90, 0x01, 0x00, 0x00, 0x48, 0x01, 0x00,
  0x00, 0x00, 0x01, 0x00, 0x00, 0xcc, 0x00, 0x00, 0x00, 0x84, 0x00, 0x00, 0x00,
  0x28, 0x00, 0x00, 0x00, 0x04, 0x00, 0x00, 0x00, 0xa6, 0xeb, 0xff, 0xff, 0x0c,
  0x00, 0x00, 0x00, 0x10, 0x00, 0x00, 0x00, 0x09, 0x00, 0x00, 0x00, 0x01, 0x00,
  0x00, 0x00, 0xa8, 0x00, 0x00, 0x00, 0x01, 0x00, 0x00, 0x00, 0xa3, 0x00, 0x00,
  0x00, 0x62, 0xec, 0xff, 0xff, 0x28, 0x00, 0x00, 0x00, 0x00, 0x00, 0x00, 0x01,
  0x34, 0x00, 0x00, 0x00, 0x38, 0x00, 0x00, 0x00, 0x04, 0x00, 0x00, 0x00, 0x00,
  0x00, 0x12, 0x00, 0x14, 0x00, 0x13, 0x00, 0x0c, 0x00, 0x08, 0x00, 0x00, 0x00,
  0x00, 0x00, 0x00, 0x00, 0x07, 0x00, 0x12, 0x00, 0x00, 0x00, 0x00, 0x00, 0x00,
  0x04, 0x01, 0x00, 0x00, 0x00, 0x01, 0x00, 0x00, 0x00, 0x00, 0x00, 0x00, 0x01,
  0x01, 0x00, 0x00, 0x00, 0xa3, 0x00, 0x00, 0x00, 0x03, 0x00, 0x00, 0x00, 0xa2,
  0x00, 0x00, 0x00, 0x16, 0x00, 0x00, 0x00, 0x15, 0x00, 0x00, 0x00, 0xba, 0xec,
  0xff, 0xff, 0x14, 0x00, 0x00, 0x00, 0x00, 0x00, 0x00, 0x02, 0x20, 0x00, 0x00,
  0x00, 0x24, 0x00, 0x00, 0x00, 0x03, 0x00, 0x00, 0x00, 0x3c, 0xed, 0xff, 0xff,
  0x01, 0x00, 0x00, 0x00, 0x01, 0x00, 0x00, 0x00, 0x01, 0x00, 0x00, 0x00, 0x00,
  0x00, 0x00, 0x01, 0x01, 0x00, 0x00, 0x00, 0xa2, 0x00, 0x00, 0x00, 0x03, 0x00,
  0x00, 0x00, 0xa1, 0x00, 0x00, 0x00, 0x17, 0x00, 0x00, 0x00, 0x43, 0x00, 0x00,
  0x00, 0xfe, 0xec, 0xff, 0xff, 0x14, 0x00, 0x00, 0x00, 0x00, 0x00, 0x00, 0x16,
  0x10, 0x00, 0x00, 0x00, 0x14, 0x00, 0x00, 0x00, 0x02, 0x00, 0x00, 0x00, 0xc0,
  0xa8, 0xff, 0xff, 0x01, 0x00, 0x00, 0x00, 0xa1, 0x00, 0x00, 0x00, 0x02, 0x00,
  0x00, 0x00, 0xa0, 0x00, 0x00, 0x00, 0x47, 0x00, 0x00, 0x00, 0x2e, 0xed, 0xff,
  0xff, 0x14, 0x00, 0x00, 0x00, 0x00, 0x00, 0x00, 0x01, 0x20, 0x00, 0x00, 0x00,
  0x24, 0x00, 0x00, 0x00, 0x04, 0x00, 0x00, 0x00, 0x06, 0xee, 0xff, 0xff, 0x00,
  0x00, 0x04, 0x01, 0x01, 0x00, 0x00, 0x00, 0x01, 0x00, 0x00, 0x00, 0x00, 0x00,
  0x00, 0x01, 0x01, 0x00, 0x00, 0x00, 0xa0, 0x00, 0x00, 0x00, 0x03, 0x00, 0x00,
  0x00, 0x9f, 0x00, 0x00, 0x00, 0x18, 0x00, 0x00, 0x00, 0x01, 0x00, 0x00, 0x00,
  0x72, 0xed, 0xff, 0xff, 0x14, 0x00, 0x00, 0x00, 0x00, 0x00, 0x00, 0x02, 0x20,
  0x00, 0x00, 0x00, 0x24, 0x00, 0x00, 0x00, 0x03, 0x00, 0x00, 0x00, 0xf4, 0xed,
  0xff, 0xff, 0x01, 0x00, 0x00, 0x00, 0x01, 0x00, 0x00, 0x00, 0x01, 0x00, 0x00,
  0x00, 0x00, 0x00, 0x00, 0x01, 0x01, 0x00, 0x00, 0x00, 0x9f, 0x00, 0x00, 0x00,
  0x03, 0x00, 0x00, 0x00, 0x9e, 0x00, 0x00, 0x00, 0x19, 0x00, 0x00, 0x00, 0x43,
  0x00, 0x00, 0x00, 0xb6, 0xed, 0xff, 0xff, 0x14, 0x00, 0x00, 0x00, 0x00, 0x00,
  0x00, 0x16, 0x10, 0x00, 0x00, 0x00, 0x14, 0x00, 0x00, 0x00, 0x02, 0x00, 0x00,
  0x00, 0x78, 0xa9, 0xff, 0xff, 0x01, 0x00, 0x00, 0x00, 0x9e, 0x00, 0x00, 0x00,
  0x02, 0x00, 0x00, 0x00, 0x9d, 0x00, 0x00, 0x00, 0x47, 0x00, 0x00, 0x00, 0xe6,
  0xed, 0xff, 0xff, 0x14, 0x00, 0x00, 0x00, 0x00, 0x00, 0x00, 0x01, 0x20, 0x00,
  0x00, 0x00, 0x24, 0x00, 0x00, 0x00, 0x04, 0x00, 0x00, 0x00, 0xbe, 0xee, 0xff,
  0xff, 0x00, 0x00, 0x04, 0x01, 0x01, 0x00, 0x00, 0x00, 0x01, 0x00, 0x00, 0x00,
  0x00, 0x00, 0x00, 0x01, 0x01, 0x00, 0x00, 0x00, 0x9d, 0x00, 0x00, 0x00, 0x03,
  0x00, 0x00, 0x00, 0x9c, 0x00, 0x00, 0x00, 0x1a, 0x00, 0x00, 0x00, 0x02, 0x00,
  0x00, 0x00, 0x2a, 0xee, 0xff, 0xff, 0x14, 0x00, 0x00, 0x00, 0x00, 0x00, 0x00,
  0x02, 0x20, 0x00, 0x00, 0x00, 0x24, 0x00, 0x00, 0x00, 0x03, 0x00, 0x00, 0x00,
  0xac, 0xee, 0xff, 0xff, 0x01, 0x00, 0x00, 0x00, 0x01, 0x00, 0x00, 0x00, 0x01,
  0x00, 0x00, 0x00, 0x00, 0x00, 0x00, 0x01, 0x01, 0x00, 0x00, 0x00, 0x9c, 0x00,
  0x00, 0x00, 0x03, 0x00, 0x00, 0x00, 0x9b, 0x00, 0x00, 0x00, 0x1b, 0x00, 0x00,
  0x00, 0x3e, 0x00, 0x00, 0x00, 0x6e, 0xee, 0xff, 0xff, 0x14, 0x00, 0x00, 0x00,
  0x00, 0x00, 0x00, 0x16, 0x10, 0x00, 0x00, 0x00, 0x14, 0x00, 0x00, 0x00, 0x02,
  0x00, 0x00, 0x00, 0x30, 0xaa, 0xff, 0xff, 0x01, 0x00, 0x00, 0x00, 0x9b, 0x00,
  0x00, 0x00, 0x02, 0x00, 0x00, 0x00, 0x9a, 0x00, 0x00, 0x00, 0x47, 0x00, 0x00,
  0x00, 0x9e, 0xee, 0xff, 0xff, 0x14, 0x00, 0x00, 0x00, 0x00, 0x00, 0x00, 0x0a,
  0x14, 0x00, 0x00, 0x00, 0x18, 0x00, 0x00, 0x00, 0x07, 0x00, 0x00, 0x00, 0x8e,
  0xee, 0xff, 0xff, 0x03, 0x00, 0x00, 0x00, 0x01, 0x00, 0x00, 0x00, 0x9a, 0x00,
  0x00, 0x00, 0x02, 0x00, 0x00, 0x00, 0x99, 0x00, 0x00, 0x00, 0xa4, 0x00, 0x00,
  0x00, 0x36, 0xee, 0xff, 0xff, 0x0c, 0x00, 0x00, 0x00, 0x10, 0x00, 0x00, 0x00,
  0x08, 0x00, 0x00, 0x00, 0x01, 0x00, 0x00, 0x00, 0xa4, 0x00, 0x00, 0x00, 0x01,
  0x00, 0x00, 0x00, 0x52, 0x00, 0x00, 0x00, 0xf2, 0xee, 0xff, 0xff, 0x14, 0x00,
  0x00, 0x00, 0x00, 0x00, 0x00, 0x01, 0x20, 0x00, 0x00, 0x00, 0x24, 0x00, 0x00,
  0x00, 0x04, 0x00, 0x00, 0x00, 0xca, 0xef, 0xff, 0xff, 0x00, 0x00, 0x04, 0x01,
  0x01, 0x00, 0x00, 0x00, 0x01, 0x00, 0x00, 0x00, 0x00, 0x00, 0x00, 0x01, 0x01,
  0x00, 0x00, 0x00, 0x99, 0x00, 0x00, 0x00, 0x03, 0x00, 0x00, 0x00, 0x98, 0x00,
  0x00, 0x00, 0x1c, 0x00, 0x00, 0x00, 0x03, 0x00, 0x00, 0x00, 0x36, 0xef, 0xff,
  0xff, 0x14, 0x00, 0x00, 0x00, 0x00, 0x00, 0x00, 0x02, 0x20, 0x00, 0x00, 0x00,
  0x24, 0x00, 0x00, 0x00, 0x03, 0x00, 0x00, 0x00, 0xb8, 0xef, 0xff, 0xff, 0x01,
  0x00, 0x00, 0x00, 0x01, 0x00, 0x00, 0x00, 0x01, 0x00, 0x00, 0x00, 0x00, 0x00,
  0x00, 0x01, 0x01, 0x00, 0x00, 0x00, 0x98, 0x00, 0x00, 0x00, 0x03, 0x00, 0x00,
  0x00, 0x97, 0x00, 0x00, 0x00, 0x1d, 0x00, 0x00, 0x00, 0x3e, 0x00, 0x00, 0x00,
  0x7a, 0xef, 0xff, 0xff, 0x14, 0x00, 0x00, 0x00, 0x00, 0x00, 0x00, 0x16, 0x10,
  0x00, 0x00, 0x00, 0x14, 0x00, 0x00, 0x00, 0x02, 0x00, 0x00, 0x00, 0x3c, 0xab,
  0xff, 0xff, 0x01, 0x00, 0x00, 0x00, 0x97, 0x00, 0x00, 0x00, 0x02, 0x00, 0x00,
  0x00, 0x96, 0x00, 0x00, 0x00, 0x47, 0x00, 0x00, 0x00, 0xaa, 0xef, 0xff, 0xff,
  0x14, 0x00, 0x00, 0x00, 0x00, 0x00, 0x00, 0x0f, 0x14, 0x00, 0x00, 0x00, 0x18,
  0x00, 0x00, 0x00, 0x06, 0x00, 0x00, 0x00, 0x10, 0xf8, 0xff, 0xff, 0x00, 0x00,
  0x00, 0x01, 0x01, 0x00, 0x00, 0x00, 0x96, 0x00, 0x00, 0x00, 0x02, 0x00, 0x00,
  0x00, 0x95, 0x00, 0x00, 0x00, 0x4b, 0x00, 0x00, 0x00, 0xde, 0xef, 0xff, 0xff,
  0x14, 0x00, 0x00, 0x00, 0x00, 0x00, 0x00, 0x01, 0x20, 0x00, 0x00, 0x00, 0x24,
  0x00, 0x00, 0x00, 0x04, 0x00, 0x00, 0x00, 0xb6, 0xf0, 0xff, 0xff, 0x00, 0x00,
  0x04, 0x01, 0x01, 0x00, 0x00, 0x00, 0x01, 0x00, 0x00, 0x00, 0x00, 0x00, 0x00,
  0x01, 0x01, 0x00, 0x00, 0x00, 0x95, 0x00, 0x00, 0x00, 0x03, 0x00, 0x00, 0x00,
  0x94, 0x00, 0x00, 0x00, 0x1e, 0x00, 0x00, 0x00, 0x04, 0x00, 0x00, 0x00, 0x22,
  0xf0, 0xff, 0xff, 0x14, 0x00, 0x00, 0x00, 0x00, 0x00, 0x00, 0x02, 0x20, 0x00,
  0x00, 0x00, 0x24, 0x00, 0x00, 0x00, 0x03, 0x00, 0x00, 0x00, 0xa4, 0xf0, 0xff,
  0xff, 0x01, 0x00, 0x00, 0x00, 0x01, 0x00, 0x00, 0x00, 0x01, 0x00, 0x00, 0x00,
  0x00, 0x00, 0x00, 0x01, 0x01, 0x00, 0x00, 0x00, 0x94, 0x00, 0x00, 0x00, 0x03,
  0x00, 0x00, 0x00, 0x93, 0x00, 0x00, 0x00, 0x1f, 0x00, 0x00, 0x00, 0x3e, 0x00,
  0x00, 0x00, 0x66, 0xf0, 0xff, 0xff, 0x14, 0x00, 0x00, 0x00, 0x00, 0x00, 0x00,
  0x16, 0x10, 0x00, 0x00, 0x00, 0x14, 0x00, 0x00, 0x00, 0x02, 0x00, 0x00, 0x00,
  0x28, 0xac, 0xff, 0xff, 0x01, 0x00, 0x00, 0x00, 0x93, 0x00, 0x00, 0x00, 0x02,
  0x00, 0x00, 0x00, 0x92, 0x00, 0x00, 0x00, 0x47, 0x00, 0x00, 0x00, 0x96, 0xf0,
  0xff, 0xff, 0x14, 0x00, 0x00, 0x00, 0x00, 0x00, 0x00, 0x01, 0x20, 0x00, 0x00,
  0x00, 0x24, 0x00, 0x00, 0x00, 0x04, 0x00, 0x00, 0x00, 0x6e, 0xf1, 0xff, 0xff,
  0x00, 0x00, 0x04, 0x01, 0x01, 0x00, 0x00, 0x00, 0x01, 0x00, 0x00, 0x00, 0x00,
  0x00, 0x00, 0x01, 0x01, 0x00, 0x00, 0x00, 0x92, 0x00, 0x00, 0x00, 0x03, 0x00,
  0x00, 0x00, 0x91, 0x00, 0x00, 0x00, 0x20, 0x00, 0x00, 0x00, 0x05, 0x00, 0x00,
  0x00, 0xda, 0xf0, 0xff, 0xff, 0x14, 0x00, 0x00, 0x00, 0x00, 0x00, 0x00, 0x02,
  0x20, 0x00, 0x00, 0x00, 0x24, 0x00, 0x00, 0x00, 0x03, 0x00, 0x00, 0x00, 0x5c,
  0xf1, 0xff, 0xff, 0x01, 0x00, 0x00, 0x00, 0x01, 0x00, 0x00, 0x00, 0x01, 0x00,
  0x00, 0x00, 0x00, 0x00, 0x00, 0x01, 0x01, 0x00, 0x00, 0x00, 0x91, 0x00, 0x00,
  0x00, 0x03, 0x00, 0x00, 0x00, 0x90, 0x00, 0x00, 0x00, 0x21, 0x00, 0x00, 0x00,
  0x28, 0x00, 0x00, 0x00, 0x1e, 0xf1, 0xff, 0xff, 0x14, 0x00, 0x00, 0x00, 0x00,
  0x00, 0x00, 0x16, 0x10, 0x00, 0x00, 0x00, 0x14, 0x00, 0x00, 0x00, 0x02, 0x00,
  0x00, 0x00, 0xe0, 0xac, 0xff, 0xff, 0x01, 0x00, 0x00, 0x00, 0x90, 0x00, 0x00,
  0x00, 0x02, 0x00, 0x00, 0x00, 0x8f, 0x00, 0x00, 0x00, 0x47, 0x00, 0x00, 0x00,
  0x4e, 0xf1, 0xff, 0xff, 0x14, 0x00, 0x00, 0x00, 0x00, 0x00, 0x00, 0x0a, 0x14,
  0x00, 0x00, 0x00, 0x18, 0x00, 0x00, 0x00, 0x07, 0x00, 0x00, 0x00, 0x3e, 0xf1,
  0xff, 0xff, 0x03, 0x00, 0x00, 0x00, 0x01, 0x00, 0x00, 0x00, 0x8f, 0x00, 0x00,
  0x00, 0x02, 0x00, 0x00, 0x00, 0xa5, 0x00, 0x00, 0x00, 0x5d, 0x00, 0x00, 0x00,
  0xe6, 0xf0, 0xff, 0xff, 0x0c, 0x00, 0x00, 0x00, 0x10, 0x00, 0x00, 0x00, 0x08,
  0x00, 0x00, 0x00, 0x01, 0x00, 0x00, 0x00, 0xa5, 0x00, 0x00, 0x00, 0x01, 0x00,
  0x00, 0x00, 0x8e, 0x00, 0x00, 0x00, 0xa2, 0xf1, 0xff, 0xff, 0x14, 0x00, 0x00,
  0x00, 0x00, 0x00, 0x00, 0x01, 0x20, 0x00, 0x00, 0x00, 0x24, 0x00, 0x00, 0x00,
  0x04, 0x00, 0x00, 0x00, 0x7a, 0xf2, 0xff, 0xff, 0x00, 0x00, 0x04, 0x01, 0x01,
  0x00, 0x00, 0x00, 0x01, 0x00, 0x00, 0x00, 0x00, 0x00, 0x00, 0x01, 0x01, 0x00,
  0x00, 0x00, 0x8e, 0x00, 0x00, 0x00, 0x03, 0x00, 0x00, 0x00, 0x8d, 0x00, 0x00,
  0x00, 0x22, 0x00, 0x00, 0x00, 0x06, 0x00, 0x00, 0x00, 0xe6, 0xf1, 0xff, 0xff,
  0x14, 0x00, 0x00, 0x00, 0x00, 0x00, 0x00, 0x02, 0x20, 0x00, 0x00, 0x00, 0x24,
  0x00, 0x00, 0x00, 0x03, 0x00, 0x00, 0x00, 0x68, 0xf2, 0xff, 0xff, 0x01, 0x00,
  0x00, 0x00, 0x01, 0x00, 0x00, 0x00, 0x01, 0x00, 0x00, 0x00, 0x00, 0x00, 0x00,
  0x01, 0x01, 0x00, 0x00, 0x00, 0x8d, 0x00, 0x00, 0x00, 0x03, 0x00, 0x00, 0x00,
  0x8c, 0x00, 0x00, 0x00, 0x23, 0x00, 0x00, 0x00, 0x3e, 0x00, 0x00, 0x00, 0x2a,
  0xf2, 0xff, 0xff, 0x14, 0x00, 0x00, 0x00, 0x00, 0x00, 0x00, 0x16, 0x10, 0x00,
  0x00, 0x00, 0x14, 0x00, 0x00, 0x00, 0x02, 0x00, 0x00, 0x00, 0xec, 0xad, 0xff,
  0xff, 0x01, 0x00, 0x00, 0x00, 0x8c, 0x00, 0x00, 0x00, 0x02, 0x00, 0x00, 0x00,
  0x8b, 0x00, 0x00, 0x00, 0x47, 0x00, 0x00, 0x00, 0x5a, 0xf2, 0xff, 0xff, 0x14,
  0x00, 0x00, 0x00, 0x00, 0x00, 0x00, 0x0f, 0x14, 0x00, 0x00, 0x00, 0x18, 0x00,
  0x00, 0x00, 0x06, 0x00, 0x00, 0x00, 0xc0, 0xfa, 0xff, 0xff, 0x00, 0x00, 0x00,
  0x01, 0x01, 0x00, 0x00, 0x00, 0x8b, 0x00, 0x00, 0x00, 0x02, 0x00, 0x00, 0x00,
  0x8a, 0x00, 0x00, 0x00, 0x57, 0x00, 0x00, 0x00, 0x8e, 0xf2, 0xff, 0xff, 0x14,
  0x00, 0x00, 0x00, 0x00, 0x00, 0x00, 0x01, 0x20, 0x00, 0x00, 0x00, 0x24, 0x00,
  0x00, 0x00, 0x04, 0x00, 0x00, 0x00, 0x66, 0xf3, 0xff, 0xff, 0x00, 0x00, 0x04,
  0x01, 0x01, 0x00, 0x00, 0x00, 0x01, 0x00, 0x00, 0x00, 0x00, 0x00, 0x00, 0x01,
  0x01, 0x00, 0x00, 0x00, 0x8a, 0x00, 0x00, 0x00, 0x03, 0x00, 0x00, 0x00, 0x89,
  0x00, 0x00, 0x00, 0x24, 0x00, 0x00, 0x00, 0x07, 0x00, 0x00, 0x00, 0xd2, 0xf2,
  0xff, 0xff, 0x14, 0x00, 0x00, 0x00, 0x00, 0x00, 0x00, 0x02, 0x20, 0x00, 0x00,
  0x00, 0x24, 0x00, 0x00, 0x00, 0x03, 0x00, 0x00, 0x00, 0x54, 0xf3, 0xff, 0xff,
  0x01, 0x00, 0x00, 0x00, 0x01, 0x00, 0x00, 0x00, 0x01, 0x00, 0x00, 0x00, 0x00,
  0x00, 0x00, 0x01, 0x01, 0x00, 0x00, 0x00, 0x89, 0x00, 0x00, 0x00, 0x03, 0x00,
  0x00, 0x00, 0x88, 0x00, 0x00, 0x00, 0x25, 0x00, 0x00, 0x00, 0x3e, 0x00, 0x00,
  0x00, 0x16, 0xf3, 0xff, 0xff, 0x14, 0x00, 0x00, 0x00, 0x00, 0x00, 0x00, 0x16,
  0x10, 0x00, 0x00, 0x00, 0x14, 0x00, 0x00, 0x00, 0x02, 0x00, 0x00, 0x00, 0xd8,
  0xae, 0xff, 0xff, 0x01, 0x00, 0x00, 0x00, 0x88, 0x00, 0x00, 0x00, 0x02, 0x00,
  0x00, 0x00, 0x87, 0x00, 0x00, 0x00, 0x47, 0x00, 0x00, 0x00, 0x46, 0xf3, 0xff,
  0xff, 0x14, 0x00, 0x00, 0x00, 0x00, 0x00, 0x00, 0x01, 0x20, 0x00, 0x00, 0x00,
  0x24, 0x00, 0x00, 0x00, 0x04, 0x00, 0x00, 0x00, 0x1e, 0xf4, 0xff, 0xff, 0x00,
  0x00, 0x04, 0x01, 0x01, 0x00, 0x00, 0x00, 0x01, 0x00, 0x00, 0x00, 0x00, 0x00,
  0x00, 0x01, 0x01, 0x00, 0x00, 0x00, 0x87, 0x00, 0x00, 0x00, 0x03, 0x00, 0x00,
  0x00, 0x86, 0x00, 0x00, 0x00, 0x26, 0x00, 0x00, 0x00, 0x08, 0x00, 0x00, 0x00,
  0x8a, 0xf3, 0xff, 0xff, 0x14, 0x00, 0x00, 0x00, 0x00, 0x00, 0x00, 0x02, 0x20,
  0x00, 0x00, 0x00, 0x24, 0x00, 0x00, 0x00, 0x03, 0x00, 0x00, 0x00, 0x0c, 0xf4,
  0xff, 0xff, 0x01, 0x00, 0x00, 0x00, 0x01, 0x00, 0x00, 0x00, 0x01, 0x00, 0x00,
  0x00, 0x00, 0x00, 0x00, 0x01, 0x01, 0x00, 0x00, 0x00, 0x86, 0x00, 0x00, 0x00,
  0x03, 0x00, 0x00, 0x00, 0x85, 0x00, 0x00, 0x00, 0x27, 0x00, 0x00, 0x00, 0x28,
  0x00, 0x00, 0x00, 0xce, 0xf3, 0xff, 0xff, 0x14, 0x00, 0x00, 0x00, 0x00, 0x00,
  0x00, 0x16, 0x10, 0x00, 0x00, 0x00, 0x14, 0x00, 0x00, 0x00, 0x02, 0x00, 0x00,
  0x00, 0x90, 0xaf, 0xff, 0xff, 0x01, 0x00, 0x00, 0x00, 0x85, 0x00, 0x00, 0x00,
  0x02, 0x00, 0x00, 0x00, 0x84, 0x00, 0x00, 0x00, 0x47, 0x00, 0x00, 0x00, 0xfe,
  0xf3, 0xff, 0xff, 0x14, 0x00, 0x00, 0x00, 0x00, 0x00, 0x00, 0x0a, 0x14, 0x00,
  0x00, 0x00, 0x18, 0x00, 0x00, 0x00, 0x07, 0x00, 0x00, 0x00, 0xee, 0xf3, 0xff,
  0xff, 0x03, 0x00, 0x00, 0x00, 0x01, 0x00, 0x00, 0x00, 0x84, 0x00, 0x00, 0x00,
  0x02, 0x00, 0x00, 0x00, 0xa6, 0x00, 0x00, 0x00, 0x68, 0x00, 0x00, 0x00, 0x96,
  0xf3, 0xff, 0xff, 0x0c, 0x00, 0x00, 0x00, 0x10, 0x00, 0x00, 0x00, 0x08, 0x00,
  0x00, 0x00, 0x01, 0x00, 0x00, 0x00, 0xa6, 0x00, 0x00, 0x00, 0x01, 0x00, 0x00,
  0x00, 0x83, 0x00, 0x00, 0x00, 0x52, 0xf4, 0xff, 0xff, 0x14, 0x00, 0x00, 0x00,
  0x00, 0x00, 0x00, 0x01, 0x20, 0x00, 0x00, 0x00, 0x24, 0x00, 0x00, 0x00, 0x04,
  0x00, 0x00, 0x00, 0x2a, 0xf5, 0xff, 0xff, 0x00, 0x00, 0x04, 0x01, 0x01, 0x00,
  0x00, 0x00, 0x01, 0x00, 0x00, 0x00, 0x00, 0x00, 0x00, 0x01, 0x01, 0x00, 0x00,
  0x00, 0x83, 0x00, 0x00, 0x00, 0x03, 0x00, 0x00, 0x00, 0x82, 0x00, 0x00, 0x00,
  0x29, 0x00, 0x00, 0x00, 0x09, 0x00, 0x00, 0x00, 0x96, 0xf4, 0xff, 0xff, 0x14,
  0x00, 0x00, 0x00, 0x00, 0x00, 0x00, 0x02, 0x20, 0x00, 0x00, 0x00, 0x24, 0x00,
  0x00, 0x00, 0x03, 0x00, 0x00, 0x00, 0x18, 0xf5, 0xff, 0xff, 0x01, 0x00, 0x00,
  0x00, 0x01, 0x00, 0x00, 0x00, 0x01, 0x00, 0x00, 0x00, 0x00, 0x00, 0x00, 0x01,
  0x01, 0x00, 0x00, 0x00, 0x82, 0x00, 0x00, 0x00, 0x03, 0x00, 0x00, 0x00, 0x81,
  0x00, 0x00, 0x00, 0x2a, 0x00, 0x00, 0x00, 0x35, 0x00, 0x00, 0x00, 0xda, 0xf4,
  0xff, 0xff, 0x14, 0x00, 0x00, 0x00, 0x00, 0x00, 0x00, 0x16, 0x10, 0x00, 0x00,
  0x00, 0x14, 0x00, 0x00, 0x00, 0x02, 0x00, 0x00, 0x00, 0x9c, 0xb0, 0xff, 0xff,
  0x01, 0x00, 0x00, 0x00, 0x81, 0x00, 0x00, 0x00, 0x02, 0x00, 0x00, 0x00, 0x80,
  0x00, 0x00, 0x00, 0x47, 0x00, 0x00, 0x00, 0x0a, 0xf5, 0xff, 0xff, 0x14, 0x00,
  0x00, 0x00, 0x00, 0x00, 0x00, 0x0f, 0x14, 0x00, 0x00, 0x00, 0x18, 0x00, 0x00,
  0x00, 0x06, 0x00, 0x00, 0x00, 0x70, 0xfd, 0xff, 0xff, 0x00, 0x00, 0x00, 0x01,
  0x01, 0x00, 0x00, 0x00, 0x80, 0x00, 0x00, 0x00, 0x02, 0x00, 0x00, 0x00, 0x7f,
  0x00, 0x00, 0x00, 0x62, 0x00, 0x00, 0x00, 0x3e, 0xf5, 0xff, 0xff, 0x14, 0x00,
  0x00, 0x00, 0x00, 0x00, 0x00, 0x01, 0x20, 0x00, 0x00, 0x00, 0x24, 0x00, 0x00,
  0x00, 0x04, 0x00, 0x00, 0x00, 0x16, 0xf6, 0xff, 0xff, 0x00, 0x00, 0x04, 0x01,
  0x01, 0x00, 0x00, 0x00, 0x01, 0x00, 0x00, 0x00, 0x00, 0x00, 0x00, 0x01, 0x01,
  0x00, 0x00, 0x00, 0x7f, 0x00, 0x00, 0x00, 0x03, 0x00, 0x00, 0x00, 0x7e, 0x00,
  0x00, 0x00, 0x2b, 0x00, 0x00, 0x00, 0x0a, 0x00, 0x00, 0x00, 0x82, 0xf5, 0xff,
  0xff, 0x14, 0x00, 0x00, 0x00, 0x00, 0x00, 0x00, 0x02, 0x20, 0x00, 0x00, 0x00,
  0x24, 0x00, 0x00, 0x00, 0x03, 0x00, 0x00, 0x00, 0x04, 0xf6, 0xff, 0xff, 0x01,
  0x00, 0x00, 0x00, 0x01, 0x00, 0x00, 0x00, 0x01, 0x00, 0x00, 0x00, 0x00, 0x00,
  0x00, 0x01, 0x01, 0x00, 0x00, 0x00, 0x7e, 0x00, 0x00, 0x00, 0x03, 0x00, 0x00,
  0x00, 0x7d, 0x00, 0x00, 0x00, 0x2c, 0x00, 0x00, 0x00, 0x35, 0x00, 0x00, 0x00,
  0xc6, 0xf5, 0xff, 0xff, 0x14, 0x00, 0x00, 0x00, 0x00, 0x00, 0x00, 0x16, 0x10,
  0x00, 0x00, 0x00, 0x14, 0x00, 0x00, 0x00, 0x02, 0x00, 0x00, 0x00, 0x88, 0xb1,
  0xff, 0xff, 0x01, 0x00, 0x00, 0x00, 0x7d, 0x00, 0x00, 0x00, 0x02, 0x00, 0x00,
  0x00, 0x7c, 0x00, 0x00, 0x00, 0x47, 0x00, 0x00, 0x00, 0xf6, 0xf5, 0xff, 0xff,
  0x14, 0x00, 0x00, 0x00, 0x00, 0x00, 0x00, 0x01, 0x20, 0x00, 0x00, 0x00, 0x24,
  0x00, 0x00, 0x00, 0x04, 0x00, 0x00, 0x00, 0xce, 0xf6, 0xff, 0xff, 0x00, 0x00,
  0x04, 0x01, 0x01, 0x00, 0x00, 0x00, 0x01, 0x00, 0x00, 0x00, 0x00, 0x00, 0x00,
  0x01, 0x01, 0x00, 0x00, 0x00, 0x7c, 0x00, 0x00, 0x00, 0x03, 0x00, 0x00, 0x00,
  0x7b, 0x00, 0x00, 0x00, 0x2d, 0x00, 0x00, 0x00, 0x0b, 0x00, 0x00, 0x00, 0x3a,
  0xf6, 0xff, 0xff, 0x14, 0x00, 0x00, 0x00, 0x00, 0x00, 0x00, 0x02, 0x20, 0x00,
  0x00, 0x00, 0x24, 0x00, 0x00, 0x00, 0x03, 0x00, 0x00, 0x00, 0xbc, 0xf6, 0xff,
  0xff, 0x01, 0x00, 0x00, 0x00, 0x01, 0x00, 0x00, 0x00, 0x01, 0x00, 0x00, 0x00,
  0x00, 0x00, 0x00, 0x01, 0x01, 0x00, 0x00, 0x00, 0x7b, 0x00, 0x00, 0x00, 0x03,
  0x00, 0x00, 0x00, 0x7a, 0x00, 0x00, 0x00, 0x2e, 0x00, 0x00, 0x00, 0x2f, 0x00,
  0x00, 0x00, 0x7e, 0xf6, 0xff, 0xff, 0x14, 0x00, 0x00, 0x00, 0x00, 0x00, 0x00,
  0x16, 0x10, 0x00, 0x00, 0x00, 0x14, 0x00, 0x00, 0x00, 0x02, 0x00, 0x00, 0x00,
  0x40, 0xb2, 0xff, 0xff, 0x01, 0x00, 0x00, 0x00, 0x7a, 0x00, 0x00, 0x00, 0x02,
  0x00, 0x00, 0x00, 0x79, 0x00, 0x00, 0x00, 0x47, 0x00, 0x00, 0x00, 0xae, 0xf6,
  0xff, 0xff, 0x14, 0x00, 0x00, 0x00, 0x00, 0x00, 0x00, 0x0a, 0x14, 0x00, 0x00,
  0x00, 0x18, 0x00, 0x00, 0x00, 0x07, 0x00, 0x00, 0x00, 0x9e, 0xf6, 0xff, 0xff,
  0x03, 0x00, 0x00, 0x00, 0x01, 0x00, 0x00, 0x00, 0x79, 0x00, 0x00, 0x00, 0x02,
  0x00, 0x00, 0x00, 0x78, 0x00, 0x00, 0x00, 0x73, 0x00, 0x00, 0x00, 0xe2, 0xf6,
  0xff, 0xff, 0x14, 0x00, 0x00, 0x00, 0x00, 0x00, 0x00, 0x01, 0x20, 0x00, 0x00,
  0x00, 0x24, 0x00, 0x00, 0x00, 0x04, 0x00, 0x00, 0x00, 0xba, 0xf7, 0xff, 0xff,
  0x00, 0x00, 0x04, 0x01, 0x01, 0x00, 0x00, 0x00, 0x01, 0x00, 0x00, 0x00, 0x00,
  0x00, 0x00, 0x01, 0x01, 0x00, 0x00, 0x00, 0x78, 0x00, 0x00, 0x00, 0x03, 0x00,
  0x00, 0x00, 0x77, 0x00, 0x00, 0x00, 0x30, 0x00, 0x00, 0x00, 0x0c, 0x00, 0x00,
  0x00, 0x26, 0xf7, 0xff, 0xff, 0x14, 0x00, 0x00, 0x00, 0x00, 0x00, 0x00, 0x02,
  0x20, 0x00, 0x00, 0x00, 0x24, 0x00, 0x00, 0x00, 0x03, 0x00, 0x00, 0x00, 0xa8,
  0xf7, 0xff, 0xff, 0x01, 0x00, 0x00, 0x00, 0x01, 0x00, 0x00, 0x00, 0x01, 0x00,
  0x00, 0x00, 0x00, 0x00, 0x00, 0x01, 0x01, 0x00, 0x00, 0x00, 0x77, 0x00, 0x00,
  0x00, 0x03, 0x00, 0x00, 0x00, 0x76, 0x00, 0x00, 0x00, 0x31, 0x00, 0x00, 0x00,
  0x35, 0x00, 0x00, 0x00, 0x6a, 0xf7, 0xff, 0xff, 0x14, 0x00, 0x00, 0x00, 0x00,
  0x00, 0x00, 0x16, 0x10, 0x00, 0x00, 0x00, 0x14, 0x00, 0x00, 0x00, 0x02, 0x00,
  0x00, 0x00, 0x2c, 0xb3, 0xff, 0xff, 0x01, 0x00, 0x00, 0x00, 0x76, 0x00, 0x00,
  0x00, 0x02, 0x00, 0x00, 0x00, 0x75, 0x00, 0x00, 0x00, 0x47, 0x00, 0x00, 0x00,
  0x9a, 0xf7, 0xff, 0xff, 0x20, 0x00, 0x00, 0x00, 0x00, 0x00, 0x00, 0x0f, 0x20,
  0x00, 0x00, 0x00, 0x24, 0x00, 0x00, 0x00, 0x06, 0x00, 0x00, 0x00, 0x0c, 0x00,
  0x08, 0x00, 0x00, 0x00, 0x00, 0x00, 0x00, 0x00, 0x07, 0x00, 0x0c, 0x00, 0x00,
  0x00, 0x00, 0x00, 0x00, 0x01, 0x01, 0x00, 0x00, 0x00, 0x75, 0x00, 0x00, 0x00,
  0x02, 0x00, 0x00, 0x00, 0x74, 0x00, 0x00, 0x00, 0x6d, 0x00, 0x00, 0x00, 0xda,
  0xf7, 0xff, 0xff, 0x14, 0x00, 0x00, 0x00, 0x00, 0x00, 0x00, 0x05, 0x20, 0x00,
  0x00, 0x00, 0x24, 0x00, 0x00, 0x00, 0x05, 0x00, 0x00, 0x00, 0xb6, 0xf9, 0xff,
  0xff, 0x02, 0x00, 0x00, 0x00, 0x02, 0x00, 0x00, 0x00, 0x02, 0x00, 0x00, 0x00,
  0x02, 0x00, 0x00, 0x00, 0x01, 0x00, 0x00, 0x00, 0x74, 0x00, 0x00, 0x00, 0x01,
  0x00, 0x00, 0x00, 0x73, 0x00, 0x00, 0x00, 0x16, 0xf8, 0xff, 0xff, 0x14, 0x00,
  0x00, 0x00, 0x00, 0x00, 0x00, 0x01, 0x20, 0x00, 0x00, 0x00, 0x24, 0x00, 0x00,
  0x00, 0x04, 0x00, 0x00, 0x00, 0xee, 0xf8, 0xff, 0xff, 0x00, 0x00, 0x04, 0x01,
  0x01, 0x00, 0x00, 0x00, 0x01, 0x00, 0x00, 0x00, 0x00, 0x00, 0x00, 0x01, 0x01,
  0x00, 0x00, 0x00, 0x73, 0x00, 0x00, 0x00, 0x03, 0x00, 0x00, 0x00, 0x72, 0x00,
  0x00, 0x00, 0x32, 0x00, 0x00, 0x00, 0x0d, 0x00, 0x00, 0x00, 0x5a, 0xf8, 0xff,
  0xff, 0x14, 0x00, 0x00, 0x00, 0x00, 0x00, 0x00, 0x02, 0x20, 0x00, 0x00, 0x00,
  0x24, 0x00, 0x00, 0x00, 0x03, 0x00, 0x00, 0x00, 0xdc, 0xf8, 0xff, 0xff, 0x01,
  0x00, 0x00, 0x00, 0x01, 0x00, 0x00, 0x00, 0x01, 0x00, 0x00, 0x00, 0x00, 0x00,
  0x00, 0x01, 0x01, 0x00, 0x00, 0x00, 0x72, 0x00, 0x00, 0x00, 0x03, 0x00, 0x00,
  0x00, 0x71, 0x00, 0x00, 0x00, 0x33, 0x00, 0x00, 0x00, 0x35, 0x00, 0x00, 0x00,
  0x9e, 0xf8, 0xff, 0xff, 0x14, 0x00, 0x00, 0x00, 0x00, 0x00, 0x00, 0x16, 0x10,
  0x00, 0x00, 0x00, 0x14, 0x00, 0x00, 0x00, 0x02, 0x00, 0x00, 0x00, 0x60, 0xb4,
  0xff, 0xff, 0x01, 0x00, 0x00, 0x00, 0x71, 0x00, 0x00, 0x00, 0x02, 0x00, 0x00,
  0x00, 0x70, 0x00, 0x00, 0x00, 0x47, 0x00, 0x00, 0x00, 0xce, 0xf8, 0xff, 0xff,
  0x14, 0x00, 0x00, 0x00, 0x00, 0x00, 0x00, 0x01, 0x20, 0x00, 0x00, 0x00, 0x24,
  0x00, 0x00, 0x00, 0x04, 0x00, 0x00, 0x00, 0xa6, 0xf9, 0xff, 0xff, 0x00, 0x00,
  0x04, 0x01, 0x01, 0x00, 0x00, 0x00, 0x01, 0x00, 0x00, 0x00, 0x00, 0x00, 0x00,
  0x01, 0x01, 0x00, 0x00, 0x00, 0x70, 0x00, 0x00, 0x00, 0x03, 0x00, 0x00, 0x00,
  0x6f, 0x00, 0x00, 0x00, 0x34, 0x00, 0x00, 0x00, 0x0e, 0x00, 0x00, 0x00, 0x12,
  0xf9, 0xff, 0xff, 0x14, 0x00, 0x00, 0x00, 0x00, 0x00, 0x00, 0x02, 0x20, 0x00,
  0x00, 0x00, 0x24, 0x00, 0x00, 0x00, 0x03, 0x00, 0x00, 0x00, 0x94, 0xf9, 0xff,
  0xff, 0x01, 0x00, 0x00, 0x00, 0x01, 0x00, 0x00, 0x00, 0x01, 0x00, 0x00, 0x00,
  0x00, 0x00, 0x00, 0x01, 0x01, 0x00, 0x00, 0x00, 0x6f, 0x00, 0x00, 0x00, 0x03,
  0x00, 0x00, 0x00, 0x6a, 0x00, 0x00, 0x00, 0x36, 0x00, 0x00, 0x00, 0x3e, 0x00,
  0x00, 0x00, 0x56, 0xf9, 0xff, 0xff, 0x14, 0x00, 0x00, 0x00, 0x00, 0x00, 0x00,
  0x4f, 0x14, 0x00, 0x00, 0x00, 0x20, 0x00, 0x00, 0x00, 0x01, 0x00, 0x00, 0x00,
  0x46, 0xf9, 0xff, 0xff, 0x03, 0x00, 0x00, 0x00, 0x03, 0x00, 0x00, 0x00, 0x6c,
  0x00, 0x00, 0x00, 0x6d, 0x00, 0x00, 0x00, 0x6e, 0x00, 0x00, 0x00, 0x03, 0x00,
  0x00, 0x00, 0x6b, 0x00, 0x00, 0x00, 0x48, 0x00, 0x00, 0x00, 0x46, 0x00, 0x00,
  0x00, 0x3e, 0xf9, 0xff, 0xff, 0x10, 0x00, 0x00, 0x00, 0x00, 0x00, 0x00, 0x37,
  0x10, 0x00, 0x00, 0x00, 0x14, 0x00, 0x00, 0x00, 0x2e, 0xf9, 0xff, 0xff, 0x00,
  0x00, 0x00, 0x02, 0x01, 0x00, 0x00, 0x00, 0x6b, 0x00, 0x00, 0x00, 0x01, 0x00,
  0x00, 0x00, 0x69, 0x00, 0x00, 0x00, 0xc2, 0xf9, 0xff, 0xff, 0x14, 0x00, 0x00,
  0x00, 0x00, 0x00, 0x00, 0x16, 0x10, 0x00, 0x00, 0x00, 0x14, 0x00, 0x00, 0x00,
  0x02, 0x00, 0x00, 0x00, 0x84, 0xb5, 0xff, 0xff, 0x01, 0x00, 0x00, 0x00, 0x6a,
  0x00, 0x00, 0x00, 0x02, 0x00, 0x00, 0x00, 0x69, 0x00, 0x00, 0x00, 0x47, 0x00,
  0x00, 0x00, 0xf2, 0xf9, 0xff, 0xff, 0x14, 0x00, 0x00, 0x00, 0x00, 0x00, 0x00,
  0x05, 0x20, 0x00, 0x00, 0x00, 0x24, 0x00, 0x00, 0x00, 0x05, 0x00, 0x00, 0x00,
  0xce, 0xfb, 0xff, 0xff, 0x02, 0x00, 0x00, 0x00, 0x02, 0x00, 0x00, 0x00, 0x02,
  0x00, 0x00, 0x00, 0x02, 0x00, 0x00, 0x00, 0x01, 0x00, 0x00, 0x00, 0x69, 0x00,
  0x00, 0x00, 0x01, 0x00, 0x00, 0x00, 0x68, 0x00, 0x00, 0x00, 0x2e, 0xfa, 0xff,
  0xff, 0x14, 0x00, 0x00, 0x00, 0x00, 0x00, 0x00, 0x01, 0x20, 0x00, 0x00, 0x00,
  0x24, 0x00, 0x00, 0x00, 0x04, 0x00, 0x00, 0x00, 0x06, 0xfb, 0xff, 0xff, 0x00,
  0x00, 0x04, 0x01, 0x01, 0x00, 0x00, 0x00, 0x01, 0x00, 0x00, 0x00, 0x00, 0x00,
  0x00, 0x01, 0x01, 0x00, 0x00, 0x00, 0x68, 0x00, 0x00, 0x00, 0x03, 0x00, 0x00,
  0x00, 0x67, 0x00, 0x00, 0x00, 0x37, 0x00, 0x00, 0x00, 0x0f, 0x00, 0x00, 0x00,
  0x72, 0xfa, 0xff, 0xff, 0x14, 0x00, 0x00, 0x00, 0x00, 0x00, 0x00, 0x02, 0x20,
  0x00, 0x00, 0x00, 0x24, 0x00, 0x00, 0x00, 0x03, 0x00, 0x00, 0x00, 0xf4, 0xfa,
  0xff, 0xff, 0x01, 0x00, 0x00, 0x00, 0x01, 0x00, 0x00, 0x00, 0x01, 0x00, 0x00,
  0x00, 0x00, 0x00, 0x00, 0x01, 0x01, 0x00, 0x00, 0x00, 0x67, 0x00, 0x00, 0x00,
  0x03, 0x00, 0x00, 0x00, 0x66, 0x00, 0x00, 0x00, 0x38, 0x00, 0x00, 0x00, 0x3e,
  0x00, 0x00, 0x00, 0xb6, 0xfa, 0xff, 0xff, 0x14, 0x00, 0x00, 0x00, 0x00, 0x00,
  0x00, 0x16, 0x10, 0x00, 0x00, 0x00, 0x14, 0x00, 0x00, 0x00, 0x02, 0x00, 0x00,
  0x00, 0x78, 0xb6, 0xff, 0xff, 0x01, 0x00, 0x00, 0x00, 0x66, 0x00, 0x00, 0x00,
  0x02, 0x00, 0x00, 0x00, 0x65, 0x00, 0x00, 0x00, 0x47, 0x00, 0x00, 0x00, 0xe6,
  0xfa, 0xff, 0xff, 0x14, 0x00, 0x00, 0x00, 0x00, 0x00, 0x00, 0x01, 0x20, 0x00,
  0x00, 0x00, 0x24, 0x00, 0x00, 0x00, 0x04, 0x00, 0x00, 0x00, 0xbe, 0xfb, 0xff,
  0xff, 0x00, 0x00, 0x04, 0x01, 0x01, 0x00, 0x00, 0x00, 0x01, 0x00, 0x00, 0x00,
  0x00, 0x00, 0x00, 0x01, 0x01, 0x00, 0x00, 0x00, 0x65, 0x00, 0x00, 0x00, 0x03,
  0x00, 0x00, 0x00, 0x64, 0x00, 0x00, 0x00, 0x39, 0x00, 0x00, 0x00, 0x10, 0x00,
  0x00, 0x00, 0x2a, 0xfb, 0xff, 0xff, 0x14, 0x00, 0x00, 0x00, 0x00, 0x00, 0x00,
  0x02, 0x20, 0x00, 0x00, 0x00, 0x24, 0x00, 0x00, 0x00, 0x03, 0x00, 0x00, 0x00,
  0xac, 0xfb, 0xff, 0xff, 0x01, 0x00, 0x00, 0x00, 0x01, 0x00, 0x00, 0x00, 0x01,
  0x00, 0x00, 0x00, 0x00, 0x00, 0x00, 0x01, 0x01, 0x00, 0x00, 0x00, 0x64, 0x00,
  0x00, 0x00, 0x03, 0x00, 0x00, 0x00, 0x5f, 0x00, 0x00, 0x00, 0x3a, 0x00, 0x00,
  0x00, 0x3e, 0x00, 0x00, 0x00, 0x6e, 0xfb, 0xff, 0xff, 0x14, 0x00, 0x00, 0x00,
  0x00, 0x00, 0x00, 0x4f, 0x14, 0x00, 0x00, 0x00, 0x20, 0x00, 0x00, 0x00, 0x01,
  0x00, 0x00, 0x00, 0x5e, 0xfb, 0xff, 0xff, 0x03, 0x00, 0x00, 0x00, 0x03, 0x00,
  0x00, 0x00, 0x61, 0x00, 0x00, 0x00, 0x62, 0x00, 0x00, 0x00, 0x63, 0x00, 0x00,
  0x00, 0x03, 0x00, 0x00, 0x00, 0x60, 0x00, 0x00, 0x00, 0x48, 0x00, 0x00, 0x00,
  0x46, 0x00, 0x00, 0x00, 0x56, 0xfb, 0xff, 0xff, 0x10, 0x00, 0x00, 0x00, 0x00,
  0x00, 0x00, 0x37, 0x10, 0x00, 0x00, 0x00, 0x14, 0x00, 0x00, 0x00, 0x46, 0xfb,
  0xff, 0xff, 0x00, 0x00, 0x00, 0x02, 0x01, 0x00, 0x00, 0x00, 0x60, 0x00, 0x00,
  0x00, 0x01, 0x00, 0x00, 0x00, 0x5e, 0x00, 0x00, 0x00, 0xda, 0xfb, 0xff, 0xff,
  0x14, 0x00, 0x00, 0x00, 0x00, 0x00, 0x00, 0x16, 0x10, 0x00, 0x00, 0x00, 0x14,
  0x00, 0x00, 0x00, 0x02, 0x00, 0x00, 0x00, 0x9c, 0xb7, 0xff, 0xff, 0x01, 0x00,
  0x00, 0x00, 0x5f, 0x00, 0x00, 0x00, 0x02, 0x00, 0x00, 0x00, 0x5e, 0x00, 0x00,
  0x00, 0x47, 0x00, 0x00, 0x00, 0x0a, 0xfc, 0xff, 0xff, 0x14, 0x00, 0x00, 0x00,
  0x00, 0x00, 0x00, 0x05, 0x20, 0x00, 0x00, 0x00, 0x24, 0x00, 0x00, 0x00, 0x05,
  0x00, 0x00, 0x00, 0xe6, 0xfd, 0xff, 0xff, 0x02, 0x00, 0x00, 0x00, 0x02, 0x00,
  0x00, 0x00, 0x02, 0x00, 0x00, 0x00, 0x02, 0x00, 0x00, 0x00, 0x01, 0x00, 0x00,
  0x00, 0x5e, 0x00, 0x00, 0x00, 0x01, 0x00, 0x00, 0x00, 0x5d, 0x00, 0x00, 0x00,
  0x46, 0xfc, 0xff, 0xff, 0x14, 0x00, 0x00, 0x00, 0x00, 0x00, 0x00, 0x01, 0x20,
  0x00, 0x00, 0x00, 0x24, 0x00, 0x00, 0x00, 0x04, 0x00, 0x00, 0x00, 0x1e, 0xfd,
  0xff, 0xff, 0x00, 0x00, 0x04, 0x01, 0x01, 0x00, 0x00, 0x00, 0x01, 0x00, 0x00,
  0x00, 0x00, 0x00, 0x00, 0x01, 0x01, 0x00, 0x00, 0x00, 0x5d, 0x00, 0x00, 0x00,
  0x03, 0x00, 0x00, 0x00, 0x5c, 0x00, 0x00, 0x00, 0x3b, 0x00, 0x00, 0x00, 0x11,
  0x00, 0x00, 0x00, 0x8a, 0xfc, 0xff, 0xff, 0x14, 0x00, 0x00, 0x00, 0x00, 0x00,
  0x00, 0x02, 0x20, 0x00, 0x00, 0x00, 0x24, 0x00, 0x00, 0x00, 0x03, 0x00, 0x00,
  0x00, 0x0c, 0xfd, 0xff, 0xff, 0x01, 0x00, 0x00, 0x00, 0x01, 0x00, 0x00, 0x00,
  0x01, 0x00, 0x00, 0x00, 0x00, 0x00, 0x00, 0x01, 0x01, 0x00, 0x00, 0x00, 0x5c,
  0x00, 0x00, 0x00, 0x03, 0x00, 0x00, 0x00, 0x5b, 0x00, 0x00, 0x00, 0x3c, 0x00,
  0x00, 0x00, 0x3e, 0x00, 0x00, 0x00, 0xce, 0xfc, 0xff, 0xff, 0x14, 0x00, 0x00,
  0x00, 0x00, 0x00, 0x00, 0x16, 0x10, 0x00, 0x00, 0x00, 0x14, 0x00, 0x00, 0x00,
  0x02, 0x00, 0x00, 0x00, 0x90, 0xb8, 0xff, 0xff, 0x01, 0x00, 0x00, 0x00, 0x5b,
  0x00, 0x00, 0x00, 0x02, 0x00, 0x00, 0x00, 0x5a, 0x00, 0x00, 0x00, 0x47, 0x00,
  0x00, 0x00, 0xfe, 0xfc, 0xff, 0xff, 0x14, 0x00, 0x00, 0x00, 0x00, 0x00, 0x00,
  0x01, 0x20, 0x00, 0x00, 0x00, 0x24, 0x00, 0x00, 0x00, 0x04, 0x00, 0x00, 0x00,
  0xd6, 0xfd, 0xff, 0xff, 0x00, 0x00, 0x04, 0x01, 0x01, 0x00, 0x00, 0x00, 0x01,
  0x00, 0x00, 0x00, 0x00, 0x00, 0x00, 0x01, 0x01, 0x00, 0x00, 0x00, 0x5a, 0x00,
  0x00, 0x00, 0x03, 0x00, 0x00, 0x00, 0x59, 0x00, 0x00, 0x00, 0x3d, 0x00, 0x00,
  0x00, 0x12, 0x00, 0x00, 0x00, 0x42, 0xfd, 0xff, 0xff, 0x14, 0x00, 0x00, 0x00,
  0x00, 0x00, 0x00, 0x02, 0x20, 0x00, 0x00, 0x00, 0x24, 0x00, 0x00, 0x00, 0x03,
  0x00, 0x00, 0x00, 0xc4, 0xfd, 0xff, 0xff, 0x01, 0x00, 0x00, 0x00, 0x01, 0x00,
  0x00, 0x00, 0x01, 0x00, 0x00, 0x00, 0x00, 0x00, 0x00, 0x01, 0x01, 0x00, 0x00,
  0x00, 0x59, 0x00, 0x00, 0x00, 0x03, 0x00, 0x00, 0x00, 0x54, 0x00, 0x00, 0x00,
  0x3f, 0x00, 0x00, 0x00, 0x43, 0x00, 0x00, 0x00, 0x86, 0xfd, 0xff, 0xff, 0x14,
  0x00, 0x00, 0x00, 0x00, 0x00, 0x00, 0x4f, 0x14, 0x00, 0x00, 0x00, 0x20, 0x00,
  0x00, 0x00, 0x01, 0x00, 0x00, 0x00, 0x76, 0xfd, 0xff, 0xff, 0x03, 0x00, 0x00,
  0x00, 0x03, 0x00, 0x00, 0x00, 0x56, 0x00, 0x00, 0x00, 0x57, 0x00, 0x00, 0x00,
  0x58, 0x00, 0x00, 0x00, 0x03, 0x00, 0x00, 0x00, 0x55, 0x00, 0x00, 0x00, 0x48,
  0x00, 0x00, 0x00, 0x46, 0x00, 0x00, 0x00, 0x6e, 0xfd, 0xff, 0xff, 0x10, 0x00,
  0x00, 0x00, 0x00, 0x00, 0x00, 0x37, 0x10, 0x00, 0x00, 0x00, 0x14, 0x00, 0x00,
  0x00, 0x5e, 0xfd, 0xff, 0xff, 0x00, 0x00, 0x00, 0x02, 0x01, 0x00, 0x00, 0x00,
  0x55, 0x00, 0x00, 0x00, 0x01, 0x00, 0x00, 0x00, 0x53, 0x00, 0x00, 0x00, 0xf2,
  0xfd, 0xff, 0xff, 0x14, 0x00, 0x00, 0x00, 0x00, 0x00, 0x00, 0x16, 0x10, 0x00,
  0x00, 0x00, 0x14, 0x00, 0x00, 0x00, 0x02, 0x00, 0x00, 0x00, 0xb4, 0xb9, 0xff,
  0xff, 0x01, 0x00, 0x00, 0x00, 0x54, 0x00, 0x00, 0x00, 0x02, 0x00, 0x00, 0x00,
  0x53, 0x00, 0x00, 0x00, 0x47, 0x00, 0x00, 0x00, 0x22, 0xfe, 0xff, 0xff, 0x24,
  0x00, 0x00, 0x00, 0x00, 0x00, 0x00, 0x05, 0x30, 0x00, 0x00, 0x00, 0x34, 0x00,
  0x00, 0x00, 0x05, 0x00, 0x00, 0x00, 0x00, 0x00, 0x0e, 0x00, 0x14, 0x00, 0x00,
  0x00, 0x10, 0x00, 0x0c, 0x00, 0x08, 0x00, 0x04, 0x00, 0x0e, 0x00, 0x00, 0x00,
  0x02, 0x00, 0x00, 0x00, 0x02, 0x00, 0x00, 0x00, 0x02, 0x00, 0x00, 0x00, 0x02,
  0x00, 0x00, 0x00, 0x01, 0x00, 0x00, 0x00, 0x53, 0x00, 0x00, 0x00, 0x01, 0x00,
  0x00, 0x00, 0x52, 0x00, 0x00, 0x00, 0x6e, 0xfe, 0xff, 0xff, 0x14, 0x00, 0x00,
  0x00, 0x00, 0x00, 0x00, 0x01, 0x20, 0x00, 0x00, 0x00, 0x24, 0x00, 0x00, 0x00,
  0x04, 0x00, 0x00, 0x00, 0x46, 0xff, 0xff, 0xff, 0x00, 0x00, 0x04, 0x01, 0x01,
  0x00, 0x00, 0x00, 0x01, 0x00, 0x00, 0x00, 0x00, 0x00, 0x00, 0x01, 0x01, 0x00,
  0x00, 0x00, 0x52, 0x00, 0x00, 0x00, 0x03, 0x00, 0x00, 0x00, 0x51, 0x00, 0x00,
  0x00, 0x40, 0x00, 0x00, 0x00, 0x13, 0x00, 0x00, 0x00, 0xb2, 0xfe, 0xff, 0xff,
  0x14, 0x00, 0x00, 0x00, 0x00, 0x00, 0x00, 0x02, 0x20, 0x00, 0x00, 0x00, 0x24,
  0x00, 0x00, 0x00, 0x03, 0x00, 0x00, 0x00, 0x34, 0xff, 0xff, 0xff, 0x01, 0x00,
  0x00, 0x00, 0x01, 0x00, 0x00, 0x00, 0x01, 0x00, 0x00, 0x00, 0x00, 0x00, 0x00,
  0x01, 0x01, 0x00, 0x00, 0x00, 0x51, 0x00, 0x00, 0x00, 0x03, 0x00, 0x00, 0x00,
  0x50, 0x00, 0x00, 0x00, 0x41, 0x00, 0x00, 0x00, 0x43, 0x00, 0x00, 0x00, 0xf6,
  0xfe, 0xff, 0xff, 0x14, 0x00, 0x00, 0x00, 0x00, 0x00, 0x00, 0x16, 0x10, 0x00,
  0x00, 0x00, 0x14, 0x00, 0x00, 0x00, 0x02, 0x00, 0x00, 0x00, 0xb8, 0xba, 0xff,
  0xff, 0x01, 0x00, 0x00, 0x00, 0x50, 0x00, 0x00, 0x00, 0x02, 0x00, 0x00, 0x00,
  0x4f, 0x00, 0x00, 0x00, 0x47, 0x00, 0x00, 0x00, 0x26, 0xff, 0xff, 0xff, 0x28,
  0x00, 0x00, 0x00, 0x00, 0x00, 0x00, 0x01, 0x34, 0x00, 0x00, 0x00, 0x38, 0x00,
  0x00, 0x00, 0x04, 0x00, 0x00, 0x00, 0x00, 0x00, 0x12, 0x00, 0x14, 0x00, 0x13,
  0x00, 0x0c, 0x00, 0x08, 0x00, 0x07, 0x00, 0x00, 0x00, 0x00, 0x00, 0x06, 0x00,
  0x12, 0x00, 0x00, 0x00, 0x00, 0x00, 0x04, 0x01, 0x01, 0x00, 0x00, 0x00, 0x01,
  0x00, 0x00, 0x00, 0x00, 0x00, 0x00, 0x01, 0x01, 0x00, 0x00, 0x00, 0x4f, 0x00,
  0x00, 0x00, 0x03, 0x00, 0x00, 0x00, 0x4e, 0x00, 0x00, 0x00, 0x42, 0x00, 0x00,
  0x00, 0x14, 0x00, 0x00, 0x00, 0x7e, 0xff, 0xff, 0xff, 0x20, 0x00, 0x00, 0x00,
  0x00, 0x00, 0x00, 0x02, 0x2c, 0x00, 0x00, 0x00, 0x30, 0x00, 0x00, 0x00, 0x03,
  0x00, 0x00, 0x00, 0x0c, 0x00, 0x14, 0x00, 0x13, 0x00, 0x0c, 0x00, 0x08, 0x00,
  0x04, 0x00, 0x0c, 0x00, 0x00, 0x00, 0x01, 0x00, 0x00, 0x00, 0x01, 0x00, 0x00,
  0x00, 0x01, 0x00, 0x00, 0x00, 0x00, 0x00, 0x00, 0x01, 0x01, 0x00, 0x00, 0x00,
  0x4e, 0x00, 0x00, 0x00, 0x03, 0x00, 0x00, 0x00, 0x4d, 0x00, 0x00, 0x00, 0x44,
  0x00, 0x00, 0x00, 0x45, 0x00, 0x00, 0x00, 0xce, 0xff, 0xff, 0xff, 0x14, 0x00,
  0x00, 0x00, 0x00, 0x00, 0x00, 0x16, 0x10, 0x00, 0x00, 0x00, 0x14, 0x00, 0x00,
  0x00, 0x02, 0x00, 0x00, 0x00, 0x90, 0xbb, 0xff, 0xff, 0x01, 0x00, 0x00, 0x00,
  0x4d, 0x00, 0x00, 0x00, 0x02, 0x00, 0x00, 0x00, 0x00, 0x00, 0x00, 0x00, 0x47,
  0x00, 0x00, 0x00, 0x00, 0x00, 0x0e, 0x00, 0x1a, 0x00, 0x14, 0x00, 0x10, 0x00,
  0x0c, 0x00, 0x0b, 0x00, 0x04, 0x00, 0x0e, 0x00, 0x00, 0x00, 0x1c, 0x00, 0x00,
  0x00, 0x00, 0x00, 0x00, 0x4f, 0x1c, 0x00, 0x00, 0x00, 0x28, 0x00, 0x00, 0x00,
  0x01, 0x00, 0x00, 0x00, 0x00, 0x00, 0x06, 0x00, 0x08, 0x00, 0x04, 0x00, 0x06,
  0x00, 0x00, 0x00, 0x03, 0x00, 0x00, 0x00, 0x03, 0x00, 0x00, 0x00, 0x4a, 0x00,
  0x00, 0x00, 0x4b, 0x00, 0x00, 0x00, 0x4c, 0x00, 0x00, 0x00, 0x03, 0x00, 0x00,
  0x00, 0x49, 0x00, 0x00, 0x00, 0x48, 0x00, 0x00, 0x00, 0x46, 0x00, 0x00, 0x00,
  0x00, 0x00, 0x0e, 0x00, 0x16, 0x00, 0x00, 0x00, 0x10, 0x00, 0x0c, 0x00, 0x0b,
  0x00, 0x04, 0x00, 0x0e, 0x00, 0x00, 0x00, 0x18, 0x00, 0x00, 0x00, 0x00, 0x00,
  0x00, 0x37, 0x18, 0x00, 0x00, 0x00, 0x1c, 0x00, 0x00, 0x00, 0x00, 0x00, 0x06,
  0x00, 0x08, 0x00, 0x07, 0x00, 0x06, 0x00, 0x00, 0x00, 0x00, 0x00, 0x00, 0x02,
  0x01, 0x00, 0x00, 0x00, 0x49, 0x00, 0x00, 0x00, 0x01, 0x00, 0x00, 0x00, 0x00,
  0x00, 0x00, 0x00, 0x00, 0x00, 0x0a, 0x00, 0x10, 0x00, 0x0c, 0x00, 0x08, 0x00,
  0x04, 0x00, 0x0a, 0x00, 0x00, 0x00, 0x0c, 0x00, 0x00, 0x00, 0x10, 0x00, 0x00,
  0x00, 0x08, 0x00, 0x00, 0x00, 0x01, 0x00, 0x00, 0x00, 0x00, 0x00, 0x00, 0x00,
  0x01, 0x00, 0x00, 0x00, 0xa7, 0x00, 0x00, 0x00, 0x01, 0x00, 0x00, 0x00, 0xa8,
  0x00, 0x00, 0x00, 0x01, 0x00, 0x00, 0x00, 0xa7, 0x00, 0x00, 0x00, 0xa9, 0x00,
  0x00, 0x00, 0xc0, 0x7d, 0x00, 0x00, 0x1c, 0x7d, 0x00, 0x00, 0x84, 0x7c, 0x00,
  0x00, 0x00, 0x7c, 0x00, 0x00, 0x4c, 0x7b, 0x00, 0x00, 0x98, 0x7a, 0x00, 0x00,
  0xe4, 0x79, 0x00, 0x00, 0x30, 0x79, 0x00, 0x00, 0x7c, 0x78, 0x00, 0x00, 0xc8,
  0x77, 0x00, 0x00, 0x2c, 0x77, 0x00, 0x00, 0x90, 0x76, 0x00, 0x00, 0xf4, 0x75,
  0x00, 0x00, 0x58, 0x75, 0x00, 0x00, 0xbc, 0x74, 0x00, 0x00, 0x08, 0x74, 0x00,
  0x00, 0x54, 0x73, 0x00, 0x00, 0xa0, 0x72, 0x00, 0x00, 0xec, 0x71, 0x00, 0x00,
  0x68, 0x71, 0x00, 0x00, 0xe4, 0x70, 0x00, 0x00, 0x78, 0x70, 0x00, 0x00, 0xdc,
  0x6f, 0x00, 0x00, 0x00, 0x6f, 0x00, 0x00, 0x3c, 0x6e, 0x00, 0x00, 0x74, 0x6d,
  0x00, 0x00, 0xb4, 0x6c, 0x00, 0x00, 0x9c, 0x6b, 0x00, 0x00, 0xdc, 0x6a, 0x00,
  0x00, 0xc4, 0x69, 0x00, 0x00, 0xb4, 0x68, 0x00, 0x00, 0x9c, 0x67, 0x00, 0x00,
  0x8c, 0x66, 0x00, 0x00, 0xd4, 0x64, 0x00, 0x00, 0xc4, 0x63, 0x00, 0x00, 0xac,
  0x62, 0x00, 0x00, 0x9c, 0x61, 0x00, 0x00, 0x84, 0x60, 0x00, 0x00, 0x74, 0x5f,
  0x00, 0x00, 0xbc, 0x5d, 0x00, 0x00, 0xa4, 0x5c, 0x00, 0x00, 0x90, 0x5b, 0x00,
  0x00, 0xa0, 0x5a, 0x00, 0x00, 0xb8, 0x59, 0x00, 0x00, 0xc8, 0x58, 0x00, 0x00,
  0xe0, 0x57, 0x00, 0x00, 0x78, 0x56, 0x00, 0x00, 0x90, 0x55, 0x00, 0x00, 0xa4,
  0x54, 0x00, 0x00, 0xb4, 0x53, 0x00, 0x00, 0xcc, 0x52, 0x00, 0x00, 0xdc, 0x51,
  0x00, 0x00, 0xf4, 0x50, 0x00, 0x00, 0x58, 0x50, 0x00, 0x00, 0x40, 0x4f, 0x00,
  0x00, 0x30, 0x4e, 0x00, 0x00, 0x18, 0x4d, 0x00, 0x00, 0x08, 0x4c, 0x00, 0x00,
  0xf0, 0x4a, 0x00, 0x00, 0xe0, 0x49, 0x00, 0x00, 0xc8, 0x48, 0x00, 0x00, 0xb8,
  0x47, 0x00, 0x00, 0x04, 0x47, 0x00, 0x00, 0x3c, 0x46, 0x00, 0x00, 0x7c, 0x45,
  0x00, 0x00, 0xb4, 0x44, 0x00, 0x00, 0xf4, 0x43, 0x00, 0x00, 0x70, 0x43, 0x00,
  0x00, 0xe8, 0x42, 0x00, 0x00, 0x88, 0x42, 0x00, 0x00, 0x4c, 0x42, 0x00, 0x00,
  0xec, 0x41, 0x00, 0x00, 0xa8, 0x41, 0x00, 0x00, 0x64, 0x41, 0x00, 0x00, 0x14,
  0x41, 0x00, 0x00, 0xc4, 0x40, 0x00, 0x00, 0x74, 0x40, 0x00, 0x00, 0xd0, 0x3f,
  0x00, 0x00, 0x14, 0x3f, 0x00, 0x00, 0x28, 0x3e, 0x00, 0x00, 0x84, 0x3d, 0x00,
  0x00, 0xc8, 0x3c, 0x00, 0x00, 0xd4, 0x3b, 0x00, 0x00, 0x28, 0x3b, 0x00, 0x00,
  0x84, 0x3a, 0x00, 0x00, 0x38, 0x3a, 0x00, 0x00, 0xe8, 0x39, 0x00, 0x00, 0x98,
  0x39, 0x00, 0x00, 0x48, 0x39, 0x00, 0x00, 0x88, 0x38, 0x00, 0x00, 0x94, 0x37,
  0x00, 0x00, 0xf0, 0x36, 0x00, 0x00, 0x34, 0x36, 0x00, 0x00, 0x40, 0x35, 0x00,
  0x00, 0x94, 0x34, 0x00, 0x00, 0xf0, 0x33, 0x00, 0x00, 0xa0, 0x33, 0x00, 0x00,
  0x50, 0x33, 0x00, 0x00, 0x00, 0x33, 0x00, 0x00, 0xb0, 0x32, 0x00, 0x00, 0xf4,
  0x31, 0x00, 0x00, 0x00, 0x31, 0x00, 0x00, 0x5c, 0x30, 0x00, 0x00, 0xa0, 0x2f,
  0x00, 0x00, 0xac, 0x2e, 0x00, 0x00, 0x00, 0x2e, 0x00, 0x00, 0x5c, 0x2d, 0x00,
  0x00, 0x0c, 0x2d, 0x00, 0x00, 0xc0, 0x2c, 0x00, 0x00, 0x70, 0x2c, 0x00, 0x00,
  0x20, 0x2c, 0x00, 0x00, 0x60, 0x2b, 0x00, 0x00, 0x6c, 0x2a, 0x00, 0x00, 0xc8,
  0x29, 0x00, 0x00, 0x0c, 0x29, 0x00, 0x00, 0x18, 0x28, 0x00, 0x00, 0x6c, 0x27,
  0x00, 0x00, 0xa8, 0x26, 0x00, 0x00, 0x04, 0x26, 0x00, 0x00, 0x48, 0x25, 0x00,
  0x00, 0x5c, 0x24, 0x00, 0x00, 0xa8, 0x23, 0x00, 0x00, 0x04, 0x23, 0x00, 0x00,
  0x48, 0x22, 0x00, 0x00, 0x54, 0x21, 0x00, 0x00, 0xb0, 0x20, 0x00, 0x00, 0xf4,
  0x1f, 0x00, 0x00, 0x00, 0x1f, 0x00, 0x00, 0x3c, 0x1e, 0x00, 0x00, 0x98, 0x1d,
  0x00, 0x00, 0xdc, 0x1c, 0x00, 0x00, 0xe8, 0x1b, 0x00, 0x00, 0x34, 0x1b, 0x00,
  0x00, 0x90, 0x1a, 0x00, 0x00, 0xd4, 0x19, 0x00, 0x00, 0xe0, 0x18, 0x00, 0x00,
  0x3c, 0x18, 0x00, 0x00, 0x80, 0x17, 0x00, 0x00, 0x8c, 0x16, 0x00, 0x00, 0xc8,
  0x15, 0x00, 0x00, 0x24, 0x15, 0x00, 0x00, 0x68, 0x14, 0x00, 0x00, 0x74, 0x13,
  0x00, 0x00, 0xc0, 0x12, 0x00, 0x00, 0x1c, 0x12, 0x00, 0x00, 0x60, 0x11, 0x00,
  0x00, 0x6c, 0x10, 0x00, 0x00, 0xc8, 0x0f, 0x00, 0x00, 0x0c, 0x0f, 0x00, 0x00,
  0x18, 0x0e, 0x00, 0x00, 0x54, 0x0d, 0x00, 0x00, 0xb0, 0x0c, 0x00, 0x00, 0xf4,
  0x0b, 0x00, 0x00, 0x00, 0x0b, 0x00, 0x00, 0x4c, 0x0a, 0x00, 0x00, 0xa0, 0x09,
  0x00, 0x00, 0xe4, 0x08, 0x00, 0x00, 0xf0, 0x07, 0x00, 0x00, 0x44, 0x07, 0x00,
  0x00, 0x88, 0x06, 0x00, 0x00, 0x94, 0x05, 0x00, 0x00, 0xe8, 0x04, 0x00, 0x00,
  0x2c, 0x04, 0x00, 0x00, 0x78, 0x03, 0x00, 0x00, 0x9c, 0x02, 0x00, 0x00, 0xa8,
  0x01, 0x00, 0x00, 0xcc, 0x00, 0x00, 0x00, 0x7c, 0x00, 0x00, 0x00, 0x04, 0x00,
  0x00, 0x00, 0xa0, 0xff, 0xff, 0xff, 0x0c, 0x00, 0x00, 0x00, 0x1c, 0x00, 0x00,
  0x00, 0x40, 0x00, 0x00, 0x00, 0x04, 0x00, 0x00, 0x00, 0x01, 0x00, 0x00, 0x00,
  0xff, 0xff, 0xff, 0xff, 0xff, 0xff, 0xff, 0xff, 0x02, 0x00, 0x00, 0x00, 0x22,
  0x00, 0x00, 0x00, 0x72, 0x65, 0x73, 0x74, 0x6f, 0x72, 0x61, 0x74, 0x69, 0x6f,
  0x6e, 0x5f, 0x30, 0x2f, 0x64, 0x65, 0x63, 0x6f, 0x64, 0x65, 0x72, 0x2f, 0x42,
  0x69, 0x61, 0x73, 0x41, 0x64, 0x64, 0x5f, 0x31, 0x32, 0x3a, 0x30, 0x00, 0x00,
  0x04, 0x00, 0x00, 0x00, 0x01, 0x00, 0x00, 0x00, 0x01, 0x00, 0x00, 0x00, 0x01,
  0x00, 0x00, 0x00, 0x02, 0x00, 0x00, 0x00, 0x14, 0x00, 0x10, 0x00, 0x0c, 0x00,
  0x00, 0x00, 0x00, 0x00, 0x08, 0x00, 0x00, 0x00, 0x00, 0x00, 0x00, 0x00, 0x04,
  0x00, 0x14, 0x00, 0x00, 0x00, 0x0c, 0x00, 0x00, 0x00, 0x1c, 0x00, 0x00, 0x00,
  0x2c, 0x00, 0x00, 0x00, 0x04, 0x00, 0x00, 0x00, 0x01, 0x00, 0x00, 0x00, 0xff,
  0xff, 0xff, 0xff, 0xff, 0xff, 0xff, 0xff, 0x01, 0x00, 0x00, 0x00, 0x0d, 0x00,
  0x00, 0x00, 0x50, 0x6c, 0x61, 0x63, 0x65, 0x68, 0x6f, 0x6c, 0x64, 0x65, 0x72,
  0x3a, 0x30, 0x00, 0x00, 0x00, 0x04, 0x00, 0x00, 0x00, 0x01, 0x00, 0x00, 0x00,
  0x01, 0x00, 0x00, 0x00, 0x01, 0x00, 0x00, 0x00, 0x01, 0x00, 0x00, 0x00, 0x4c,
  0xfe, 0xff, 0xff, 0x14, 0x00, 0x00, 0x00, 0x24, 0x00, 0x00, 0x00, 0x40, 0x00,
  0x00, 0x00, 0x00, 0x00, 0x00, 0x07, 0xb0, 0x00, 0x00, 0x00, 0x04, 0x00, 0x00,
  0x00, 0x01, 0x00, 0x00, 0x00, 0xff, 0xff, 0xff, 0xff, 0xff, 0xff, 0xff, 0xff,
  0x08, 0x00, 0x00, 0x00, 0x54, 0x86, 0xff, 0xff, 0x08, 0x00, 0x00, 0x00, 0x10,
  0x00, 0x00, 0x00, 0x01, 0x00, 0x00, 0x00, 0x00, 0x00, 0x00, 0x00, 0x00, 0x00,
  0x00, 0x00, 0x01, 0x00, 0x00, 0x00, 0x6e, 0x7e, 0x78, 0x3a, 0x71, 0x00, 0x00,
  0x00, 0x72, 0x65, 0x73, 0x74, 0x6f, 0x72, 0x61, 0x74, 0x69, 0x6f, 0x6e, 0x5f,
  0x30, 0x2f, 0x64, 0x65, 0x63, 0x6f, 0x64, 0x65, 0x72, 0x2f, 0x52, 0x65, 0x6c,
  0x75, 0x5f, 0x33, 0x3b, 0x72, 0x65, 0x73, 0x74, 0x6f, 0x72, 0x61, 0x74, 0x69,
  0x6f, 0x6e, 0x5f, 0x30, 0x2f, 0x64, 0x65, 0x63, 0x6f, 0x64, 0x65, 0x72, 0x2f,
  0x42, 0x69, 0x61, 0x73, 0x41, 0x64, 0x64, 0x5f, 0x33, 0x3b, 0x72, 0x65, 0x73,
  0x74, 0x6f, 0x72, 0x61, 0x74, 0x69, 0x6f, 0x6e, 0x5f, 0x30, 0x2f, 0x64, 0x65,
  0x63, 0x6f, 0x64, 0x65, 0x72, 0x2f, 0x73, 0x65, 0x70, 0x61, 0x72, 0x61, 0x62,
  0x6c, 0x65, 0x5f, 0x63, 0x6f, 0x6e, 0x76, 0x32, 0x64, 0x5f, 0x33, 0x5f, 0x72,
  0x65, 0x71, 0x75, 0x61, 0x6e, 0x74, 0x69, 0x7a, 0x65, 0x64, 0x00, 0x00, 0x00,
  0x04, 0x00, 0x00, 0x00, 0x01, 0x00, 0x00, 0x00, 0x01, 0x00, 0x00, 0x00, 0x01,
  0x00, 0x00, 0x00, 0x08, 0x00, 0x00, 0x00, 0x24, 0xff, 0xff, 0xff, 0x14, 0x00,
  0x00, 0x00, 0x24, 0x00, 0x00, 0x00, 0x44, 0x00, 0x00, 0x00, 0x00, 0x00, 0x00,
  0x07, 0xb4, 0x00, 0x00, 0x00, 0x04, 0x00, 0x00, 0x00, 0x01, 0x00, 0x00, 0x00,
  0xff, 0xff, 0xff, 0xff, 0xff, 0xff, 0xff, 0xff, 0x08, 0x00, 0x00, 0x00, 0x2c,
  0x87, 0xff, 0xff, 0x08, 0x00, 0x00, 0x00, 0x14, 0x00, 0x00, 0x00, 0x01, 0x00,
  0x00, 0x00, 0x00, 0x00, 0x00, 0x00, 0x00, 0x00, 0x00, 0x00, 0x00, 0x00, 0x00,
  0x00, 0x01, 0x00, 0x00, 0x00, 0x0e, 0xbf, 0xf6, 0x39, 0x71, 0x00, 0x00, 0x00,
  0x72, 0x65, 0x73, 0x74, 0x6f, 0x72, 0x61, 0x74, 0x69, 0x6f, 0x6e, 0x5f, 0x30,
  0x2f, 0x64, 0x65, 0x63, 0x6f, 0x64, 0x65, 0x72, 0x2f, 0x52, 0x65, 0x6c, 0x75,
  0x5f, 0x36, 0x3b, 0x72, 0x65, 0x73, 0x74, 0x6f, 0x72, 0x61, 0x74, 0x69, 0x6f,
  0x6e, 0x5f, 0x30, 0x2f, 0x64, 0x65, 0x63, 0x6f, 0x64, 0x65, 0x72, 0x2f, 0x42,
  0x69, 0x61, 0x73, 0x41, 0x64, 0x64, 0x5f, 0x36, 0x3b, 0x72, 0x65, 0x73, 0x74,
  0x6f, 0x72, 0x61, 0x74, 0x69, 0x6f, 0x6e, 0x5f, 0x30, 0x2f, 0x64, 0x65, 0x63,
  0x6f, 0x64, 0x65, 0x72, 0x2f, 0x73, 0x65, 0x70, 0x61, 0x72, 0x61, 0x62, 0x6c,
  0x65, 0x5f, 0x63, 0x6f, 0x6e, 0x76, 0x32, 0x64, 0x5f, 0x36, 0x5f, 0x72, 0x65,
  0x71, 0x75, 0x61, 0x6e, 0x74, 0x69, 0x7a, 0x65, 0x64, 0x00, 0x00, 0x00, 0x04,
  0x00, 0x00, 0x00, 0x01, 0x00, 0x00, 0x00, 0x01, 0x00, 0x00, 0x00, 0x01, 0x00,
  0x00, 0x00, 0x08, 0x00, 0x00, 0x00, 0x14, 0x00, 0x18, 0x00, 0x14, 0x00, 0x13,
  0x00, 0x00, 0x00, 0x0c, 0x00, 0x08, 0x00, 0x00, 0x00, 0x00, 0x00, 0x04, 0x00,
  0x14, 0x00, 0x00, 0x00, 0x14, 0x00, 0x00, 0x00, 0x24, 0x00, 0x00, 0x00, 0x40,
  0x00, 0x00, 0x00, 0x00, 0x00, 0x00, 0x07, 0xb0, 0x00, 0x00, 0x00, 0x04, 0x00,
  0x00, 0x00, 0x01, 0x00, 0x00, 0x00, 0xff, 0xff, 0xff, 0xff, 0xff, 0xff, 0xff,
  0xff, 0x04, 0x00, 0x00, 0x00, 0x1c, 0x88, 0xff, 0xff, 0x08, 0x00, 0x00, 0x00,
  0x10, 0x00, 0x00, 0x00, 0x01, 0x00, 0x00, 0x00, 0x00, 0x00, 0x00, 0x00, 0x00,
  0x00, 0x00, 0x00, 0x01, 0x00, 0x00, 0x00, 0x2e, 0x8a, 0x86, 0x3b, 0x71, 0x00,
  0x00, 0x00, 0x72, 0x65, 0x73, 0x74, 0x6f, 0x72, 0x61, 0x74, 0x69, 0x6f, 0x6e,
  0x5f, 0x30, 0x2f, 0x65, 0x6e, 0x63, 0x6f, 0x64, 0x65, 0x72, 0x2f, 0x52, 0x65,
  0x6c, 0x75, 0x5f, 0x31, 0x3b, 0x72, 0x65, 0x73, 0x74, 0x6f, 0x72, 0x61, 0x74,
  0x69, 0x6f, 0x6e, 0x5f, 0x30, 0x2f, 0x65, 0x6e, 0x63, 0x6f, 0x64, 0x65, 0x72,
  0x2f, 0x42, 0x69, 0x61, 0x73, 0x41, 0x64, 0x64, 0x5f, 0x31, 0x3b, 0x72, 0x65,
  0x73, 0x74, 0x6f, 0x72, 0x61, 0x74, 0x69, 0x6f, 0x6e, 0x5f, 0x30, 0x2f, 0x65,
  0x6e, 0x63, 0x6f, 0x64, 0x65, 0x72, 0x2f, 0x73, 0x65, 0x70, 0x61, 0x72, 0x61,
  0x62, 0x6c, 0x65, 0x5f, 0x63, 0x6f, 0x6e, 0x76, 0x32, 0x64, 0x5f, 0x31, 0x5f,
  0x72, 0x65, 0x71, 0x75, 0x61, 0x6e, 0x74, 0x69, 0x7a, 0x65, 0x64, 0x00, 0x00,
  0x00, 0x04, 0x00, 0x00, 0x00, 0x01, 0x00, 0x00, 0x00, 0x01, 0x00, 0x00, 0x00,
  0x01, 0x00, 0x00, 0x00, 0x04, 0x00, 0x00, 0x00, 0x5a, 0x88, 0xff, 0xff, 0x00,
  0x00, 0x00, 0x01, 0x18, 0x00, 0x00, 0x00, 0x28, 0x00, 0x00, 0x00, 0x5c, 0x00,
  0x00, 0x00, 0xa4, 0x00, 0x00, 0x00, 0x00, 0x00, 0x00, 0x07, 0x80, 0x00, 0x00,
  0x00, 0x04, 0x00, 0x00, 0x00, 0x01, 0x00, 0x00, 0x00, 0xff, 0xff, 0xff, 0xff,
  0xff, 0xff, 0xff, 0xff, 0x02, 0x00, 0x00, 0x00, 0x44, 0x88, 0xff, 0xff, 0x10,
  0x00, 0x00, 0x00, 0x18, 0x00, 0x00, 0x00, 0x1c, 0x00, 0x00, 0x00, 0x20, 0x00,
  0x00, 0x00, 0x01, 0x00, 0x00, 0x00, 0x00, 0x00, 0x00, 0x00, 0x00, 0x00, 0x00,
  0x00, 0x01, 0x00, 0x00, 0x00, 0xc2, 0xeb, 0x84, 0x3a, 0x01, 0x00, 0x00, 0x00,
  0xe4, 0x21, 0xfb, 0x41, 0x01, 0x00, 0x00, 0x00, 0xb8, 0xea, 0x04, 0xc2, 0x28,
  0x00, 0x00, 0x00, 0x72, 0x65, 0x73, 0x74, 0x6f, 0x72, 0x61, 0x74, 0x69, 0x6f,
  0x6e, 0x5f, 0x30, 0x2f, 0x64, 0x65, 0x63, 0x6f, 0x64, 0x65, 0x72, 0x2f, 0x42,
  0x69, 0x61, 0x73, 0x41, 0x64, 0x64, 0x5f, 0x31, 0x32, 0x3a, 0x30, 0x5f, 0x69,
  0x6e, 0x74, 0x31, 0x36, 0x00, 0x00, 0x00, 0x00, 0x04, 0x00, 0x00, 0x00, 0x01,
  0x00, 0x00, 0x00, 0x01, 0x00, 0x00, 0x00, 0x01, 0x00, 0x00, 0x00, 0x02, 0x00,
  0x00, 0x00, 0x0a, 0x89, 0xff, 0xff, 0x00, 0x00, 0x00, 0x01, 0x18, 0x00, 0x00,
  0x00, 0x28, 0x00, 0x00, 0x00, 0x5c, 0x00, 0x00, 0x00, 0xa3, 0x00, 0x00, 0x00,
  0x00, 0x00, 0x00, 0x07, 0x88, 0x00, 0x00, 0x00, 0x04, 0x00, 0x00, 0x00, 0x01,
  0x00, 0x00, 0x00, 0xff, 0xff, 0xff, 0xff, 0xff, 0xff, 0xff, 0xff, 0x04, 0x00,
  0x00, 0x00, 0xf4, 0x88, 0xff, 0xff, 0x10, 0x00, 0x00, 0x00, 0x18, 0x00, 0x00,
  0x00, 0x1c, 0x00, 0x00, 0x00, 0x20, 0x00, 0x00, 0x00, 0x01, 0x00, 0x00, 0x00,
  0x00, 0x00, 0x00, 0x00, 0x00, 0x00, 0x00, 0x00, 0x01, 0x00, 0x00, 0x00, 0x9f,
  0x4a, 0xae, 0x3a, 0x01, 0x00, 0x00, 0x00, 0x55, 0xb2, 0x24, 0x42, 0x01, 0x00,
  0x00, 0x00, 0x42, 0x49, 0x2e, 0xc2, 0x33, 0x00, 0x00, 0x00, 0x72, 0x65, 0x73,
  0x74, 0x6f, 0x72, 0x61, 0x74, 0x69, 0x6f, 0x6e, 0x5f, 0x30, 0x2f, 0x64, 0x65,
  0x63, 0x6f, 0x64, 0x65, 0x72, 0x2f, 0x73, 0x65, 0x70, 0x61, 0x72, 0x61, 0x62,
  0x6c, 0x65, 0x5f, 0x63, 0x6f, 0x6e, 0x76, 0x32, 0x64, 0x5f, 0x31, 0x32, 0x2f,
  0x64, 0x65, 0x70, 0x74, 0x68, 0x77, 0x69, 0x73, 0x65, 0x00, 0x04, 0x00, 0x00,
  0x00, 0x01, 0x00, 0x00, 0x00, 0x01, 0x00, 0x00, 0x00, 0x01, 0x00, 0x00, 0x00,
  0x04, 0x00, 0x00, 0x00, 0xc2, 0x89, 0xff, 0xff, 0x00, 0x00, 0x00, 0x01, 0x18,
  0x00, 0x00, 0x00, 0x28, 0x00, 0x00, 0x00, 0x60, 0x00, 0x00, 0x00, 0xa2, 0x00,
  0x00, 0x00, 0x00, 0x00, 0x00, 0x07, 0x78, 0x00, 0x00, 0x00, 0x04, 0x00, 0x00,
  0x00, 0x01, 0x00, 0x00, 0x00, 0xff, 0xff, 0xff, 0xff, 0xff, 0xff, 0xff, 0xff,
  0x04, 0x00, 0x00, 0x00, 0xac, 0x89, 0xff, 0xff, 0x10, 0x00, 0x00, 0x00, 0x1c,
  0x00, 0x00, 0x00, 0x20, 0x00, 0x00, 0x00, 0x24, 0x00, 0x00, 0x00, 0x01, 0x00,
  0x00, 0x00, 0x00, 0x00, 0x00, 0x00, 0x00, 0x00, 0x00, 0x00, 0x00, 0x00, 0x00,
  0x00, 0x01, 0x00, 0x00, 0x00, 0xba, 0xf9, 0xaf, 0x3a, 0x01, 0x00, 0x00, 0x00,
  0x5a, 0xf8, 0x2f, 0x42, 0x01, 0x00, 0x00, 0x00, 0x00, 0x00, 0x00, 0x00, 0x1c,
  0x00, 0x00, 0x00, 0x72, 0x65, 0x73, 0x74, 0x6f, 0x72, 0x61, 0x74, 0x69, 0x6f,
  0x6e, 0x5f, 0x30, 0x2f, 0x64, 0x65, 0x63, 0x6f, 0x64, 0x65, 0x72, 0x2f, 0x50,
  0x61, 0x64, 0x5f, 0x31, 0x32, 0x00, 0x00, 0x00, 0x00, 0x04, 0x00, 0x00, 0x00,
  0x01, 0x00, 0x00, 0x00, 0x01, 0x00, 0x00, 0x00, 0x01, 0x00, 0x00, 0x00, 0x04,
  0x00, 0x00, 0x00, 0x6a, 0x8a, 0xff, 0xff, 0x00, 0x00, 0x00, 0x01, 0x18, 0x00,
  0x00, 0x00, 0x28, 0x00, 0x00, 0x00, 0x5c, 0x00, 0x00, 0x00, 0xa1, 0x00, 0x00,
  0x00, 0x00, 0x00, 0x00, 0x07, 0xc0, 0x00, 0x00, 0x00, 0x04, 0x00, 0x00, 0x00,
  0x01, 0x00, 0x00, 0x00, 0xff, 0xff, 0xff, 0xff, 0xff, 0xff, 0xff, 0xff, 0x04,
  0x00, 0x00, 0x00, 0x54, 0x8a, 0xff, 0xff, 0x10, 0x00, 0x00, 0x00, 0x18, 0x00,
  0x00, 0x00, 0x1c, 0x00, 0x00, 0x00, 0x20, 0x00, 0x00, 0x00, 0x01, 0x00, 0x00,
  0x00, 0x00, 0x00, 0x00, 0x00, 0x00, 0x00, 0x00, 0x00, 0x01, 0x00, 0x00, 0x00,
  0xba, 0xf9, 0xaf, 0x3a, 0x01, 0x00, 0x00, 0x00, 0x5a, 0xf8, 0x2f, 0x42, 0x01,
  0x00, 0x00, 0x00, 0x00, 0x00, 0x00, 0x00, 0x68, 0x00, 0x00, 0x00, 0x72, 0x65,
  0x73, 0x74, 0x6f, 0x72, 0x61, 0x74, 0x69, 0x6f, 0x6e, 0x5f, 0x30, 0x2f, 0x64,
  0x65, 0x63, 0x6f, 0x64, 0x65, 0x72, 0x2f, 0x52, 0x65, 0x6c, 0x75, 0x5f, 0x31,
  0x31, 0x3b, 0x72, 0x65, 0x73, 0x74, 0x6f, 0x72, 0x61, 0x74, 0x69, 0x6f, 0x6e,
  0x5f, 0x30, 0x2f, 0x64, 0x65, 0x63, 0x6f, 0x64, 0x65, 0x72, 0x2f, 0x42, 0x69,
  0x61, 0x73, 0x41, 0x64, 0x64, 0x5f, 0x31, 0x31, 0x3b, 0x72, 0x65, 0x73, 0x74,
  0x6f, 0x72, 0x61, 0x74, 0x69, 0x6f, 0x6e, 0x5f, 0x30, 0x2f, 0x64, 0x65, 0x63,
  0x6f, 0x64, 0x65, 0x72, 0x2f, 0x73, 0x65, 0x70, 0x61, 0x72, 0x61, 0x62, 0x6c,
  0x65, 0x5f, 0x63, 0x6f, 0x6e, 0x76, 0x32, 0x64, 0x5f, 0x31, 0x31, 0x00, 0x00,
  0x00, 0x00, 0x04, 0x00, 0x00, 0x00, 0x01, 0x00, 0x00, 0x00, 0x01, 0x00, 0x00,
  0x00, 0x01, 0x00, 0x00, 0x00, 0x04, 0x00, 0x00, 0x00, 0x5a, 0x8b, 0xff, 0xff,
  0x00, 0x00, 0x00, 0x01, 0x18, 0x00, 0x00, 0x00, 0x28, 0x00, 0x00, 0x00, 0x5c,
  0x00, 0x00, 0x00, 0xa0, 0x00, 0x00, 0x00, 0x00, 0x00, 0x00, 0x07, 0x88, 0x00,
  0x00, 0x00, 0x04, 0x00, 0x00, 0x00, 0x01, 0x00, 0x00, 0x00, 0xff, 0xff, 0xff,
  0xff, 0xff, 0xff, 0xff, 0xff, 0x04, 0x00, 0x00, 0x00, 0x44, 0x8b, 0xff, 0xff,
  0x10, 0x00, 0x00, 0x00, 0x18, 0x00, 0x00, 0x00, 0x1c, 0x00, 0x00, 0x00, 0x20,
  0x00, 0x00, 0x00, 0x01, 0x00, 0x00, 0x00, 0x00, 0x00, 0x00, 0x00, 0x00, 0x00,
  0x00, 0x00, 0x01, 0x00, 0x00, 0x00, 0xaa, 0x6d, 0x35, 0x3a, 0x01, 0x00, 0x00,
  0x00, 0xbc, 0x96, 0x82, 0x41, 0x01, 0x00, 0x00, 0x00, 0x3f, 0x6c, 0xb5, 0xc1,
  0x33, 0x00, 0x00, 0x00, 0x72, 0x65, 0x73, 0x74, 0x6f, 0x72, 0x61, 0x74, 0x69,
  0x6f, 0x6e, 0x5f, 0x30, 0x2f, 0x64, 0x65, 0x63, 0x6f, 0x64, 0x65, 0x72, 0x2f,
  0x73, 0x65, 0x70, 0x61, 0x72, 0x61, 0x62, 0x6c, 0x65, 0x5f, 0x63, 0x6f, 0x6e,
  0x76, 0x32, 0x64, 0x5f, 0x31, 0x31, 0x2f, 0x64, 0x65, 0x70, 0x74, 0x68, 0x77,
  0x69, 0x73, 0x65, 0x00, 0x04, 0x00, 0x00, 0x00, 0x01, 0x00, 0x00, 0x00, 0x01,
  0x00, 0x00, 0x00, 0x01, 0x00, 0x00, 0x00, 0x04, 0x00, 0x00, 0x00, 0x12, 0x8c,
  0xff, 0xff, 0x00, 0x00, 0x00, 0x01, 0x18, 0x00, 0x00, 0x00, 0x28, 0x00, 0x00,
  0x00, 0x60, 0x00, 0x00, 0x00, 0x9f, 0x00, 0x00, 0x00, 0x00, 0x00, 0x00, 0x07,
  0x78, 0x00, 0x00, 0x00, 0x04, 0x00, 0x00, 0x00, 0x01, 0x00, 0x00, 0x00, 0xff,
  0xff, 0xff, 0xff, 0xff, 0xff, 0xff, 0xff, 0x04, 0x00, 0x00, 0x00, 0xfc, 0x8b,
  0xff, 0xff, 0x10, 0x00, 0x00, 0x00, 0x1c, 0x00, 0x00, 0x00, 0x20, 0x00, 0x00,
  0x00, 0x24, 0x00, 0x00, 0x00, 0x01, 0x00, 0x00, 0x00, 0x00, 0x00, 0x00, 0x00,
  0x00, 0x00, 0x00, 0x00, 0x00, 0x00, 0x00, 0x00, 0x01, 0x00, 0x00, 0x00, 0x07,
  0x1f, 0x54, 0x3a, 0x01, 0x00, 0x00, 0x00, 0x5f, 0x1d, 0xd4, 0x41, 0x01, 0x00,
  0x00, 0x00, 0x00, 0x00, 0x00, 0x00, 0x1c, 0x00, 0x00, 0x00, 0x72, 0x65, 0x73,
  0x74, 0x6f, 0x72, 0x61, 0x74, 0x69, 0x6f, 0x6e, 0x5f, 0x30, 0x2f, 0x64, 0x65,
  0x63, 0x6f, 0x64, 0x65, 0x72, 0x2f, 0x50, 0x61, 0x64, 0x5f, 0x31, 0x31, 0x00,
  0x00, 0x00, 0x00, 0x04, 0x00, 0x00, 0x00, 0x01, 0x00, 0x00, 0x00, 0x01, 0x00,
  0x00, 0x00, 0x01, 0x00, 0x00, 0x00, 0x04, 0x00, 0x00, 0x00, 0xba, 0x8c, 0xff,
  0xff, 0x00, 0x00, 0x00, 0x01, 0x18, 0x00, 0x00, 0x00, 0x28, 0x00, 0x00, 0x00,
  0x5c, 0x00, 0x00, 0x00, 0x9e, 0x00, 0x00, 0x00, 0x00, 0x00, 0x00, 0x07, 0xc0,
  0x00, 0x00, 0x00, 0x04, 0x00, 0x00, 0x00, 0x01, 0x00, 0x00, 0x00, 0xff, 0xff,
  0xff, 0xff, 0xff, 0xff, 0xff, 0xff, 0x04, 0x00, 0x00, 0x00, 0xa4, 0x8c, 0xff,
  0xff, 0x10, 0x00, 0x00, 0x00, 0x18, 0x00, 0x00, 0x00, 0x1c, 0x00, 0x00, 0x00,
  0x20, 0x00, 0x00, 0x00, 0x01, 0x00, 0x00, 0x00, 0x00, 0x00, 0x00, 0x00, 0x00,
  0x00, 0x00, 0x00, 0x01, 0x00, 0x00, 0x00, 0x07, 0x1f, 0x54, 0x3a, 0x01, 0x00,
  0x00, 0x00, 0x5f, 0x1d, 0xd4, 0x41, 0x01, 0x00, 0x00, 0x00, 0x00, 0x00, 0x00,
  0x00, 0x68, 0x00, 0x00, 0x00, 0x72, 0x65, 0x73, 0x74, 0x6f, 0x72, 0x61, 0x74,
  0x69, 0x6f, 0x6e, 0x5f, 0x30, 0x2f, 0x64, 0x65, 0x63, 0x6f, 0x64, 0x65, 0x72,
  0x2f, 0x52, 0x65, 0x6c, 0x75, 0x5f, 0x31, 0x30, 0x3b, 0x72, 0x65, 0x73, 0x74,
  0x6f, 0x72, 0x61, 0x74, 0x69, 0x6f, 0x6e, 0x5f, 0x30, 0x2f, 0x64, 0x65, 0x63,
  0x6f, 0x64, 0x65, 0x72, 0x2f, 0x42, 0x69, 0x61, 0x73, 0x41, 0x64, 0x64, 0x5f,
  0x31, 0x30, 0x3b, 0x72, 0x65, 0x73, 0x74, 0x6f, 0x72, 0x61, 0x74, 0x69, 0x6f,
  0x6e, 0x5f, 0x30, 0x2f, 0x64, 0x65, 0x63, 0x6f, 0x64, 0x65, 0x72, 0x2f, 0x73,
  0x65, 0x70, 0x61, 0x72, 0x61, 0x62, 0x6c, 0x65, 0x5f, 0x63, 0x6f, 0x6e, 0x76,
  0x32, 0x64, 0x5f, 0x31, 0x30, 0x00, 0x00, 0x00, 0x00, 0x04, 0x00, 0x00, 0x00,
  0x01, 0x00, 0x00, 0x00, 0x01, 0x00, 0x00, 0x00, 0x01, 0x00, 0x00, 0x00, 0x04,
  0x00, 0x00, 0x00, 0xaa, 0x8d, 0xff, 0xff, 0x00, 0x00, 0x00, 0x01, 0x18, 0x00,
  0x00, 0x00, 0x28, 0x00, 0x00, 0x00, 0x5c, 0x00, 0x00, 0x00, 0x9d, 0x00, 0x00,
  0x00, 0x00, 0x00, 0x00, 0x07, 0x88, 0x00, 0x00, 0x00, 0x04, 0x00, 0x00, 0x00,
  0x01, 0x00, 0x00, 0x00, 0xff, 0xff, 0xff, 0xff, 0xff, 0xff, 0xff, 0xff, 0x08,
  0x00, 0x00, 0x00, 0x94, 0x8d, 0xff, 0xff, 0x10, 0x00, 0x00, 0x00, 0x18, 0x00,
  0x00, 0x00, 0x1c, 0x00, 0x00, 0x00, 0x20, 0x00, 0x00, 0x00, 0x01, 0x00, 0x00,
  0x00, 0x00, 0x00, 0x00, 0x00, 0x00, 0x00, 0x00, 0x00, 0x01, 0x00, 0x00, 0x00,
  0x9e, 0xda, 0x3c, 0x3c, 0x01, 0x00, 0x00, 0x00, 0x1a, 0x3d, 0x6f, 0x43, 0x01,
  0x00, 0x00, 0x00, 0x24, 0xd9, 0xbc, 0xc3, 0x33, 0x00, 0x00, 0x00, 0x72, 0x65,
  0x73, 0x74, 0x6f, 0x72, 0x61, 0x74, 0x69, 0x6f, 0x6e, 0x5f, 0x30, 0x2f, 0x64,
  0x65, 0x63, 0x6f, 0x64, 0x65, 0x72, 0x2f, 0x73, 0x65, 0x70, 0x61, 0x72, 0x61,
  0x62, 0x6c, 0x65, 0x5f, 0x63, 0x6f, 0x6e, 0x76, 0x32, 0x64, 0x5f, 0x31, 0x30,
  0x2f, 0x64, 0x65, 0x70, 0x74, 0x68, 0x77, 0x69, 0x73, 0x65, 0x00, 0x04, 0x00,
  0x00, 0x00, 0x01, 0x00, 0x00, 0x00, 0x01, 0x00, 0x00, 0x00, 0x01, 0x00, 0x00,
  0x00, 0x08, 0x00, 0x00, 0x00, 0x62, 0x8e, 0xff, 0xff, 0x00, 0x00, 0x00, 0x01,
  0x18, 0x00, 0x00, 0x00, 0x28, 0x00, 0x00, 0x00, 0x60, 0x00, 0x00, 0x00, 0x9c,
  0x00, 0x00, 0x00, 0x00, 0x00, 0x00, 0x07, 0x78, 0x00, 0x00, 0x00, 0x04, 0x00,
  0x00, 0x00, 0x01, 0x00, 0x00, 0x00, 0xff, 0xff, 0xff, 0xff, 0xff, 0xff, 0xff,
  0xff, 0x08, 0x00, 0x00, 0x00, 0x4c, 0x8e, 0xff, 0xff, 0x10, 0x00, 0x00, 0x00,
  0x1c, 0x00, 0x00, 0x00, 0x20, 0x00, 0x00, 0x00, 0x24, 0x00, 0x00, 0x00, 0x01,
  0x00, 0x00, 0x00, 0x00, 0x00, 0x00, 0x00, 0x00, 0x00, 0x00, 0x00, 0x00, 0x00,
  0x00, 0x00, 0x01, 0x00, 0x00, 0x00, 0x2e, 0x8a, 0x86, 0x3b, 0x01, 0x00, 0x00,
  0x00, 0x21, 0x89, 0x06, 0x43, 0x01, 0x00, 0x00, 0x00, 0x00, 0x00, 0x00, 0x00,
  0x1c, 0x00, 0x00, 0x00, 0x72, 0x65, 0x73, 0x74, 0x6f, 0x72, 0x61, 0x74, 0x69,
  0x6f, 0x6e, 0x5f, 0x30, 0x2f, 0x64, 0x65, 0x63, 0x6f, 0x64, 0x65, 0x72, 0x2f,
  0x50, 0x61, 0x64, 0x5f, 0x31, 0x30, 0x00, 0x00, 0x00, 0x00, 0x04, 0x00, 0x00,
  0x00, 0x01, 0x00, 0x00, 0x00, 0x01, 0x00, 0x00, 0x00, 0x01, 0x00, 0x00, 0x00,
  0x08, 0x00, 0x00, 0x00, 0x0a, 0x8f, 0xff, 0xff, 0x00, 0x00, 0x00, 0x01, 0x18,
  0x00, 0x00, 0x00, 0x28, 0x00, 0x00, 0x00, 0x60, 0x00, 0x00, 0x00, 0x9b, 0x00,
  0x00, 0x00, 0x00, 0x00, 0x00, 0x07, 0x80, 0x00, 0x00, 0x00, 0x04, 0x00, 0x00,
  0x00, 0x01, 0x00, 0x00, 0x00, 0xff, 0xff, 0xff, 0xff, 0xff, 0xff, 0xff, 0xff,
  0x08, 0x00, 0x00, 0x00, 0xf4, 0x8e, 0xff, 0xff, 0x10, 0x00, 0x00, 0x00, 0x1c,
  0x00, 0x00, 0x00, 0x20, 0x00, 0x00, 0x00, 0x24, 0x00, 0x00, 0x00, 0x01, 0x00,
  0x00, 0x00, 0x00, 0x00, 0x00, 0x00, 0x00, 0x00, 0x00, 0x00, 0x00, 0x00, 0x00,
  0x00, 0x01, 0x00, 0x00, 0x00, 0x2e, 0x8a, 0x86, 0x3b, 0x01, 0x00, 0x00, 0x00,
  0x21, 0x89, 0x06, 0x43, 0x01, 0x00, 0x00, 0x00, 0x00, 0x00, 0x00, 0x00, 0x26,
  0x00, 0x00, 0x00, 0x72, 0x65, 0x73, 0x74, 0x6f, 0x72, 0x61, 0x74, 0x69, 0x6f,
  0x6e, 0x5f, 0x30, 0x2f, 0x64, 0x65, 0x63, 0x6f, 0x64, 0x65, 0x72, 0x2f, 0x64,
  0x65, 0x63, 0x6f, 0x64, 0x65, 0x72, 0x5f, 0x30, 0x5f, 0x63, 0x6f, 0x6e, 0x63,
  0x61, 0x74, 0x00, 0x00, 0x04, 0x00, 0x00, 0x00, 0x01, 0x00, 0x00, 0x00, 0x01,
  0x00, 0x00, 0x00, 0x01, 0x00, 0x00, 0x00, 0x08, 0x00, 0x00, 0x00, 0xba, 0x8f,
  0xff, 0xff, 0x00, 0x00, 0x00, 0x01, 0x18, 0x00, 0x00, 0x00, 0x28, 0x00, 0x00,
  0x00, 0x60, 0x00, 0x00, 0x00, 0x9a, 0x00, 0x00, 0x00, 0x00, 0x00, 0x00, 0x07,
  0xc0, 0x00, 0x00, 0x00, 0x04, 0x00, 0x00, 0x00, 0x01, 0x00, 0x00, 0x00, 0xff,
  0xff, 0xff, 0xff, 0xff, 0xff, 0xff, 0xff, 0x04, 0x00, 0x00, 0x00, 0xa4, 0x8f,
  0xff, 0xff, 0x10, 0x00, 0x00, 0x00, 0x1c, 0x00, 0x00, 0x00, 0x20, 0x00, 0x00,
  0x00, 0x24, 0x00, 0x00, 0x00, 0x01, 0x00, 0x00, 0x00, 0x00, 0x00, 0x00, 0x00,
  0x00, 0x00, 0x00, 0x00, 0x00, 0x00, 0x00, 0x00, 0x01, 0x00, 0x00, 0x00, 0x2e,
  0x8a, 0x86, 0x3b, 0x01, 0x00, 0x00, 0x00, 0x21, 0x89, 0x06, 0x43, 0x01, 0x00,
  0x00, 0x00, 0x00, 0x00, 0x00, 0x00, 0x65, 0x00, 0x00, 0x00, 0x72, 0x65, 0x73,
  0x74, 0x6f, 0x72, 0x61, 0x74, 0x69, 0x6f, 0x6e, 0x5f, 0x30, 0x2f, 0x64, 0x65,
  0x63, 0x6f, 0x64, 0x65, 0x72, 0x2f, 0x52, 0x65, 0x6c, 0x75, 0x5f, 0x39, 0x3b,
  0x72, 0x65, 0x73, 0x74, 0x6f, 0x72, 0x61, 0x74, 0x69, 0x6f, 0x6e, 0x5f, 0x30,
  0x2f, 0x64, 0x65, 0x63, 0x6f, 0x64, 0x65, 0x72, 0x2f, 0x42, 0x69, 0x61, 0x73,
  0x41, 0x64, 0x64, 0x5f, 0x39, 0x3b, 0x72, 0x65, 0x73, 0x74, 0x6f, 0x72, 0x61,
  0x74, 0x69, 0x6f, 0x6e, 0x5f, 0x30, 0x2f, 0x64, 0x65, 0x63, 0x6f, 0x64, 0x65,
  0x72, 0x2f, 0x73, 0x65, 0x70, 0x61, 0x72, 0x61, 0x62, 0x6c, 0x65, 0x5f, 0x63,
  0x6f, 0x6e, 0x76, 0x32, 0x64, 0x5f, 0x39, 0x00, 0x00, 0x00, 0x04, 0x00, 0x00,
  0x00, 0x01, 0x00, 0x00, 0x00, 0x01, 0x00, 0x00, 0x00, 0x01, 0x00, 0x00, 0x00,
  0x04, 0x00, 0x00, 0x00, 0xaa, 0x90, 0xff, 0xff, 0x00, 0x00, 0x00, 0x01, 0x18,
  0x00, 0x00, 0x00, 0x28, 0x00, 0x00, 0x00, 0x5c, 0x00, 0x00, 0x00, 0x99, 0x00,
  0x00, 0x00, 0x00, 0x00, 0x00, 0x07, 0x88, 0x00, 0x00, 0x00, 0x04, 0x00, 0x00,
  0x00, 0x01, 0x00, 0x00, 0x00, 0xff, 0xff, 0xff, 0xff, 0xff, 0xff, 0xff, 0xff,
  0x08, 0x00, 0x00, 0x00, 0x94, 0x90, 0xff, 0xff, 0x10, 0x00, 0x00, 0x00, 0x18,
  0x00, 0x00, 0x00, 0x1c, 0x00, 0x00, 0x00, 0x20, 0x00, 0x00, 0x00, 0x01, 0x00,
  0x00, 0x00, 0x00, 0x00, 0x00, 0x00, 0x00, 0x00, 0x00, 0x00, 0x01, 0x00, 0x00,
  0x00, 0x73, 0x20, 0x48, 0x3c, 0x01, 0x00, 0x00, 0x00, 0x3a, 0x07, 0x6c, 0x42,
  0x01, 0x00, 0x00, 0x00, 0xe3, 0x1e, 0xc8, 0xc3, 0x32, 0x00, 0x00, 0x00, 0x72,
  0x65, 0x73, 0x74, 0x6f, 0x72, 0x61, 0x74, 0x69, 0x6f, 0x6e, 0x5f, 0x30, 0x2f,
  0x64, 0x65, 0x63, 0x6f, 0x64, 0x65, 0x72, 0x2f, 0x73, 0x65, 0x70, 0x61, 0x72,
  0x61, 0x62, 0x6c, 0x65, 0x5f, 0x63, 0x6f, 0x6e, 0x76, 0x32, 0x64, 0x5f, 0x39,
  0x2f, 0x64, 0x65, 0x70, 0x74, 0x68, 0x77, 0x69, 0x73, 0x65, 0x00, 0x00, 0x04,
  0x00, 0x00, 0x00, 0x01, 0x00, 0x00, 0x00, 0x01, 0x00, 0x00, 0x00, 0x01, 0x00,
  0x00, 0x00, 0x08, 0x00, 0x00, 0x00, 0x62, 0x91, 0xff, 0xff, 0x00, 0x00, 0x00,
  0x01, 0x18, 0x00, 0x00, 0x00, 0x28, 0x00, 0x00, 0x00, 0x5c, 0x00, 0x00, 0x00,
  0x98, 0x00, 0x00, 0x00, 0x00, 0x00, 0x00, 0x07, 0x70, 0x00, 0x00, 0x00, 0x04,
  0x00, 0x00, 0x00, 0x01, 0x00, 0x00, 0x00, 0xff, 0xff, 0xff, 0xff, 0xff, 0xff,
  0xff, 0xff, 0x08, 0x00, 0x00, 0x00, 0x4c, 0x91, 0xff, 0xff, 0x10, 0x00, 0x00,
  0x00, 0x18, 0x00, 0x00, 0x00, 0x1c, 0x00, 0x00, 0x00, 0x20, 0x00, 0x00, 0x00,
  0x01, 0x00, 0x00, 0x00, 0x00, 0x00, 0x00, 0x00, 0x00, 0x00, 0x00, 0x00, 0x01,
  0x00, 0x00, 0x00, 0x97, 0x19, 0x8c, 0x3b, 0x01, 0x00, 0x00, 0x00, 0x7f, 0x18,
  0x0c, 0x43, 0x01, 0x00, 0x00, 0x00, 0x00, 0x00, 0x00, 0x00, 0x1b, 0x00, 0x00,
  0x00, 0x72, 0x65, 0x73, 0x74, 0x6f, 0x72, 0x61, 0x74, 0x69, 0x6f, 0x6e, 0x5f,
  0x30, 0x2f, 0x64, 0x65, 0x63, 0x6f, 0x64, 0x65, 0x72, 0x2f, 0x50, 0x61, 0x64,
  0x5f, 0x39, 0x00, 0x04, 0x00, 0x00, 0x00, 0x01, 0x00, 0x00, 0x00, 0x01, 0x00,
  0x00, 0x00, 0x01, 0x00, 0x00, 0x00, 0x08, 0x00, 0x00, 0x00, 0x02, 0x92, 0xff,
  0xff, 0x00, 0x00, 0x00, 0x01, 0x18, 0x00, 0x00, 0x00, 0x28, 0x00, 0x00, 0x00,
  0x60, 0x00, 0x00, 0x00, 0x97, 0x00, 0x00, 0x00, 0x00, 0x00, 0x00, 0x07, 0x90,
  0x00, 0x00, 0x00, 0x04, 0x00, 0x00, 0x00, 0x01, 0x00, 0x00, 0x00, 0xff, 0xff,
  0xff, 0xff, 0xff, 0xff, 0xff, 0xff, 0x08, 0x00, 0x00, 0x00, 0xec, 0x91, 0xff,
  0xff, 0x10, 0x00, 0x00, 0x00, 0x1c, 0x00, 0x00, 0x00, 0x20, 0x00, 0x00, 0x00,
  0x24, 0x00, 0x00, 0x00, 0x01, 0x00, 0x00, 0x00, 0x00, 0x00, 0x00, 0x00, 0x00,
  0x00, 0x00, 0x00, 0x00, 0x00, 0x00, 0x00, 0x01, 0x00, 0x00, 0x00, 0x97, 0x19,
  0x8c, 0x3b, 0x01, 0x00, 0x00, 0x00, 0x7f, 0x18, 0x0c, 0x43, 0x01, 0x00, 0x00,
  0x00, 0x00, 0x00, 0x00, 0x00, 0x37, 0x00, 0x00, 0x00, 0x72, 0x65, 0x73, 0x74,
  0x6f, 0x72, 0x61, 0x74, 0x69, 0x6f, 0x6e, 0x5f, 0x30, 0x2f, 0x64, 0x65, 0x63,
  0x6f, 0x64, 0x65, 0x72, 0x2f, 0x64, 0x65, 0x63, 0x6f, 0x64, 0x65, 0x72, 0x5f,
  0x75, 0x70, 0x73, 0x61, 0x6d, 0x70, 0x6c, 0x65, 0x5f, 0x30, 0x2f, 0x52, 0x65,
  0x73, 0x69, 0x7a, 0x65, 0x42, 0x69, 0x6c, 0x69, 0x6e, 0x65, 0x61, 0x72, 0x00,
  0x04, 0x00, 0x00, 0x00, 0x01, 0x00, 0x00, 0x00, 0x01, 0x00, 0x00, 0x00, 0x01,
  0x00, 0x00, 0x00, 0x08, 0x00, 0x00, 0x00, 0xc2, 0x92, 0xff, 0xff, 0x00, 0x00,
  0x00, 0x01, 0x18, 0x00, 0x00, 0x00, 0x28, 0x00, 0x00, 0x00, 0x60, 0x00, 0x00,
  0x00, 0x96, 0x00, 0x00, 0x00, 0x00, 0x00, 0x00, 0x07, 0xc0, 0x00, 0x00, 0x00,
  0x04, 0x00, 0x00, 0x00, 0x01, 0x00, 0x00, 0x00, 0xff, 0xff, 0xff, 0xff, 0xff,
  0xff, 0xff, 0xff, 0x08, 0x00, 0x00, 0x00, 0xac, 0x92, 0xff, 0xff, 0x10, 0x00,
  0x00, 0x00, 0x1c, 0x00, 0x00, 0x00, 0x20, 0x00, 0x00, 0x00, 0x24, 0x00, 0x00,
  0x00, 0x01, 0x00, 0x00, 0x00, 0x00, 0x00, 0x00, 0x00, 0x00, 0x00, 0x00, 0x00,
  0x00, 0x00, 0x00, 0x00, 0x01, 0x00, 0x00, 0x00, 0x97, 0x19, 0x8c, 0x3b, 0x01,
  0x00, 0x00, 0x00, 0x7f, 0x18, 0x0c, 0x43, 0x01, 0x00, 0x00, 0x00, 0x00, 0x00,
  0x00, 0x00, 0x65, 0x00, 0x00, 0x00, 0x72, 0x65, 0x73, 0x74, 0x6f, 0x72, 0x61,
  0x74, 0x69, 0x6f, 0x6e, 0x5f, 0x30, 0x2f, 0x64, 0x65, 0x63, 0x6f, 0x64, 0x65,
  0x72, 0x2f, 0x52, 0x65, 0x6c, 0x75, 0x5f, 0x38, 0x3b, 0x72, 0x65, 0x73, 0x74,
  0x6f, 0x72, 0x61, 0x74, 0x69, 0x6f, 0x6e, 0x5f, 0x30, 0x2f, 0x64, 0x65, 0x63,
  0x6f, 0x64, 0x65, 0x72, 0x2f, 0x42, 0x69, 0x61, 0x73, 0x41, 0x64, 0x64, 0x5f,
  0x38, 0x3b, 0x72, 0x65, 0x73, 0x74, 0x6f, 0x72, 0x61, 0x74, 0x69, 0x6f, 0x6e,
  0x5f, 0x30, 0x2f, 0x64, 0x65, 0x63, 0x6f, 0x64, 0x65, 0x72, 0x2f, 0x73, 0x65,
  0x70, 0x61, 0x72, 0x61, 0x62, 0x6c, 0x65, 0x5f, 0x63, 0x6f, 0x6e, 0x76, 0x32,
  0x64, 0x5f, 0x38, 0x00, 0x00, 0x00, 0x04, 0x00, 0x00, 0x00, 0x01, 0x00, 0x00,
  0x00, 0x01, 0x00, 0x00, 0x00, 0x01, 0x00, 0x00, 0x00, 0x08, 0x00, 0x00, 0x00,
  0xb2, 0x93, 0xff, 0xff, 0x00, 0x00, 0x00, 0x01, 0x18, 0x00, 0x00, 0x00, 0x28,
  0x00, 0x00, 0x00, 0x5c, 0x00, 0x00, 0x00, 0x95, 0x00, 0x00, 0x00, 0x00, 0x00,
  0x00, 0x07, 0x88, 0x00, 0x00, 0x00, 0x04, 0x00, 0x00, 0x00, 0x01, 0x00, 0x00,
  0x00, 0xff, 0xff, 0xff, 0xff, 0xff, 0xff, 0xff, 0xff, 0x08, 0x00, 0x00, 0x00,
  0x9c, 0x93, 0xff, 0xff, 0x10, 0x00, 0x00, 0x00, 0x18, 0x00, 0x00, 0x00, 0x1c,
  0x00, 0x00, 0x00, 0x20, 0x00, 0x00, 0x00, 0x01, 0x00, 0x00, 0x00, 0x00, 0x00,
  0x00, 0x00, 0x00, 0x00, 0x00, 0x00, 0x01, 0x00, 0x00, 0x00, 0xe5, 0x74, 0x2a,
  0x3b, 0x01, 0x00, 0x00, 0x00, 0x90, 0x73, 0xaa, 0x42, 0x01, 0x00, 0x00, 0x00,
  0x34, 0xdd, 0x6d, 0xc2, 0x32, 0x00, 0x00, 0x00, 0x72, 0x65, 0x73, 0x74, 0x6f,
  0x72, 0x61, 0x74, 0x69, 0x6f, 0x6e, 0x5f, 0x30, 0x2f, 0x64, 0x65, 0x63, 0x6f,
  0x64, 0x65, 0x72, 0x2f, 0x73, 0x65, 0x70, 0x61, 0x72, 0x61, 0x62, 0x6c, 0x65,
  0x5f, 0x63, 0x6f, 0x6e, 0x76, 0x32, 0x64, 0x5f, 0x38, 0x2f, 0x64, 0x65, 0x70,
  0x74, 0x68, 0x77, 0x69, 0x73, 0x65, 0x00, 0x00, 0x04, 0x00, 0x00, 0x00, 0x01,
