/*
 * Copyright (c) 2020, Alliance for Open Media. All rights reserved
 *
 * This source code is subject to the terms of the BSD 2 Clause License and
 * the Alliance for Open Media Patent License 1.0. If the BSD 2 Clause License
 * was not distributed with this source code in the LICENSE file, you can
 * obtain it at www.aomedia.org/license/software. If the Alliance for Open
 * Media Patent License 1.0 was not distributed with this source code in the
 * PATENTS file, you can obtain it at www.aomedia.org/license/patent.
 */

#include "av1/tflite_models/intra_frame_model/qp121_145_quadtree.h"

const unsigned char qp121_145_quadtree_model_tflite_data[] = {
  0x1c, 0x00, 0x00, 0x00, 0x54, 0x46, 0x4c, 0x33, 0x14, 0x00, 0x20, 0x00, 0x1c,
  0x00, 0x18, 0x00, 0x14, 0x00, 0x10, 0x00, 0x0c, 0x00, 0x00, 0x00, 0x08, 0x00,
  0x04, 0x00, 0x14, 0x00, 0x00, 0x00, 0x1c, 0x00, 0x00, 0x00, 0x80, 0x00, 0x00,
  0x00, 0xd8, 0x00, 0x00, 0x00, 0xc0, 0x16, 0x00, 0x00, 0xd0, 0x16, 0x00, 0x00,
  0x64, 0xac, 0x00, 0x00, 0x03, 0x00, 0x00, 0x00, 0x01, 0x00, 0x00, 0x00, 0x04,
  0x00, 0x00, 0x00, 0x26, 0xd3, 0xff, 0xff, 0x0c, 0x00, 0x00, 0x00, 0x1c, 0x00,
  0x00, 0x00, 0x38, 0x00, 0x00, 0x00, 0x0f, 0x00, 0x00, 0x00, 0x73, 0x65, 0x72,
  0x76, 0x69, 0x6e, 0x67, 0x5f, 0x64, 0x65, 0x66, 0x61, 0x75, 0x6c, 0x74, 0x00,
  0x01, 0x00, 0x00, 0x00, 0x04, 0x00, 0x00, 0x00, 0x9c, 0xff, 0xff, 0xff, 0xa9,
  0x00, 0x00, 0x00, 0x04, 0x00, 0x00, 0x00, 0x06, 0x00, 0x00, 0x00, 0x6f, 0x75,
  0x74, 0x70, 0x75, 0x74, 0x00, 0x00, 0x01, 0x00, 0x00, 0x00, 0x04, 0x00, 0x00,
  0x00, 0xbc, 0xff, 0xff, 0xff, 0xa8, 0x00, 0x00, 0x00, 0x04, 0x00, 0x00, 0x00,
  0x03, 0x00, 0x00, 0x00, 0x69, 0x6d, 0x67, 0x00, 0x02, 0x00, 0x00, 0x00, 0x34,
  0x00, 0x00, 0x00, 0x04, 0x00, 0x00, 0x00, 0xdc, 0xff, 0xff, 0xff, 0xa6, 0x00,
  0x00, 0x00, 0x04, 0x00, 0x00, 0x00, 0x13, 0x00, 0x00, 0x00, 0x43, 0x4f, 0x4e,
  0x56, 0x45, 0x52, 0x53, 0x49, 0x4f, 0x4e, 0x5f, 0x4d, 0x45, 0x54, 0x41, 0x44,
  0x41, 0x54, 0x41, 0x00, 0x08, 0x00, 0x0c, 0x00, 0x08, 0x00, 0x04, 0x00, 0x08,
  0x00, 0x00, 0x00, 0xa5, 0x00, 0x00, 0x00, 0x04, 0x00, 0x00, 0x00, 0x13, 0x00,
  0x00, 0x00, 0x6d, 0x69, 0x6e, 0x5f, 0x72, 0x75, 0x6e, 0x74, 0x69, 0x6d, 0x65,
  0x5f, 0x76, 0x65, 0x72, 0x73, 0x69, 0x6f, 0x6e, 0x00, 0xa7, 0x00, 0x00, 0x00,
  0xe4, 0x15, 0x00, 0x00, 0xdc, 0x15, 0x00, 0x00, 0xac, 0x15, 0x00, 0x00, 0x7c,
  0x15, 0x00, 0x00, 0x4c, 0x15, 0x00, 0x00, 0xfc, 0x14, 0x00, 0x00, 0xac, 0x14,
  0x00, 0x00, 0x5c, 0x14, 0x00, 0x00, 0x0c, 0x14, 0x00, 0x00, 0xbc, 0x13, 0x00,
  0x00, 0x6c, 0x13, 0x00, 0x00, 0x2c, 0x13, 0x00, 0x00, 0xec, 0x12, 0x00, 0x00,
  0xac, 0x12, 0x00, 0x00, 0xa4, 0x12, 0x00, 0x00, 0x64, 0x12, 0x00, 0x00, 0x14,
  0x12, 0x00, 0x00, 0xc4, 0x11, 0x00, 0x00, 0x74, 0x11, 0x00, 0x00, 0x24, 0x11,
  0x00, 0x00, 0xf4, 0x10, 0x00, 0x00, 0xc4, 0x10, 0x00, 0x00, 0xa4, 0x10, 0x00,
  0x00, 0x8c, 0x10, 0x00, 0x00, 0x58, 0x10, 0x00, 0x00, 0x38, 0x10, 0x00, 0x00,
  0x04, 0x10, 0x00, 0x00, 0xd4, 0x0f, 0x00, 0x00, 0x7c, 0x0f, 0x00, 0x00, 0x4c,
  0x0f, 0x00, 0x00, 0xf4, 0x0e, 0x00, 0x00, 0xa4, 0x0e, 0x00, 0x00, 0x4c, 0x0e,
  0x00, 0x00, 0xbc, 0x0d, 0x00, 0x00, 0x1c, 0x0d, 0x00, 0x00, 0xcc, 0x0c, 0x00,
  0x00, 0x74, 0x0c, 0x00, 0x00, 0x24, 0x0c, 0x00, 0x00, 0xcc, 0x0b, 0x00, 0x00,
  0x3c, 0x0b, 0x00, 0x00, 0x9c, 0x0a, 0x00, 0x00, 0x0c, 0x0a, 0x00, 0x00, 0x04,
  0x0a, 0x00, 0x00, 0xbc, 0x09, 0x00, 0x00, 0x88, 0x09, 0x00, 0x00, 0x40, 0x09,
  0x00, 0x00, 0xe8, 0x08, 0x00, 0x00, 0x6c, 0x08, 0x00, 0x00, 0xfc, 0x07, 0x00,
  0x00, 0xf4, 0x07, 0x00, 0x00, 0xac, 0x07, 0x00, 0x00, 0xa4, 0x07, 0x00, 0x00,
  0x5c, 0x07, 0x00, 0x00, 0x54, 0x07, 0x00, 0x00, 0x4c, 0x07, 0x00, 0x00, 0xf4,
  0x06, 0x00, 0x00, 0xa4, 0x06, 0x00, 0x00, 0x4c, 0x06, 0x00, 0x00, 0xfc, 0x05,
  0x00, 0x00, 0xa4, 0x05, 0x00, 0x00, 0x54, 0x05, 0x00, 0x00, 0xfc, 0x04, 0x00,
  0x00, 0xcc, 0x04, 0x00, 0x00, 0xc4, 0x04, 0x00, 0x00, 0x90, 0x04, 0x00, 0x00,
  0x70, 0x04, 0x00, 0x00, 0x3c, 0x04, 0x00, 0x00, 0x28, 0x04, 0x00, 0x00, 0xf8,
  0x03, 0x00, 0x00, 0xdc, 0x03, 0x00, 0x00, 0xc4, 0x03, 0x00, 0x00, 0xb0, 0x03,
  0x00, 0x00, 0x80, 0x03, 0x00, 0x00, 0x64, 0x03, 0x00, 0x00, 0x5c, 0x03, 0x00,
  0x00, 0x54, 0x03, 0x00, 0x00, 0x4c, 0x03, 0x00, 0x00, 0x44, 0x03, 0x00, 0x00,
  0x3c, 0x03, 0x00, 0x00, 0x34, 0x03, 0x00, 0x00, 0x2c, 0x03, 0x00, 0x00, 0x24,
  0x03, 0x00, 0x00, 0x1c, 0x03, 0x00, 0x00, 0x14, 0x03, 0x00, 0x00, 0x0c, 0x03,
  0x00, 0x00, 0x04, 0x03, 0x00, 0x00, 0xfc, 0x02, 0x00, 0x00, 0xf4, 0x02, 0x00,
  0x00, 0xec, 0x02, 0x00, 0x00, 0xe4, 0x02, 0x00, 0x00, 0xdc, 0x02, 0x00, 0x00,
  0xd4, 0x02, 0x00, 0x00, 0xcc, 0x02, 0x00, 0x00, 0xc4, 0x02, 0x00, 0x00, 0xbc,
  0x02, 0x00, 0x00, 0xb4, 0x02, 0x00, 0x00, 0xac, 0x02, 0x00, 0x00, 0xa4, 0x02,
  0x00, 0x00, 0x9c, 0x02, 0x00, 0x00, 0x94, 0x02, 0x00, 0x00, 0x8c, 0x02, 0x00,
  0x00, 0x84, 0x02, 0x00, 0x00, 0x7c, 0x02, 0x00, 0x00, 0x74, 0x02, 0x00, 0x00,
  0x6c, 0x02, 0x00, 0x00, 0x64, 0x02, 0x00, 0x00, 0x5c, 0x02, 0x00, 0x00, 0x54,
  0x02, 0x00, 0x00, 0x4c, 0x02, 0x00, 0x00, 0x44, 0x02, 0x00, 0x00, 0x3c, 0x02,
  0x00, 0x00, 0x34, 0x02, 0x00, 0x00, 0x2c, 0x02, 0x00, 0x00, 0x24, 0x02, 0x00,
  0x00, 0x1c, 0x02, 0x00, 0x00, 0x14, 0x02, 0x00, 0x00, 0x0c, 0x02, 0x00, 0x00,
  0x04, 0x02, 0x00, 0x00, 0xfc, 0x01, 0x00, 0x00, 0xf4, 0x01, 0x00, 0x00, 0xec,
  0x01, 0x00, 0x00, 0xe4, 0x01, 0x00, 0x00, 0xdc, 0x01, 0x00, 0x00, 0xd4, 0x01,
  0x00, 0x00, 0xcc, 0x01, 0x00, 0x00, 0xc4, 0x01, 0x00, 0x00, 0xbc, 0x01, 0x00,
  0x00, 0xb4, 0x01, 0x00, 0x00, 0xac, 0x01, 0x00, 0x00, 0xa4, 0x01, 0x00, 0x00,
  0x9c, 0x01, 0x00, 0x00, 0x94, 0x01, 0x00, 0x00, 0x8c, 0x01, 0x00, 0x00, 0x84,
  0x01, 0x00, 0x00, 0x7c, 0x01, 0x00, 0x00, 0x74, 0x01, 0x00, 0x00, 0x6c, 0x01,
  0x00, 0x00, 0x64, 0x01, 0x00, 0x00, 0x5c, 0x01, 0x00, 0x00, 0x54, 0x01, 0x00,
  0x00, 0x4c, 0x01, 0x00, 0x00, 0x44, 0x01, 0x00, 0x00, 0x3c, 0x01, 0x00, 0x00,
  0x34, 0x01, 0x00, 0x00, 0x2c, 0x01, 0x00, 0x00, 0x24, 0x01, 0x00, 0x00, 0x1c,
  0x01, 0x00, 0x00, 0x14, 0x01, 0x00, 0x00, 0x0c, 0x01, 0x00, 0x00, 0x04, 0x01,
  0x00, 0x00, 0xfc, 0x00, 0x00, 0x00, 0xf4, 0x00, 0x00, 0x00, 0xec, 0x00, 0x00,
  0x00, 0xe4, 0x00, 0x00, 0x00, 0xdc, 0x00, 0x00, 0x00, 0xd4, 0x00, 0x00, 0x00,
  0xcc, 0x00, 0x00, 0x00, 0xc4, 0x00, 0x00, 0x00, 0xbc, 0x00, 0x00, 0x00, 0xb4,
  0x00, 0x00, 0x00, 0xac, 0x00, 0x00, 0x00, 0xa4, 0x00, 0x00, 0x00, 0x9c, 0x00,
  0x00, 0x00, 0x94, 0x00, 0x00, 0x00, 0x8c, 0x00, 0x00, 0x00, 0x6c, 0x00, 0x00,
  0x00, 0x04, 0x00, 0x00, 0x00, 0xf6, 0xd6, 0xff, 0xff, 0x04, 0x00, 0x00, 0x00,
  0x58, 0x00, 0x00, 0x00, 0x0c, 0x00, 0x00, 0x00, 0x08, 0x00, 0x0e, 0x00, 0x08,
  0x00, 0x04, 0x00, 0x08, 0x00, 0x00, 0x00, 0x10, 0x00, 0x00, 0x00, 0x28, 0x00,
  0x00, 0x00, 0x00, 0x00, 0x06, 0x00, 0x08, 0x00, 0x04, 0x00, 0x06, 0x00, 0x00,
  0x00, 0x04, 0x00, 0x00, 0x00, 0x01, 0x00, 0x00, 0x00, 0xec, 0x03, 0x00, 0x00,
  0x00, 0x00, 0x0a, 0x00, 0x10, 0x00, 0x0c, 0x00, 0x08, 0x00, 0x04, 0x00, 0x0a,
  0x00, 0x00, 0x00, 0x01, 0x00, 0x00, 0x00, 0x02, 0x00, 0x00, 0x00, 0x04, 0x00,
  0x00, 0x00, 0x06, 0x00, 0x00, 0x00, 0x32, 0x2e, 0x31, 0x36, 0x2e, 0x30, 0x00,
  0x00, 0x5a, 0xd7, 0xff, 0xff, 0x04, 0x00, 0x00, 0x00, 0x10, 0x00, 0x00, 0x00,
  0x32, 0x2e, 0x32, 0x2e, 0x30, 0x00, 0x00, 0x00, 0x00, 0x00, 0x00, 0x00, 0x00,
  0x00, 0x00, 0x00, 0x74, 0x92, 0xff, 0xff, 0x78, 0x92, 0xff, 0xff, 0x7c, 0x92,
  0xff, 0xff, 0x80, 0x92, 0xff, 0xff, 0x84, 0x92, 0xff, 0xff, 0x88, 0x92, 0xff,
  0xff, 0x8c, 0x92, 0xff, 0xff, 0x90, 0x92, 0xff, 0xff, 0x94, 0x92, 0xff, 0xff,
  0x98, 0x92, 0xff, 0xff, 0x9c, 0x92, 0xff, 0xff, 0xa0, 0x92, 0xff, 0xff, 0xa4,
  0x92, 0xff, 0xff, 0xa8, 0x92, 0xff, 0xff, 0xac, 0x92, 0xff, 0xff, 0xb0, 0x92,
  0xff, 0xff, 0xb4, 0x92, 0xff, 0xff, 0xb8, 0x92, 0xff, 0xff, 0xbc, 0x92, 0xff,
  0xff, 0xc0, 0x92, 0xff, 0xff, 0xc4, 0x92, 0xff, 0xff, 0xc8, 0x92, 0xff, 0xff,
  0xcc, 0x92, 0xff, 0xff, 0xd0, 0x92, 0xff, 0xff, 0xd4, 0x92, 0xff, 0xff, 0xd8,
  0x92, 0xff, 0xff, 0xdc, 0x92, 0xff, 0xff, 0xe0, 0x92, 0xff, 0xff, 0xe4, 0x92,
  0xff, 0xff, 0xe8, 0x92, 0xff, 0xff, 0xec, 0x92, 0xff, 0xff, 0xf0, 0x92, 0xff,
  0xff, 0xf4, 0x92, 0xff, 0xff, 0xf8, 0x92, 0xff, 0xff, 0xfc, 0x92, 0xff, 0xff,
  0x00, 0x93, 0xff, 0xff, 0x04, 0x93, 0xff, 0xff, 0x08, 0x93, 0xff, 0xff, 0x0c,
  0x93, 0xff, 0xff, 0x10, 0x93, 0xff, 0xff, 0x14, 0x93, 0xff, 0xff, 0x18, 0x93,
  0xff, 0xff, 0x1c, 0x93, 0xff, 0xff, 0x20, 0x93, 0xff, 0xff, 0x24, 0x93, 0xff,
  0xff, 0x28, 0x93, 0xff, 0xff, 0x2c, 0x93, 0xff, 0xff, 0x30, 0x93, 0xff, 0xff,
  0x34, 0x93, 0xff, 0xff, 0x38, 0x93, 0xff, 0xff, 0x3c, 0x93, 0xff, 0xff, 0x40,
  0x93, 0xff, 0xff, 0x44, 0x93, 0xff, 0xff, 0x48, 0x93, 0xff, 0xff, 0x4c, 0x93,
  0xff, 0xff, 0x50, 0x93, 0xff, 0xff, 0x54, 0x93, 0xff, 0xff, 0x58, 0x93, 0xff,
  0xff, 0x5c, 0x93, 0xff, 0xff, 0x60, 0x93, 0xff, 0xff, 0x64, 0x93, 0xff, 0xff,
  0x68, 0x93, 0xff, 0xff, 0x6c, 0x93, 0xff, 0xff, 0x70, 0x93, 0xff, 0xff, 0x74,
  0x93, 0xff, 0xff, 0x78, 0x93, 0xff, 0xff, 0x7c, 0x93, 0xff, 0xff, 0x80, 0x93,
  0xff, 0xff, 0x84, 0x93, 0xff, 0xff, 0x88, 0x93, 0xff, 0xff, 0x8c, 0x93, 0xff,
  0xff, 0x90, 0x93, 0xff, 0xff, 0x94, 0x93, 0xff, 0xff, 0x98, 0x93, 0xff, 0xff,
  0x9c, 0x93, 0xff, 0xff, 0xa0, 0x93, 0xff, 0xff, 0xa4, 0x93, 0xff, 0xff, 0xa8,
  0x93, 0xff, 0xff, 0xac, 0x93, 0xff, 0xff, 0xb0, 0x93, 0xff, 0xff, 0xb4, 0x93,
  0xff, 0xff, 0xb8, 0x93, 0xff, 0xff, 0xbc, 0x93, 0xff, 0xff, 0xc0, 0x93, 0xff,
  0xff, 0xc4, 0x93, 0xff, 0xff, 0xc8, 0x93, 0xff, 0xff, 0xcc, 0x93, 0xff, 0xff,
  0xd0, 0x93, 0xff, 0xff, 0xd4, 0x93, 0xff, 0xff, 0xd8, 0x93, 0xff, 0xff, 0xdc,
  0x93, 0xff, 0xff, 0xe2, 0xd8, 0xff, 0xff, 0x04, 0x00, 0x00, 0x00, 0x0c, 0x00,
  0x00, 0x00, 0x01, 0x00, 0x00, 0x00, 0x02, 0x00, 0x00, 0x00, 0x01, 0x00, 0x00,
  0x00, 0xfa, 0xd8, 0xff, 0xff, 0x04, 0x00, 0x00, 0x00, 0x20, 0x00, 0x00, 0x00,
  0x00, 0x00, 0x00, 0x00, 0x00, 0x00, 0x00, 0x00, 0x01, 0x00, 0x00, 0x00, 0x01,
  0x00, 0x00, 0x00, 0x01, 0x00, 0x00, 0x00, 0x01, 0x00, 0x00, 0x00, 0x00, 0x00,
  0x00, 0x00, 0x00, 0x00, 0x00, 0x00, 0x26, 0xd9, 0xff, 0xff, 0x04, 0x00, 0x00,
  0x00, 0x04, 0x00, 0x00, 0x00, 0x00, 0x00, 0x00, 0x00, 0x36, 0xd9, 0xff, 0xff,
  0x04, 0x00, 0x00, 0x00, 0x08, 0x00, 0x00, 0x00, 0x00, 0x00, 0x00, 0x00, 0x00,
  0x00, 0x00, 0x00, 0x4a, 0xd9, 0xff, 0xff, 0x04, 0x00, 0x00, 0x00, 0x09, 0x00,
  0x00, 0x00, 0xf5, 0xf5, 0xfc, 0x7f, 0xdc, 0x06, 0xd9, 0xe5, 0x00, 0x00, 0x00,
  0x00, 0x62, 0xd9, 0xff, 0xff, 0x04, 0x00, 0x00, 0x00, 0x20, 0x00, 0x00, 0x00,
  0x00, 0x00, 0x00, 0x00, 0x00, 0x00, 0x00, 0x00, 0x00, 0x00, 0x00, 0x00, 0x00,
  0x00, 0x00, 0x00, 0x00, 0x00, 0x00, 0x00, 0x00, 0x00, 0x00, 0x00, 0x00, 0x00,
  0x00, 0x00, 0x00, 0x00, 0x00, 0x00, 0x8e, 0xd9, 0xff, 0xff, 0x04, 0x00, 0x00,
  0x00, 0x04, 0x00, 0x00, 0x00, 0x81, 0x81, 0x7f, 0x7f, 0x9e, 0xd9, 0xff, 0xff,
  0x04, 0x00, 0x00, 0x00, 0x24, 0x00, 0x00, 0x00, 0x00, 0x38, 0xdd, 0x04, 0xba,
  0x62, 0x22, 0x0e, 0xaa, 0x1a, 0x39, 0x0c, 0xc5, 0x55, 0x0c, 0x11, 0xe5, 0x81,
  0x81, 0x7f, 0x1f, 0x30, 0x37, 0xff, 0xb9, 0x00, 0x32, 0x08, 0x2f, 0x20, 0x04,
  0x03, 0x7f, 0xea, 0xdd, 0xfe, 0xce, 0xd9, 0xff, 0xff, 0x04, 0x00, 0x00, 0x00,
  0x10, 0x00, 0x00, 0x00, 0x81, 0xf1, 0x10, 0x11, 0x60, 0x7f, 0xc2, 0x2b, 0xeb,
  0xfb, 0x81, 0x0d, 0x12, 0x81, 0x25, 0xbf, 0xea, 0xd9, 0xff, 0xff, 0x04, 0x00,
  0x00, 0x00, 0x24, 0x00, 0x00, 0x00, 0xf7, 0x02, 0x06, 0x0f, 0x20, 0x08, 0x04,
  0x00, 0xfe, 0xfe, 0x07, 0xfc, 0x29, 0x7f, 0xe4, 0x2c, 0xf1, 0x2a, 0x81, 0xc2,
  0xd1, 0xf5, 0x0b, 0xf0, 0xda, 0xf3, 0x14, 0x05, 0x81, 0xe7, 0xd3, 0x81, 0xe1,
  0x0c, 0xee, 0xc0, 0x18, 0x95, 0xff, 0xff, 0x1e, 0xda, 0xff, 0xff, 0x04, 0x00,
  0x00, 0x00, 0x20, 0x00, 0x00, 0x00, 0x96, 0x4c, 0x0f, 0x81, 0x0a, 0x7f, 0x34,
  0xe0, 0x7f, 0xc4, 0xdd, 0x4a, 0x00, 0x00, 0x00, 0x00, 0x7f, 0xbc, 0xe7, 0x5b,
  0x4c, 0xf2, 0x81, 0xe7, 0x2e, 0xff, 0xe4, 0x7f, 0x7f, 0xb9, 0xdc, 0x5b, 0x4a,
  0xda, 0xff, 0xff, 0x04, 0x00, 0x00, 0x00, 0x48, 0x00, 0x00, 0x00, 0xfe, 0x08,
  0x1e, 0x2a, 0x2a, 0x8f, 0x7f, 0xcc, 0xfc, 0xc8, 0x02, 0xb7, 0xdf, 0x87, 0x4b,
  0x07, 0x01, 0x39, 0xf6, 0xe4, 0xf5, 0x1a, 0xf3, 0x0a, 0x20, 0x03, 0x4e, 0xf4,
  0x2a, 0x81, 0x0f, 0xa8, 0xd3, 0x6e, 0x7f, 0xe1, 0xf3, 0xbd, 0x61, 0xb5, 0x47,
  0x7f, 0x11, 0xf3, 0xe4, 0xf0, 0x16, 0xfc, 0xd8, 0x09, 0xf5, 0xba, 0x05, 0xe3,
  0xe9, 0xef, 0x81, 0x2e, 0x37, 0x81, 0x7f, 0xd8, 0xeb, 0x96, 0x1c, 0x61, 0x4b,
  0x1f, 0x24, 0x14, 0x30, 0x81, 0x9e, 0xda, 0xff, 0xff, 0x04, 0x00, 0x00, 0x00,
  0x40, 0x00, 0x00, 0x00, 0x5a, 0x73, 0x1d, 0x00, 0x14, 0x49, 0x7f, 0x11, 0xc5,
  0x3c, 0xfc, 0x00, 0xe3, 0x71, 0x7f, 0xe7, 0x5b, 0x2a, 0x38, 0x00, 0x4e, 0x08,
  0x04, 0x7f, 0x81, 0x22, 0xe8, 0x00, 0x07, 0x06, 0xf4, 0xdf, 0xe5, 0xad, 0x0a,
  0x00, 0x0c, 0x1a, 0x81, 0x19, 0x7f, 0x06, 0x63, 0x00, 0xdc, 0x07, 0xfe, 0x5b,
  0x16, 0x7f, 0x2a, 0x00, 0xf6, 0x40, 0xd3, 0xed, 0x8b, 0xf8, 0xbf, 0x00, 0x96,
  0xf1, 0x00, 0x81, 0xea, 0xda, 0xff, 0xff, 0x04, 0x00, 0x00, 0x00, 0x48, 0x00,
  0x00, 0x00, 0x37, 0x1e, 0xfd, 0xdc, 0x0d, 0xf1, 0x23, 0x78, 0xf3, 0xc7, 0xee,
  0x0d, 0x12, 0x21, 0xe2, 0x4e, 0x08, 0x13, 0x31, 0xba, 0x13, 0xea, 0x0c, 0x0d,
  0x81, 0x03, 0xdf, 0xf5, 0xfc, 0x59, 0x1e, 0x18, 0x44, 0x3c, 0x81, 0x81, 0x00,
  0x7f, 0xca, 0x7f, 0x12, 0x13, 0x63, 0xc0, 0xf3, 0x05, 0x34, 0xf9, 0x21, 0xec,
  0x04, 0x11, 0x09, 0x11, 0xfe, 0xf1, 0x82, 0x7f, 0xbc, 0x94, 0x7f, 0x09, 0x7f,
  0x01, 0x4b, 0x17, 0x04, 0x19, 0x58, 0xe1, 0x09, 0x17, 0x3e, 0xdb, 0xff, 0xff,
  0x04, 0x00, 0x00, 0x00, 0x40, 0x00, 0x00, 0x00, 0x82, 0x7f, 0x21, 0xe8, 0xe1,
  0x5f, 0x0c, 0xf2, 0x0e, 0x1a, 0x00, 0xed, 0x81, 0xf7, 0xed, 0xf9, 0x00, 0x00,
  0x00, 0x00, 0x00, 0x00, 0x00, 0x00, 0x0f, 0x03, 0x05, 0x27, 0xe0, 0xf0, 0x81,
  0x0c, 0x3c, 0x1e, 0xdb, 0x07, 0x07, 0xb8, 0x3b, 0x81, 0x91, 0xec, 0x7f, 0x1a,
  0x01, 0xec, 0xa1, 0x06, 0x16, 0x17, 0x10, 0x7f, 0x20, 0x6e, 0xf4, 0x36, 0x00,
  0x7f, 0x1c, 0xae, 0x46, 0x0e, 0xba, 0xd1, 0x8a, 0xdb, 0xff, 0xff, 0x04, 0x00,
  0x00, 0x00, 0x48, 0x00, 0x00, 0x00, 0x19, 0xf3, 0x24, 0xdb, 0xe3, 0x12, 0x77,
  0x81, 0xfb, 0x1f, 0xd1, 0xa6, 0x27, 0x12, 0x1a, 0x39, 0xf2, 0x81, 0xf7, 0x81,
  0xe7, 0xf2, 0x6a, 0x87, 0x1e, 0xf9, 0x0b, 0xd8, 0x07, 0x09, 0xac, 0xe4, 0xe0,
  0xd0, 0xcb, 0x90, 0x7f, 0x7f, 0x9a, 0x0b, 0x81, 0x03, 0x7f, 0x77, 0x43, 0x09,
  0x3e, 0xcd, 0xf6, 0x97, 0xe0, 0x1a, 0x01, 0xf2, 0x7f, 0xec, 0x12, 0x11, 0x0c,
  0xe9, 0x03, 0xfe, 0x3a, 0xd1, 0x1f, 0xae, 0xbf, 0xfe, 0xe6, 0x07, 0x13, 0xd0,
  0xde, 0xdb, 0xff, 0xff, 0x04, 0x00, 0x00, 0x00, 0x40, 0x00, 0x00, 0x00, 0x81,
  0x7c, 0x00, 0x2b, 0xf7, 0x70, 0x7a, 0x0f, 0x25, 0x21, 0x00, 0xe7, 0x29, 0x81,
  0xfc, 0xf8, 0x7f, 0x2e, 0x00, 0xbb, 0x18, 0xef, 0x09, 0xc4, 0xac, 0xfc, 0x00,
  0x72, 0x67, 0x7f, 0xea, 0xec, 0xda, 0x03, 0x00, 0x12, 0x29, 0x81, 0xff, 0x22,
  0x76, 0x8f, 0x00, 0x88, 0xfb, 0xee, 0x0f, 0x7f, 0x22, 0xb7, 0x00, 0xf4, 0xab,
  0x81, 0xae, 0x4f, 0x81, 0x2f, 0x00, 0x39, 0x42, 0x08, 0x05, 0xdf, 0x2a, 0xdc,
  0xff, 0xff, 0x04, 0x00, 0x00, 0x00, 0x48, 0x00, 0x00, 0x00, 0x93, 0xdf, 0xec,
  0x9e, 0x7f, 0x81, 0xd0, 0xaf, 0x7a, 0x1a, 0x14, 0x3f, 0x00, 0x61, 0x81, 0x19,
  0x7f, 0xae, 0x81, 0xe4, 0x14, 0xd7, 0x33, 0xd6, 0xc7, 0x7f, 0x19, 0x73, 0x09,
  0x65, 0x9b, 0x1f, 0x7d, 0xc1, 0xd4, 0x70, 0x9c, 0xe4, 0x95, 0x7c, 0x0b, 0xe2,
  0x29, 0xcb, 0xcc, 0x0c, 0xee, 0xbc, 0xf2, 0xfd, 0xf7, 0x07, 0xac, 0x15, 0xb8,
  0xe7, 0x21, 0x25, 0x55, 0xef, 0x26, 0x2a, 0x14, 0x17, 0xda, 0xf0, 0xd2, 0x7f,
  0xe7, 0xec, 0x65, 0x7f, 0x7c, 0x97, 0xff, 0xff, 0x80, 0x97, 0xff, 0xff, 0x86,
  0xdc, 0xff, 0xff, 0x04, 0x00, 0x00, 0x00, 0x36, 0x00, 0x00, 0x00, 0x17, 0x14,
  0xb5, 0xc5, 0xc7, 0x62, 0x7f, 0xd7, 0x81, 0x42, 0xb5, 0xfd, 0xb7, 0x9d, 0x68,
  0x0d, 0x76, 0x70, 0x86, 0x0d, 0x5f, 0xb6, 0x71, 0x81, 0xd2, 0x7f, 0x2e, 0xa6,
  0xf0, 0xfe, 0x07, 0xa6, 0x72, 0x96, 0x7f, 0xee, 0xe3, 0xc5, 0xf8, 0x81, 0x06,
  0xfd, 0x2f, 0x3e, 0x37, 0xad, 0xfd, 0x3d, 0x69, 0x2e, 0x23, 0xff, 0x04, 0x0c,
  0x00, 0x00, 0xc8, 0x97, 0xff, 0xff, 0xce, 0xdc, 0xff, 0xff, 0x04, 0x00, 0x00,
  0x00, 0x36, 0x00, 0x00, 0x00, 0x81, 0x56, 0x88, 0xf0, 0x05, 0xdc, 0xfb, 0x52,
  0x81, 0xed, 0xd4, 0x57, 0xdc, 0x83, 0xe9, 0x81, 0x04, 0x7f, 0x28, 0xc9, 0xa4,
  0xa3, 0x4a, 0x89, 0xeb, 0x81, 0xe7, 0x2d, 0xb2, 0xdc, 0xfc, 0x6c, 0x14, 0x19,
  0xe3, 0x45, 0xb9, 0x04, 0xc5, 0x37, 0x7f, 0x06, 0x26, 0x56, 0x12, 0xa6, 0x32,
  0x22, 0x12, 0x39, 0xbc, 0xcb, 0x2a, 0xf6, 0x00, 0x00, 0x10, 0x98, 0xff, 0xff,
  0x16, 0xdd, 0xff, 0xff, 0x04, 0x00, 0x00, 0x00, 0x60, 0x00, 0x00, 0x00, 0x00,
  0x00, 0x00, 0x00, 0x00, 0x00, 0x00, 0x00, 0x00, 0x00, 0x00, 0x00, 0x00, 0x00,
  0x00, 0x00, 0x00, 0x00, 0x00, 0x00, 0x00, 0x00, 0x00, 0x00, 0x00, 0x00, 0x00,
  0x00, 0x00, 0x00, 0x00, 0x00, 0x00, 0x00, 0x00, 0x00, 0x00, 0x00, 0x00, 0x00,
  0x00, 0x00, 0x00, 0x00, 0x00, 0x00, 0x00, 0x00, 0x00, 0x00, 0x00, 0x00, 0x00,
  0x00, 0x00, 0x00, 0x00, 0x00, 0x00, 0x00, 0x00, 0x00, 0x00, 0x00, 0x00, 0x00,
  0x00, 0x00, 0x00, 0x00, 0x00, 0x00, 0x00, 0x00, 0x00, 0x00, 0x00, 0x00, 0x00,
  0x00, 0x00, 0x00, 0x00, 0x00, 0x00, 0x00, 0x00, 0x00, 0x00, 0x00, 0x00, 0x00,
  0x00, 0x00, 0x00, 0x00, 0x82, 0xdd, 0xff, 0xff, 0x04, 0x00, 0x00, 0x00, 0x6c,
  0x00, 0x00, 0x00, 0xc9, 0x81, 0xaa, 0xd3, 0x4f, 0xee, 0xa1, 0xfd, 0x04, 0xfd,
  0xba, 0xba, 0x68, 0x32, 0x4d, 0x0e, 0xd6, 0xe3, 0xa9, 0x54, 0x28, 0x81, 0x75,
  0x7f, 0xda, 0xd1, 0xe2, 0xf7, 0x6b, 0x05, 0x7f, 0x81, 0x70, 0x05, 0x17, 0x3c,
  0x86, 0x5c, 0x7f, 0x81, 0x5f, 0x81, 0xa9, 0x21, 0x25, 0xef, 0x81, 0x36, 0x7f,
  0xf4, 0x7e, 0xbd, 0x13, 0xe5, 0xe8, 0x94, 0x9a, 0x99, 0xde, 0x9f, 0xd0, 0x99,
  0x68, 0xda, 0xd2, 0x03, 0xce, 0x5c, 0x3f, 0x9a, 0x10, 0xf2, 0xa0, 0x5f, 0xba,
  0x85, 0x5a, 0x61, 0x5c, 0x57, 0x0a, 0x2c, 0x2a, 0xe6, 0xbc, 0xc6, 0x6e, 0x10,
  0x1a, 0xfd, 0x46, 0x0d, 0x7f, 0xa5, 0x38, 0xe0, 0x0d, 0x00, 0x7b, 0x9c, 0x81,
  0x06, 0x20, 0xf4, 0x4c, 0xd6, 0xd4, 0xd0, 0xfa, 0xdd, 0xff, 0xff, 0x04, 0x00,
  0x00, 0x00, 0x48, 0x00, 0x00, 0x00, 0x00, 0x00, 0x00, 0x00, 0x00, 0x00, 0x00,
  0x00, 0x00, 0x00, 0x00, 0x00, 0x00, 0x00, 0x00, 0x00, 0x00, 0x00, 0x00, 0x00,
  0x00, 0x00, 0x00, 0x00, 0x00, 0x00, 0x00, 0x00, 0x00, 0x00, 0x00, 0x00, 0x00,
  0x00, 0x00, 0x00, 0x00, 0x00, 0x00, 0x00, 0x00, 0x00, 0x00, 0x00, 0x00, 0x00,
  0x00, 0x00, 0x00, 0x00, 0x00, 0x00, 0x00, 0x00, 0x00, 0x00, 0x00, 0x00, 0x00,
  0x00, 0x00, 0x00, 0x00, 0x00, 0x00, 0x00, 0x00, 0x00, 0x00, 0x00, 0x00, 0x00,
  0x4e, 0xde, 0xff, 0xff, 0x04, 0x00, 0x00, 0x00, 0x36, 0x00, 0x00, 0x00, 0x02,
  0x5c, 0x7b, 0x38, 0xae, 0xf9, 0x81, 0xf8, 0x97, 0xf6, 0x81, 0x7f, 0x87, 0x7f,
  0xa5, 0xd9, 0x6c, 0x10, 0x81, 0x96, 0xbc, 0x89, 0x71, 0xbd, 0x73, 0x68, 0xd3,
  0xe3, 0xf1, 0x3c, 0x78, 0x5e, 0xc3, 0x81, 0x8a, 0x5d, 0x2c, 0xf6, 0xc8, 0x91,
  0x5f, 0x29, 0xb5, 0xb5, 0x94, 0x55, 0xee, 0xe6, 0x4b, 0x50, 0x81, 0x13, 0x9a,
  0xfa, 0x00, 0x00, 0x92, 0xde, 0xff, 0xff, 0x04, 0x00, 0x00, 0x00, 0x24, 0x00,
  0x00, 0x00, 0x00, 0x00, 0x00, 0x00, 0x00, 0x00, 0x00, 0x00, 0x00, 0x00, 0x00,
  0x00, 0x00, 0x00, 0x00, 0x00, 0x00, 0x00, 0x00, 0x00, 0x00, 0x00, 0x00, 0x00,
  0x00, 0x00, 0x00, 0x00, 0x00, 0x00, 0x00, 0x00, 0x00, 0x00, 0x00, 0x00, 0xc2,
  0xde, 0xff, 0xff, 0x04, 0x00, 0x00, 0x00, 0x36, 0x00, 0x00, 0x00, 0x7f, 0xfd,
  0xd5, 0x0d, 0x30, 0x85, 0xc0, 0xce, 0x81, 0x07, 0x6c, 0x3d, 0xdf, 0x5f, 0x6f,
  0x7f, 0x7f, 0xcf, 0x98, 0x57, 0x5f, 0x1f, 0xae, 0x81, 0xe5, 0xc7, 0xec, 0x0d,
  0x23, 0xb5, 0x30, 0x47, 0x69, 0x2e, 0xab, 0xbd, 0x1f, 0x81, 0xfa, 0x00, 0x3a,
  0xee, 0x4d, 0x4c, 0x7a, 0x41, 0xe4, 0xd5, 0x50, 0x96, 0xdf, 0xd7, 0x4e, 0x2d,
  0x00, 0x00, 0x04, 0x9a, 0xff, 0xff, 0x0a, 0xdf, 0xff, 0xff, 0x04, 0x00, 0x00,
  0x00, 0x80, 0x00, 0x00, 0x00, 0x00, 0x00, 0x00, 0x00, 0x00, 0x00, 0x00, 0x00,
  0x00, 0x00, 0x00, 0x00, 0x00, 0x00, 0x00, 0x00, 0x00, 0x00, 0x00, 0x00, 0x00,
  0x00, 0x00, 0x00, 0x00, 0x00, 0x00, 0x00, 0x00, 0x00, 0x00, 0x00, 0x00, 0x00,
  0x00, 0x00, 0x00, 0x00, 0x00, 0x00, 0x00, 0x00, 0x00, 0x00, 0x00, 0x00, 0x00,
  0x00, 0x00, 0x00, 0x00, 0x00, 0x00, 0x00, 0x00, 0x00, 0x00, 0x00, 0x00, 0x00,
  0x00, 0x00, 0x00, 0x00, 0x00, 0x00, 0x00, 0x00, 0x00, 0x00, 0x00, 0x00, 0x00,
  0x00, 0x00, 0x00, 0x00, 0x00, 0x00, 0x00, 0x00, 0x00, 0x00, 0x00, 0x00, 0x00,
  0x00, 0x00, 0x00, 0x00, 0x00, 0x00, 0x00, 0x00, 0x00, 0x00, 0x00, 0x00, 0x00,
  0x00, 0x00, 0x00, 0x00, 0x00, 0x00, 0x00, 0x00, 0x00, 0x00, 0x00, 0x00, 0x00,
  0x00, 0x00, 0x00, 0x00, 0x00, 0x00, 0x00, 0x00, 0x00, 0x00, 0x00, 0x00, 0x00,
  0x00, 0x00, 0x00, 0x96, 0xdf, 0xff, 0xff, 0x04, 0x00, 0x00, 0x00, 0x90, 0x00,
  0x00, 0x00, 0xed, 0x9f, 0x50, 0xda, 0xa2, 0x58, 0x70, 0x7f, 0x03, 0x0f, 0xd7,
  0xe9, 0xf8, 0x9f, 0xe2, 0xc0, 0x4f, 0x0d, 0x7f, 0xab, 0x1d, 0xf7, 0x50, 0xa6,
  0x04, 0x0b, 0xf1, 0x13, 0x1c, 0xfb, 0xf9, 0xe1, 0x7f, 0xc6, 0x05, 0x7f, 0x9e,
  0x7f, 0x06, 0xde, 0xa3, 0x1a, 0xf2, 0xda, 0x12, 0x18, 0xf8, 0xe2, 0xf5, 0x0a,
  0x01, 0x56, 0x1d, 0xd5, 0xf3, 0x3e, 0xfe, 0x1c, 0xea, 0xe2, 0xfd, 0x1a, 0x1f,
  0x9f, 0x1b, 0x21, 0x46, 0x55, 0xda, 0xc1, 0xf3, 0xa2, 0xf9, 0xde, 0x81, 0xea,
  0x7f, 0xf3, 0xce, 0x7f, 0x01, 0x81, 0xae, 0x1d, 0xd3, 0xc9, 0x81, 0x6e, 0x81,
  0xcf, 0xdd, 0x13, 0x24, 0x81, 0x1c, 0x9f, 0x5d, 0x7a, 0x0f, 0xf2, 0x1f, 0xac,
  0x51, 0xc1, 0x03, 0x10, 0xc3, 0xe6, 0x02, 0xa7, 0xfd, 0xb6, 0x11, 0xaf, 0x03,
  0x02, 0x21, 0x55, 0x3a, 0x34, 0xf4, 0xe4, 0xc4, 0xfd, 0xf8, 0x14, 0xf4, 0x18,
  0x12, 0x6b, 0xf1, 0x23, 0x7f, 0x1b, 0x2d, 0x6d, 0x98, 0x81, 0x81, 0x81, 0x0a,
  0x07, 0x81, 0x8a, 0x32, 0xe0, 0xff, 0xff, 0x04, 0x00, 0x00, 0x00, 0x80, 0x00,
  0x00, 0x00, 0x00, 0x00, 0x00, 0x00, 0x00, 0x00, 0x00, 0x00, 0xba, 0x39, 0xb9,
  0x0a, 0x81, 0xe0, 0xe5, 0x2c, 0x00, 0x00, 0x00, 0x00, 0x00, 0x00, 0x00, 0x00,
  0x0a, 0xab, 0x7f, 0x13, 0xbc, 0x06, 0x14, 0x21, 0x00, 0x00, 0x00, 0x00, 0x00,
  0x00, 0x00, 0x00, 0x11, 0xc9, 0x38, 0x0a, 0x7f, 0x5b, 0x09, 0xa1, 0x00, 0x00,
  0x00, 0x00, 0x00, 0x00, 0x00, 0x00, 0xe0, 0x60, 0x7f, 0x1b, 0x1c, 0xcd, 0x88,
  0x67, 0x00, 0x00, 0x00, 0x00, 0x00, 0x00, 0x00, 0x00, 0x7f, 0x1f, 0xf2, 0x3b,
  0xc7, 0x49, 0xee, 0xd4, 0x00, 0x00, 0x00, 0x00, 0x00, 0x00, 0x00, 0x00, 0x7f,
  0x18, 0x09, 0x28, 0xd9, 0x3e, 0x16, 0xe9, 0x00, 0x00, 0x00, 0x00, 0x00, 0x00,
  0x00, 0x00, 0xcf, 0x68, 0x6d, 0x53, 0xf8, 0x81, 0xc6, 0x17, 0x00, 0x00, 0x00,
  0x00, 0x00, 0x00, 0x00, 0x00, 0x00, 0x00, 0x00, 0x00, 0x00, 0x00, 0x00, 0x00,
  0xbe, 0xe0, 0xff, 0xff, 0x04, 0x00, 0x00, 0x00, 0x48, 0x00, 0x00, 0x00, 0x00,
  0x10, 0xe0, 0x14, 0x7f, 0x3a, 0x4f, 0x65, 0x0b, 0x13, 0x11, 0x6d, 0x03, 0x3f,
  0x1f, 0xc5, 0x1e, 0x54, 0x0e, 0x23, 0xbf, 0xe0, 0x52, 0xbf, 0x3f, 0x3e, 0x24,
  0x5c, 0xcf, 0x81, 0x45, 0x46, 0x2a, 0x91, 0x68, 0x7f, 0x45, 0x6c, 0x81, 0x58,
  0x10, 0x8a, 0xe3, 0x3b, 0xf6, 0xf9, 0x50, 0x06, 0x3c, 0x4d, 0x30, 0x31, 0xcc,
  0x02, 0x49, 0x22, 0x53, 0x8d, 0x7f, 0x0a, 0x27, 0x3b, 0x46, 0x91, 0x7f, 0x7f,
  0x55, 0x2c, 0xa5, 0xf7, 0x39, 0x7f, 0x12, 0xe1, 0xff, 0xff, 0x04, 0x00, 0x00,
  0x00, 0x40, 0x00, 0x00, 0x00, 0x00, 0x00, 0x00, 0x00, 0x00, 0x00, 0x00, 0x00,
  0x36, 0xf3, 0x28, 0x19, 0x81, 0x37, 0xcf, 0x00, 0xd6, 0x2a, 0xfd, 0x24, 0x81,
  0x24, 0xe7, 0x00, 0x00, 0x04, 0x1e, 0x53, 0xe5, 0x81, 0xc8, 0x00, 0x28, 0x06,
  0x15, 0x19, 0x41, 0x81, 0xee, 0x00, 0x9c, 0x0a, 0xb8, 0xfd, 0x7f, 0xd8, 0x0e,
  0x00, 0xfd, 0xf2, 0x0d, 0xf1, 0x7f, 0x06, 0x11, 0x00, 0x2b, 0xec, 0x35, 0x05,
  0x81, 0x37, 0xed, 0x00, 0x5e, 0xe1, 0xff, 0xff, 0x04, 0x00, 0x00, 0x00, 0x48,
  0x00, 0x00, 0x00, 0x28, 0x81, 0x9c, 0x81, 0xeb, 0x7f, 0x7f, 0xd7, 0xbd, 0x0b,
  0x81, 0xf3, 0x03, 0x0f, 0xd2, 0x17, 0xef, 0x96, 0xa0, 0x12, 0x1a, 0x5d, 0x62,
  0x81, 0x72, 0x0d, 0x52, 0x3d, 0x18, 0x08, 0x07, 0x23, 0x81, 0x00, 0xe3, 0xbe,
  0x81, 0xbb, 0xc5, 0x33, 0x57, 0xd2, 0x15, 0xbd, 0x10, 0xdd, 0x02, 0x4d, 0xed,
  0xce, 0x95, 0xf5, 0x0f, 0xdc, 0x0b, 0xce, 0xe1, 0x01, 0x07, 0xc0, 0x89, 0x07,
  0x10, 0xf9, 0x92, 0xb7, 0xe5, 0xf6, 0xd7, 0xe9, 0xeb, 0xff, 0xb2, 0xe1, 0xff,
  0xff, 0x04, 0x00, 0x00, 0x00, 0x40, 0x00, 0x00, 0x00, 0x00, 0xe6, 0x4a, 0xc1,
  0xee, 0xfc, 0x7f, 0x9c, 0x00, 0x00, 0x00, 0x00, 0x00, 0x00, 0x00, 0x00, 0x00,
  0xd8, 0xef, 0xd4, 0x12, 0x81, 0x98, 0xd5, 0x00, 0x16, 0xfe, 0xf3, 0x04, 0x7f,
  0x06, 0xf9, 0x00, 0x9e, 0x1f, 0x7f, 0xd6, 0x89, 0xae, 0xad, 0x00, 0xf2, 0xf1,
  0xf0, 0x7f, 0x55, 0x34, 0x3d, 0x00, 0x00, 0x00, 0x00, 0x00, 0x00, 0x00, 0x00,
  0x00, 0xd5, 0x01, 0x0e, 0xe8, 0xe4, 0x0d, 0x7f, 0xfe, 0xe1, 0xff, 0xff, 0x04,
  0x00, 0x00, 0x00, 0x90, 0x00, 0x00, 0x00, 0x49, 0x09, 0xde, 0x7f, 0x81, 0x04,
  0x67, 0x7f, 0xfb, 0x0c, 0xe8, 0x18, 0x00, 0xf8, 0x21, 0x2d, 0x15, 0x81, 0x7f,
  0xed, 0xf0, 0xeb, 0x81, 0x0f, 0x18, 0xb1, 0x81, 0x81, 0x17, 0x12, 0xdf, 0x3f,
  0x2e, 0x03, 0x45, 0x05, 0xe2, 0xf9, 0xbf, 0xdf, 0xf2, 0xf6, 0xf5, 0x99, 0x13,
  0x05, 0x16, 0x7f, 0x4a, 0x18, 0xff, 0x49, 0xf8, 0x7f, 0x21, 0x1d, 0xd5, 0x41,
  0x2f, 0x15, 0x0b, 0x13, 0xca, 0xf1, 0x40, 0xda, 0x32, 0x55, 0xde, 0x38, 0xa1,
  0xea, 0x11, 0x7f, 0x12, 0xc5, 0xf8, 0x7f, 0x7f, 0x7d, 0x45, 0x03, 0x2f, 0xfe,
  0xe9, 0x05, 0xe5, 0xf4, 0x7f, 0x2d, 0xfa, 0x48, 0x10, 0x11, 0x24, 0x16, 0x7f,
  0xfe, 0x70, 0xe4, 0xb2, 0x1d, 0x73, 0x07, 0x39, 0xbb, 0x2c, 0x05, 0x2c, 0x0e,
  0x25, 0xd2, 0x4b, 0x02, 0x45, 0x34, 0xe6, 0xd4, 0xa7, 0xe5, 0xb3, 0xf7, 0x29,
  0x09, 0xdb, 0x14, 0x46, 0xf6, 0x00, 0x02, 0xf6, 0x0b, 0x15, 0x04, 0x56, 0x2a,
  0xeb, 0x12, 0xea, 0xe9, 0x81, 0xea, 0x04, 0x00, 0x9a, 0xe2, 0xff, 0xff, 0x04,
  0x00, 0x00, 0x00, 0x80, 0x00, 0x00, 0x00, 0xe4, 0x00, 0xdb, 0xf1, 0xdb, 0x67,
  0x00, 0xa0, 0x58, 0x81, 0x1b, 0x16, 0x1c, 0xea, 0xe2, 0x2a, 0x42, 0x00, 0x5c,
  0x7f, 0xc2, 0xa6, 0x00, 0x06, 0x30, 0xf1, 0x2f, 0xc6, 0x96, 0xca, 0x30, 0xce,
  0x0a, 0x00, 0x0e, 0x4c, 0xdb, 0xff, 0x00, 0xad, 0x5f, 0x81, 0x1f, 0x03, 0x03,
  0xd5, 0xda, 0x17, 0x15, 0x00, 0x12, 0x23, 0xfd, 0xe8, 0x00, 0xf3, 0x03, 0x05,
  0x2c, 0x2f, 0xe7, 0x81, 0xe5, 0xda, 0xbb, 0x00, 0xf2, 0xd9, 0xff, 0x45, 0x00,
  0x50, 0x25, 0xbe, 0x0d, 0xe6, 0x7f, 0xe5, 0x6b, 0x44, 0xf7, 0x00, 0x23, 0x2d,
  0xe2, 0x81, 0x00, 0x8b, 0x2e, 0x07, 0x0b, 0x44, 0x04, 0x17, 0x40, 0x0f, 0x01,
  0x00, 0x15, 0x27, 0x18, 0x3c, 0x00, 0xe3, 0x44, 0x81, 0x26, 0x85, 0x2e, 0xa7,
  0x1c, 0x3a, 0xe2, 0x00, 0xd8, 0xde, 0xd9, 0x55, 0x00, 0x7f, 0xe6, 0x07, 0x0f,
  0x37, 0x58, 0x1f, 0xe4, 0xd1, 0x26, 0xe3, 0xff, 0xff, 0x04, 0x00, 0x00, 0x00,
  0x48, 0x00, 0x00, 0x00, 0xfb, 0x18, 0x13, 0x00, 0xec, 0xf1, 0x36, 0xe3, 0xfd,
  0x16, 0x1a, 0xff, 0x17, 0xf6, 0x67, 0x03, 0xc5, 0xf5, 0x49, 0x02, 0x02, 0xf8,
  0x3e, 0x04, 0xd3, 0xef, 0x47, 0xfc, 0x0d, 0x54, 0x6e, 0xfe, 0x7f, 0x7f, 0x81,
  0xb4, 0x7f, 0xda, 0x7f, 0x81, 0xfd, 0xe1, 0x1a, 0xf1, 0xf7, 0x0f, 0x6c, 0x08,
  0xdf, 0xf2, 0x2b, 0xf0, 0x10, 0x81, 0x5b, 0xfc, 0xe9, 0xe5, 0x23, 0xd5, 0xfb,
  0xbb, 0x46, 0x1c, 0x21, 0x25, 0xea, 0x7f, 0xe8, 0x2c, 0x50, 0x12, 0x7a, 0xe3,
  0xff, 0xff, 0x04, 0x00, 0x00, 0x00, 0x40, 0x00, 0x00, 0x00, 0xeb, 0x81, 0xdf,
  0x16, 0xad, 0x86, 0xeb, 0x3c, 0x81, 0xe7, 0xa9, 0x11, 0xc6, 0x83, 0x6e, 0xba,
  0x44, 0xb1, 0x18, 0x81, 0x0b, 0x2d, 0xf7, 0xd7, 0x81, 0x26, 0xc7, 0xf0, 0x00,
  0xc2, 0x13, 0xeb, 0x81, 0xf2, 0xc3, 0xc9, 0x4e, 0x52, 0xfd, 0xec, 0xc9, 0xd9,
  0xca, 0x84, 0xf3, 0xf3, 0x42, 0x81, 0xfe, 0xe4, 0x18, 0x7f, 0x23, 0xff, 0xff,
  0xb6, 0x53, 0x81, 0xfb, 0x2c, 0xad, 0x83, 0xec, 0x4b, 0xc6, 0xe3, 0xff, 0xff,
  0x04, 0x00, 0x00, 0x00, 0x48, 0x00, 0x00, 0x00, 0xd2, 0xcb, 0xee, 0x61, 0x24,
  0xe9, 0x81, 0x0c, 0xee, 0xed, 0x83, 0x7f, 0xf2, 0x81, 0x02, 0xfb, 0x7f, 0x81,
  0xd0, 0xf8, 0x81, 0xe6, 0x26, 0xe8, 0x05, 0xf5, 0x0f, 0xd4, 0x2e, 0x22, 0xf5,
  0xf3, 0x2f, 0xd0, 0xcb, 0x1d, 0x8d, 0xbe, 0x10, 0x07, 0x4b, 0x5e, 0x33, 0x20,
  0x85, 0x44, 0xe1, 0x04, 0xe6, 0xe8, 0xe3, 0x1c, 0x03, 0xdf, 0x0b, 0x12, 0xfd,
  0xee, 0x81, 0xd5, 0xc2, 0xf9, 0xf2, 0x1c, 0x26, 0xf0, 0x48, 0x09, 0x55, 0xea,
  0x04, 0x81, 0x1a, 0xe4, 0xff, 0xff, 0x04, 0x00, 0x00, 0x00, 0x20, 0x00, 0x00,
  0x00, 0xa2, 0xfd, 0x03, 0xfa, 0x05, 0x00, 0xd4, 0x81, 0xd9, 0xe7, 0xd8, 0xf7,
  0xfc, 0x34, 0x81, 0xeb, 0x15, 0xe4, 0x15, 0xec, 0x53, 0x02, 0x81, 0x11, 0xf8,
  0xf2, 0x06, 0xef, 0x04, 0x08, 0x7f, 0xff, 0x46, 0xe4, 0xff, 0xff, 0x04, 0x00,
  0x00, 0x00, 0x48, 0x00, 0x00, 0x00, 0x01, 0x03, 0xaf, 0x6a, 0xb5, 0x0f, 0xd2,
  0xe0, 0x53, 0xb8, 0x81, 0x4c, 0x96, 0x2a, 0xed, 0x96, 0x1c, 0x0e, 0xdc, 0x7f,
  0x49, 0x12, 0x2f, 0x08, 0x04, 0xbd, 0xc3, 0x38, 0xb2, 0x23, 0xf5, 0x8c, 0x7f,
  0x81, 0xaf, 0x44, 0x81, 0x81, 0x81, 0x46, 0x37, 0xc7, 0xbe, 0x6d, 0x1d, 0x13,
  0xf2, 0x8e, 0xfb, 0x20, 0xe4, 0x2e, 0x4f, 0x0f, 0x2e, 0xfa, 0x3b, 0xed, 0xc9,
  0x16, 0x44, 0x03, 0xf8, 0x81, 0xfa, 0x30, 0xc1, 0x77, 0xe2, 0xf7, 0xda, 0xc3,
  0x9a, 0xe4, 0xff, 0xff, 0x04, 0x00, 0x00, 0x00, 0x20, 0x00, 0x00, 0x00, 0x4d,
  0x81, 0xe8, 0x17, 0x67, 0x0d, 0x8c, 0x85, 0xaa, 0x81, 0x03, 0x00, 0xe9, 0x38,
  0x05, 0x09, 0x09, 0x7f, 0x02, 0x2f, 0x15, 0xbd, 0xe3, 0x05, 0xf8, 0x22, 0x00,
  0x0e, 0x08, 0x81, 0x0b, 0x17, 0xc6, 0xe4, 0xff, 0xff, 0x04, 0x00, 0x00, 0x00,
  0x24, 0x00, 0x00, 0x00, 0xf2, 0xff, 0xea, 0x24, 0xff, 0x91, 0xec, 0x01, 0xf4,
  0xb6, 0x46, 0xdd, 0x05, 0x8f, 0xe9, 0x03, 0x7f, 0xf8, 0x81, 0x81, 0x0e, 0x81,
  0xea, 0x0a, 0xfd, 0xca, 0x3e, 0xff, 0x19, 0x98, 0xd4, 0x22, 0xf3, 0x12, 0xef,
  0x4b, 0xf6, 0xe4, 0xff, 0xff, 0x04, 0x00, 0x00, 0x00, 0x10, 0x00, 0x00, 0x00,
  0x00, 0xf8, 0xfb, 0x7f, 0x00, 0xf5, 0xfa, 0x81, 0xfa, 0x2d, 0x81, 0x0b, 0x00,
  0x00, 0xfd, 0x7f, 0x12, 0xe5, 0xff, 0xff, 0x04, 0x00, 0x00, 0x00, 0x24, 0x00,
  0x00, 0x00, 0xfd, 0xf4, 0xfe, 0x05, 0x40, 0x16, 0x18, 0x38, 0x2c, 0xeb, 0x1d,
  0x35, 0xfe, 0xe9, 0xf1, 0xfb, 0x1e, 0x7f, 0x24, 0x16, 0x81, 0x94, 0x81, 0x81,
  0x06, 0xe3, 0xfd, 0x07, 0xec, 0xfe, 0x12, 0xee, 0xfc, 0x26, 0x20, 0xfa, 0x42,
  0xe5, 0xff, 0xff, 0x04, 0x00, 0x00, 0x00, 0x08, 0x00, 0x00, 0x00, 0x01, 0x43,
  0x81, 0xf6, 0xd7, 0x32, 0x7f, 0x10, 0x56, 0xe5, 0xff, 0xff, 0x04, 0x00, 0x00,
  0x00, 0x10, 0x00, 0x00, 0x00, 0x11, 0x1a, 0x00, 0x00, 0x00, 0x00, 0x00, 0x00,
  0xe0, 0x55, 0x00, 0x00, 0x00, 0x00, 0x00, 0x00, 0x72, 0xe5, 0xff, 0xff, 0x04,
  0x00, 0x00, 0x00, 0x20, 0x00, 0x00, 0x00, 0x7d, 0x83, 0x04, 0x00, 0x00, 0x00,
  0x00, 0x00, 0xc4, 0x96, 0xff, 0xff, 0xff, 0xff, 0xff, 0xff, 0x4c, 0x40, 0x25,
  0x00, 0x00, 0x00, 0x00, 0x00, 0x2c, 0x99, 0x00, 0x00, 0x00, 0x00, 0x00, 0x00,
  0x9e, 0xe5, 0xff, 0xff, 0x04, 0x00, 0x00, 0x00, 0x20, 0x00, 0x00, 0x00, 0x91,
  0x91, 0xfe, 0xff, 0xff, 0xff, 0xff, 0xff, 0xe4, 0x54, 0x03, 0x00, 0x00, 0x00,
  0x00, 0x00, 0x5c, 0xcf, 0x00, 0x00, 0x00, 0x00, 0x00, 0x00, 0xec, 0xbb, 0x02,
  0x00, 0x00, 0x00, 0x00, 0x00, 0xca, 0xe5, 0xff, 0xff, 0x04, 0x00, 0x00, 0x00,
  0x40, 0x00, 0x00, 0x00, 0x1c, 0x66, 0x07, 0x00, 0x00, 0x00, 0x00, 0x00, 0xeb,
  0x78, 0xfe, 0xff, 0xff, 0xff, 0xff, 0xff, 0x75, 0xe2, 0x03, 0x00, 0x00, 0x00,
  0x00, 0x00, 0x80, 0xff, 0xff, 0xbf, 0xff, 0xff, 0xff, 0xff, 0x92, 0x50, 0x05,
  0x00, 0x00, 0x00, 0x00, 0x00, 0xb8, 0x1b, 0xff, 0xff, 0xff, 0xff, 0xff, 0xff,
  0x9b, 0x6b, 0x03, 0x00, 0x00, 0x00, 0x00, 0x00, 0x23, 0x74, 0x04, 0x00, 0x00,
  0x00, 0x00, 0x00, 0x16, 0xe6, 0xff, 0xff, 0x04, 0x00, 0x00, 0x00, 0x40, 0x00,
  0x00, 0x00, 0x95, 0x7f, 0xfc, 0xff, 0xff, 0xff, 0xff, 0xff, 0xe1, 0x02, 0x00,
  0x00, 0x00, 0x00, 0x00, 0x00, 0x5b, 0x6d, 0x0f, 0x00, 0x00, 0x00, 0x00, 0x00,
  0xb9, 0xfa, 0xfb, 0xff, 0xff, 0xff, 0xff, 0xff, 0x32, 0x26, 0x09, 0x00, 0x00,
  0x00, 0x00, 0x00, 0x07, 0x92, 0x03, 0x00, 0x00, 0x00, 0x00, 0x00, 0xcb, 0x54,
  0x05, 0x00, 0x00, 0x00, 0x00, 0x00, 0x6d, 0x07, 0xff, 0xff, 0xff, 0xff, 0xff,
  0xff, 0x62, 0xe6, 0xff, 0xff, 0x04, 0x00, 0x00, 0x00, 0x40, 0x00, 0x00, 0x00,
  0xe8, 0xab, 0x01, 0x00, 0x00, 0x00, 0x00, 0x00, 0xae, 0xcd, 0xfe, 0xff, 0xff,
  0xff, 0xff, 0xff, 0x40, 0x00, 0x00, 0xc0, 0xff, 0xff, 0xff, 0xff, 0x90, 0x09,
  0x0e, 0x00, 0x00, 0x00, 0x00, 0x00, 0x67, 0xd5, 0x01, 0x00, 0x00, 0x00, 0x00,
  0x00, 0x69, 0xf7, 0x0f, 0x00, 0x00, 0x00, 0x00, 0x00, 0xa3, 0xf0, 0x01, 0x00,
  0x00, 0x00, 0x00, 0x00, 0xe4, 0x2e, 0xfe, 0xff, 0xff, 0xff, 0xff, 0xff, 0xae,
  0xe6, 0xff, 0xff, 0x04, 0x00, 0x00, 0x00, 0x40, 0x00, 0x00, 0x00, 0xc6, 0x94,
  0x0e, 0x00, 0x00, 0x00, 0x00, 0x00, 0x9c, 0x07, 0xfe, 0xff, 0xff, 0xff, 0xff,
  0xff, 0xa5, 0xc0, 0xfb, 0xff, 0xff, 0xff, 0xff, 0xff, 0xd2, 0x57, 0x05, 0x00,
  0x00, 0x00, 0x00, 0x00, 0xd8, 0xc2, 0x01, 0x00, 0x00, 0x00, 0x00, 0x00, 0xbb,
  0xae, 0x07, 0x00, 0x00, 0x00, 0x00, 0x00, 0xb1, 0xdb, 0x17, 0x00, 0x00, 0x00,
  0x00, 0x00, 0xe6, 0xc2, 0xef, 0xff, 0xff, 0xff, 0xff, 0xff, 0xfa, 0xe6, 0xff,
  0xff, 0x04, 0x00, 0x00, 0x00, 0x30, 0x00, 0x00, 0x00, 0x80, 0xff, 0xff, 0xbf,
  0xff, 0xff, 0xff, 0xff, 0x00, 0x00, 0x00, 0xc0, 0xff, 0xff, 0xff, 0xff, 0x00,
  0x00, 0x00, 0xc0, 0xff, 0xff, 0xff, 0xff, 0x00, 0x00, 0x00, 0xc0, 0xff, 0xff,
  0xff, 0xff, 0x00, 0x00, 0x00, 0xc0, 0xff, 0xff, 0xff, 0xff, 0x80, 0x00, 0x00,
  0xc0, 0xff, 0xff, 0xff, 0xff, 0x34, 0xa2, 0xff, 0xff, 0x3a, 0xe7, 0xff, 0xff,
  0x04, 0x00, 0x00, 0x00, 0x30, 0x00, 0x00, 0x00, 0x80, 0x00, 0x00, 0xc0, 0xff,
  0xff, 0xff, 0xff, 0x80, 0x00, 0x00, 0xc0, 0xff, 0xff, 0xff, 0xff, 0x80, 0x00,
  0x00, 0xc0, 0xff, 0xff, 0xff, 0xff, 0x00, 0x00, 0x00, 0xc0, 0xff, 0xff, 0xff,
  0xff, 0x80, 0x00, 0x00, 0xc0, 0xff, 0xff, 0xff, 0xff, 0x80, 0x00, 0x00, 0xc0,
  0xff, 0xff, 0xff, 0xff, 0x76, 0xe7, 0xff, 0xff, 0x04, 0x00, 0x00, 0x00, 0x30,
  0x00, 0x00, 0x00, 0x40, 0x00, 0x00, 0xc0, 0xff, 0xff, 0xff, 0xff, 0x00, 0x00,
  0x00, 0xc0, 0xff, 0xff, 0xff, 0xff, 0x00, 0x00, 0x00, 0xc0, 0xff, 0xff, 0xff,
  0xff, 0x00, 0x00, 0x00, 0xc0, 0xff, 0xff, 0xff, 0xff, 0x00, 0x00, 0x00, 0xc0,
  0xff, 0xff, 0xff, 0xff, 0x00, 0x00, 0x00, 0xc0, 0xff, 0xff, 0xff, 0xff, 0xb2,
  0xe7, 0xff, 0xff, 0x04, 0x00, 0x00, 0x00, 0x30, 0x00, 0x00, 0x00, 0x00, 0x00,
  0x00, 0x00, 0x00, 0x00, 0x00, 0x00, 0x00, 0x00, 0x00, 0x00, 0x00, 0x00, 0x00,
  0x00, 0x00, 0x00, 0x00, 0x00, 0x00, 0x00, 0x00, 0x00, 0x00, 0x00, 0x00, 0x00,
  0x00, 0x00, 0x00, 0x00, 0x00, 0x00, 0x00, 0x00, 0x00, 0x00, 0x00, 0x00, 0x00,
  0x00, 0x00, 0x00, 0x00, 0x00, 0x00, 0x00, 0xee, 0xe7, 0xff, 0xff, 0x04, 0x00,
  0x00, 0x00, 0x40, 0x00, 0x00, 0x00, 0x00, 0x00, 0x00, 0x00, 0x00, 0x00, 0x00,
  0x00, 0x00, 0x00, 0x00, 0x00, 0x00, 0x00, 0x00, 0x00, 0x00, 0x00, 0x00, 0x00,
  0x00, 0x00, 0x00, 0x00, 0x00, 0x00, 0x00, 0x00, 0x00, 0x00, 0x00, 0x00, 0x00,
  0x00, 0x00, 0x00, 0x00, 0x00, 0x00, 0x00, 0x00, 0x00, 0x00, 0x00, 0x00, 0x00,
  0x00, 0x00, 0x00, 0x00, 0x00, 0x00, 0x00, 0x00, 0x00, 0x00, 0x00, 0x00, 0x00,
  0x00, 0x00, 0x00, 0x00, 0x00, 0x3a, 0xe8, 0xff, 0xff, 0x04, 0x00, 0x00, 0x00,
  0x40, 0x00, 0x00, 0x00, 0x18, 0x39, 0x0b, 0x00, 0x00, 0x00, 0x00, 0x00, 0xc2,
  0x26, 0x11, 0x00, 0x00, 0x00, 0x00, 0x00, 0x53, 0xfe, 0x05, 0x00, 0x00, 0x00,
  0x00, 0x00, 0x8f, 0xd2, 0x0f, 0x00, 0x00, 0x00, 0x00, 0x00, 0x8b, 0xf1, 0x05,
  0x00, 0x00, 0x00, 0x00, 0x00, 0x4d, 0x5c, 0x0c, 0x00, 0x00, 0x00, 0x00, 0x00,
  0x9b, 0xcd, 0x0f, 0x00, 0x00, 0x00, 0x00, 0x00, 0x40, 0x00, 0x00, 0xc0, 0xff,
  0xff, 0xff, 0xff, 0x86, 0xe8, 0xff, 0xff, 0x04, 0x00, 0x00, 0x00, 0x40, 0x00,
  0x00, 0x00, 0x40, 0x00, 0x00, 0xc0, 0xff, 0xff, 0xff, 0xff, 0xe0, 0x8c, 0xff,
  0xff, 0xff, 0xff, 0xff, 0xff, 0xb8, 0x94, 0x00, 0x00, 0x00, 0x00, 0x00, 0x00,
  0x27, 0x9c, 0xf2, 0xff, 0xff, 0xff, 0xff, 0xff, 0xf5, 0x48, 0x00, 0x00, 0x00,
  0x00, 0x00, 0x00, 0xd6, 0x7c, 0x08, 0x00, 0x00, 0x00, 0x00, 0x00, 0x79, 0x40,
  0xff, 0xff, 0xff, 0xff, 0xff, 0xff, 0x2d, 0x4f, 0x00, 0x00, 0x00, 0x00, 0x00,
  0x00, 0xd2, 0xe8, 0xff, 0xff, 0x04, 0x00, 0x00, 0x00, 0x40, 0x00, 0x00, 0x00,
  0xa2, 0x80, 0x04, 0x00, 0x00, 0x00, 0x00, 0x00, 0x00, 0x00, 0x00, 0xc0, 0xff,
  0xff, 0xff, 0xff, 0xa3, 0x92, 0xfe, 0xff, 0xff, 0xff, 0xff, 0xff, 0x1a, 0x69,
  0x05, 0x00, 0x00, 0x00, 0x00, 0x00, 0x64, 0x86, 0xf7, 0xff, 0xff, 0xff, 0xff,
  0xff, 0x7b, 0x07, 0x0b, 0x00, 0x00, 0x00, 0x00, 0x00, 0x00, 0x00, 0x00, 0xc0,
  0xff, 0xff, 0xff, 0xff, 0x8c, 0xe0, 0x05, 0x00, 0x00, 0x00, 0x00, 0x00, 0x1e,
  0xe9, 0xff, 0xff, 0x04, 0x00, 0x00, 0x00, 0x40, 0x00, 0x00, 0x00, 0xcc, 0xd6,
  0x11, 0x00, 0x00, 0x00, 0x00, 0x00, 0x2a, 0x44, 0xfe, 0xff, 0xff, 0xff, 0xff,
  0xff, 0x91, 0x76, 0x08, 0x00, 0x00, 0x00, 0x00, 0x00, 0xfc, 0xb7, 0x03, 0x00,
  0x00, 0x00, 0x00, 0x00, 0x0e, 0x02, 0x09, 0x00, 0x00, 0x00, 0x00, 0x00, 0xde,
  0xa8, 0xf6, 0xff, 0xff, 0xff, 0xff, 0xff, 0xb6, 0x4e, 0x09, 0x00, 0x00, 0x00,
  0x00, 0x00, 0x48, 0x7c, 0xff, 0xff, 0xff, 0xff, 0xff, 0xff, 0x6a, 0xe9, 0xff,
  0xff, 0x04, 0x00, 0x00, 0x00, 0x40, 0x00, 0x00, 0x00, 0x70, 0x92, 0x06, 0x00,
  0x00, 0x00, 0x00, 0x00, 0xab, 0xf6, 0x03, 0x00, 0x00, 0x00, 0x00, 0x00, 0xe6,
  0x42, 0x02, 0x00, 0x00, 0x00, 0x00, 0x00, 0xa4, 0x54, 0xfe, 0xff, 0xff, 0xff,
  0xff, 0xff, 0x75, 0xa4, 0x00, 0x00, 0x00, 0x00, 0x00, 0x00, 0xfd, 0xa1, 0x07,
  0x00, 0x00, 0x00, 0x00, 0x00, 0x06, 0x14, 0xee, 0xff, 0xff, 0xff, 0xff, 0xff,
  0x1e, 0x03, 0x09, 0x00, 0x00, 0x00, 0x00, 0x00, 0xb6, 0xe9, 0xff, 0xff, 0x04,
  0x00, 0x00, 0x00, 0x20, 0x00, 0x00, 0x00, 0x6f, 0x3e, 0x00, 0x00, 0x00, 0x00,
  0x00, 0x00, 0x16, 0xcd, 0x06, 0x00, 0x00, 0x00, 0x00, 0x00, 0xa6, 0xe5, 0x0c,
  0x00, 0x00, 0x00, 0x00, 0x00, 0x7a, 0x31, 0x04, 0x00, 0x00, 0x00, 0x00, 0x00,
  0xe2, 0xe9, 0xff, 0xff, 0x04, 0x00, 0x00, 0x00, 0x20, 0x00, 0x00, 0x00, 0xcf,
  0x0b, 0x00, 0x00, 0x00, 0x00, 0x00, 0x00, 0x10, 0x21, 0x00, 0x00, 0x00, 0x00,
  0x00, 0x00, 0xea, 0x7d, 0xff, 0xff, 0xff, 0xff, 0xff, 0xff, 0x19, 0xc4, 0x00,
  0x00, 0x00, 0x00, 0x00, 0x00, 0x0e, 0xea, 0xff, 0xff, 0x04, 0x00, 0x00, 0x00,
  0x20, 0x00, 0x00, 0x00, 0x54, 0xf2, 0xff, 0xff, 0xff, 0xff, 0xff, 0xff, 0x64,
  0x0b, 0x00, 0x00, 0x00, 0x00, 0x00, 0x00, 0xe9, 0xf3, 0x00, 0x00, 0x00, 0x00,
  0x00, 0x00, 0xe5, 0xfb, 0xff, 0xff, 0xff, 0xff, 0xff, 0xff, 0x38, 0xa5, 0xff,
  0xff, 0x3c, 0xa5, 0xff, 0xff, 0x0f, 0x00, 0x00, 0x00, 0x4d, 0x4c, 0x49, 0x52,
  0x20, 0x43, 0x6f, 0x6e, 0x76, 0x65, 0x72, 0x74, 0x65, 0x64, 0x2e, 0x00, 0x01,
  0x00, 0x00, 0x00, 0x14, 0x00, 0x00, 0x00, 0x00, 0x00, 0x0e, 0x00, 0x18, 0x00,
  0x14, 0x00, 0x10, 0x00, 0x0c, 0x00, 0x08, 0x00, 0x04, 0x00, 0x0e, 0x00, 0x00,
  0x00, 0x14, 0x00, 0x00, 0x00, 0x1c, 0x00, 0x00, 0x00, 0x24, 0x16, 0x00, 0x00,
  0x28, 0x16, 0x00, 0x00, 0x2c, 0x16, 0x00, 0x00, 0x04, 0x00, 0x00, 0x00, 0x6d,
  0x61, 0x69, 0x6e, 0x00, 0x00, 0x00, 0x00, 0x59, 0x00, 0x00, 0x00, 0xe8, 0x15,
  0x00, 0x00, 0xa4, 0x15, 0x00, 0x00, 0x48, 0x15, 0x00, 0x00, 0x04, 0x15, 0x00,
  0x00, 0xb0, 0x14, 0x00, 0x00, 0x54, 0x14, 0x00, 0x00, 0x20, 0x14, 0x00, 0x00,
  0xd8, 0x13, 0x00, 0x00, 0x90, 0x13, 0x00, 0x00, 0x40, 0x13, 0x00, 0x00, 0x0c,
  0x13, 0x00, 0x00, 0xdc, 0x12, 0x00, 0x00, 0x98, 0x12, 0x00, 0x00, 0x50, 0x12,
  0x00, 0x00, 0x08, 0x12, 0x00, 0x00, 0xd4, 0x11, 0x00, 0x00, 0x8c, 0x11, 0x00,
  0x00, 0x44, 0x11, 0x00, 0x00, 0x04, 0x11, 0x00, 0x00, 0xd0, 0x10, 0x00, 0x00,
  0xa0, 0x10, 0x00, 0x00, 0x5c, 0x10, 0x00, 0x00, 0x14, 0x10, 0x00, 0x00, 0xcc,
  0x0f, 0x00, 0x00, 0x98, 0x0f, 0x00, 0x00, 0x50, 0x0f, 0x00, 0x00, 0x08, 0x0f,
  0x00, 0x00, 0xc8, 0x0e, 0x00, 0x00, 0x94, 0x0e, 0x00, 0x00, 0x64, 0x0e, 0x00,
  0x00, 0x20, 0x0e, 0x00, 0x00, 0xd8, 0x0d, 0x00, 0x00, 0x90, 0x0d, 0x00, 0x00,
  0x5c, 0x0d, 0x00, 0x00, 0x14, 0x0d, 0x00, 0x00, 0xcc, 0x0c, 0x00, 0x00, 0x8c,
  0x0c, 0x00, 0x00, 0x48, 0x0c, 0x00, 0x00, 0x14, 0x0c, 0x00, 0x00, 0xcc, 0x0b,
  0x00, 0x00, 0x84, 0x0b, 0x00, 0x00, 0x60, 0x0b, 0x00, 0x00, 0x28, 0x0b, 0x00,
  0x00, 0xf4, 0x0a, 0x00, 0x00, 0xac, 0x0a, 0x00, 0x00, 0x64, 0x0a, 0x00, 0x00,
  0x30, 0x0a, 0x00, 0x00, 0xe8, 0x09, 0x00, 0x00, 0xa0, 0x09, 0x00, 0x00, 0x68,
  0x09, 0x00, 0x00, 0x34, 0x09, 0x00, 0x00, 0xec, 0x08, 0x00, 0x00, 0xa4, 0x08,
  0x00, 0x00, 0x80, 0x08, 0x00, 0x00, 0x48, 0x08, 0x00, 0x00, 0x14, 0x08, 0x00,
  0x00, 0xcc, 0x07, 0x00, 0x00, 0x84, 0x07, 0x00, 0x00, 0x50, 0x07, 0x00, 0x00,
  0x08, 0x07, 0x00, 0x00, 0xc0, 0x06, 0x00, 0x00, 0x88, 0x06, 0x00, 0x00, 0x54,
  0x06, 0x00, 0x00, 0x0c, 0x06, 0x00, 0x00, 0xc4, 0x05, 0x00, 0x00, 0xa0, 0x05,
  0x00, 0x00, 0x68, 0x05, 0x00, 0x00, 0x34, 0x05, 0x00, 0x00, 0xec, 0x04, 0x00,
  0x00, 0xa4, 0x04, 0x00, 0x00, 0x70, 0x04, 0x00, 0x00, 0x28, 0x04, 0x00, 0x00,
  0xe0, 0x03, 0x00, 0x00, 0xa8, 0x03, 0x00, 0x00, 0x74, 0x03, 0x00, 0x00, 0x2c,
  0x03, 0x00, 0x00, 0xe4, 0x02, 0x00, 0x00, 0xc0, 0x02, 0x00, 0x00, 0x88, 0x02,
  0x00, 0x00, 0x54, 0x02, 0x00, 0x00, 0x0c, 0x02, 0x00, 0x00, 0xc4, 0x01, 0x00,
  0x00, 0x90, 0x01, 0x00, 0x00, 0x48, 0x01, 0x00, 0x00, 0x00, 0x01, 0x00, 0x00,
  0xcc, 0x00, 0x00, 0x00, 0x84, 0x00, 0x00, 0x00, 0x28, 0x00, 0x00, 0x00, 0x04,
  0x00, 0x00, 0x00, 0x86, 0xeb, 0xff, 0xff, 0x0c, 0x00, 0x00, 0x00, 0x10, 0x00,
  0x00, 0x00, 0x09, 0x00, 0x00, 0x00, 0x01, 0x00, 0x00, 0x00, 0xa9, 0x00, 0x00,
  0x00, 0x01, 0x00, 0x00, 0x00, 0xa3, 0x00, 0x00, 0x00, 0x42, 0xec, 0xff, 0xff,
  0x28, 0x00, 0x00, 0x00, 0x00, 0x00, 0x00, 0x01, 0x34, 0x00, 0x00, 0x00, 0x38,
  0x00, 0x00, 0x00, 0x04, 0x00, 0x00, 0x00, 0x00, 0x00, 0x12, 0x00, 0x14, 0x00,
  0x13, 0x00, 0x0c, 0x00, 0x08, 0x00, 0x00, 0x00, 0x00, 0x00, 0x00, 0x00, 0x07,
  0x00, 0x12, 0x00, 0x00, 0x00, 0x00, 0x00, 0x00, 0x04, 0x01, 0x00, 0x00, 0x00,
  0x01, 0x00, 0x00, 0x00, 0x00, 0x00, 0x00, 0x01, 0x01, 0x00, 0x00, 0x00, 0xa3,
  0x00, 0x00, 0x00, 0x03, 0x00, 0x00, 0x00, 0xa2, 0x00, 0x00, 0x00, 0x16, 0x00,
  0x00, 0x00, 0x15, 0x00, 0x00, 0x00, 0x9a, 0xec, 0xff, 0xff, 0x14, 0x00, 0x00,
  0x00, 0x00, 0x00, 0x00, 0x02, 0x20, 0x00, 0x00, 0x00, 0x24, 0x00, 0x00, 0x00,
  0x03, 0x00, 0x00, 0x00, 0x1c, 0xed, 0xff, 0xff, 0x01, 0x00, 0x00, 0x00, 0x01,
  0x00, 0x00, 0x00, 0x01, 0x00, 0x00, 0x00, 0x00, 0x00, 0x00, 0x01, 0x01, 0x00,
  0x00, 0x00, 0xa2, 0x00, 0x00, 0x00, 0x03, 0x00, 0x00, 0x00, 0xa1, 0x00, 0x00,
  0x00, 0x17, 0x00, 0x00, 0x00, 0x43, 0x00, 0x00, 0x00, 0xde, 0xec, 0xff, 0xff,
  0x14, 0x00, 0x00, 0x00, 0x00, 0x00, 0x00, 0x16, 0x10, 0x00, 0x00, 0x00, 0x14,
  0x00, 0x00, 0x00, 0x02, 0x00, 0x00, 0x00, 0xcc, 0xa7, 0xff, 0xff, 0x01, 0x00,
  0x00, 0x00, 0xa1, 0x00, 0x00, 0x00, 0x02, 0x00, 0x00, 0x00, 0xa0, 0x00, 0x00,
  0x00, 0x47, 0x00, 0x00, 0x00, 0x0e, 0xed, 0xff, 0xff, 0x14, 0x00, 0x00, 0x00,
  0x00, 0x00, 0x00, 0x01, 0x20, 0x00, 0x00, 0x00, 0x24, 0x00, 0x00, 0x00, 0x04,
  0x00, 0x00, 0x00, 0xe6, 0xed, 0xff, 0xff, 0x00, 0x00, 0x04, 0x01, 0x01, 0x00,
  0x00, 0x00, 0x01, 0x00, 0x00, 0x00, 0x00, 0x00, 0x00, 0x01, 0x01, 0x00, 0x00,
  0x00, 0xa0, 0x00, 0x00, 0x00, 0x03, 0x00, 0x00, 0x00, 0x9f, 0x00, 0x00, 0x00,
  0x18, 0x00, 0x00, 0x00, 0x01, 0x00, 0x00, 0x00, 0x52, 0xed, 0xff, 0xff, 0x14,
  0x00, 0x00, 0x00, 0x00, 0x00, 0x00, 0x02, 0x20, 0x00, 0x00, 0x00, 0x24, 0x00,
  0x00, 0x00, 0x03, 0x00, 0x00, 0x00, 0xd4, 0xed, 0xff, 0xff, 0x01, 0x00, 0x00,
  0x00, 0x01, 0x00, 0x00, 0x00, 0x01, 0x00, 0x00, 0x00, 0x00, 0x00, 0x00, 0x01,
  0x01, 0x00, 0x00, 0x00, 0x9f, 0x00, 0x00, 0x00, 0x03, 0x00, 0x00, 0x00, 0x9e,
  0x00, 0x00, 0x00, 0x19, 0x00, 0x00, 0x00, 0x43, 0x00, 0x00, 0x00, 0x96, 0xed,
  0xff, 0xff, 0x14, 0x00, 0x00, 0x00, 0x00, 0x00, 0x00, 0x16, 0x10, 0x00, 0x00,
  0x00, 0x14, 0x00, 0x00, 0x00, 0x02, 0x00, 0x00, 0x00, 0x84, 0xa8, 0xff, 0xff,
  0x01, 0x00, 0x00, 0x00, 0x9e, 0x00, 0x00, 0x00, 0x02, 0x00, 0x00, 0x00, 0x9d,
  0x00, 0x00, 0x00, 0x47, 0x00, 0x00, 0x00, 0xc6, 0xed, 0xff, 0xff, 0x14, 0x00,
  0x00, 0x00, 0x00, 0x00, 0x00, 0x01, 0x20, 0x00, 0x00, 0x00, 0x24, 0x00, 0x00,
  0x00, 0x04, 0x00, 0x00, 0x00, 0x9e, 0xee, 0xff, 0xff, 0x00, 0x00, 0x04, 0x01,
  0x01, 0x00, 0x00, 0x00, 0x01, 0x00, 0x00, 0x00, 0x00, 0x00, 0x00, 0x01, 0x01,
  0x00, 0x00, 0x00, 0x9d, 0x00, 0x00, 0x00, 0x03, 0x00, 0x00, 0x00, 0x9c, 0x00,
  0x00, 0x00, 0x1a, 0x00, 0x00, 0x00, 0x02, 0x00, 0x00, 0x00, 0x0a, 0xee, 0xff,
  0xff, 0x14, 0x00, 0x00, 0x00, 0x00, 0x00, 0x00, 0x02, 0x20, 0x00, 0x00, 0x00,
  0x24, 0x00, 0x00, 0x00, 0x03, 0x00, 0x00, 0x00, 0x8c, 0xee, 0xff, 0xff, 0x01,
  0x00, 0x00, 0x00, 0x01, 0x00, 0x00, 0x00, 0x01, 0x00, 0x00, 0x00, 0x00, 0x00,
  0x00, 0x01, 0x01, 0x00, 0x00, 0x00, 0x9c, 0x00, 0x00, 0x00, 0x03, 0x00, 0x00,
  0x00, 0x9b, 0x00, 0x00, 0x00, 0x1b, 0x00, 0x00, 0x00, 0x3e, 0x00, 0x00, 0x00,
  0x4e, 0xee, 0xff, 0xff, 0x14, 0x00, 0x00, 0x00, 0x00, 0x00, 0x00, 0x16, 0x10,
  0x00, 0x00, 0x00, 0x14, 0x00, 0x00, 0x00, 0x02, 0x00, 0x00, 0x00, 0x3c, 0xa9,
  0xff, 0xff, 0x01, 0x00, 0x00, 0x00, 0x9b, 0x00, 0x00, 0x00, 0x02, 0x00, 0x00,
  0x00, 0x9a, 0x00, 0x00, 0x00, 0x47, 0x00, 0x00, 0x00, 0x7e, 0xee, 0xff, 0xff,
  0x14, 0x00, 0x00, 0x00, 0x00, 0x00, 0x00, 0x0a, 0x14, 0x00, 0x00, 0x00, 0x18,
  0x00, 0x00, 0x00, 0x07, 0x00, 0x00, 0x00, 0x6e, 0xee, 0xff, 0xff, 0x03, 0x00,
  0x00, 0x00, 0x01, 0x00, 0x00, 0x00, 0x9a, 0x00, 0x00, 0x00, 0x02, 0x00, 0x00,
  0x00, 0x99, 0x00, 0x00, 0x00, 0xa4, 0x00, 0x00, 0x00, 0x16, 0xee, 0xff, 0xff,
  0x0c, 0x00, 0x00, 0x00, 0x10, 0x00, 0x00, 0x00, 0x08, 0x00, 0x00, 0x00, 0x01,
  0x00, 0x00, 0x00, 0xa4, 0x00, 0x00, 0x00, 0x01, 0x00, 0x00, 0x00, 0x52, 0x00,
  0x00, 0x00, 0xd2, 0xee, 0xff, 0xff, 0x14, 0x00, 0x00, 0x00, 0x00, 0x00, 0x00,
  0x01, 0x20, 0x00, 0x00, 0x00, 0x24, 0x00, 0x00, 0x00, 0x04, 0x00, 0x00, 0x00,
  0xaa, 0xef, 0xff, 0xff, 0x00, 0x00, 0x04, 0x01, 0x01, 0x00, 0x00, 0x00, 0x01,
  0x00, 0x00, 0x00, 0x00, 0x00, 0x00, 0x01, 0x01, 0x00, 0x00, 0x00, 0x99, 0x00,
  0x00, 0x00, 0x03, 0x00, 0x00, 0x00, 0x98, 0x00, 0x00, 0x00, 0x1c, 0x00, 0x00,
  0x00, 0x03, 0x00, 0x00, 0x00, 0x16, 0xef, 0xff, 0xff, 0x14, 0x00, 0x00, 0x00,
  0x00, 0x00, 0x00, 0x02, 0x20, 0x00, 0x00, 0x00, 0x24, 0x00, 0x00, 0x00, 0x03,
  0x00, 0x00, 0x00, 0x98, 0xef, 0xff, 0xff, 0x01, 0x00, 0x00, 0x00, 0x01, 0x00,
  0x00, 0x00, 0x01, 0x00, 0x00, 0x00, 0x00, 0x00, 0x00, 0x01, 0x01, 0x00, 0x00,
  0x00, 0x98, 0x00, 0x00, 0x00, 0x03, 0x00, 0x00, 0x00, 0x97, 0x00, 0x00, 0x00,
  0x1d, 0x00, 0x00, 0x00, 0x3e, 0x00, 0x00, 0x00, 0x5a, 0xef, 0xff, 0xff, 0x14,
  0x00, 0x00, 0x00, 0x00, 0x00, 0x00, 0x16, 0x10, 0x00, 0x00, 0x00, 0x14, 0x00,
  0x00, 0x00, 0x02, 0x00, 0x00, 0x00, 0x48, 0xaa, 0xff, 0xff, 0x01, 0x00, 0x00,
  0x00, 0x97, 0x00, 0x00, 0x00, 0x02, 0x00, 0x00, 0x00, 0x96, 0x00, 0x00, 0x00,
  0x47, 0x00, 0x00, 0x00, 0x8a, 0xef, 0xff, 0xff, 0x14, 0x00, 0x00, 0x00, 0x00,
  0x00, 0x00, 0x0f, 0x14, 0x00, 0x00, 0x00, 0x18, 0x00, 0x00, 0x00, 0x06, 0x00,
  0x00, 0x00, 0xf0, 0xf7, 0xff, 0xff, 0x00, 0x00, 0x00, 0x01, 0x01, 0x00, 0x00,
  0x00, 0x96, 0x00, 0x00, 0x00, 0x02, 0x00, 0x00, 0x00, 0x95, 0x00, 0x00, 0x00,
  0x4b, 0x00, 0x00, 0x00, 0xbe, 0xef, 0xff, 0xff, 0x14, 0x00, 0x00, 0x00, 0x00,
  0x00, 0x00, 0x01, 0x20, 0x00, 0x00, 0x00, 0x24, 0x00, 0x00, 0x00, 0x04, 0x00,
  0x00, 0x00, 0x96, 0xf0, 0xff, 0xff, 0x00, 0x00, 0x04, 0x01, 0x01, 0x00, 0x00,
  0x00, 0x01, 0x00, 0x00, 0x00, 0x00, 0x00, 0x00, 0x01, 0x01, 0x00, 0x00, 0x00,
  0x95, 0x00, 0x00, 0x00, 0x03, 0x00, 0x00, 0x00, 0x94, 0x00, 0x00, 0x00, 0x1e,
  0x00, 0x00, 0x00, 0x04, 0x00, 0x00, 0x00, 0x02, 0xf0, 0xff, 0xff, 0x14, 0x00,
  0x00, 0x00, 0x00, 0x00, 0x00, 0x02, 0x20, 0x00, 0x00, 0x00, 0x24, 0x00, 0x00,
  0x00, 0x03, 0x00, 0x00, 0x00, 0x84, 0xf0, 0xff, 0xff, 0x01, 0x00, 0x00, 0x00,
  0x01, 0x00, 0x00, 0x00, 0x01, 0x00, 0x00, 0x00, 0x00, 0x00, 0x00, 0x01, 0x01,
  0x00, 0x00, 0x00, 0x94, 0x00, 0x00, 0x00, 0x03, 0x00, 0x00, 0x00, 0x93, 0x00,
  0x00, 0x00, 0x1f, 0x00, 0x00, 0x00, 0x3e, 0x00, 0x00, 0x00, 0x46, 0xf0, 0xff,
  0xff, 0x14, 0x00, 0x00, 0x00, 0x00, 0x00, 0x00, 0x16, 0x10, 0x00, 0x00, 0x00,
  0x14, 0x00, 0x00, 0x00, 0x02, 0x00, 0x00, 0x00, 0x34, 0xab, 0xff, 0xff, 0x01,
  0x00, 0x00, 0x00, 0x93, 0x00, 0x00, 0x00, 0x02, 0x00, 0x00, 0x00, 0x92, 0x00,
  0x00, 0x00, 0x47, 0x00, 0x00, 0x00, 0x76, 0xf0, 0xff, 0xff, 0x14, 0x00, 0x00,
  0x00, 0x00, 0x00, 0x00, 0x01, 0x20, 0x00, 0x00, 0x00, 0x24, 0x00, 0x00, 0x00,
  0x04, 0x00, 0x00, 0x00, 0x4e, 0xf1, 0xff, 0xff, 0x00, 0x00, 0x04, 0x01, 0x01,
  0x00, 0x00, 0x00, 0x01, 0x00, 0x00, 0x00, 0x00, 0x00, 0x00, 0x01, 0x01, 0x00,
  0x00, 0x00, 0x92, 0x00, 0x00, 0x00, 0x03, 0x00, 0x00, 0x00, 0x91, 0x00, 0x00,
  0x00, 0x20, 0x00, 0x00, 0x00, 0x05, 0x00, 0x00, 0x00, 0xba, 0xf0, 0xff, 0xff,
  0x14, 0x00, 0x00, 0x00, 0x00, 0x00, 0x00, 0x02, 0x20, 0x00, 0x00, 0x00, 0x24,
  0x00, 0x00, 0x00, 0x03, 0x00, 0x00, 0x00, 0x3c, 0xf1, 0xff, 0xff, 0x01, 0x00,
  0x00, 0x00, 0x01, 0x00, 0x00, 0x00, 0x01, 0x00, 0x00, 0x00, 0x00, 0x00, 0x00,
  0x01, 0x01, 0x00, 0x00, 0x00, 0x91, 0x00, 0x00, 0x00, 0x03, 0x00, 0x00, 0x00,
  0x90, 0x00, 0x00, 0x00, 0x21, 0x00, 0x00, 0x00, 0x28, 0x00, 0x00, 0x00, 0xfe,
  0xf0, 0xff, 0xff, 0x14, 0x00, 0x00, 0x00, 0x00, 0x00, 0x00, 0x16, 0x10, 0x00,
  0x00, 0x00, 0x14, 0x00, 0x00, 0x00, 0x02, 0x00, 0x00, 0x00, 0xec, 0xab, 0xff,
  0xff, 0x01, 0x00, 0x00, 0x00, 0x90, 0x00, 0x00, 0x00, 0x02, 0x00, 0x00, 0x00,
  0x8f, 0x00, 0x00, 0x00, 0x47, 0x00, 0x00, 0x00, 0x2e, 0xf1, 0xff, 0xff, 0x14,
  0x00, 0x00, 0x00, 0x00, 0x00, 0x00, 0x0a, 0x14, 0x00, 0x00, 0x00, 0x18, 0x00,
  0x00, 0x00, 0x07, 0x00, 0x00, 0x00, 0x1e, 0xf1, 0xff, 0xff, 0x03, 0x00, 0x00,
  0x00, 0x01, 0x00, 0x00, 0x00, 0x8f, 0x00, 0x00, 0x00, 0x02, 0x00, 0x00, 0x00,
  0xa5, 0x00, 0x00, 0x00, 0x5d, 0x00, 0x00, 0x00, 0xc6, 0xf0, 0xff, 0xff, 0x0c,
  0x00, 0x00, 0x00, 0x10, 0x00, 0x00, 0x00, 0x08, 0x00, 0x00, 0x00, 0x01, 0x00,
  0x00, 0x00, 0xa5, 0x00, 0x00, 0x00, 0x01, 0x00, 0x00, 0x00, 0x8e, 0x00, 0x00,
  0x00, 0x82, 0xf1, 0xff, 0xff, 0x14, 0x00, 0x00, 0x00, 0x00, 0x00, 0x00, 0x01,
  0x20, 0x00, 0x00, 0x00, 0x24, 0x00, 0x00, 0x00, 0x04, 0x00, 0x00, 0x00, 0x5a,
  0xf2, 0xff, 0xff, 0x00, 0x00, 0x04, 0x01, 0x01, 0x00, 0x00, 0x00, 0x01, 0x00,
  0x00, 0x00, 0x00, 0x00, 0x00, 0x01, 0x01, 0x00, 0x00, 0x00, 0x8e, 0x00, 0x00,
  0x00, 0x03, 0x00, 0x00, 0x00, 0x8d, 0x00, 0x00, 0x00, 0x22, 0x00, 0x00, 0x00,
  0x06, 0x00, 0x00, 0x00, 0xc6, 0xf1, 0xff, 0xff, 0x14, 0x00, 0x00, 0x00, 0x00,
  0x00, 0x00, 0x02, 0x20, 0x00, 0x00, 0x00, 0x24, 0x00, 0x00, 0x00, 0x03, 0x00,
  0x00, 0x00, 0x48, 0xf2, 0xff, 0xff, 0x01, 0x00, 0x00, 0x00, 0x01, 0x00, 0x00,
  0x00, 0x01, 0x00, 0x00, 0x00, 0x00, 0x00, 0x00, 0x01, 0x01, 0x00, 0x00, 0x00,
  0x8d, 0x00, 0x00, 0x00, 0x03, 0x00, 0x00, 0x00, 0x8c, 0x00, 0x00, 0x00, 0x23,
  0x00, 0x00, 0x00, 0x3e, 0x00, 0x00, 0x00, 0x0a, 0xf2, 0xff, 0xff, 0x14, 0x00,
  0x00, 0x00, 0x00, 0x00, 0x00, 0x16, 0x10, 0x00, 0x00, 0x00, 0x14, 0x00, 0x00,
  0x00, 0x02, 0x00, 0x00, 0x00, 0xf8, 0xac, 0xff, 0xff, 0x01, 0x00, 0x00, 0x00,
  0x8c, 0x00, 0x00, 0x00, 0x02, 0x00, 0x00, 0x00, 0x8b, 0x00, 0x00, 0x00, 0x47,
  0x00, 0x00, 0x00, 0x3a, 0xf2, 0xff, 0xff, 0x14, 0x00, 0x00, 0x00, 0x00, 0x00,
  0x00, 0x0f, 0x14, 0x00, 0x00, 0x00, 0x18, 0x00, 0x00, 0x00, 0x06, 0x00, 0x00,
  0x00, 0xa0, 0xfa, 0xff, 0xff, 0x00, 0x00, 0x00, 0x01, 0x01, 0x00, 0x00, 0x00,
  0x8b, 0x00, 0x00, 0x00, 0x02, 0x00, 0x00, 0x00, 0x8a, 0x00, 0x00, 0x00, 0x57,
  0x00, 0x00, 0x00, 0x6e, 0xf2, 0xff, 0xff, 0x14, 0x00, 0x00, 0x00, 0x00, 0x00,
  0x00, 0x01, 0x20, 0x00, 0x00, 0x00, 0x24, 0x00, 0x00, 0x00, 0x04, 0x00, 0x00,
  0x00, 0x46, 0xf3, 0xff, 0xff, 0x00, 0x00, 0x04, 0x01, 0x01, 0x00, 0x00, 0x00,
  0x01, 0x00, 0x00, 0x00, 0x00, 0x00, 0x00, 0x01, 0x01, 0x00, 0x00, 0x00, 0x8a,
  0x00, 0x00, 0x00, 0x03, 0x00, 0x00, 0x00, 0x89, 0x00, 0x00, 0x00, 0x24, 0x00,
  0x00, 0x00, 0x07, 0x00, 0x00, 0x00, 0xb2, 0xf2, 0xff, 0xff, 0x14, 0x00, 0x00,
  0x00, 0x00, 0x00, 0x00, 0x02, 0x20, 0x00, 0x00, 0x00, 0x24, 0x00, 0x00, 0x00,
  0x03, 0x00, 0x00, 0x00, 0x34, 0xf3, 0xff, 0xff, 0x01, 0x00, 0x00, 0x00, 0x01,
  0x00, 0x00, 0x00, 0x01, 0x00, 0x00, 0x00, 0x00, 0x00, 0x00, 0x01, 0x01, 0x00,
  0x00, 0x00, 0x89, 0x00, 0x00, 0x00, 0x03, 0x00, 0x00, 0x00, 0x88, 0x00, 0x00,
  0x00, 0x25, 0x00, 0x00, 0x00, 0x3e, 0x00, 0x00, 0x00, 0xf6, 0xf2, 0xff, 0xff,
  0x14, 0x00, 0x00, 0x00, 0x00, 0x00, 0x00, 0x16, 0x10, 0x00, 0x00, 0x00, 0x14,
  0x00, 0x00, 0x00, 0x02, 0x00, 0x00, 0x00, 0xe4, 0xad, 0xff, 0xff, 0x01, 0x00,
  0x00, 0x00, 0x88, 0x00, 0x00, 0x00, 0x02, 0x00, 0x00, 0x00, 0x87, 0x00, 0x00,
  0x00, 0x47, 0x00, 0x00, 0x00, 0x26, 0xf3, 0xff, 0xff, 0x14, 0x00, 0x00, 0x00,
  0x00, 0x00, 0x00, 0x01, 0x20, 0x00, 0x00, 0x00, 0x24, 0x00, 0x00, 0x00, 0x04,
  0x00, 0x00, 0x00, 0xfe, 0xf3, 0xff, 0xff, 0x00, 0x00, 0x04, 0x01, 0x01, 0x00,
  0x00, 0x00, 0x01, 0x00, 0x00, 0x00, 0x00, 0x00, 0x00, 0x01, 0x01, 0x00, 0x00,
  0x00, 0x87, 0x00, 0x00, 0x00, 0x03, 0x00, 0x00, 0x00, 0x86, 0x00, 0x00, 0x00,
  0x26, 0x00, 0x00, 0x00, 0x08, 0x00, 0x00, 0x00, 0x6a, 0xf3, 0xff, 0xff, 0x14,
  0x00, 0x00, 0x00, 0x00, 0x00, 0x00, 0x02, 0x20, 0x00, 0x00, 0x00, 0x24, 0x00,
  0x00, 0x00, 0x03, 0x00, 0x00, 0x00, 0xec, 0xf3, 0xff, 0xff, 0x01, 0x00, 0x00,
  0x00, 0x01, 0x00, 0x00, 0x00, 0x01, 0x00, 0x00, 0x00, 0x00, 0x00, 0x00, 0x01,
  0x01, 0x00, 0x00, 0x00, 0x86, 0x00, 0x00, 0x00, 0x03, 0x00, 0x00, 0x00, 0x85,
  0x00, 0x00, 0x00, 0x27, 0x00, 0x00, 0x00, 0x28, 0x00, 0x00, 0x00, 0xae, 0xf3,
  0xff, 0xff, 0x14, 0x00, 0x00, 0x00, 0x00, 0x00, 0x00, 0x16, 0x10, 0x00, 0x00,
  0x00, 0x14, 0x00, 0x00, 0x00, 0x02, 0x00, 0x00, 0x00, 0x9c, 0xae, 0xff, 0xff,
  0x01, 0x00, 0x00, 0x00, 0x85, 0x00, 0x00, 0x00, 0x02, 0x00, 0x00, 0x00, 0x84,
  0x00, 0x00, 0x00, 0x47, 0x00, 0x00, 0x00, 0xde, 0xf3, 0xff, 0xff, 0x14, 0x00,
  0x00, 0x00, 0x00, 0x00, 0x00, 0x0a, 0x14, 0x00, 0x00, 0x00, 0x18, 0x00, 0x00,
  0x00, 0x07, 0x00, 0x00, 0x00, 0xce, 0xf3, 0xff, 0xff, 0x03, 0x00, 0x00, 0x00,
  0x01, 0x00, 0x00, 0x00, 0x84, 0x00, 0x00, 0x00, 0x02, 0x00, 0x00, 0x00, 0xa6,
  0x00, 0x00, 0x00, 0x68, 0x00, 0x00, 0x00, 0x76, 0xf3, 0xff, 0xff, 0x0c, 0x00,
  0x00, 0x00, 0x10, 0x00, 0x00, 0x00, 0x08, 0x00, 0x00, 0x00, 0x01, 0x00, 0x00,
  0x00, 0xa6, 0x00, 0x00, 0x00, 0x01, 0x00, 0x00, 0x00, 0x83, 0x00, 0x00, 0x00,
  0x32, 0xf4, 0xff, 0xff, 0x14, 0x00, 0x00, 0x00, 0x00, 0x00, 0x00, 0x01, 0x20,
  0x00, 0x00, 0x00, 0x24, 0x00, 0x00, 0x00, 0x04, 0x00, 0x00, 0x00, 0x0a, 0xf5,
  0xff, 0xff, 0x00, 0x00, 0x04, 0x01, 0x01, 0x00, 0x00, 0x00, 0x01, 0x00, 0x00,
  0x00, 0x00, 0x00, 0x00, 0x01, 0x01, 0x00, 0x00, 0x00, 0x83, 0x00, 0x00, 0x00,
  0x03, 0x00, 0x00, 0x00, 0x82, 0x00, 0x00, 0x00, 0x29, 0x00, 0x00, 0x00, 0x09,
  0x00, 0x00, 0x00, 0x76, 0xf4, 0xff, 0xff, 0x14, 0x00, 0x00, 0x00, 0x00, 0x00,
  0x00, 0x02, 0x20, 0x00, 0x00, 0x00, 0x24, 0x00, 0x00, 0x00, 0x03, 0x00, 0x00,
  0x00, 0xf8, 0xf4, 0xff, 0xff, 0x01, 0x00, 0x00, 0x00, 0x01, 0x00, 0x00, 0x00,
  0x01, 0x00, 0x00, 0x00, 0x00, 0x00, 0x00, 0x01, 0x01, 0x00, 0x00, 0x00, 0x82,
  0x00, 0x00, 0x00, 0x03, 0x00, 0x00, 0x00, 0x81, 0x00, 0x00, 0x00, 0x2a, 0x00,
  0x00, 0x00, 0x35, 0x00, 0x00, 0x00, 0xba, 0xf4, 0xff, 0xff, 0x14, 0x00, 0x00,
  0x00, 0x00, 0x00, 0x00, 0x16, 0x10, 0x00, 0x00, 0x00, 0x14, 0x00, 0x00, 0x00,
  0x02, 0x00, 0x00, 0x00, 0xa8, 0xaf, 0xff, 0xff, 0x01, 0x00, 0x00, 0x00, 0x81,
  0x00, 0x00, 0x00, 0x02, 0x00, 0x00, 0x00, 0x80, 0x00, 0x00, 0x00, 0x47, 0x00,
  0x00, 0x00, 0xea, 0xf4, 0xff, 0xff, 0x14, 0x00, 0x00, 0x00, 0x00, 0x00, 0x00,
  0x0f, 0x14, 0x00, 0x00, 0x00, 0x18, 0x00, 0x00, 0x00, 0x06, 0x00, 0x00, 0x00,
  0x50, 0xfd, 0xff, 0xff, 0x00, 0x00, 0x00, 0x01, 0x01, 0x00, 0x00, 0x00, 0x80,
  0x00, 0x00, 0x00, 0x02, 0x00, 0x00, 0x00, 0x7f, 0x00, 0x00, 0x00, 0x62, 0x00,
  0x00, 0x00, 0x1e, 0xf5, 0xff, 0xff, 0x14, 0x00, 0x00, 0x00, 0x00, 0x00, 0x00,
  0x01, 0x20, 0x00, 0x00, 0x00, 0x24, 0x00, 0x00, 0x00, 0x04, 0x00, 0x00, 0x00,
  0xf6, 0xf5, 0xff, 0xff, 0x00, 0x00, 0x04, 0x01, 0x01, 0x00, 0x00, 0x00, 0x01,
  0x00, 0x00, 0x00, 0x00, 0x00, 0x00, 0x01, 0x01, 0x00, 0x00, 0x00, 0x7f, 0x00,
  0x00, 0x00, 0x03, 0x00, 0x00, 0x00, 0x7e, 0x00, 0x00, 0x00, 0x2b, 0x00, 0x00,
  0x00, 0x0a, 0x00, 0x00, 0x00, 0x62, 0xf5, 0xff, 0xff, 0x14, 0x00, 0x00, 0x00,
  0x00, 0x00, 0x00, 0x02, 0x20, 0x00, 0x00, 0x00, 0x24, 0x00, 0x00, 0x00, 0x03,
  0x00, 0x00, 0x00, 0xe4, 0xf5, 0xff, 0xff, 0x01, 0x00, 0x00, 0x00, 0x01, 0x00,
  0x00, 0x00, 0x01, 0x00, 0x00, 0x00, 0x00, 0x00, 0x00, 0x01, 0x01, 0x00, 0x00,
  0x00, 0x7e, 0x00, 0x00, 0x00, 0x03, 0x00, 0x00, 0x00, 0x7d, 0x00, 0x00, 0x00,
  0x2c, 0x00, 0x00, 0x00, 0x35, 0x00, 0x00, 0x00, 0xa6, 0xf5, 0xff, 0xff, 0x14,
  0x00, 0x00, 0x00, 0x00, 0x00, 0x00, 0x16, 0x10, 0x00, 0x00, 0x00, 0x14, 0x00,
  0x00, 0x00, 0x02, 0x00, 0x00, 0x00, 0x94, 0xb0, 0xff, 0xff, 0x01, 0x00, 0x00,
  0x00, 0x7d, 0x00, 0x00, 0x00, 0x02, 0x00, 0x00, 0x00, 0x7c, 0x00, 0x00, 0x00,
  0x47, 0x00, 0x00, 0x00, 0xd6, 0xf5, 0xff, 0xff, 0x14, 0x00, 0x00, 0x00, 0x00,
  0x00, 0x00, 0x01, 0x20, 0x00, 0x00, 0x00, 0x24, 0x00, 0x00, 0x00, 0x04, 0x00,
  0x00, 0x00, 0xae, 0xf6, 0xff, 0xff, 0x00, 0x00, 0x04, 0x01, 0x01, 0x00, 0x00,
  0x00, 0x01, 0x00, 0x00, 0x00, 0x00, 0x00, 0x00, 0x01, 0x01, 0x00, 0x00, 0x00,
  0x7c, 0x00, 0x00, 0x00, 0x03, 0x00, 0x00, 0x00, 0x7b, 0x00, 0x00, 0x00, 0x2d,
  0x00, 0x00, 0x00, 0x0b, 0x00, 0x00, 0x00, 0x1a, 0xf6, 0xff, 0xff, 0x14, 0x00,
  0x00, 0x00, 0x00, 0x00, 0x00, 0x02, 0x20, 0x00, 0x00, 0x00, 0x24, 0x00, 0x00,
  0x00, 0x03, 0x00, 0x00, 0x00, 0x9c, 0xf6, 0xff, 0xff, 0x01, 0x00, 0x00, 0x00,
  0x01, 0x00, 0x00, 0x00, 0x01, 0x00, 0x00, 0x00, 0x00, 0x00, 0x00, 0x01, 0x01,
  0x00, 0x00, 0x00, 0x7b, 0x00, 0x00, 0x00, 0x03, 0x00, 0x00, 0x00, 0x7a, 0x00,
  0x00, 0x00, 0x2e, 0x00, 0x00, 0x00, 0x2f, 0x00, 0x00, 0x00, 0x5e, 0xf6, 0xff,
  0xff, 0x14, 0x00, 0x00, 0x00, 0x00, 0x00, 0x00, 0x16, 0x10, 0x00, 0x00, 0x00,
  0x14, 0x00, 0x00, 0x00, 0x02, 0x00, 0x00, 0x00, 0x4c, 0xb1, 0xff, 0xff, 0x01,
  0x00, 0x00, 0x00, 0x7a, 0x00, 0x00, 0x00, 0x02, 0x00, 0x00, 0x00, 0x79, 0x00,
  0x00, 0x00, 0x47, 0x00, 0x00, 0x00, 0x8e, 0xf6, 0xff, 0xff, 0x14, 0x00, 0x00,
  0x00, 0x00, 0x00, 0x00, 0x0a, 0x14, 0x00, 0x00, 0x00, 0x18, 0x00, 0x00, 0x00,
  0x07, 0x00, 0x00, 0x00, 0x7e, 0xf6, 0xff, 0xff, 0x03, 0x00, 0x00, 0x00, 0x01,
  0x00, 0x00, 0x00, 0x79, 0x00, 0x00, 0x00, 0x02, 0x00, 0x00, 0x00, 0xa7, 0x00,
  0x00, 0x00, 0x73, 0x00, 0x00, 0x00, 0x26, 0xf6, 0xff, 0xff, 0x0c, 0x00, 0x00,
  0x00, 0x10, 0x00, 0x00, 0x00, 0x08, 0x00, 0x00, 0x00, 0x01, 0x00, 0x00, 0x00,
  0xa7, 0x00, 0x00, 0x00, 0x01, 0x00, 0x00, 0x00, 0x78, 0x00, 0x00, 0x00, 0xe2,
  0xf6, 0xff, 0xff, 0x14, 0x00, 0x00, 0x00, 0x00, 0x00, 0x00, 0x01, 0x20, 0x00,
  0x00, 0x00, 0x24, 0x00, 0x00, 0x00, 0x04, 0x00, 0x00, 0x00, 0xba, 0xf7, 0xff,
  0xff, 0x00, 0x00, 0x04, 0x01, 0x01, 0x00, 0x00, 0x00, 0x01, 0x00, 0x00, 0x00,
  0x00, 0x00, 0x00, 0x01, 0x01, 0x00, 0x00, 0x00, 0x78, 0x00, 0x00, 0x00, 0x03,
  0x00, 0x00, 0x00, 0x77, 0x00, 0x00, 0x00, 0x30, 0x00, 0x00, 0x00, 0x0c, 0x00,
  0x00, 0x00, 0x26, 0xf7, 0xff, 0xff, 0x14, 0x00, 0x00, 0x00, 0x00, 0x00, 0x00,
  0x02, 0x20, 0x00, 0x00, 0x00, 0x24, 0x00, 0x00, 0x00, 0x03, 0x00, 0x00, 0x00,
  0xa8, 0xf7, 0xff, 0xff, 0x01, 0x00, 0x00, 0x00, 0x01, 0x00, 0x00, 0x00, 0x01,
  0x00, 0x00, 0x00, 0x00, 0x00, 0x00, 0x01, 0x01, 0x00, 0x00, 0x00, 0x77, 0x00,
  0x00, 0x00, 0x03, 0x00, 0x00, 0x00, 0x76, 0x00, 0x00, 0x00, 0x31, 0x00, 0x00,
  0x00, 0x35, 0x00, 0x00, 0x00, 0x6a, 0xf7, 0xff, 0xff, 0x14, 0x00, 0x00, 0x00,
  0x00, 0x00, 0x00, 0x16, 0x10, 0x00, 0x00, 0x00, 0x14, 0x00, 0x00, 0x00, 0x02,
  0x00, 0x00, 0x00, 0x58, 0xb2, 0xff, 0xff, 0x01, 0x00, 0x00, 0x00, 0x76, 0x00,
  0x00, 0x00, 0x02, 0x00, 0x00, 0x00, 0x75, 0x00, 0x00, 0x00, 0x47, 0x00, 0x00,
  0x00, 0x9a, 0xf7, 0xff, 0xff, 0x20, 0x00, 0x00, 0x00, 0x00, 0x00, 0x00, 0x0f,
  0x20, 0x00, 0x00, 0x00, 0x24, 0x00, 0x00, 0x00, 0x06, 0x00, 0x00, 0x00, 0x0c,
  0x00, 0x08, 0x00, 0x00, 0x00, 0x00, 0x00, 0x00, 0x00, 0x07, 0x00, 0x0c, 0x00,
  0x00, 0x00, 0x00, 0x00, 0x00, 0x01, 0x01, 0x00, 0x00, 0x00, 0x75, 0x00, 0x00,
  0x00, 0x02, 0x00, 0x00, 0x00, 0x74, 0x00, 0x00, 0x00, 0x6d, 0x00, 0x00, 0x00,
  0xda, 0xf7, 0xff, 0xff, 0x14, 0x00, 0x00, 0x00, 0x00, 0x00, 0x00, 0x05, 0x20,
  0x00, 0x00, 0x00, 0x24, 0x00, 0x00, 0x00, 0x05, 0x00, 0x00, 0x00, 0xb6, 0xf9,
  0xff, 0xff, 0x02, 0x00, 0x00, 0x00, 0x02, 0x00, 0x00, 0x00, 0x02, 0x00, 0x00,
  0x00, 0x02, 0x00, 0x00, 0x00, 0x01, 0x00, 0x00, 0x00, 0x74, 0x00, 0x00, 0x00,
  0x01, 0x00, 0x00, 0x00, 0x73, 0x00, 0x00, 0x00, 0x16, 0xf8, 0xff, 0xff, 0x14,
  0x00, 0x00, 0x00, 0x00, 0x00, 0x00, 0x01, 0x20, 0x00, 0x00, 0x00, 0x24, 0x00,
  0x00, 0x00, 0x04, 0x00, 0x00, 0x00, 0xee, 0xf8, 0xff, 0xff, 0x00, 0x00, 0x04,
  0x01, 0x01, 0x00, 0x00, 0x00, 0x01, 0x00, 0x00, 0x00, 0x00, 0x00, 0x00, 0x01,
  0x01, 0x00, 0x00, 0x00, 0x73, 0x00, 0x00, 0x00, 0x03, 0x00, 0x00, 0x00, 0x72,
  0x00, 0x00, 0x00, 0x32, 0x00, 0x00, 0x00, 0x0d, 0x00, 0x00, 0x00, 0x5a, 0xf8,
  0xff, 0xff, 0x14, 0x00, 0x00, 0x00, 0x00, 0x00, 0x00, 0x02, 0x20, 0x00, 0x00,
  0x00, 0x24, 0x00, 0x00, 0x00, 0x03, 0x00, 0x00, 0x00, 0xdc, 0xf8, 0xff, 0xff,
  0x01, 0x00, 0x00, 0x00, 0x01, 0x00, 0x00, 0x00, 0x01, 0x00, 0x00, 0x00, 0x00,
  0x00, 0x00, 0x01, 0x01, 0x00, 0x00, 0x00, 0x72, 0x00, 0x00, 0x00, 0x03, 0x00,
  0x00, 0x00, 0x71, 0x00, 0x00, 0x00, 0x33, 0x00, 0x00, 0x00, 0x35, 0x00, 0x00,
  0x00, 0x9e, 0xf8, 0xff, 0xff, 0x14, 0x00, 0x00, 0x00, 0x00, 0x00, 0x00, 0x16,
  0x10, 0x00, 0x00, 0x00, 0x14, 0x00, 0x00, 0x00, 0x02, 0x00, 0x00, 0x00, 0x8c,
  0xb3, 0xff, 0xff, 0x01, 0x00, 0x00, 0x00, 0x71, 0x00, 0x00, 0x00, 0x02, 0x00,
  0x00, 0x00, 0x70, 0x00, 0x00, 0x00, 0x47, 0x00, 0x00, 0x00, 0xce, 0xf8, 0xff,
  0xff, 0x14, 0x00, 0x00, 0x00, 0x00, 0x00, 0x00, 0x01, 0x20, 0x00, 0x00, 0x00,
  0x24, 0x00, 0x00, 0x00, 0x04, 0x00, 0x00, 0x00, 0xa6, 0xf9, 0xff, 0xff, 0x00,
  0x00, 0x04, 0x01, 0x01, 0x00, 0x00, 0x00, 0x01, 0x00, 0x00, 0x00, 0x00, 0x00,
  0x00, 0x01, 0x01, 0x00, 0x00, 0x00, 0x70, 0x00, 0x00, 0x00, 0x03, 0x00, 0x00,
  0x00, 0x6f, 0x00, 0x00, 0x00, 0x34, 0x00, 0x00, 0x00, 0x0e, 0x00, 0x00, 0x00,
  0x12, 0xf9, 0xff, 0xff, 0x14, 0x00, 0x00, 0x00, 0x00, 0x00, 0x00, 0x02, 0x20,
  0x00, 0x00, 0x00, 0x24, 0x00, 0x00, 0x00, 0x03, 0x00, 0x00, 0x00, 0x94, 0xf9,
  0xff, 0xff, 0x01, 0x00, 0x00, 0x00, 0x01, 0x00, 0x00, 0x00, 0x01, 0x00, 0x00,
  0x00, 0x00, 0x00, 0x00, 0x01, 0x01, 0x00, 0x00, 0x00, 0x6f, 0x00, 0x00, 0x00,
  0x03, 0x00, 0x00, 0x00, 0x6a, 0x00, 0x00, 0x00, 0x36, 0x00, 0x00, 0x00, 0x3e,
  0x00, 0x00, 0x00, 0x56, 0xf9, 0xff, 0xff, 0x14, 0x00, 0x00, 0x00, 0x00, 0x00,
  0x00, 0x4f, 0x14, 0x00, 0x00, 0x00, 0x20, 0x00, 0x00, 0x00, 0x01, 0x00, 0x00,
  0x00, 0x46, 0xf9, 0xff, 0xff, 0x03, 0x00, 0x00, 0x00, 0x03, 0x00, 0x00, 0x00,
  0x6c, 0x00, 0x00, 0x00, 0x6d, 0x00, 0x00, 0x00, 0x6e, 0x00, 0x00, 0x00, 0x03,
  0x00, 0x00, 0x00, 0x6b, 0x00, 0x00, 0x00, 0x48, 0x00, 0x00, 0x00, 0x46, 0x00,
  0x00, 0x00, 0x3e, 0xf9, 0xff, 0xff, 0x10, 0x00, 0x00, 0x00, 0x00, 0x00, 0x00,
  0x37, 0x10, 0x00, 0x00, 0x00, 0x14, 0x00, 0x00, 0x00, 0x2e, 0xf9, 0xff, 0xff,
  0x00, 0x00, 0x00, 0x02, 0x01, 0x00, 0x00, 0x00, 0x6b, 0x00, 0x00, 0x00, 0x01,
  0x00, 0x00, 0x00, 0x69, 0x00, 0x00, 0x00, 0xc2, 0xf9, 0xff, 0xff, 0x14, 0x00,
  0x00, 0x00, 0x00, 0x00, 0x00, 0x16, 0x10, 0x00, 0x00, 0x00, 0x14, 0x00, 0x00,
  0x00, 0x02, 0x00, 0x00, 0x00, 0xb0, 0xb4, 0xff, 0xff, 0x01, 0x00, 0x00, 0x00,
  0x6a, 0x00, 0x00, 0x00, 0x02, 0x00, 0x00, 0x00, 0x69, 0x00, 0x00, 0x00, 0x47,
  0x00, 0x00, 0x00, 0xf2, 0xf9, 0xff, 0xff, 0x14, 0x00, 0x00, 0x00, 0x00, 0x00,
  0x00, 0x05, 0x20, 0x00, 0x00, 0x00, 0x24, 0x00, 0x00, 0x00, 0x05, 0x00, 0x00,
  0x00, 0xce, 0xfb, 0xff, 0xff, 0x02, 0x00, 0x00, 0x00, 0x02, 0x00, 0x00, 0x00,
  0x02, 0x00, 0x00, 0x00, 0x02, 0x00, 0x00, 0x00, 0x01, 0x00, 0x00, 0x00, 0x69,
  0x00, 0x00, 0x00, 0x01, 0x00, 0x00, 0x00, 0x68, 0x00, 0x00, 0x00, 0x2e, 0xfa,
  0xff, 0xff, 0x14, 0x00, 0x00, 0x00, 0x00, 0x00, 0x00, 0x01, 0x20, 0x00, 0x00,
  0x00, 0x24, 0x00, 0x00, 0x00, 0x04, 0x00, 0x00, 0x00, 0x06, 0xfb, 0xff, 0xff,
  0x00, 0x00, 0x04, 0x01, 0x01, 0x00, 0x00, 0x00, 0x01, 0x00, 0x00, 0x00, 0x00,
  0x00, 0x00, 0x01, 0x01, 0x00, 0x00, 0x00, 0x68, 0x00, 0x00, 0x00, 0x03, 0x00,
  0x00, 0x00, 0x67, 0x00, 0x00, 0x00, 0x37, 0x00, 0x00, 0x00, 0x0f, 0x00, 0x00,
  0x00, 0x72, 0xfa, 0xff, 0xff, 0x14, 0x00, 0x00, 0x00, 0x00, 0x00, 0x00, 0x02,
  0x20, 0x00, 0x00, 0x00, 0x24, 0x00, 0x00, 0x00, 0x03, 0x00, 0x00, 0x00, 0xf4,
  0xfa, 0xff, 0xff, 0x01, 0x00, 0x00, 0x00, 0x01, 0x00, 0x00, 0x00, 0x01, 0x00,
  0x00, 0x00, 0x00, 0x00, 0x00, 0x01, 0x01, 0x00, 0x00, 0x00, 0x67, 0x00, 0x00,
  0x00, 0x03, 0x00, 0x00, 0x00, 0x66, 0x00, 0x00, 0x00, 0x38, 0x00, 0x00, 0x00,
  0x3e, 0x00, 0x00, 0x00, 0xb6, 0xfa, 0xff, 0xff, 0x14, 0x00, 0x00, 0x00, 0x00,
  0x00, 0x00, 0x16, 0x10, 0x00, 0x00, 0x00, 0x14, 0x00, 0x00, 0x00, 0x02, 0x00,
  0x00, 0x00, 0xa4, 0xb5, 0xff, 0xff, 0x01, 0x00, 0x00, 0x00, 0x66, 0x00, 0x00,
  0x00, 0x02, 0x00, 0x00, 0x00, 0x65, 0x00, 0x00, 0x00, 0x47, 0x00, 0x00, 0x00,
  0xe6, 0xfa, 0xff, 0xff, 0x14, 0x00, 0x00, 0x00, 0x00, 0x00, 0x00, 0x01, 0x20,
  0x00, 0x00, 0x00, 0x24, 0x00, 0x00, 0x00, 0x04, 0x00, 0x00, 0x00, 0xbe, 0xfb,
  0xff, 0xff, 0x00, 0x00, 0x04, 0x01, 0x01, 0x00, 0x00, 0x00, 0x01, 0x00, 0x00,
  0x00, 0x00, 0x00, 0x00, 0x01, 0x01, 0x00, 0x00, 0x00, 0x65, 0x00, 0x00, 0x00,
  0x03, 0x00, 0x00, 0x00, 0x64, 0x00, 0x00, 0x00, 0x39, 0x00, 0x00, 0x00, 0x10,
  0x00, 0x00, 0x00, 0x2a, 0xfb, 0xff, 0xff, 0x14, 0x00, 0x00, 0x00, 0x00, 0x00,
  0x00, 0x02, 0x20, 0x00, 0x00, 0x00, 0x24, 0x00, 0x00, 0x00, 0x03, 0x00, 0x00,
  0x00, 0xac, 0xfb, 0xff, 0xff, 0x01, 0x00, 0x00, 0x00, 0x01, 0x00, 0x00, 0x00,
  0x01, 0x00, 0x00, 0x00, 0x00, 0x00, 0x00, 0x01, 0x01, 0x00, 0x00, 0x00, 0x64,
  0x00, 0x00, 0x00, 0x03, 0x00, 0x00, 0x00, 0x5f, 0x00, 0x00, 0x00, 0x3a, 0x00,
  0x00, 0x00, 0x3e, 0x00, 0x00, 0x00, 0x6e, 0xfb, 0xff, 0xff, 0x14, 0x00, 0x00,
  0x00, 0x00, 0x00, 0x00, 0x4f, 0x14, 0x00, 0x00, 0x00, 0x20, 0x00, 0x00, 0x00,
  0x01, 0x00, 0x00, 0x00, 0x5e, 0xfb, 0xff, 0xff, 0x03, 0x00, 0x00, 0x00, 0x03,
  0x00, 0x00, 0x00, 0x61, 0x00, 0x00, 0x00, 0x62, 0x00, 0x00, 0x00, 0x63, 0x00,
  0x00, 0x00, 0x03, 0x00, 0x00, 0x00, 0x60, 0x00, 0x00, 0x00, 0x48, 0x00, 0x00,
  0x00, 0x46, 0x00, 0x00, 0x00, 0x56, 0xfb, 0xff, 0xff, 0x10, 0x00, 0x00, 0x00,
  0x00, 0x00, 0x00, 0x37, 0x10, 0x00, 0x00, 0x00, 0x14, 0x00, 0x00, 0x00, 0x46,
  0xfb, 0xff, 0xff, 0x00, 0x00, 0x00, 0x02, 0x01, 0x00, 0x00, 0x00, 0x60, 0x00,
  0x00, 0x00, 0x01, 0x00, 0x00, 0x00, 0x5e, 0x00, 0x00, 0x00, 0xda, 0xfb, 0xff,
  0xff, 0x14, 0x00, 0x00, 0x00, 0x00, 0x00, 0x00, 0x16, 0x10, 0x00, 0x00, 0x00,
  0x14, 0x00, 0x00, 0x00, 0x02, 0x00, 0x00, 0x00, 0xc8, 0xb6, 0xff, 0xff, 0x01,
  0x00, 0x00, 0x00, 0x5f, 0x00, 0x00, 0x00, 0x02, 0x00, 0x00, 0x00, 0x5e, 0x00,
  0x00, 0x00, 0x47, 0x00, 0x00, 0x00, 0x0a, 0xfc, 0xff, 0xff, 0x14, 0x00, 0x00,
  0x00, 0x00, 0x00, 0x00, 0x05, 0x20, 0x00, 0x00, 0x00, 0x24, 0x00, 0x00, 0x00,
  0x05, 0x00, 0x00, 0x00, 0xe6, 0xfd, 0xff, 0xff, 0x02, 0x00, 0x00, 0x00, 0x02,
  0x00, 0x00, 0x00, 0x02, 0x00, 0x00, 0x00, 0x02, 0x00, 0x00, 0x00, 0x01, 0x00,
  0x00, 0x00, 0x5e, 0x00, 0x00, 0x00, 0x01, 0x00, 0x00, 0x00, 0x5d, 0x00, 0x00,
  0x00, 0x46, 0xfc, 0xff, 0xff, 0x14, 0x00, 0x00, 0x00, 0x00, 0x00, 0x00, 0x01,
  0x20, 0x00, 0x00, 0x00, 0x24, 0x00, 0x00, 0x00, 0x04, 0x00, 0x00, 0x00, 0x1e,
  0xfd, 0xff, 0xff, 0x00, 0x00, 0x04, 0x01, 0x01, 0x00, 0x00, 0x00, 0x01, 0x00,
  0x00, 0x00, 0x00, 0x00, 0x00, 0x01, 0x01, 0x00, 0x00, 0x00, 0x5d, 0x00, 0x00,
  0x00, 0x03, 0x00, 0x00, 0x00, 0x5c, 0x00, 0x00, 0x00, 0x3b, 0x00, 0x00, 0x00,
  0x11, 0x00, 0x00, 0x00, 0x8a, 0xfc, 0xff, 0xff, 0x14, 0x00, 0x00, 0x00, 0x00,
  0x00, 0x00, 0x02, 0x20, 0x00, 0x00, 0x00, 0x24, 0x00, 0x00, 0x00, 0x03, 0x00,
  0x00, 0x00, 0x0c, 0xfd, 0xff, 0xff, 0x01, 0x00, 0x00, 0x00, 0x01, 0x00, 0x00,
  0x00, 0x01, 0x00, 0x00, 0x00, 0x00, 0x00, 0x00, 0x01, 0x01, 0x00, 0x00, 0x00,
  0x5c, 0x00, 0x00, 0x00, 0x03, 0x00, 0x00, 0x00, 0x5b, 0x00, 0x00, 0x00, 0x3c,
  0x00, 0x00, 0x00, 0x3e, 0x00, 0x00, 0x00, 0xce, 0xfc, 0xff, 0xff, 0x14, 0x00,
  0x00, 0x00, 0x00, 0x00, 0x00, 0x16, 0x10, 0x00, 0x00, 0x00, 0x14, 0x00, 0x00,
  0x00, 0x02, 0x00, 0x00, 0x00, 0xbc, 0xb7, 0xff, 0xff, 0x01, 0x00, 0x00, 0x00,
  0x5b, 0x00, 0x00, 0x00, 0x02, 0x00, 0x00, 0x00, 0x5a, 0x00, 0x00, 0x00, 0x47,
  0x00, 0x00, 0x00, 0xfe, 0xfc, 0xff, 0xff, 0x14, 0x00, 0x00, 0x00, 0x00, 0x00,
  0x00, 0x01, 0x20, 0x00, 0x00, 0x00, 0x24, 0x00, 0x00, 0x00, 0x04, 0x00, 0x00,
  0x00, 0xd6, 0xfd, 0xff, 0xff, 0x00, 0x00, 0x04, 0x01, 0x01, 0x00, 0x00, 0x00,
  0x01, 0x00, 0x00, 0x00, 0x00, 0x00, 0x00, 0x01, 0x01, 0x00, 0x00, 0x00, 0x5a,
  0x00, 0x00, 0x00, 0x03, 0x00, 0x00, 0x00, 0x59, 0x00, 0x00, 0x00, 0x3d, 0x00,
  0x00, 0x00, 0x12, 0x00, 0x00, 0x00, 0x42, 0xfd, 0xff, 0xff, 0x14, 0x00, 0x00,
  0x00, 0x00, 0x00, 0x00, 0x02, 0x20, 0x00, 0x00, 0x00, 0x24, 0x00, 0x00, 0x00,
  0x03, 0x00, 0x00, 0x00, 0xc4, 0xfd, 0xff, 0xff, 0x01, 0x00, 0x00, 0x00, 0x01,
  0x00, 0x00, 0x00, 0x01, 0x00, 0x00, 0x00, 0x00, 0x00, 0x00, 0x01, 0x01, 0x00,
  0x00, 0x00, 0x59, 0x00, 0x00, 0x00, 0x03, 0x00, 0x00, 0x00, 0x54, 0x00, 0x00,
  0x00, 0x3f, 0x00, 0x00, 0x00, 0x43, 0x00, 0x00, 0x00, 0x86, 0xfd, 0xff, 0xff,
  0x14, 0x00, 0x00, 0x00, 0x00, 0x00, 0x00, 0x4f, 0x14, 0x00, 0x00, 0x00, 0x20,
  0x00, 0x00, 0x00, 0x01, 0x00, 0x00, 0x00, 0x76, 0xfd, 0xff, 0xff, 0x03, 0x00,
  0x00, 0x00, 0x03, 0x00, 0x00, 0x00, 0x56, 0x00, 0x00, 0x00, 0x57, 0x00, 0x00,
  0x00, 0x58, 0x00, 0x00, 0x00, 0x03, 0x00, 0x00, 0x00, 0x55, 0x00, 0x00, 0x00,
  0x48, 0x00, 0x00, 0x00, 0x46, 0x00, 0x00, 0x00, 0x6e, 0xfd, 0xff, 0xff, 0x10,
  0x00, 0x00, 0x00, 0x00, 0x00, 0x00, 0x37, 0x10, 0x00, 0x00, 0x00, 0x14, 0x00,
  0x00, 0x00, 0x5e, 0xfd, 0xff, 0xff, 0x00, 0x00, 0x00, 0x02, 0x01, 0x00, 0x00,
  0x00, 0x55, 0x00, 0x00, 0x00, 0x01, 0x00, 0x00, 0x00, 0x53, 0x00, 0x00, 0x00,
  0xf2, 0xfd, 0xff, 0xff, 0x14, 0x00, 0x00, 0x00, 0x00, 0x00, 0x00, 0x16, 0x10,
  0x00, 0x00, 0x00, 0x14, 0x00, 0x00, 0x00, 0x02, 0x00, 0x00, 0x00, 0xe0, 0xb8,
  0xff, 0xff, 0x01, 0x00, 0x00, 0x00, 0x54, 0x00, 0x00, 0x00, 0x02, 0x00, 0x00,
  0x00, 0x53, 0x00, 0x00, 0x00, 0x47, 0x00, 0x00, 0x00, 0x22, 0xfe, 0xff, 0xff,
  0x24, 0x00, 0x00, 0x00, 0x00, 0x00, 0x00, 0x05, 0x30, 0x00, 0x00, 0x00, 0x34,
  0x00, 0x00, 0x00, 0x05, 0x00, 0x00, 0x00, 0x00, 0x00, 0x0e, 0x00, 0x14, 0x00,
  0x00, 0x00, 0x10, 0x00, 0x0c, 0x00, 0x08, 0x00, 0x04, 0x00, 0x0e, 0x00, 0x00,
  0x00, 0x02, 0x00, 0x00, 0x00, 0x02, 0x00, 0x00, 0x00, 0x02, 0x00, 0x00, 0x00,
  0x02, 0x00, 0x00, 0x00, 0x01, 0x00, 0x00, 0x00, 0x53, 0x00, 0x00, 0x00, 0x01,
  0x00, 0x00, 0x00, 0x52, 0x00, 0x00, 0x00, 0x6e, 0xfe, 0xff, 0xff, 0x14, 0x00,
  0x00, 0x00, 0x00, 0x00, 0x00, 0x01, 0x20, 0x00, 0x00, 0x00, 0x24, 0x00, 0x00,
  0x00, 0x04, 0x00, 0x00, 0x00, 0x46, 0xff, 0xff, 0xff, 0x00, 0x00, 0x04, 0x01,
  0x01, 0x00, 0x00, 0x00, 0x01, 0x00, 0x00, 0x00, 0x00, 0x00, 0x00, 0x01, 0x01,
  0x00, 0x00, 0x00, 0x52, 0x00, 0x00, 0x00, 0x03, 0x00, 0x00, 0x00, 0x51, 0x00,
  0x00, 0x00, 0x40, 0x00, 0x00, 0x00, 0x13, 0x00, 0x00, 0x00, 0xb2, 0xfe, 0xff,
  0xff, 0x14, 0x00, 0x00, 0x00, 0x00, 0x00, 0x00, 0x02, 0x20, 0x00, 0x00, 0x00,
  0x24, 0x00, 0x00, 0x00, 0x03, 0x00, 0x00, 0x00, 0x34, 0xff, 0xff, 0xff, 0x01,
  0x00, 0x00, 0x00, 0x01, 0x00, 0x00, 0x00, 0x01, 0x00, 0x00, 0x00, 0x00, 0x00,
  0x00, 0x01, 0x01, 0x00, 0x00, 0x00, 0x51, 0x00, 0x00, 0x00, 0x03, 0x00, 0x00,
  0x00, 0x50, 0x00, 0x00, 0x00, 0x41, 0x00, 0x00, 0x00, 0x43, 0x00, 0x00, 0x00,
  0xf6, 0xfe, 0xff, 0xff, 0x14, 0x00, 0x00, 0x00, 0x00, 0x00, 0x00, 0x16, 0x10,
  0x00, 0x00, 0x00, 0x14, 0x00, 0x00, 0x00, 0x02, 0x00, 0x00, 0x00, 0xe4, 0xb9,
  0xff, 0xff, 0x01, 0x00, 0x00, 0x00, 0x50, 0x00, 0x00, 0x00, 0x02, 0x00, 0x00,
  0x00, 0x4f, 0x00, 0x00, 0x00, 0x47, 0x00, 0x00, 0x00, 0x26, 0xff, 0xff, 0xff,
  0x28, 0x00, 0x00, 0x00, 0x00, 0x00, 0x00, 0x01, 0x34, 0x00, 0x00, 0x00, 0x38,
  0x00, 0x00, 0x00, 0x04, 0x00, 0x00, 0x00, 0x00, 0x00, 0x12, 0x00, 0x14, 0x00,
  0x13, 0x00, 0x0c, 0x00, 0x08, 0x00, 0x07, 0x00, 0x00, 0x00, 0x00, 0x00, 0x06,
  0x00, 0x12, 0x00, 0x00, 0x00, 0x00, 0x00, 0x04, 0x01, 0x01, 0x00, 0x00, 0x00,
  0x01, 0x00, 0x00, 0x00, 0x00, 0x00, 0x00, 0x01, 0x01, 0x00, 0x00, 0x00, 0x4f,
  0x00, 0x00, 0x00, 0x03, 0x00, 0x00, 0x00, 0x4e, 0x00, 0x00, 0x00, 0x42, 0x00,
  0x00, 0x00, 0x14, 0x00, 0x00, 0x00, 0x7e, 0xff, 0xff, 0xff, 0x20, 0x00, 0x00,
  0x00, 0x00, 0x00, 0x00, 0x02, 0x2c, 0x00, 0x00, 0x00, 0x30, 0x00, 0x00, 0x00,
  0x03, 0x00, 0x00, 0x00, 0x0c, 0x00, 0x14, 0x00, 0x13, 0x00, 0x0c, 0x00, 0x08,
  0x00, 0x04, 0x00, 0x0c, 0x00, 0x00, 0x00, 0x01, 0x00, 0x00, 0x00, 0x01, 0x00,
  0x00, 0x00, 0x01, 0x00, 0x00, 0x00, 0x00, 0x00, 0x00, 0x01, 0x01, 0x00, 0x00,
  0x00, 0x4e, 0x00, 0x00, 0x00, 0x03, 0x00, 0x00, 0x00, 0x4d, 0x00, 0x00, 0x00,
  0x44, 0x00, 0x00, 0x00, 0x45, 0x00, 0x00, 0x00, 0xce, 0xff, 0xff, 0xff, 0x14,
  0x00, 0x00, 0x00, 0x00, 0x00, 0x00, 0x16, 0x10, 0x00, 0x00, 0x00, 0x14, 0x00,
  0x00, 0x00, 0x02, 0x00, 0x00, 0x00, 0xbc, 0xba, 0xff, 0xff, 0x01, 0x00, 0x00,
  0x00, 0x4d, 0x00, 0x00, 0x00, 0x02, 0x00, 0x00, 0x00, 0x00, 0x00, 0x00, 0x00,
  0x47, 0x00, 0x00, 0x00, 0x00, 0x00, 0x0e, 0x00, 0x1a, 0x00, 0x14, 0x00, 0x10,
  0x00, 0x0c, 0x00, 0x0b, 0x00, 0x04, 0x00, 0x0e, 0x00, 0x00, 0x00, 0x1c, 0x00,
  0x00, 0x00, 0x00, 0x00, 0x00, 0x4f, 0x1c, 0x00, 0x00, 0x00, 0x28, 0x00, 0x00,
  0x00, 0x01, 0x00, 0x00, 0x00, 0x00, 0x00, 0x06, 0x00, 0x08, 0x00, 0x04, 0x00,
  0x06, 0x00, 0x00, 0x00, 0x03, 0x00, 0x00, 0x00, 0x03, 0x00, 0x00, 0x00, 0x4a,
  0x00, 0x00, 0x00, 0x4b, 0x00, 0x00, 0x00, 0x4c, 0x00, 0x00, 0x00, 0x03, 0x00,
  0x00, 0x00, 0x49, 0x00, 0x00, 0x00, 0x48, 0x00, 0x00, 0x00, 0x46, 0x00, 0x00,
  0x00, 0x00, 0x00, 0x0e, 0x00, 0x16, 0x00, 0x00, 0x00, 0x10, 0x00, 0x0c, 0x00,
  0x0b, 0x00, 0x04, 0x00, 0x0e, 0x00, 0x00, 0x00, 0x18, 0x00, 0x00, 0x00, 0x00,
  0x00, 0x00, 0x37, 0x18, 0x00, 0x00, 0x00, 0x1c, 0x00, 0x00, 0x00, 0x00, 0x00,
  0x06, 0x00, 0x08, 0x00, 0x07, 0x00, 0x06, 0x00, 0x00, 0x00, 0x00, 0x00, 0x00,
  0x02, 0x01, 0x00, 0x00, 0x00, 0x49, 0x00, 0x00, 0x00, 0x01, 0x00, 0x00, 0x00,
  0x00, 0x00, 0x00, 0x00, 0x00, 0x00, 0x0a, 0x00, 0x10, 0x00, 0x0c, 0x00, 0x08,
  0x00, 0x04, 0x00, 0x0a, 0x00, 0x00, 0x00, 0x0c, 0x00, 0x00, 0x00, 0x10, 0x00,
  0x00, 0x00, 0x08, 0x00, 0x00, 0x00, 0x01, 0x00, 0x00, 0x00, 0x00, 0x00, 0x00,
  0x00, 0x01, 0x00, 0x00, 0x00, 0xa8, 0x00, 0x00, 0x00, 0x01, 0x00, 0x00, 0x00,
  0xa9, 0x00, 0x00, 0x00, 0x01, 0x00, 0x00, 0x00, 0xa8, 0x00, 0x00, 0x00, 0xaa,
  0x00, 0x00, 0x00, 0x94, 0x7e, 0x00, 0x00, 0xf0, 0x7d, 0x00, 0x00, 0x58, 0x7d,
  0x00, 0x00, 0xd4, 0x7c, 0x00, 0x00, 0x20, 0x7c, 0x00, 0x00, 0x6c, 0x7b, 0x00,
  0x00, 0xb8, 0x7a, 0x00, 0x00, 0x04, 0x7a, 0x00, 0x00, 0x50, 0x79, 0x00, 0x00,
  0x9c, 0x78, 0x00, 0x00, 0x00, 0x78, 0x00, 0x00, 0x64, 0x77, 0x00, 0x00, 0xc8,
  0x76, 0x00, 0x00, 0x2c, 0x76, 0x00, 0x00, 0x90, 0x75, 0x00, 0x00, 0xdc, 0x74,
  0x00, 0x00, 0x28, 0x74, 0x00, 0x00, 0x74, 0x73, 0x00, 0x00, 0xc0, 0x72, 0x00,
  0x00, 0x3c, 0x72, 0x00, 0x00, 0xb8, 0x71, 0x00, 0x00, 0x4c, 0x71, 0x00, 0x00,
  0xb0, 0x70, 0x00, 0x00, 0xd4, 0x6f, 0x00, 0x00, 0x10, 0x6f, 0x00, 0x00, 0x48,
  0x6e, 0x00, 0x00, 0x88, 0x6d, 0x00, 0x00, 0x70, 0x6c, 0x00, 0x00, 0xb0, 0x6b,
  0x00, 0x00, 0x98, 0x6a, 0x00, 0x00, 0x88, 0x69, 0x00, 0x00, 0x70, 0x68, 0x00,
  0x00, 0x60, 0x67, 0x00, 0x00, 0xa8, 0x65, 0x00, 0x00, 0x98, 0x64, 0x00, 0x00,
  0x80, 0x63, 0x00, 0x00, 0x70, 0x62, 0x00, 0x00, 0x58, 0x61, 0x00, 0x00, 0x48,
  0x60, 0x00, 0x00, 0x90, 0x5e, 0x00, 0x00, 0x78, 0x5d, 0x00, 0x00, 0x64, 0x5c,
  0x00, 0x00, 0x74, 0x5b, 0x00, 0x00, 0x8c, 0x5a, 0x00, 0x00, 0x9c, 0x59, 0x00,
  0x00, 0xb4, 0x58, 0x00, 0x00, 0x4c, 0x57, 0x00, 0x00, 0x64, 0x56, 0x00, 0x00,
  0x78, 0x55, 0x00, 0x00, 0x88, 0x54, 0x00, 0x00, 0xa0, 0x53, 0x00, 0x00, 0xb0,
  0x52, 0x00, 0x00, 0xc8, 0x51, 0x00, 0x00, 0x2c, 0x51, 0x00, 0x00, 0x14, 0x50,
  0x00, 0x00, 0x04, 0x4f, 0x00, 0x00, 0xec, 0x4d, 0x00, 0x00, 0xdc, 0x4c, 0x00,
  0x00, 0xc4, 0x4b, 0x00, 0x00, 0xb4, 0x4a, 0x00, 0x00, 0x9c, 0x49, 0x00, 0x00,
  0x8c, 0x48, 0x00, 0x00, 0xd8, 0x47, 0x00, 0x00, 0x10, 0x47, 0x00, 0x00, 0x50,
  0x46, 0x00, 0x00, 0x88, 0x45, 0x00, 0x00, 0xc8, 0x44, 0x00, 0x00, 0x44, 0x44,
  0x00, 0x00, 0xbc, 0x43, 0x00, 0x00, 0x5c, 0x43, 0x00, 0x00, 0x20, 0x43, 0x00,
  0x00, 0xc0, 0x42, 0x00, 0x00, 0x7c, 0x42, 0x00, 0x00, 0x38, 0x42, 0x00, 0x00,
  0xe8, 0x41, 0x00, 0x00, 0x98, 0x41, 0x00, 0x00, 0x48, 0x41, 0x00, 0x00, 0xa4,
  0x40, 0x00, 0x00, 0xe8, 0x3f, 0x00, 0x00, 0xfc, 0x3e, 0x00, 0x00, 0x58, 0x3e,
  0x00, 0x00, 0x9c, 0x3d, 0x00, 0x00, 0xa8, 0x3c, 0x00, 0x00, 0xfc, 0x3b, 0x00,
  0x00, 0x58, 0x3b, 0x00, 0x00, 0x0c, 0x3b, 0x00, 0x00, 0xbc, 0x3a, 0x00, 0x00,
  0x6c, 0x3a, 0x00, 0x00, 0x1c, 0x3a, 0x00, 0x00, 0x5c, 0x39, 0x00, 0x00, 0x68,
  0x38, 0x00, 0x00, 0xc4, 0x37, 0x00, 0x00, 0x08, 0x37, 0x00, 0x00, 0x14, 0x36,
  0x00, 0x00, 0x68, 0x35, 0x00, 0x00, 0xc4, 0x34, 0x00, 0x00, 0x74, 0x34, 0x00,
  0x00, 0x24, 0x34, 0x00, 0x00, 0xd4, 0x33, 0x00, 0x00, 0x84, 0x33, 0x00, 0x00,
  0xc8, 0x32, 0x00, 0x00, 0xd4, 0x31, 0x00, 0x00, 0x30, 0x31, 0x00, 0x00, 0x74,
  0x30, 0x00, 0x00, 0x80, 0x2f, 0x00, 0x00, 0xd4, 0x2e, 0x00, 0x00, 0x30, 0x2e,
  0x00, 0x00, 0xe0, 0x2d, 0x00, 0x00, 0x94, 0x2d, 0x00, 0x00, 0x44, 0x2d, 0x00,
  0x00, 0xf4, 0x2c, 0x00, 0x00, 0x34, 0x2c, 0x00, 0x00, 0x40, 0x2b, 0x00, 0x00,
  0x9c, 0x2a, 0x00, 0x00, 0xe0, 0x29, 0x00, 0x00, 0xec, 0x28, 0x00, 0x00, 0x40,
  0x28, 0x00, 0x00, 0x7c, 0x27, 0x00, 0x00, 0xd8, 0x26, 0x00, 0x00, 0x1c, 0x26,
  0x00, 0x00, 0x30, 0x25, 0x00, 0x00, 0x7c, 0x24, 0x00, 0x00, 0xd8, 0x23, 0x00,
  0x00, 0x1c, 0x23, 0x00, 0x00, 0x28, 0x22, 0x00, 0x00, 0x84, 0x21, 0x00, 0x00,
  0xc8, 0x20, 0x00, 0x00, 0xd4, 0x1f, 0x00, 0x00, 0x10, 0x1f, 0x00, 0x00, 0x6c,
  0x1e, 0x00, 0x00, 0xb0, 0x1d, 0x00, 0x00, 0xbc, 0x1c, 0x00, 0x00, 0x08, 0x1c,
  0x00, 0x00, 0x64, 0x1b, 0x00, 0x00, 0xa8, 0x1a, 0x00, 0x00, 0xb4, 0x19, 0x00,
  0x00, 0x10, 0x19, 0x00, 0x00, 0x54, 0x18, 0x00, 0x00, 0x60, 0x17, 0x00, 0x00,
  0x9c, 0x16, 0x00, 0x00, 0xf8, 0x15, 0x00, 0x00, 0x3c, 0x15, 0x00, 0x00, 0x48,
  0x14, 0x00, 0x00, 0x94, 0x13, 0x00, 0x00, 0xf0, 0x12, 0x00, 0x00, 0x34, 0x12,
  0x00, 0x00, 0x40, 0x11, 0x00, 0x00, 0x9c, 0x10, 0x00, 0x00, 0xe0, 0x0f, 0x00,
  0x00, 0xec, 0x0e, 0x00, 0x00, 0x28, 0x0e, 0x00, 0x00, 0x84, 0x0d, 0x00, 0x00,
  0xc8, 0x0c, 0x00, 0x00, 0xd4, 0x0b, 0x00, 0x00, 0x20, 0x0b, 0x00, 0x00, 0x74,
  0x0a, 0x00, 0x00, 0xb8, 0x09, 0x00, 0x00, 0xc4, 0x08, 0x00, 0x00, 0x18, 0x08,
  0x00, 0x00, 0x5c, 0x07, 0x00, 0x00, 0x68, 0x06, 0x00, 0x00, 0xbc, 0x05, 0x00,
  0x00, 0x00, 0x05, 0x00, 0x00, 0x4c, 0x04, 0x00, 0x00, 0x70, 0x03, 0x00, 0x00,
  0x7c, 0x02, 0x00, 0x00, 0xa0, 0x01, 0x00, 0x00, 0xcc, 0x00, 0x00, 0x00, 0x7c,
  0x00, 0x00, 0x00, 0x04, 0x00, 0x00, 0x00, 0xa0, 0xff, 0xff, 0xff, 0x0c, 0x00,
  0x00, 0x00, 0x1c, 0x00, 0x00, 0x00, 0x40, 0x00, 0x00, 0x00, 0x04, 0x00, 0x00,
  0x00, 0x01, 0x00, 0x00, 0x00, 0xff, 0xff, 0xff, 0xff, 0xff, 0xff, 0xff, 0xff,
  0x02, 0x00, 0x00, 0x00, 0x22, 0x00, 0x00, 0x00, 0x72, 0x65, 0x73, 0x74, 0x6f,
  0x72, 0x61, 0x74, 0x69, 0x6f, 0x6e, 0x5f, 0x30, 0x2f, 0x64, 0x65, 0x63, 0x6f,
  0x64, 0x65, 0x72, 0x2f, 0x42, 0x69, 0x61, 0x73, 0x41, 0x64, 0x64, 0x5f, 0x31,
  0x32, 0x3a, 0x30, 0x00, 0x00, 0x04, 0x00, 0x00, 0x00, 0x01, 0x00, 0x00, 0x00,
  0x01, 0x00, 0x00, 0x00, 0x01, 0x00, 0x00, 0x00, 0x02, 0x00, 0x00, 0x00, 0x14,
  0x00, 0x10, 0x00, 0x0c, 0x00, 0x00, 0x00, 0x00, 0x00, 0x08, 0x00, 0x00, 0x00,
  0x00, 0x00, 0x00, 0x00, 0x04, 0x00, 0x14, 0x00, 0x00, 0x00, 0x0c, 0x00, 0x00,
  0x00, 0x1c, 0x00, 0x00, 0x00, 0x2c, 0x00, 0x00, 0x00, 0x04, 0x00, 0x00, 0x00,
  0x01, 0x00, 0x00, 0x00, 0xff, 0xff, 0xff, 0xff, 0xff, 0xff, 0xff, 0xff, 0x01,
  0x00, 0x00, 0x00, 0x0d, 0x00, 0x00, 0x00, 0x50, 0x6c, 0x61, 0x63, 0x65, 0x68,
  0x6f, 0x6c, 0x64, 0x65, 0x72, 0x3a, 0x30, 0x00, 0x00, 0x00, 0x04, 0x00, 0x00,
  0x00, 0x01, 0x00, 0x00, 0x00, 0x01, 0x00, 0x00, 0x00, 0x01, 0x00, 0x00, 0x00,
  0x01, 0x00, 0x00, 0x00, 0x7c, 0xfd, 0xff, 0xff, 0x14, 0x00, 0x00, 0x00, 0x24,
  0x00, 0x00, 0x00, 0x40, 0x00, 0x00, 0x00, 0x00, 0x00, 0x00, 0x07, 0xa8, 0x00,
  0x00, 0x00, 0x04, 0x00, 0x00, 0x00, 0x01, 0x00, 0x00, 0x00, 0xff, 0xff, 0xff,
  0xff, 0xff, 0xff, 0xff, 0xff, 0x06, 0x00, 0x00, 0x00, 0x84, 0x85, 0xff, 0xff,
  0x08, 0x00, 0x00, 0x00, 0x10, 0x00, 0x00, 0x00, 0x01, 0x00, 0x00, 0x00, 0x00,
  0x00, 0x00, 0x00, 0x00, 0x00, 0x00, 0x00, 0x01, 0x00, 0x00, 0x00, 0x03, 0xd6,
  0x02, 0x34, 0x6b, 0x00, 0x00, 0x00, 0x72, 0x65, 0x73, 0x74, 0x6f, 0x72, 0x61,
  0x74, 0x69, 0x6f, 0x6e, 0x5f, 0x30, 0x2f, 0x64, 0x65, 0x63, 0x6f, 0x64, 0x65,
  0x72, 0x2f, 0x52, 0x65, 0x6c, 0x75, 0x3b, 0x72, 0x65, 0x73, 0x74, 0x6f, 0x72,
  0x61, 0x74, 0x69, 0x6f, 0x6e, 0x5f, 0x30, 0x2f, 0x64, 0x65, 0x63, 0x6f, 0x64,
  0x65, 0x72, 0x2f, 0x42, 0x69, 0x61, 0x73, 0x41, 0x64, 0x64, 0x3b, 0x72, 0x65,
  0x73, 0x74, 0x6f, 0x72, 0x61, 0x74, 0x69, 0x6f, 0x6e, 0x5f, 0x30, 0x2f, 0x64,
  0x65, 0x63, 0x6f, 0x64, 0x65, 0x72, 0x2f, 0x73, 0x65, 0x70, 0x61, 0x72, 0x61,
  0x62, 0x6c, 0x65, 0x5f, 0x63, 0x6f, 0x6e, 0x76, 0x32, 0x64, 0x5f, 0x72, 0x65,
  0x71, 0x75, 0x61, 0x6e, 0x74, 0x69, 0x7a, 0x65, 0x64, 0x00, 0x04, 0x00, 0x00,
  0x00, 0x01, 0x00, 0x00, 0x00, 0x01, 0x00, 0x00, 0x00, 0x01, 0x00, 0x00, 0x00,
  0x06, 0x00, 0x00, 0x00, 0x4c, 0xfe, 0xff, 0xff, 0x14, 0x00, 0x00, 0x00, 0x24,
  0x00, 0x00, 0x00, 0x40, 0x00, 0x00, 0x00, 0x00, 0x00, 0x00, 0x07, 0xb0, 0x00,
  0x00, 0x00, 0x04, 0x00, 0x00, 0x00, 0x01, 0x00, 0x00, 0x00, 0xff, 0xff, 0xff,
  0xff, 0xff, 0xff, 0xff, 0xff, 0x08, 0x00, 0x00, 0x00, 0x54, 0x86, 0xff, 0xff,
  0x08, 0x00, 0x00, 0x00, 0x10, 0x00, 0x00, 0x00, 0x01, 0x00, 0x00, 0x00, 0x00,
  0x00, 0x00, 0x00, 0x00, 0x00, 0x00, 0x00, 0x01, 0x00, 0x00, 0x00, 0xc7, 0x8a,
  0x9e, 0x38, 0x71, 0x00, 0x00, 0x00, 0x72, 0x65, 0x73, 0x74, 0x6f, 0x72, 0x61,
  0x74, 0x69, 0x6f, 0x6e, 0x5f, 0x30, 0x2f, 0x64, 0x65, 0x63, 0x6f, 0x64, 0x65,
  0x72, 0x2f, 0x52, 0x65, 0x6c, 0x75, 0x5f, 0x33, 0x3b, 0x72, 0x65, 0x73, 0x74,
  0x6f, 0x72, 0x61, 0x74, 0x69, 0x6f, 0x6e, 0x5f, 0x30, 0x2f, 0x64, 0x65, 0x63,
  0x6f, 0x64, 0x65, 0x72, 0x2f, 0x42, 0x69, 0x61, 0x73, 0x41, 0x64, 0x64, 0x5f,
  0x33, 0x3b, 0x72, 0x65, 0x73, 0x74, 0x6f, 0x72, 0x61, 0x74, 0x69, 0x6f, 0x6e,
  0x5f, 0x30, 0x2f, 0x64, 0x65, 0x63, 0x6f, 0x64, 0x65, 0x72, 0x2f, 0x73, 0x65,
  0x70, 0x61, 0x72, 0x61, 0x62, 0x6c, 0x65, 0x5f, 0x63, 0x6f, 0x6e, 0x76, 0x32,
  0x64, 0x5f, 0x33, 0x5f, 0x72, 0x65, 0x71, 0x75, 0x61, 0x6e, 0x74, 0x69, 0x7a,
  0x65, 0x64, 0x00, 0x00, 0x00, 0x04, 0x00, 0x00, 0x00, 0x01, 0x00, 0x00, 0x00,
  0x01, 0x00, 0x00, 0x00, 0x01, 0x00, 0x00, 0x00, 0x08, 0x00, 0x00, 0x00, 0x24,
  0xff, 0xff, 0xff, 0x14, 0x00, 0x00, 0x00, 0x24, 0x00, 0x00, 0x00, 0x44, 0x00,
  0x00, 0x00, 0x00, 0x00, 0x00, 0x07, 0xb4, 0x00, 0x00, 0x00, 0x04, 0x00, 0x00,
  0x00, 0x01, 0x00, 0x00, 0x00, 0xff, 0xff, 0xff, 0xff, 0xff, 0xff, 0xff, 0xff,
  0x08, 0x00, 0x00, 0x00, 0x2c, 0x87, 0xff, 0xff, 0x08, 0x00, 0x00, 0x00, 0x14,
  0x00, 0x00, 0x00, 0x01, 0x00, 0x00, 0x00, 0x00, 0x00, 0x00, 0x00, 0x00, 0x00,
  0x00, 0x00, 0x00, 0x00, 0x00, 0x00, 0x01, 0x00, 0x00, 0x00, 0xf3, 0x14, 0x9d,
  0x38, 0x71, 0x00, 0x00, 0x00, 0x72, 0x65, 0x73, 0x74, 0x6f, 0x72, 0x61, 0x74,
  0x69, 0x6f, 0x6e, 0x5f, 0x30, 0x2f, 0x64, 0x65, 0x63, 0x6f, 0x64, 0x65, 0x72,
  0x2f, 0x52, 0x65, 0x6c, 0x75, 0x5f, 0x36, 0x3b, 0x72, 0x65, 0x73, 0x74, 0x6f,
  0x72, 0x61, 0x74, 0x69, 0x6f, 0x6e, 0x5f, 0x30, 0x2f, 0x64, 0x65, 0x63, 0x6f,
  0x64, 0x65, 0x72, 0x2f, 0x42, 0x69, 0x61, 0x73, 0x41, 0x64, 0x64, 0x5f, 0x36,
  0x3b, 0x72, 0x65, 0x73, 0x74, 0x6f, 0x72, 0x61, 0x74, 0x69, 0x6f, 0x6e, 0x5f,
  0x30, 0x2f, 0x64, 0x65, 0x63, 0x6f, 0x64, 0x65, 0x72, 0x2f, 0x73, 0x65, 0x70,
  0x61, 0x72, 0x61, 0x62, 0x6c, 0x65, 0x5f, 0x63, 0x6f, 0x6e, 0x76, 0x32, 0x64,
  0x5f, 0x36, 0x5f, 0x72, 0x65, 0x71, 0x75, 0x61, 0x6e, 0x74, 0x69, 0x7a, 0x65,
  0x64, 0x00, 0x00, 0x00, 0x04, 0x00, 0x00, 0x00, 0x01, 0x00, 0x00, 0x00, 0x01,
  0x00, 0x00, 0x00, 0x01, 0x00, 0x00, 0x00, 0x08, 0x00, 0x00, 0x00, 0x14, 0x00,
  0x18, 0x00, 0x14, 0x00, 0x13, 0x00, 0x00, 0x00, 0x0c, 0x00, 0x08, 0x00, 0x00,
  0x00, 0x00, 0x00, 0x04, 0x00, 0x14, 0x00, 0x00, 0x00, 0x14, 0x00, 0x00, 0x00,
  0x24, 0x00, 0x00, 0x00, 0x40, 0x00, 0x00, 0x00, 0x00, 0x00, 0x00, 0x07, 0xb0,
  0x00, 0x00, 0x00, 0x04, 0x00, 0x00, 0x00, 0x01, 0x00, 0x00, 0x00, 0xff, 0xff,
  0xff, 0xff, 0xff, 0xff, 0xff, 0xff, 0x04, 0x00, 0x00, 0x00, 0x1c, 0x88, 0xff,
  0xff, 0x08, 0x00, 0x00, 0x00, 0x10, 0x00, 0x00, 0x00, 0x01, 0x00, 0x00, 0x00,
  0x00, 0x00, 0x00, 0x00, 0x00, 0x00, 0x00, 0x00, 0x01, 0x00, 0x00, 0x00, 0xe6,
  0x2b, 0xd7, 0x39, 0x71, 0x00, 0x00, 0x00, 0x72, 0x65, 0x73, 0x74, 0x6f, 0x72,
  0x61, 0x74, 0x69, 0x6f, 0x6e, 0x5f, 0x30, 0x2f, 0x65, 0x6e, 0x63, 0x6f, 0x64,
  0x65, 0x72, 0x2f, 0x52, 0x65, 0x6c, 0x75, 0x5f, 0x31, 0x3b, 0x72, 0x65, 0x73,
  0x74, 0x6f, 0x72, 0x61, 0x74, 0x69, 0x6f, 0x6e, 0x5f, 0x30, 0x2f, 0x65, 0x6e,
  0x63, 0x6f, 0x64, 0x65, 0x72, 0x2f, 0x42, 0x69, 0x61, 0x73, 0x41, 0x64, 0x64,
  0x5f, 0x31, 0x3b, 0x72, 0x65, 0x73, 0x74, 0x6f, 0x72, 0x61, 0x74, 0x69, 0x6f,
  0x6e, 0x5f, 0x30, 0x2f, 0x65, 0x6e, 0x63, 0x6f, 0x64, 0x65, 0x72, 0x2f, 0x73,
  0x65, 0x70, 0x61, 0x72, 0x61, 0x62, 0x6c, 0x65, 0x5f, 0x63, 0x6f, 0x6e, 0x76,
  0x32, 0x64, 0x5f, 0x31, 0x5f, 0x72, 0x65, 0x71, 0x75, 0x61, 0x6e, 0x74, 0x69,
  0x7a, 0x65, 0x64, 0x00, 0x00, 0x00, 0x04, 0x00, 0x00, 0x00, 0x01, 0x00, 0x00,
  0x00, 0x01, 0x00, 0x00, 0x00, 0x01, 0x00, 0x00, 0x00, 0x04, 0x00, 0x00, 0x00,
  0x5a, 0x88, 0xff, 0xff, 0x00, 0x00, 0x00, 0x01, 0x18, 0x00, 0x00, 0x00, 0x28,
  0x00, 0x00, 0x00, 0x5c, 0x00, 0x00, 0x00, 0xa4, 0x00, 0x00, 0x00, 0x00, 0x00,
  0x00, 0x07, 0x80, 0x00, 0x00, 0x00, 0x04, 0x00, 0x00, 0x00, 0x01, 0x00, 0x00,
  0x00, 0xff, 0xff, 0xff, 0xff, 0xff, 0xff, 0xff, 0xff, 0x02, 0x00, 0x00, 0x00,
  0x44, 0x88, 0xff, 0xff, 0x10, 0x00, 0x00, 0x00, 0x18, 0x00, 0x00, 0x00, 0x1c,
  0x00, 0x00, 0x00, 0x20, 0x00, 0x00, 0x00, 0x01, 0x00, 0x00, 0x00, 0x00, 0x00,
  0x00, 0x00, 0x00, 0x00, 0x00, 0x00, 0x01, 0x00, 0x00, 0x00, 0xa4, 0x84, 0x0a,
  0x3b, 0x01, 0x00, 0x00, 0x00, 0x8f, 0x83, 0x8a, 0x42, 0x01, 0x00, 0x00, 0x00,
  0xa2, 0xb2, 0x83, 0xc2, 0x28, 0x00, 0x00, 0x00, 0x72, 0x65, 0x73, 0x74, 0x6f,
  0x72, 0x61, 0x74, 0x69, 0x6f, 0x6e, 0x5f, 0x30, 0x2f, 0x64, 0x65, 0x63, 0x6f,
  0x64, 0x65, 0x72, 0x2f, 0x42, 0x69, 0x61, 0x73, 0x41, 0x64, 0x64, 0x5f, 0x31,
  0x32, 0x3a, 0x30, 0x5f, 0x69, 0x6e, 0x74, 0x31, 0x36, 0x00, 0x00, 0x00, 0x00,
  0x04, 0x00, 0x00, 0x00, 0x01, 0x00, 0x00, 0x00, 0x01, 0x00, 0x00, 0x00, 0x01,
  0x00, 0x00, 0x00, 0x02, 0x00, 0x00, 0x00, 0x0a, 0x89, 0xff, 0xff, 0x00, 0x00,
  0x00, 0x01, 0x18, 0x00, 0x00, 0x00, 0x28, 0x00, 0x00, 0x00, 0x5c, 0x00, 0x00,
  0x00, 0xa3, 0x00, 0x00, 0x00, 0x00, 0x00, 0x00, 0x07, 0x88, 0x00, 0x00, 0x00,
  0x04, 0x00, 0x00, 0x00, 0x01, 0x00, 0x00, 0x00, 0xff, 0xff, 0xff, 0xff, 0xff,
  0xff, 0xff, 0xff, 0x04, 0x00, 0x00, 0x00, 0xf4, 0x88, 0xff, 0xff, 0x10, 0x00,
  0x00, 0x00, 0x18, 0x00, 0x00, 0x00, 0x1c, 0x00, 0x00, 0x00, 0x20, 0x00, 0x00,
  0x00, 0x01, 0x00, 0x00, 0x00, 0x00, 0x00, 0x00, 0x00, 0x00, 0x00, 0x00, 0x00,
  0x01, 0x00, 0x00, 0x00, 0x6d, 0x28, 0x89, 0x3a, 0x01, 0x00, 0x00, 0x00, 0x11,
  0xda, 0x07, 0x42, 0x01, 0x00, 0x00, 0x00, 0x5b, 0x27, 0x09, 0xc2, 0x33, 0x00,
  0x00, 0x00, 0x72, 0x65, 0x73, 0x74, 0x6f, 0x72, 0x61, 0x74, 0x69, 0x6f, 0x6e,
  0x5f, 0x30, 0x2f, 0x64, 0x65, 0x63, 0x6f, 0x64, 0x65, 0x72, 0x2f, 0x73, 0x65,
  0x70, 0x61, 0x72, 0x61, 0x62, 0x6c, 0x65, 0x5f, 0x63, 0x6f, 0x6e, 0x76, 0x32,
  0x64, 0x5f, 0x31, 0x32, 0x2f, 0x64, 0x65, 0x70, 0x74, 0x68, 0x77, 0x69, 0x73,
  0x65, 0x00, 0x04, 0x00, 0x00, 0x00, 0x01, 0x00, 0x00, 0x00, 0x01, 0x00, 0x00,
  0x00, 0x01, 0x00, 0x00, 0x00, 0x04, 0x00, 0x00, 0x00, 0xc2, 0x89, 0xff, 0xff,
  0x00, 0x00, 0x00, 0x01, 0x18, 0x00, 0x00, 0x00, 0x28, 0x00, 0x00, 0x00, 0x60,
  0x00, 0x00, 0x00, 0xa2, 0x00, 0x00, 0x00, 0x00, 0x00, 0x00, 0x07, 0x78, 0x00,
  0x00, 0x00, 0x04, 0x00, 0x00, 0x00, 0x01, 0x00, 0x00, 0x00, 0xff, 0xff, 0xff,
  0xff, 0xff, 0xff, 0xff, 0xff, 0x04, 0x00, 0x00, 0x00, 0xac, 0x89, 0xff, 0xff,
  0x10, 0x00, 0x00, 0x00, 0x1c, 0x00, 0x00, 0x00, 0x20, 0x00, 0x00, 0x00, 0x24,
  0x00, 0x00, 0x00, 0x01, 0x00, 0x00, 0x00, 0x00, 0x00, 0x00, 0x00, 0x00, 0x00,
  0x00, 0x00, 0x00, 0x00, 0x00, 0x00, 0x01, 0x00, 0x00, 0x00, 0xbd, 0x7a, 0x64,
  0x3a, 0x01, 0x00, 0x00, 0x00, 0xf4, 0x78, 0xe4, 0x41, 0x01, 0x00, 0x00, 0x00,
  0x00, 0x00, 0x00, 0x00, 0x1c, 0x00, 0x00, 0x00, 0x72, 0x65, 0x73, 0x74, 0x6f,
  0x72, 0x61, 0x74, 0x69, 0x6f, 0x6e, 0x5f, 0x30, 0x2f, 0x64, 0x65, 0x63, 0x6f,
  0x64, 0x65, 0x72, 0x2f, 0x50, 0x61, 0x64, 0x5f, 0x31, 0x32, 0x00, 0x00, 0x00,
  0x00, 0x04, 0x00, 0x00, 0x00, 0x01, 0x00, 0x00, 0x00, 0x01, 0x00, 0x00, 0x00,
  0x01, 0x00, 0x00, 0x00, 0x04, 0x00, 0x00, 0x00, 0x6a, 0x8a, 0xff, 0xff, 0x00,
  0x00, 0x00, 0x01, 0x18, 0x00, 0x00, 0x00, 0x28, 0x00, 0x00, 0x00, 0x5c, 0x00,
  0x00, 0x00, 0xa1, 0x00, 0x00, 0x00, 0x00, 0x00, 0x00, 0x07, 0xc0, 0x00, 0x00,
  0x00, 0x04, 0x00, 0x00, 0x00, 0x01, 0x00, 0x00, 0x00, 0xff, 0xff, 0xff, 0xff,
  0xff, 0xff, 0xff, 0xff, 0x04, 0x00, 0x00, 0x00, 0x54, 0x8a, 0xff, 0xff, 0x10,
  0x00, 0x00, 0x00, 0x18, 0x00, 0x00, 0x00, 0x1c, 0x00, 0x00, 0x00, 0x20, 0x00,
  0x00, 0x00, 0x01, 0x00, 0x00, 0x00, 0x00, 0x00, 0x00, 0x00, 0x00, 0x00, 0x00,
  0x00, 0x01, 0x00, 0x00, 0x00, 0xbd, 0x7a, 0x64, 0x3a, 0x01, 0x00, 0x00, 0x00,
  0xf4, 0x78, 0xe4, 0x41, 0x01, 0x00, 0x00, 0x00, 0x00, 0x00, 0x00, 0x00, 0x68,
  0x00, 0x00, 0x00, 0x72, 0x65, 0x73, 0x74, 0x6f, 0x72, 0x61, 0x74, 0x69, 0x6f,
  0x6e, 0x5f, 0x30, 0x2f, 0x64, 0x65, 0x63, 0x6f, 0x64, 0x65, 0x72, 0x2f, 0x52,
  0x65, 0x6c, 0x75, 0x5f, 0x31, 0x31, 0x3b, 0x72, 0x65, 0x73, 0x74, 0x6f, 0x72,
  0x61, 0x74, 0x69, 0x6f, 0x6e, 0x5f, 0x30, 0x2f, 0x64, 0x65, 0x63, 0x6f, 0x64,
  0x65, 0x72, 0x2f, 0x42, 0x69, 0x61, 0x73, 0x41, 0x64, 0x64, 0x5f, 0x31, 0x31,
  0x3b, 0x72, 0x65, 0x73, 0x74, 0x6f, 0x72, 0x61, 0x74, 0x69, 0x6f, 0x6e, 0x5f,
  0x30, 0x2f, 0x64, 0x65, 0x63, 0x6f, 0x64, 0x65, 0x72, 0x2f, 0x73, 0x65, 0x70,
  0x61, 0x72, 0x61, 0x62, 0x6c, 0x65, 0x5f, 0x63, 0x6f, 0x6e, 0x76, 0x32, 0x64,
  0x5f, 0x31, 0x31, 0x00, 0x00, 0x00, 0x00, 0x04, 0x00, 0x00, 0x00, 0x01, 0x00,
  0x00, 0x00, 0x01, 0x00, 0x00, 0x00, 0x01, 0x00, 0x00, 0x00, 0x04, 0x00, 0x00,
  0x00, 0x5a, 0x8b, 0xff, 0xff, 0x00, 0x00, 0x00, 0x01, 0x18, 0x00, 0x00, 0x00,
  0x28, 0x00, 0x00, 0x00, 0x5c, 0x00, 0x00, 0x00, 0xa0, 0x00, 0x00, 0x00, 0x00,
  0x00, 0x00, 0x07, 0x88, 0x00, 0x00, 0x00, 0x04, 0x00, 0x00, 0x00, 0x01, 0x00,
  0x00, 0x00, 0xff, 0xff, 0xff, 0xff, 0xff, 0xff, 0xff, 0xff, 0x04, 0x00, 0x00,
  0x00, 0x44, 0x8b, 0xff, 0xff, 0x10, 0x00, 0x00, 0x00, 0x18, 0x00, 0x00, 0x00,
  0x1c, 0x00, 0x00, 0x00, 0x20, 0x00, 0x00, 0x00, 0x01, 0x00, 0x00, 0x00, 0x00,
  0x00, 0x00, 0x00, 0x00, 0x00, 0x00, 0x00, 0x01, 0x00, 0x00, 0x00, 0xec, 0xd5,
  0x11, 0x3d, 0x01, 0x00, 0x00, 0x00, 0xc8, 0xd4, 0x91, 0x44, 0x01, 0x00, 0x00,
  0x00, 0x56, 0xf6, 0x9f, 0xc2, 0x33, 0x00, 0x00, 0x00, 0x72, 0x65, 0x73, 0x74,
  0x6f, 0x72, 0x61, 0x74, 0x69, 0x6f, 0x6e, 0x5f, 0x30, 0x2f, 0x64, 0x65, 0x63,
  0x6f, 0x64, 0x65, 0x72, 0x2f, 0x73, 0x65, 0x70, 0x61, 0x72, 0x61, 0x62, 0x6c,
  0x65, 0x5f, 0x63, 0x6f, 0x6e, 0x76, 0x32, 0x64, 0x5f, 0x31, 0x31, 0x2f, 0x64,
  0x65, 0x70, 0x74, 0x68, 0x77, 0x69, 0x73, 0x65, 0x00, 0x04, 0x00, 0x00, 0x00,
  0x01, 0x00, 0x00, 0x00, 0x01, 0x00, 0x00, 0x00, 0x01, 0x00, 0x00, 0x00, 0x04,
  0x00, 0x00, 0x00, 0x12, 0x8c, 0xff, 0xff, 0x00, 0x00, 0x00, 0x01, 0x18, 0x00,
  0x00, 0x00, 0x28, 0x00, 0x00, 0x00, 0x60, 0x00, 0x00, 0x00, 0x9f, 0x00, 0x00,
  0x00, 0x00, 0x00, 0x00, 0x07, 0x78, 0x00, 0x00, 0x00, 0x04, 0x00, 0x00, 0x00,
  0x01, 0x00, 0x00, 0x00, 0xff, 0xff, 0xff, 0xff, 0xff, 0xff, 0xff, 0xff, 0x04,
  0x00, 0x00, 0x00, 0xfc, 0x8b, 0xff, 0xff, 0x10, 0x00, 0x00, 0x00, 0x1c, 0x00,
  0x00, 0x00, 0x20, 0x00, 0x00, 0x00, 0x24, 0x00, 0x00, 0x00, 0x01, 0x00, 0x00,
  0x00, 0x00, 0x00, 0x00, 0x00, 0x00, 0x00, 0x00, 0x00, 0x00, 0x00, 0x00, 0x00,
  0x01, 0x00, 0x00, 0x00, 0x1d, 0x92, 0x04, 0x3c, 0x01, 0x00, 0x00, 0x00, 0x14,
  0x91, 0x84, 0x43, 0x01, 0x00, 0x00, 0x00, 0x00, 0x00, 0x00, 0x00, 0x1c, 0x00,
  0x00, 0x00, 0x72, 0x65, 0x73, 0x74, 0x6f, 0x72, 0x61, 0x74, 0x69, 0x6f, 0x6e,
  0x5f, 0x30, 0x2f, 0x64, 0x65, 0x63, 0x6f, 0x64, 0x65, 0x72, 0x2f, 0x50, 0x61,
  0x64, 0x5f, 0x31, 0x31, 0x00, 0x00, 0x00, 0x00, 0x04, 0x00, 0x00, 0x00, 0x01,
  0x00, 0x00, 0x00, 0x01, 0x00, 0x00, 0x00, 0x01, 0x00, 0x00, 0x00, 0x04, 0x00,
  0x00, 0x00, 0xba, 0x8c, 0xff, 0xff, 0x00, 0x00, 0x00, 0x01, 0x18, 0x00, 0x00,
  0x00, 0x28, 0x00, 0x00, 0x00, 0x5c, 0x00, 0x00, 0x00, 0x9e, 0x00, 0x00, 0x00,
  0x00, 0x00, 0x00, 0x07, 0xc0, 0x00, 0x00, 0x00, 0x04, 0x00, 0x00, 0x00, 0x01,
  0x00, 0x00, 0x00, 0xff, 0xff, 0xff, 0xff, 0xff, 0xff, 0xff, 0xff, 0x04, 0x00,
  0x00, 0x00, 0xa4, 0x8c, 0xff, 0xff, 0x10, 0x00, 0x00, 0x00, 0x18, 0x00, 0x00,
  0x00, 0x1c, 0x00, 0x00, 0x00, 0x20, 0x00, 0x00, 0x00, 0x01, 0x00, 0x00, 0x00,
  0x00, 0x00, 0x00, 0x00, 0x00, 0x00, 0x00, 0x00, 0x01, 0x00, 0x00, 0x00, 0x1d,
  0x92, 0x04, 0x3c, 0x01, 0x00, 0x00, 0x00, 0x14, 0x91, 0x84, 0x43, 0x01, 0x00,
  0x00, 0x00, 0x00, 0x00, 0x00, 0x00, 0x68, 0x00, 0x00, 0x00, 0x72, 0x65, 0x73,
  0x74, 0x6f, 0x72, 0x61, 0x74, 0x69, 0x6f, 0x6e, 0x5f, 0x30, 0x2f, 0x64, 0x65,
  0x63, 0x6f, 0x64, 0x65, 0x72, 0x2f, 0x52, 0x65, 0x6c, 0x75, 0x5f, 0x31, 0x30,
  0x3b, 0x72, 0x65, 0x73, 0x74, 0x6f, 0x72, 0x61, 0x74, 0x69, 0x6f, 0x6e, 0x5f,
  0x30, 0x2f, 0x64, 0x65, 0x63, 0x6f, 0x64, 0x65, 0x72, 0x2f, 0x42, 0x69, 0x61,
  0x73, 0x41, 0x64, 0x64, 0x5f, 0x31, 0x30, 0x3b, 0x72, 0x65, 0x73, 0x74, 0x6f,
  0x72, 0x61, 0x74, 0x69, 0x6f, 0x6e, 0x5f, 0x30, 0x2f, 0x64, 0x65, 0x63, 0x6f,
  0x64, 0x65, 0x72, 0x2f, 0x73, 0x65, 0x70, 0x61, 0x72, 0x61, 0x62, 0x6c, 0x65,
  0x5f, 0x63, 0x6f, 0x6e, 0x76, 0x32, 0x64, 0x5f, 0x31, 0x30, 0x00, 0x00, 0x00,
  0x00, 0x04, 0x00, 0x00, 0x00, 0x01, 0x00, 0x00, 0x00, 0x01, 0x00, 0x00, 0x00,
  0x01, 0x00, 0x00, 0x00, 0x04, 0x00, 0x00, 0x00, 0xaa, 0x8d, 0xff, 0xff, 0x00,
  0x00, 0x00, 0x01, 0x18, 0x00, 0x00, 0x00, 0x28, 0x00, 0x00, 0x00, 0x5c, 0x00,
  0x00, 0x00, 0x9d, 0x00, 0x00, 0x00, 0x00, 0x00, 0x00, 0x07, 0x88, 0x00, 0x00,
  0x00, 0x04, 0x00, 0x00, 0x00, 0x01, 0x00, 0x00, 0x00, 0xff, 0xff, 0xff, 0xff,
  0xff, 0xff, 0xff, 0xff, 0x08, 0x00, 0x00, 0x00, 0x94, 0x8d, 0xff, 0xff, 0x10,
  0x00, 0x00, 0x00, 0x18, 0x00, 0x00, 0x00, 0x1c, 0x00, 0x00, 0x00, 0x20, 0x00,
  0x00, 0x00, 0x01, 0x00, 0x00, 0x00, 0x00, 0x00, 0x00, 0x00, 0x00, 0x00, 0x00,
  0x00, 0x01, 0x00, 0x00, 0x00, 0x42, 0xfb, 0x3f, 0x3b, 0x01, 0x00, 0x00, 0x00,
  0xae, 0xe8, 0x8c, 0x42, 0x01, 0x00, 0x00, 0x00, 0xc2, 0xf9, 0xbf, 0xc2, 0x33,
  0x00, 0x00, 0x00, 0x72, 0x65, 0x73, 0x74, 0x6f, 0x72, 0x61, 0x74, 0x69, 0x6f,
  0x6e, 0x5f, 0x30, 0x2f, 0x64, 0x65, 0x63, 0x6f, 0x64, 0x65, 0x72, 0x2f, 0x73,
  0x65, 0x70, 0x61, 0x72, 0x61, 0x62, 0x6c, 0x65, 0x5f, 0x63, 0x6f, 0x6e, 0x76,
  0x32, 0x64, 0x5f, 0x31, 0x30, 0x2f, 0x64, 0x65, 0x70, 0x74, 0x68, 0x77, 0x69,
  0x73, 0x65, 0x00, 0x04, 0x00, 0x00, 0x00, 0x01, 0x00, 0x00, 0x00, 0x01, 0x00,
  0x00, 0x00, 0x01, 0x00, 0x00, 0x00, 0x08, 0x00, 0x00, 0x00, 0x62, 0x8e, 0xff,
  0xff, 0x00, 0x00, 0x00, 0x01, 0x18, 0x00, 0x00, 0x00, 0x28, 0x00, 0x00, 0x00,
  0x60, 0x00, 0x00, 0x00, 0x9c, 0x00, 0x00, 0x00, 0x00, 0x00, 0x00, 0x07, 0x78,
  0x00, 0x00, 0x00, 0x04, 0x00, 0x00, 0x00, 0x01, 0x00, 0x00, 0x00, 0xff, 0xff,
  0xff, 0xff, 0xff, 0xff, 0xff, 0xff, 0x08, 0x00, 0x00, 0x00, 0x4c, 0x8e, 0xff,
  0xff, 0x10, 0x00, 0x00, 0x00, 0x1c, 0x00, 0x00, 0x00, 0x20, 0x00, 0x00, 0x00,
  0x24, 0x00, 0x00, 0x00, 0x01, 0x00, 0x00, 0x00, 0x00, 0x00, 0x00, 0x00, 0x00,
  0x00, 0x00, 0x00, 0x00, 0x00, 0x00, 0x00, 0x01, 0x00, 0x00, 0x00, 0xe6, 0x2b,
  0xd7, 0x39, 0x01, 0x00, 0x00, 0x00, 0x38, 0x2a, 0x57, 0x41, 0x01, 0x00, 0x00,
  0x00, 0x00, 0x00, 0x00, 0x00, 0x1c, 0x00, 0x00, 0x00, 0x72, 0x65, 0x73, 0x74,
  0x6f, 0x72, 0x61, 0x74, 0x69, 0x6f, 0x6e, 0x5f, 0x30, 0x2f, 0x64, 0x65, 0x63,
  0x6f, 0x64, 0x65, 0x72, 0x2f, 0x50, 0x61, 0x64, 0x5f, 0x31, 0x30, 0x00, 0x00,
  0x00, 0x00, 0x04, 0x00, 0x00, 0x00, 0x01, 0x00, 0x00, 0x00, 0x01, 0x00, 0x00,
  0x00, 0x01, 0x00, 0x00, 0x00, 0x08, 0x00, 0x00, 0x00, 0x0a, 0x8f, 0xff, 0xff,
  0x00, 0x00, 0x00, 0x01, 0x18, 0x00, 0x00, 0x00, 0x28, 0x00, 0x00, 0x00, 0x60,
  0x00, 0x00, 0x00, 0x9b, 0x00, 0x00, 0x00, 0x00, 0x00, 0x00, 0x07, 0x80, 0x00,
  0x00, 0x00, 0x04, 0x00, 0x00, 0x00, 0x01, 0x00, 0x00, 0x00, 0xff, 0xff, 0xff,
  0xff, 0xff, 0xff, 0xff, 0xff, 0x08, 0x00, 0x00, 0x00, 0xf4, 0x8e, 0xff, 0xff,
  0x10, 0x00, 0x00, 0x00, 0x1c, 0x00, 0x00, 0x00, 0x20, 0x00, 0x00, 0x00, 0x24,
  0x00, 0x00, 0x00, 0x01, 0x00, 0x00, 0x00, 0x00, 0x00, 0x00, 0x00, 0x00, 0x00,
  0x00, 0x00, 0x00, 0x00, 0x00, 0x00, 0x01, 0x00, 0x00, 0x00, 0xe6, 0x2b, 0xd7,
  0x39, 0x01, 0x00, 0x00, 0x00, 0x38, 0x2a, 0x57, 0x41, 0x01, 0x00, 0x00, 0x00,
  0x00, 0x00, 0x00, 0x00, 0x26, 0x00, 0x00, 0x00, 0x72, 0x65, 0x73, 0x74, 0x6f,
  0x72, 0x61, 0x74, 0x69, 0x6f, 0x6e, 0x5f, 0x30, 0x2f, 0x64, 0x65, 0x63, 0x6f,
  0x64, 0x65, 0x72, 0x2f, 0x64, 0x65, 0x63, 0x6f, 0x64, 0x65, 0x72, 0x5f, 0x30,
  0x5f, 0x63, 0x6f, 0x6e, 0x63, 0x61, 0x74, 0x00, 0x00, 0x04, 0x00, 0x00, 0x00,
  0x01, 0x00, 0x00, 0x00, 0x01, 0x00, 0x00, 0x00, 0x01, 0x00, 0x00, 0x00, 0x08,
  0x00, 0x00, 0x00, 0xba, 0x8f, 0xff, 0xff, 0x00, 0x00, 0x00, 0x01, 0x18, 0x00,
  0x00, 0x00, 0x28, 0x00, 0x00, 0x00, 0x60, 0x00, 0x00, 0x00, 0x9a, 0x00, 0x00,
  0x00, 0x00, 0x00, 0x00, 0x07, 0xc0, 0x00, 0x00, 0x00, 0x04, 0x00, 0x00, 0x00,
  0x01, 0x00, 0x00, 0x00, 0xff, 0xff, 0xff, 0xff, 0xff, 0xff, 0xff, 0xff, 0x04,
  0x00, 0x00, 0x00, 0xa4, 0x8f, 0xff, 0xff, 0x10, 0x00, 0x00, 0x00, 0x1c, 0x00,
  0x00, 0x00, 0x20, 0x00, 0x00, 0x00, 0x24, 0x00, 0x00, 0x00, 0x01, 0x00, 0x00,
  0x00, 0x00, 0x00, 0x00, 0x00, 0x00, 0x00, 0x00, 0x00, 0x00, 0x00, 0x00, 0x00,
  0x01, 0x00, 0x00, 0x00, 0xe6, 0x2b, 0xd7, 0x39, 0x01, 0x00, 0x00, 0x00, 0x38,
  0x2a, 0x57, 0x41, 0x01, 0x00, 0x00, 0x00, 0x00, 0x00, 0x00, 0x00, 0x65, 0x00,
  0x00, 0x00, 0x72, 0x65, 0x73, 0x74, 0x6f, 0x72, 0x61, 0x74, 0x69, 0x6f, 0x6e,
  0x5f, 0x30, 0x2f, 0x64, 0x65, 0x63, 0x6f, 0x64, 0x65, 0x72, 0x2f, 0x52, 0x65,
  0x6c, 0x75, 0x5f, 0x39, 0x3b, 0x72, 0x65, 0x73, 0x74, 0x6f, 0x72, 0x61, 0x74,
  0x69, 0x6f, 0x6e, 0x5f, 0x30, 0x2f, 0x64, 0x65, 0x63, 0x6f, 0x64, 0x65, 0x72,
  0x2f, 0x42, 0x69, 0x61, 0x73, 0x41, 0x64, 0x64, 0x5f, 0x39, 0x3b, 0x72, 0x65,
  0x73, 0x74, 0x6f, 0x72, 0x61, 0x74, 0x69, 0x6f, 0x6e, 0x5f, 0x30, 0x2f, 0x64,
  0x65, 0x63, 0x6f, 0x64, 0x65, 0x72, 0x2f, 0x73, 0x65, 0x70, 0x61, 0x72, 0x61,
  0x62, 0x6c, 0x65, 0x5f, 0x63, 0x6f, 0x6e, 0x76, 0x32, 0x64, 0x5f, 0x39, 0x00,
  0x00, 0x00, 0x04, 0x00, 0x00, 0x00, 0x01, 0x00, 0x00, 0x00, 0x01, 0x00, 0x00,
  0x00, 0x01, 0x00, 0x00, 0x00, 0x04, 0x00, 0x00, 0x00, 0xaa, 0x90, 0xff, 0xff,
  0x00, 0x00, 0x00, 0x01, 0x18, 0x00, 0x00, 0x00, 0x28, 0x00, 0x00, 0x00, 0x5c,
  0x00, 0x00, 0x00, 0x99, 0x00, 0x00, 0x00, 0x00, 0x00, 0x00, 0x07, 0x88, 0x00,
  0x00, 0x00, 0x04, 0x00, 0x00, 0x00, 0x01, 0x00, 0x00, 0x00, 0xff, 0xff, 0xff,
  0xff, 0xff, 0xff, 0xff, 0xff, 0x08, 0x00, 0x00, 0x00, 0x94, 0x90, 0xff, 0xff,
  0x10, 0x00, 0x00, 0x00, 0x18, 0x00, 0x00, 0x00, 0x1c, 0x00, 0x00, 0x00, 0x20,
  0x00, 0x00, 0x00, 0x01, 0x00, 0x00, 0x00, 0x00, 0x00, 0x00, 0x00, 0x00, 0x00,
  0x00, 0x00, 0x01, 0x00, 0x00, 0x00, 0x6e, 0xe4, 0x16, 0x39, 0x01, 0x00, 0x00,
  0x00, 0xb9, 0x6c, 0x95, 0x40, 0x01, 0x00, 0x00, 0x00, 0x40, 0xe3, 0x96, 0xc0,
  0x32, 0x00, 0x00, 0x00, 0x72, 0x65, 0x73, 0x74, 0x6f, 0x72, 0x61, 0x74, 0x69,
  0x6f, 0x6e, 0x5f, 0x30, 0x2f, 0x64, 0x65, 0x63, 0x6f, 0x64, 0x65, 0x72, 0x2f,
  0x73, 0x65, 0x70, 0x61, 0x72, 0x61, 0x62, 0x6c, 0x65, 0x5f, 0x63, 0x6f, 0x6e,
  0x76, 0x32, 0x64, 0x5f, 0x39, 0x2f, 0x64, 0x65, 0x70, 0x74, 0x68, 0x77, 0x69,
  0x73, 0x65, 0x00, 0x00, 0x04, 0x00, 0x00, 0x00, 0x01, 0x00, 0x00, 0x00, 0x01,
  0x00, 0x00, 0x00, 0x01, 0x00, 0x00, 0x00, 0x08, 0x00, 0x00, 0x00, 0x62, 0x91,
  0xff, 0xff, 0x00, 0x00, 0x00, 0x01, 0x18, 0x00, 0x00, 0x00, 0x28, 0x00, 0x00,
  0x00, 0x5c, 0x00, 0x00, 0x00, 0x98, 0x00, 0x00, 0x00, 0x00, 0x00, 0x00, 0x07,
  0x70, 0x00, 0x00, 0x00, 0x04, 0x00, 0x00, 0x00, 0x01, 0x00, 0x00, 0x00, 0xff,
  0xff, 0xff, 0xff, 0xff, 0xff, 0xff, 0xff, 0x08, 0x00, 0x00, 0x00, 0x4c, 0x91,
  0xff, 0xff, 0x10, 0x00, 0x00, 0x00, 0x18, 0x00, 0x00, 0x00, 0x1c, 0x00, 0x00,
  0x00, 0x20, 0x00, 0x00, 0x00, 0x01, 0x00, 0x00, 0x00, 0x00, 0x00, 0x00, 0x00,
  0x00, 0x00, 0x00, 0x00, 0x01, 0x00, 0x00, 0x00, 0x00, 0xd3, 0xe8, 0x38, 0x01,
  0x00, 0x00, 0x00, 0x2e, 0xd1, 0x68, 0x40, 0x01, 0x00, 0x00, 0x00, 0x00, 0x00,
  0x00, 0x00, 0x1b, 0x00, 0x00, 0x00, 0x72, 0x65, 0x73, 0x74, 0x6f, 0x72, 0x61,
  0x74, 0x69, 0x6f, 0x6e, 0x5f, 0x30, 0x2f, 0x64, 0x65, 0x63, 0x6f, 0x64, 0x65,
  0x72, 0x2f, 0x50, 0x61, 0x64, 0x5f, 0x39, 0x00, 0x04, 0x00, 0x00, 0x00, 0x01,
  0x00, 0x00, 0x00, 0x01, 0x00, 0x00, 0x00, 0x01, 0x00, 0x00, 0x00, 0x08, 0x00,
  0x00, 0x00, 0x02, 0x92, 0xff, 0xff, 0x00, 0x00, 0x00, 0x01, 0x18, 0x00, 0x00,
  0x00, 0x28, 0x00, 0x00, 0x00, 0x60, 0x00, 0x00, 0x00, 0x97, 0x00, 0x00, 0x00,
  0x00, 0x00, 0x00, 0x07, 0x90, 0x00, 0x00, 0x00, 0x04, 0x00, 0x00, 0x00, 0x01,
  0x00, 0x00, 0x00, 0xff, 0xff, 0xff, 0xff, 0xff, 0xff, 0xff, 0xff, 0x08, 0x00,
  0x00, 0x00, 0xec, 0x91, 0xff, 0xff, 0x10, 0x00, 0x00, 0x00, 0x1c, 0x00, 0x00,
  0x00, 0x20, 0x00, 0x00, 0x00, 0x24, 0x00, 0x00, 0x00, 0x01, 0x00, 0x00, 0x00,
  0x00, 0x00, 0x00, 0x00, 0x00, 0x00, 0x00, 0x00, 0x00, 0x00, 0x00, 0x00, 0x01,
  0x00, 0x00, 0x00, 0x00, 0xd3, 0xe8, 0x38, 0x01, 0x00, 0x00, 0x00, 0x2e, 0xd1,
  0x68, 0x40, 0x01, 0x00, 0x00, 0x00, 0x00, 0x00, 0x00, 0x00, 0x37, 0x00, 0x00,
  0x00, 0x72, 0x65, 0x73, 0x74, 0x6f, 0x72, 0x61, 0x74, 0x69, 0x6f, 0x6e, 0x5f,
  0x30, 0x2f, 0x64, 0x65, 0x63, 0x6f, 0x64, 0x65, 0x72, 0x2f, 0x64, 0x65, 0x63,
  0x6f, 0x64, 0x65, 0x72, 0x5f, 0x75, 0x70, 0x73, 0x61, 0x6d, 0x70, 0x6c, 0x65,
  0x5f, 0x30, 0x2f, 0x52, 0x65, 0x73, 0x69, 0x7a, 0x65, 0x42, 0x69, 0x6c, 0x69,
  0x6e, 0x65, 0x61, 0x72, 0x00, 0x04, 0x00, 0x00, 0x00, 0x01, 0x00, 0x00, 0x00,
  0x01, 0x00, 0x00, 0x00, 0x01, 0x00, 0x00, 0x00, 0x08, 0x00, 0x00, 0x00, 0xc2,
  0x92, 0xff, 0xff, 0x00, 0x00, 0x00, 0x01, 0x18, 0x00, 0x00, 0x00, 0x28, 0x00,
  0x00, 0x00, 0x60, 0x00, 0x00, 0x00, 0x96, 0x00, 0x00, 0x00, 0x00, 0x00, 0x00,
  0x07, 0xc0, 0x00, 0x00, 0x00, 0x04, 0x00, 0x00, 0x00, 0x01, 0x00, 0x00, 0x00,
  0xff, 0xff, 0xff, 0xff, 0xff, 0xff, 0xff, 0xff, 0x08, 0x00, 0x00, 0x00, 0xac,
  0x92, 0xff, 0xff, 0x10, 0x00, 0x00, 0x00, 0x1c, 0x00, 0x00, 0x00, 0x20, 0x00,
  0x00, 0x00, 0x24, 0x00, 0x00, 0x00, 0x01, 0x00, 0x00, 0x00, 0x00, 0x00, 0x00,
  0x00, 0x00, 0x00, 0x00, 0x00, 0x00, 0x00, 0x00, 0x00, 0x01, 0x00, 0x00, 0x00,
  0x00, 0xd3, 0xe8, 0x38, 0x01, 0x00, 0x00, 0x00, 0x2e, 0xd1, 0x68, 0x40, 0x01,
