/*
 * Copyright (c) 2020, Alliance for Open Media. All rights reserved
 *
 * This source code is subject to the terms of the BSD 2 Clause License and
 * the Alliance for Open Media Patent License 1.0. If the BSD 2 Clause License
 * was not distributed with this source code in the LICENSE file, you can
 * obtain it at www.aomedia.org/license/software. If the Alliance for Open
 * Media Patent License 1.0 was not distributed with this source code in the
 * PATENTS file, you can obtain it at www.aomedia.org/license/patent.
 */

#include "av1/tflite_models/intra_frame_model/qp146_175_quadtree.h"

const unsigned char qp146_175_quadtree_model_tflite_data[] = {
  0x1c, 0x00, 0x00, 0x00, 0x54, 0x46, 0x4c, 0x33, 0x14, 0x00, 0x20, 0x00, 0x1c,
  0x00, 0x18, 0x00, 0x14, 0x00, 0x10, 0x00, 0x0c, 0x00, 0x00, 0x00, 0x08, 0x00,
  0x04, 0x00, 0x14, 0x00, 0x00, 0x00, 0x1c, 0x00, 0x00, 0x00, 0x80, 0x00, 0x00,
  0x00, 0xd8, 0x00, 0x00, 0x00, 0x40, 0x18, 0x00, 0x00, 0x50, 0x18, 0x00, 0x00,
  0xe4, 0xad, 0x00, 0x00, 0x03, 0x00, 0x00, 0x00, 0x01, 0x00, 0x00, 0x00, 0x04,
  0x00, 0x00, 0x00, 0xa6, 0xd1, 0xff, 0xff, 0x0c, 0x00, 0x00, 0x00, 0x1c, 0x00,
  0x00, 0x00, 0x38, 0x00, 0x00, 0x00, 0x0f, 0x00, 0x00, 0x00, 0x73, 0x65, 0x72,
  0x76, 0x69, 0x6e, 0x67, 0x5f, 0x64, 0x65, 0x66, 0x61, 0x75, 0x6c, 0x74, 0x00,
  0x01, 0x00, 0x00, 0x00, 0x04, 0x00, 0x00, 0x00, 0x9c, 0xff, 0xff, 0xff, 0xa9,
  0x00, 0x00, 0x00, 0x04, 0x00, 0x00, 0x00, 0x06, 0x00, 0x00, 0x00, 0x6f, 0x75,
  0x74, 0x70, 0x75, 0x74, 0x00, 0x00, 0x01, 0x00, 0x00, 0x00, 0x04, 0x00, 0x00,
  0x00, 0xbc, 0xff, 0xff, 0xff, 0xa8, 0x00, 0x00, 0x00, 0x04, 0x00, 0x00, 0x00,
  0x03, 0x00, 0x00, 0x00, 0x69, 0x6d, 0x67, 0x00, 0x02, 0x00, 0x00, 0x00, 0x34,
  0x00, 0x00, 0x00, 0x04, 0x00, 0x00, 0x00, 0xdc, 0xff, 0xff, 0xff, 0xa6, 0x00,
  0x00, 0x00, 0x04, 0x00, 0x00, 0x00, 0x13, 0x00, 0x00, 0x00, 0x43, 0x4f, 0x4e,
  0x56, 0x45, 0x52, 0x53, 0x49, 0x4f, 0x4e, 0x5f, 0x4d, 0x45, 0x54, 0x41, 0x44,
  0x41, 0x54, 0x41, 0x00, 0x08, 0x00, 0x0c, 0x00, 0x08, 0x00, 0x04, 0x00, 0x08,
  0x00, 0x00, 0x00, 0xa5, 0x00, 0x00, 0x00, 0x04, 0x00, 0x00, 0x00, 0x13, 0x00,
  0x00, 0x00, 0x6d, 0x69, 0x6e, 0x5f, 0x72, 0x75, 0x6e, 0x74, 0x69, 0x6d, 0x65,
  0x5f, 0x76, 0x65, 0x72, 0x73, 0x69, 0x6f, 0x6e, 0x00, 0xa7, 0x00, 0x00, 0x00,
  0x64, 0x17, 0x00, 0x00, 0x5c, 0x17, 0x00, 0x00, 0x2c, 0x17, 0x00, 0x00, 0xfc,
  0x16, 0x00, 0x00, 0xcc, 0x16, 0x00, 0x00, 0x7c, 0x16, 0x00, 0x00, 0x2c, 0x16,
  0x00, 0x00, 0xdc, 0x15, 0x00, 0x00, 0x8c, 0x15, 0x00, 0x00, 0x3c, 0x15, 0x00,
  0x00, 0xec, 0x14, 0x00, 0x00, 0xac, 0x14, 0x00, 0x00, 0x6c, 0x14, 0x00, 0x00,
  0x2c, 0x14, 0x00, 0x00, 0xec, 0x13, 0x00, 0x00, 0xac, 0x13, 0x00, 0x00, 0x5c,
  0x13, 0x00, 0x00, 0x0c, 0x13, 0x00, 0x00, 0xbc, 0x12, 0x00, 0x00, 0x6c, 0x12,
  0x00, 0x00, 0x3c, 0x12, 0x00, 0x00, 0x0c, 0x12, 0x00, 0x00, 0xec, 0x11, 0x00,
  0x00, 0xd4, 0x11, 0x00, 0x00, 0xa0, 0x11, 0x00, 0x00, 0x80, 0x11, 0x00, 0x00,
  0x4c, 0x11, 0x00, 0x00, 0x1c, 0x11, 0x00, 0x00, 0xc4, 0x10, 0x00, 0x00, 0x94,
  0x10, 0x00, 0x00, 0x3c, 0x10, 0x00, 0x00, 0xec, 0x0f, 0x00, 0x00, 0x94, 0x0f,
  0x00, 0x00, 0x04, 0x0f, 0x00, 0x00, 0x64, 0x0e, 0x00, 0x00, 0x14, 0x0e, 0x00,
  0x00, 0xbc, 0x0d, 0x00, 0x00, 0x6c, 0x0d, 0x00, 0x00, 0x14, 0x0d, 0x00, 0x00,
  0x84, 0x0c, 0x00, 0x00, 0xe4, 0x0b, 0x00, 0x00, 0x54, 0x0b, 0x00, 0x00, 0x14,
  0x0b, 0x00, 0x00, 0xcc, 0x0a, 0x00, 0x00, 0x98, 0x0a, 0x00, 0x00, 0x50, 0x0a,
  0x00, 0x00, 0xf8, 0x09, 0x00, 0x00, 0x7c, 0x09, 0x00, 0x00, 0x0c, 0x09, 0x00,
  0x00, 0xd8, 0x08, 0x00, 0x00, 0x90, 0x08, 0x00, 0x00, 0x5c, 0x08, 0x00, 0x00,
  0x14, 0x08, 0x00, 0x00, 0xd4, 0x07, 0x00, 0x00, 0x94, 0x07, 0x00, 0x00, 0x3c,
  0x07, 0x00, 0x00, 0xec, 0x06, 0x00, 0x00, 0x94, 0x06, 0x00, 0x00, 0x44, 0x06,
  0x00, 0x00, 0xec, 0x05, 0x00, 0x00, 0x9c, 0x05, 0x00, 0x00, 0x44, 0x05, 0x00,
  0x00, 0x14, 0x05, 0x00, 0x00, 0xc4, 0x04, 0x00, 0x00, 0x90, 0x04, 0x00, 0x00,
  0x70, 0x04, 0x00, 0x00, 0x3c, 0x04, 0x00, 0x00, 0x28, 0x04, 0x00, 0x00, 0xf8,
  0x03, 0x00, 0x00, 0xdc, 0x03, 0x00, 0x00, 0xc4, 0x03, 0x00, 0x00, 0xb0, 0x03,
  0x00, 0x00, 0x80, 0x03, 0x00, 0x00, 0x64, 0x03, 0x00, 0x00, 0x5c, 0x03, 0x00,
  0x00, 0x54, 0x03, 0x00, 0x00, 0x4c, 0x03, 0x00, 0x00, 0x44, 0x03, 0x00, 0x00,
  0x3c, 0x03, 0x00, 0x00, 0x34, 0x03, 0x00, 0x00, 0x2c, 0x03, 0x00, 0x00, 0x24,
  0x03, 0x00, 0x00, 0x1c, 0x03, 0x00, 0x00, 0x14, 0x03, 0x00, 0x00, 0x0c, 0x03,
  0x00, 0x00, 0x04, 0x03, 0x00, 0x00, 0xfc, 0x02, 0x00, 0x00, 0xf4, 0x02, 0x00,
  0x00, 0xec, 0x02, 0x00, 0x00, 0xe4, 0x02, 0x00, 0x00, 0xdc, 0x02, 0x00, 0x00,
  0xd4, 0x02, 0x00, 0x00, 0xcc, 0x02, 0x00, 0x00, 0xc4, 0x02, 0x00, 0x00, 0xbc,
  0x02, 0x00, 0x00, 0xb4, 0x02, 0x00, 0x00, 0xac, 0x02, 0x00, 0x00, 0xa4, 0x02,
  0x00, 0x00, 0x9c, 0x02, 0x00, 0x00, 0x94, 0x02, 0x00, 0x00, 0x8c, 0x02, 0x00,
  0x00, 0x84, 0x02, 0x00, 0x00, 0x7c, 0x02, 0x00, 0x00, 0x74, 0x02, 0x00, 0x00,
  0x6c, 0x02, 0x00, 0x00, 0x64, 0x02, 0x00, 0x00, 0x5c, 0x02, 0x00, 0x00, 0x54,
  0x02, 0x00, 0x00, 0x4c, 0x02, 0x00, 0x00, 0x44, 0x02, 0x00, 0x00, 0x3c, 0x02,
  0x00, 0x00, 0x34, 0x02, 0x00, 0x00, 0x2c, 0x02, 0x00, 0x00, 0x24, 0x02, 0x00,
  0x00, 0x1c, 0x02, 0x00, 0x00, 0x14, 0x02, 0x00, 0x00, 0x0c, 0x02, 0x00, 0x00,
  0x04, 0x02, 0x00, 0x00, 0xfc, 0x01, 0x00, 0x00, 0xf4, 0x01, 0x00, 0x00, 0xec,
  0x01, 0x00, 0x00, 0xe4, 0x01, 0x00, 0x00, 0xdc, 0x01, 0x00, 0x00, 0xd4, 0x01,
  0x00, 0x00, 0xcc, 0x01, 0x00, 0x00, 0xc4, 0x01, 0x00, 0x00, 0xbc, 0x01, 0x00,
  0x00, 0xb4, 0x01, 0x00, 0x00, 0xac, 0x01, 0x00, 0x00, 0xa4, 0x01, 0x00, 0x00,
  0x9c, 0x01, 0x00, 0x00, 0x94, 0x01, 0x00, 0x00, 0x8c, 0x01, 0x00, 0x00, 0x84,
  0x01, 0x00, 0x00, 0x7c, 0x01, 0x00, 0x00, 0x74, 0x01, 0x00, 0x00, 0x6c, 0x01,
  0x00, 0x00, 0x64, 0x01, 0x00, 0x00, 0x5c, 0x01, 0x00, 0x00, 0x54, 0x01, 0x00,
  0x00, 0x4c, 0x01, 0x00, 0x00, 0x44, 0x01, 0x00, 0x00, 0x3c, 0x01, 0x00, 0x00,
  0x34, 0x01, 0x00, 0x00, 0x2c, 0x01, 0x00, 0x00, 0x24, 0x01, 0x00, 0x00, 0x1c,
  0x01, 0x00, 0x00, 0x14, 0x01, 0x00, 0x00, 0x0c, 0x01, 0x00, 0x00, 0x04, 0x01,
  0x00, 0x00, 0xfc, 0x00, 0x00, 0x00, 0xf4, 0x00, 0x00, 0x00, 0xec, 0x00, 0x00,
  0x00, 0xe4, 0x00, 0x00, 0x00, 0xdc, 0x00, 0x00, 0x00, 0xd4, 0x00, 0x00, 0x00,
  0xcc, 0x00, 0x00, 0x00, 0xc4, 0x00, 0x00, 0x00, 0xbc, 0x00, 0x00, 0x00, 0xb4,
  0x00, 0x00, 0x00, 0xac, 0x00, 0x00, 0x00, 0xa4, 0x00, 0x00, 0x00, 0x9c, 0x00,
  0x00, 0x00, 0x94, 0x00, 0x00, 0x00, 0x8c, 0x00, 0x00, 0x00, 0x6c, 0x00, 0x00,
  0x00, 0x04, 0x00, 0x00, 0x00, 0x76, 0xd5, 0xff, 0xff, 0x04, 0x00, 0x00, 0x00,
  0x58, 0x00, 0x00, 0x00, 0x0c, 0x00, 0x00, 0x00, 0x08, 0x00, 0x0e, 0x00, 0x08,
  0x00, 0x04, 0x00, 0x08, 0x00, 0x00, 0x00, 0x10, 0x00, 0x00, 0x00, 0x28, 0x00,
  0x00, 0x00, 0x00, 0x00, 0x06, 0x00, 0x08, 0x00, 0x04, 0x00, 0x06, 0x00, 0x00,
  0x00, 0x04, 0x00, 0x00, 0x00, 0x01, 0x00, 0x00, 0x00, 0xec, 0x03, 0x00, 0x00,
  0x00, 0x00, 0x0a, 0x00, 0x10, 0x00, 0x0c, 0x00, 0x08, 0x00, 0x04, 0x00, 0x0a,
  0x00, 0x00, 0x00, 0x01, 0x00, 0x00, 0x00, 0x02, 0x00, 0x00, 0x00, 0x04, 0x00,
  0x00, 0x00, 0x06, 0x00, 0x00, 0x00, 0x32, 0x2e, 0x31, 0x36, 0x2e, 0x30, 0x00,
  0x00, 0xda, 0xd5, 0xff, 0xff, 0x04, 0x00, 0x00, 0x00, 0x10, 0x00, 0x00, 0x00,
  0x32, 0x2e, 0x32, 0x2e, 0x30, 0x00, 0x00, 0x00, 0x00, 0x00, 0x00, 0x00, 0x00,
  0x00, 0x00, 0x00, 0xf4, 0x90, 0xff, 0xff, 0xf8, 0x90, 0xff, 0xff, 0xfc, 0x90,
  0xff, 0xff, 0x00, 0x91, 0xff, 0xff, 0x04, 0x91, 0xff, 0xff, 0x08, 0x91, 0xff,
  0xff, 0x0c, 0x91, 0xff, 0xff, 0x10, 0x91, 0xff, 0xff, 0x14, 0x91, 0xff, 0xff,
  0x18, 0x91, 0xff, 0xff, 0x1c, 0x91, 0xff, 0xff, 0x20, 0x91, 0xff, 0xff, 0x24,
  0x91, 0xff, 0xff, 0x28, 0x91, 0xff, 0xff, 0x2c, 0x91, 0xff, 0xff, 0x30, 0x91,
  0xff, 0xff, 0x34, 0x91, 0xff, 0xff, 0x38, 0x91, 0xff, 0xff, 0x3c, 0x91, 0xff,
  0xff, 0x40, 0x91, 0xff, 0xff, 0x44, 0x91, 0xff, 0xff, 0x48, 0x91, 0xff, 0xff,
  0x4c, 0x91, 0xff, 0xff, 0x50, 0x91, 0xff, 0xff, 0x54, 0x91, 0xff, 0xff, 0x58,
  0x91, 0xff, 0xff, 0x5c, 0x91, 0xff, 0xff, 0x60, 0x91, 0xff, 0xff, 0x64, 0x91,
  0xff, 0xff, 0x68, 0x91, 0xff, 0xff, 0x6c, 0x91, 0xff, 0xff, 0x70, 0x91, 0xff,
  0xff, 0x74, 0x91, 0xff, 0xff, 0x78, 0x91, 0xff, 0xff, 0x7c, 0x91, 0xff, 0xff,
  0x80, 0x91, 0xff, 0xff, 0x84, 0x91, 0xff, 0xff, 0x88, 0x91, 0xff, 0xff, 0x8c,
  0x91, 0xff, 0xff, 0x90, 0x91, 0xff, 0xff, 0x94, 0x91, 0xff, 0xff, 0x98, 0x91,
  0xff, 0xff, 0x9c, 0x91, 0xff, 0xff, 0xa0, 0x91, 0xff, 0xff, 0xa4, 0x91, 0xff,
  0xff, 0xa8, 0x91, 0xff, 0xff, 0xac, 0x91, 0xff, 0xff, 0xb0, 0x91, 0xff, 0xff,
  0xb4, 0x91, 0xff, 0xff, 0xb8, 0x91, 0xff, 0xff, 0xbc, 0x91, 0xff, 0xff, 0xc0,
  0x91, 0xff, 0xff, 0xc4, 0x91, 0xff, 0xff, 0xc8, 0x91, 0xff, 0xff, 0xcc, 0x91,
  0xff, 0xff, 0xd0, 0x91, 0xff, 0xff, 0xd4, 0x91, 0xff, 0xff, 0xd8, 0x91, 0xff,
  0xff, 0xdc, 0x91, 0xff, 0xff, 0xe0, 0x91, 0xff, 0xff, 0xe4, 0x91, 0xff, 0xff,
  0xe8, 0x91, 0xff, 0xff, 0xec, 0x91, 0xff, 0xff, 0xf0, 0x91, 0xff, 0xff, 0xf4,
  0x91, 0xff, 0xff, 0xf8, 0x91, 0xff, 0xff, 0xfc, 0x91, 0xff, 0xff, 0x00, 0x92,
  0xff, 0xff, 0x04, 0x92, 0xff, 0xff, 0x08, 0x92, 0xff, 0xff, 0x0c, 0x92, 0xff,
  0xff, 0x10, 0x92, 0xff, 0xff, 0x14, 0x92, 0xff, 0xff, 0x18, 0x92, 0xff, 0xff,
  0x1c, 0x92, 0xff, 0xff, 0x20, 0x92, 0xff, 0xff, 0x24, 0x92, 0xff, 0xff, 0x28,
  0x92, 0xff, 0xff, 0x2c, 0x92, 0xff, 0xff, 0x30, 0x92, 0xff, 0xff, 0x34, 0x92,
  0xff, 0xff, 0x38, 0x92, 0xff, 0xff, 0x3c, 0x92, 0xff, 0xff, 0x40, 0x92, 0xff,
  0xff, 0x44, 0x92, 0xff, 0xff, 0x48, 0x92, 0xff, 0xff, 0x4c, 0x92, 0xff, 0xff,
  0x50, 0x92, 0xff, 0xff, 0x54, 0x92, 0xff, 0xff, 0x58, 0x92, 0xff, 0xff, 0x5c,
  0x92, 0xff, 0xff, 0x62, 0xd7, 0xff, 0xff, 0x04, 0x00, 0x00, 0x00, 0x0c, 0x00,
  0x00, 0x00, 0x01, 0x00, 0x00, 0x00, 0x02, 0x00, 0x00, 0x00, 0x01, 0x00, 0x00,
  0x00, 0x7a, 0xd7, 0xff, 0xff, 0x04, 0x00, 0x00, 0x00, 0x20, 0x00, 0x00, 0x00,
  0x00, 0x00, 0x00, 0x00, 0x00, 0x00, 0x00, 0x00, 0x01, 0x00, 0x00, 0x00, 0x01,
  0x00, 0x00, 0x00, 0x01, 0x00, 0x00, 0x00, 0x01, 0x00, 0x00, 0x00, 0x00, 0x00,
  0x00, 0x00, 0x00, 0x00, 0x00, 0x00, 0xa6, 0xd7, 0xff, 0xff, 0x04, 0x00, 0x00,
  0x00, 0x04, 0x00, 0x00, 0x00, 0x00, 0x00, 0x00, 0x00, 0xb6, 0xd7, 0xff, 0xff,
  0x04, 0x00, 0x00, 0x00, 0x08, 0x00, 0x00, 0x00, 0x00, 0x00, 0x00, 0x00, 0x00,
  0x00, 0x00, 0x00, 0xca, 0xd7, 0xff, 0xff, 0x04, 0x00, 0x00, 0x00, 0x09, 0x00,
  0x00, 0x00, 0xa0, 0x81, 0x28, 0x65, 0xc2, 0x39, 0xf5, 0x15, 0x04, 0x00, 0x00,
  0x00, 0xe2, 0xd7, 0xff, 0xff, 0x04, 0x00, 0x00, 0x00, 0x20, 0x00, 0x00, 0x00,
  0x00, 0x00, 0x00, 0x00, 0x00, 0x00, 0x00, 0x00, 0x00, 0x00, 0x00, 0x00, 0x00,
  0x00, 0x00, 0x00, 0x00, 0x00, 0x00, 0x00, 0x00, 0x00, 0x00, 0x00, 0x00, 0x00,
  0x00, 0x00, 0x00, 0x00, 0x00, 0x00, 0x0e, 0xd8, 0xff, 0xff, 0x04, 0x00, 0x00,
  0x00, 0x04, 0x00, 0x00, 0x00, 0x7f, 0x81, 0x7f, 0x81, 0x1e, 0xd8, 0xff, 0xff,
  0x04, 0x00, 0x00, 0x00, 0x24, 0x00, 0x00, 0x00, 0x20, 0xcf, 0x21, 0x0e, 0xdb,
  0x0f, 0xdf, 0xcf, 0x2a, 0xf1, 0x1b, 0x66, 0xec, 0xf1, 0x0a, 0x22, 0x81, 0x7f,
  0x81, 0x81, 0xc5, 0xea, 0x40, 0xc5, 0xbd, 0x14, 0xf7, 0x6f, 0xd7, 0xbd, 0x6a,
  0x1b, 0x04, 0x1e, 0x1a, 0xef, 0x4e, 0xd8, 0xff, 0xff, 0x04, 0x00, 0x00, 0x00,
  0x10, 0x00, 0x00, 0x00, 0x2b, 0x7f, 0x5c, 0x41, 0x00, 0x00, 0xef, 0x7f, 0xf8,
  0x7f, 0x76, 0x30, 0xf8, 0xe1, 0xeb, 0x7f, 0x6a, 0xd8, 0xff, 0xff, 0x04, 0x00,
  0x00, 0x00, 0x24, 0x00, 0x00, 0x00, 0xfe, 0x01, 0xff, 0x00, 0x02, 0xfd, 0xfd,
  0x03, 0xfd, 0xfb, 0xff, 0x09, 0xff, 0x01, 0x00, 0xff, 0xfd, 0x05, 0xfd, 0xfe,
  0xfd, 0xfc, 0xfc, 0x00, 0x01, 0xfb, 0xff, 0x06, 0xf8, 0xf3, 0x7f, 0x05, 0x7f,
  0x81, 0x10, 0x7f, 0x9a, 0xd8, 0xff, 0xff, 0x04, 0x00, 0x00, 0x00, 0x40, 0x00,
  0x00, 0x00, 0x00, 0x00, 0x00, 0x00, 0x00, 0x00, 0x00, 0x00, 0x00, 0x00, 0x00,
  0x00, 0x00, 0x00, 0x00, 0x00, 0x00, 0x00, 0x00, 0x00, 0x00, 0x00, 0x00, 0x00,
  0x00, 0x00, 0x00, 0x00, 0x00, 0x00, 0x00, 0x00, 0x00, 0x00, 0x00, 0x00, 0x00,
  0x00, 0x00, 0x00, 0x00, 0x00, 0x00, 0x00, 0x00, 0x00, 0x00, 0x00, 0x00, 0x00,
  0x00, 0x00, 0x00, 0x00, 0x00, 0x00, 0x00, 0x00, 0x00, 0x00, 0x00, 0x00, 0x00,
  0x00, 0xe6, 0xd8, 0xff, 0xff, 0x04, 0x00, 0x00, 0x00, 0x20, 0x00, 0x00, 0x00,
  0x7f, 0xef, 0x0b, 0x92, 0xf1, 0x91, 0x81, 0xda, 0x81, 0x03, 0xff, 0xca, 0x7f,
  0xe7, 0xff, 0xc2, 0x81, 0x49, 0x3a, 0x64, 0x7f, 0x18, 0x21, 0x58, 0x7f, 0xb0,
  0xc4, 0x89, 0x8d, 0x4c, 0x1e, 0x7f, 0x12, 0xd9, 0xff, 0xff, 0x04, 0x00, 0x00,
  0x00, 0x48, 0x00, 0x00, 0x00, 0x16, 0x21, 0x00, 0x12, 0x01, 0x23, 0x0c, 0xdf,
  0xf5, 0xf9, 0xff, 0xf0, 0x3e, 0x30, 0xca, 0x24, 0xe0, 0xcb, 0xff, 0x00, 0xff,
  0xfb, 0xf5, 0xff, 0x7f, 0x81, 0x81, 0x6a, 0x68, 0x7f, 0x81, 0x81, 0x5e, 0x79,
  0xfd, 0xf7, 0x7f, 0xed, 0x88, 0x5a, 0xfa, 0x09, 0x00, 0xfa, 0x0c, 0xee, 0xf8,
  0x0e, 0x09, 0xf6, 0xff, 0x81, 0x07, 0xdf, 0xf0, 0x11, 0x1a, 0xf7, 0x03, 0x12,
  0x1c, 0xe2, 0xee, 0x04, 0x01, 0xf7, 0xff, 0x0a, 0x18, 0x04, 0xe4, 0x00, 0x66,
  0xd9, 0xff, 0xff, 0x04, 0x00, 0x00, 0x00, 0x40, 0x00, 0x00, 0x00, 0x65, 0xef,
  0xd3, 0x08, 0xc1, 0xb6, 0xd3, 0x7f, 0xf5, 0xe7, 0x7f, 0x09, 0x1d, 0x12, 0x31,
  0xd0, 0x07, 0x06, 0x7f, 0xfe, 0xea, 0xfe, 0xeb, 0xf9, 0xff, 0xd5, 0x15, 0x07,
  0x09, 0x7f, 0x09, 0xb9, 0xca, 0x81, 0x23, 0xb8, 0xfa, 0xf5, 0xfc, 0x09, 0x06,
  0x2c, 0x7f, 0xc2, 0xff, 0x17, 0xfe, 0xf5, 0xe1, 0xc2, 0x2e, 0x0e, 0x6a, 0x64,
  0x7f, 0xd5, 0x03, 0x01, 0x7f, 0x00, 0x00, 0xfe, 0x01, 0xe4, 0xb2, 0xd9, 0xff,
  0xff, 0x04, 0x00, 0x00, 0x00, 0x48, 0x00, 0x00, 0x00, 0xfd, 0x0b, 0x06, 0xff,
  0xeb, 0x03, 0xf4, 0x40, 0x9e, 0x04, 0x27, 0x15, 0x81, 0x7f, 0xd3, 0x08, 0xc9,
  0xf6, 0x0b, 0xf1, 0x24, 0x23, 0xef, 0xef, 0xf7, 0x7f, 0x27, 0x31, 0x3f, 0x12,
  0xda, 0x7f, 0x7f, 0x81, 0x81, 0x81, 0xbc, 0xfd, 0x7f, 0xc7, 0xe8, 0xc2, 0x01,
  0x02, 0xc0, 0xf6, 0x05, 0x8e, 0x0c, 0x2c, 0x17, 0x38, 0xff, 0x05, 0xea, 0x1a,
  0x2a, 0x05, 0x01, 0x5f, 0xfc, 0xf9, 0x09, 0xf1, 0xfd, 0xfa, 0x04, 0x15, 0xfb,
  0xff, 0xfa, 0xd5, 0x06, 0xda, 0xff, 0xff, 0x04, 0x00, 0x00, 0x00, 0x40, 0x00,
  0x00, 0x00, 0x25, 0x81, 0x17, 0xe3, 0x02, 0x06, 0x04, 0xfa, 0x81, 0x31, 0x5d,
  0x37, 0x04, 0x6a, 0xc9, 0x6b, 0x7f, 0x96, 0xa6, 0xcd, 0xda, 0x35, 0xc8, 0x63,
  0x93, 0xe7, 0xf8, 0x81, 0x9f, 0x76, 0xeb, 0x03, 0x7f, 0xce, 0xcc, 0xc2, 0xc2,
  0x64, 0xe6, 0x6b, 0x81, 0xcc, 0x6b, 0x16, 0x03, 0x15, 0x13, 0xf5, 0x02, 0x04,
  0x06, 0x45, 0xa7, 0x7f, 0x02, 0x44, 0x12, 0x81, 0x02, 0xf0, 0xfc, 0x01, 0x05,
  0xf1, 0x52, 0xda, 0xff, 0xff, 0x04, 0x00, 0x00, 0x00, 0x48, 0x00, 0x00, 0x00,
  0xe8, 0x03, 0x0c, 0x21, 0x1b, 0xfe, 0xf3, 0xfe, 0xbf, 0xfc, 0x1c, 0x81, 0x1f,
  0x08, 0x3f, 0x7f, 0xe7, 0xe3, 0x16, 0xd0, 0x33, 0xf8, 0x20, 0x14, 0xf3, 0x11,
  0x16, 0x0f, 0x56, 0x08, 0x0b, 0x14, 0x81, 0x7f, 0x7f, 0x4e, 0x7f, 0x7f, 0x7f,
  0x56, 0xee, 0xdb, 0x12, 0xd5, 0x27, 0xff, 0x21, 0x36, 0x00, 0xff, 0x12, 0x0f,
  0x3e, 0x01, 0x09, 0xfc, 0xfc, 0xea, 0x07, 0x64, 0x47, 0x0b, 0x20, 0x4a, 0xeb,
  0xeb, 0x1a, 0xe5, 0x32, 0x01, 0x05, 0x16, 0xa6, 0xda, 0xff, 0xff, 0x04, 0x00,
  0x00, 0x00, 0x40, 0x00, 0x00, 0x00, 0x08, 0xb8, 0x11, 0x4d, 0xbe, 0x3c, 0x7f,
  0xf1, 0x32, 0xf8, 0x6c, 0x18, 0xad, 0xcb, 0x81, 0xda, 0x40, 0xea, 0x7f, 0x2d,
  0x8f, 0xf2, 0x15, 0xec, 0x30, 0x2c, 0x7f, 0xd9, 0xcb, 0xd6, 0xd9, 0x3c, 0xda,
  0x5f, 0xf0, 0x91, 0x07, 0x9d, 0x81, 0x03, 0x81, 0xf6, 0xf4, 0x05, 0xf5, 0x12,
  0x03, 0xc5, 0x15, 0xbe, 0x98, 0x21, 0xbf, 0x7f, 0xf8, 0xec, 0x2f, 0xf0, 0x64,
  0x2c, 0x81, 0xdf, 0x42, 0x24, 0xf2, 0xda, 0xff, 0xff, 0x04, 0x00, 0x00, 0x00,
  0x48, 0x00, 0x00, 0x00, 0xfe, 0xf3, 0x19, 0x05, 0xf4, 0x18, 0x04, 0x0d, 0xf3,
  0x2c, 0x55, 0xf9, 0xf4, 0xec, 0xf2, 0xea, 0x08, 0xe9, 0x81, 0x0c, 0x0b, 0xba,
  0xec, 0xe9, 0xf5, 0x18, 0xdd, 0x03, 0x09, 0x13, 0xf9, 0xf5, 0x42, 0x51, 0xc3,
  0x81, 0x81, 0x7f, 0x15, 0x35, 0xdc, 0x81, 0x28, 0x01, 0x0a, 0xbc, 0x2c, 0x81,
  0x1f, 0xfd, 0xf7, 0x03, 0xfe, 0xdb, 0xe8, 0xf4, 0x81, 0x8e, 0xc8, 0x01, 0x19,
  0x1f, 0x7f, 0x9f, 0xa9, 0xe3, 0xfb, 0x08, 0x01, 0x06, 0x3c, 0xdf, 0x46, 0xdb,
  0xff, 0xff, 0x04, 0x00, 0x00, 0x00, 0x30, 0x00, 0x00, 0x00, 0x00, 0x00, 0x00,
  0x00, 0x00, 0x00, 0x00, 0x00, 0x00, 0x00, 0x00, 0x00, 0x00, 0x00, 0x00, 0x00,
  0x00, 0x00, 0x00, 0x00, 0x00, 0x00, 0x00, 0x00, 0x00, 0x00, 0x00, 0x00, 0x00,
  0x00, 0x00, 0x00, 0x00, 0x00, 0x00, 0x00, 0x00, 0x00, 0x00, 0x00, 0x00, 0x00,
  0x00, 0x00, 0x00, 0x00, 0x00, 0x00, 0x82, 0xdb, 0xff, 0xff, 0x04, 0x00, 0x00,
  0x00, 0x30, 0x00, 0x00, 0x00, 0x21, 0x38, 0x81, 0x09, 0x06, 0xf1, 0x41, 0x29,
  0x81, 0x55, 0x07, 0x2b, 0xe0, 0xf7, 0xc6, 0x91, 0xef, 0xfd, 0xfa, 0x78, 0x81,
  0xcb, 0x26, 0x27, 0xde, 0x1a, 0xfb, 0x90, 0x81, 0xa5, 0x59, 0x37, 0x7f, 0x19,
  0xf5, 0xf4, 0xfc, 0xe2, 0x8b, 0xcd, 0xe3, 0xcd, 0xd4, 0x44, 0x81, 0x73, 0xab,
  0x12, 0xbe, 0xdb, 0xff, 0xff, 0x04, 0x00, 0x00, 0x00, 0x36, 0x00, 0x00, 0x00,
  0x43, 0x81, 0x08, 0xf7, 0xc2, 0x1c, 0x16, 0x8c, 0xf0, 0xe7, 0xb9, 0x19, 0x0d,
  0xfb, 0xfc, 0x01, 0x24, 0x03, 0x35, 0xb8, 0x04, 0xe5, 0x09, 0xbf, 0x39, 0x4a,
  0x48, 0x81, 0x81, 0x81, 0x06, 0xf5, 0x62, 0xfa, 0xf1, 0xcb, 0x0f, 0xeb, 0x2b,
  0x01, 0xf6, 0xf3, 0x7f, 0x01, 0x7f, 0xf9, 0x1a, 0x9d, 0x2b, 0x05, 0x55, 0xe9,
  0xd9, 0xf6, 0x00, 0x00, 0x02, 0xdc, 0xff, 0xff, 0x04, 0x00, 0x00, 0x00, 0x24,
  0x00, 0x00, 0x00, 0x11, 0x3e, 0x7f, 0x29, 0xa7, 0xa6, 0x2d, 0xf8, 0xa1, 0x81,
  0xf3, 0xd6, 0xb6, 0x81, 0x10, 0x13, 0x25, 0x01, 0xa0, 0xfe, 0x40, 0x81, 0xc0,
  0x57, 0x7f, 0x17, 0xc7, 0x74, 0x27, 0xa5, 0x07, 0x32, 0x61, 0x0f, 0x81, 0x74,
  0x32, 0xdc, 0xff, 0xff, 0x04, 0x00, 0x00, 0x00, 0x36, 0x00, 0x00, 0x00, 0x9a,
  0xad, 0x69, 0x2c, 0x4e, 0x81, 0x7e, 0x39, 0xc8, 0x39, 0x05, 0x0a, 0xfa, 0xc1,
  0x7b, 0x37, 0x6d, 0xbc, 0x7f, 0x2c, 0xe2, 0x56, 0xe1, 0x05, 0x24, 0x7f, 0xf3,
  0x81, 0xb4, 0x7f, 0x72, 0x05, 0xcb, 0x1f, 0xea, 0xfd, 0x09, 0xba, 0x65, 0x17,
  0x7f, 0xb3, 0x43, 0x20, 0xe1, 0x65, 0xe6, 0x24, 0x25, 0xd2, 0x7f, 0x53, 0x66,
  0x86, 0x00, 0x00, 0x76, 0xdc, 0xff, 0xff, 0x04, 0x00, 0x00, 0x00, 0x24, 0x00,
  0x00, 0x00, 0x81, 0xd6, 0xf9, 0xe6, 0xc6, 0x28, 0xaa, 0xf5, 0x81, 0x76, 0x57,
  0x65, 0xf0, 0xbc, 0xa6, 0x81, 0x07, 0xfc, 0x00, 0xee, 0xfe, 0x01, 0x81, 0xff,
  0xe2, 0xe2, 0xc9, 0x8d, 0x35, 0x7f, 0xe6, 0xff, 0x81, 0x04, 0x10, 0xf4, 0xa6,
  0xdc, 0xff, 0xff, 0x04, 0x00, 0x00, 0x00, 0x60, 0x00, 0x00, 0x00, 0x00, 0x00,
  0x00, 0x00, 0x00, 0x00, 0x00, 0x00, 0x00, 0x00, 0x00, 0x00, 0x00, 0x00, 0x00,
  0x00, 0x00, 0x00, 0x00, 0x00, 0x00, 0x00, 0x00, 0x00, 0x00, 0x00, 0x00, 0x00,
  0x00, 0x00, 0x00, 0x00, 0x00, 0x00, 0x00, 0x00, 0x00, 0x00, 0x00, 0x00, 0x00,
  0x00, 0x00, 0x00, 0x00, 0x00, 0x00, 0x00, 0x00, 0x00, 0x00, 0x00, 0x00, 0x00,
  0x00, 0x00, 0x00, 0x00, 0x00, 0x00, 0x00, 0x00, 0x00, 0x00, 0x00, 0x00, 0x00,
  0x00, 0x00, 0x00, 0x00, 0x00, 0x00, 0x00, 0x00, 0x00, 0x00, 0x00, 0x00, 0x00,
  0x00, 0x00, 0x00, 0x00, 0x00, 0x00, 0x00, 0x00, 0x00, 0x00, 0x00, 0x00, 0x00,
  0x00, 0x00, 0x00, 0x12, 0xdd, 0xff, 0xff, 0x04, 0x00, 0x00, 0x00, 0x6c, 0x00,
  0x00, 0x00, 0x81, 0x76, 0x7f, 0x74, 0xb1, 0xaa, 0xe7, 0xf0, 0x06, 0x07, 0x01,
  0xe2, 0xb6, 0x36, 0xe4, 0xbf, 0x30, 0x11, 0x12, 0x7f, 0xf2, 0xfe, 0xf2, 0xd2,
  0xcb, 0x7f, 0x56, 0x52, 0x81, 0x83, 0xef, 0xfd, 0xd7, 0x06, 0x00, 0xf0, 0x03,
  0x0f, 0xe6, 0xc9, 0x1b, 0x32, 0x0a, 0x7c, 0x04, 0xf2, 0xff, 0xf1, 0x6f, 0x07,
  0xea, 0xce, 0x70, 0x30, 0x7f, 0x61, 0x35, 0x81, 0x81, 0x81, 0x92, 0x9d, 0xfd,
  0xd7, 0x24, 0x3e, 0x0d, 0x39, 0x81, 0xfb, 0x09, 0xf1, 0x85, 0x5c, 0x63, 0x60,
  0x92, 0x81, 0xda, 0x05, 0xad, 0x06, 0x02, 0xf8, 0xa7, 0xe3, 0x01, 0xbd, 0x2c,
  0x1c, 0x36, 0x27, 0x8f, 0xf7, 0x0c, 0xfc, 0xcc, 0x6d, 0x47, 0x7f, 0x97, 0x8e,
  0xd8, 0x4d, 0x1e, 0x07, 0x0b, 0xfc, 0x8a, 0xdd, 0xff, 0xff, 0x04, 0x00, 0x00,
  0x00, 0x48, 0x00, 0x00, 0x00, 0x09, 0xd6, 0x81, 0x02, 0x14, 0xf1, 0xdd, 0xee,
  0xee, 0xe6, 0xfc, 0xfb, 0xe8, 0x21, 0x2b, 0x85, 0x97, 0x2b, 0x12, 0xd0, 0xf2,
  0x2a, 0xeb, 0x7f, 0xc4, 0x28, 0x16, 0xe0, 0xfc, 0x96, 0x00, 0xf9, 0x7f, 0xf9,
  0xe1, 0xfa, 0xa3, 0x07, 0x7f, 0xee, 0x18, 0xef, 0x58, 0xd0, 0xfc, 0x56, 0x14,
  0xd8, 0x81, 0x2e, 0xf5, 0x22, 0xed, 0x3f, 0xc3, 0xcc, 0x01, 0xdf, 0x04, 0x0b,
  0x05, 0xe9, 0x02, 0xfc, 0xf8, 0xce, 0x03, 0xa4, 0x24, 0xd5, 0x7f, 0xc6, 0xde,
  0xdd, 0xff, 0xff, 0x04, 0x00, 0x00, 0x00, 0x36, 0x00, 0x00, 0x00, 0xe2, 0x25,
  0x7f, 0x0f, 0xfd, 0x0b, 0x7f, 0x2c, 0xf0, 0x50, 0x09, 0xfd, 0xe8, 0xfd, 0x2d,
  0xfc, 0xf3, 0x15, 0x7a, 0x55, 0xf1, 0x5d, 0x09, 0xf9, 0xa2, 0xb8, 0xa4, 0xb5,
  0x81, 0x81, 0x52, 0x7f, 0x30, 0x7f, 0x0e, 0xfd, 0xe5, 0xff, 0x3f, 0xef, 0xfa,
  0x16, 0x3d, 0x7c, 0x07, 0x69, 0x07, 0xfa, 0xec, 0xec, 0x5a, 0xea, 0xfe, 0x1a,
  0x00, 0x00, 0x22, 0xde, 0xff, 0xff, 0x04, 0x00, 0x00, 0x00, 0x24, 0x00, 0x00,
  0x00, 0x4c, 0x01, 0x81, 0x47, 0xe0, 0x01, 0x16, 0x81, 0x21, 0xf3, 0xe3, 0xba,
  0x7f, 0x09, 0x5a, 0x0b, 0x40, 0x51, 0x99, 0x05, 0x50, 0xfb, 0xa2, 0x81, 0xf7,
  0x05, 0x0a, 0x67, 0x7f, 0xf9, 0xd7, 0xe9, 0xd6, 0x3a, 0xfb, 0x7f, 0x52, 0xde,
  0xff, 0xff, 0x04, 0x00, 0x00, 0x00, 0x36, 0x00, 0x00, 0x00, 0xcc, 0x16, 0xb5,
  0xe0, 0x40, 0x7f, 0xee, 0x17, 0x07, 0x1b, 0x09, 0x3d, 0xa6, 0x20, 0xa2, 0xdd,
  0x12, 0x16, 0x12, 0x5f, 0x30, 0xfe, 0x2f, 0xec, 0x1d, 0x5c, 0xdf, 0x81, 0xea,
  0x9a, 0xe6, 0x7a, 0xfb, 0x03, 0x7f, 0x49, 0xa9, 0xf9, 0x81, 0xe3, 0x16, 0x41,
  0xea, 0x2f, 0xbe, 0xf7, 0x24, 0x5b, 0x81, 0x7f, 0xd3, 0xbf, 0xf7, 0x2c, 0x00,
  0x00, 0x96, 0xde, 0xff, 0xff, 0x04, 0x00, 0x00, 0x00, 0x30, 0x00, 0x00, 0x00,
  0xb0, 0x62, 0xa4, 0x52, 0x81, 0x4f, 0xb9, 0xb6, 0x66, 0x81, 0x34, 0xa6, 0x00,
  0x00, 0x00, 0x00, 0x00, 0x00, 0xf9, 0xd0, 0xe1, 0x27, 0x81, 0xf5, 0xfd, 0x81,
  0xa6, 0x32, 0xec, 0x12, 0x7f, 0x45, 0xd4, 0xc5, 0x61, 0x8f, 0x39, 0xbc, 0x2e,
  0xa1, 0x81, 0x46, 0x65, 0xed, 0x81, 0x2c, 0xdd, 0x24, 0xd2, 0xde, 0xff, 0xff,
  0x04, 0x00, 0x00, 0x00, 0x80, 0x00, 0x00, 0x00, 0x00, 0x00, 0x00, 0x00, 0x00,
  0x00, 0x00, 0x00, 0x00, 0x00, 0x00, 0x00, 0x00, 0x00, 0x00, 0x00, 0x00, 0x00,
  0x00, 0x00, 0x00, 0x00, 0x00, 0x00, 0x00, 0x00, 0x00, 0x00, 0x00, 0x00, 0x00,
  0x00, 0x00, 0x00, 0x00, 0x00, 0x00, 0x00, 0x00, 0x00, 0x00, 0x00, 0x00, 0x00,
  0x00, 0x00, 0x00, 0x00, 0x00, 0x00, 0x00, 0x00, 0x00, 0x00, 0x00, 0x00, 0x00,
  0x00, 0x00, 0x00, 0x00, 0x00, 0x00, 0x00, 0x00, 0x00, 0x00, 0x00, 0x00, 0x00,
  0x00, 0x00, 0x00, 0x00, 0x00, 0x00, 0x00, 0x00, 0x00, 0x00, 0x00, 0x00, 0x00,
  0x00, 0x00, 0x00, 0x00, 0x00, 0x00, 0x00, 0x00, 0x00, 0x00, 0x00, 0x00, 0x00,
  0x00, 0x00, 0x00, 0x00, 0x00, 0x00, 0x00, 0x00, 0x00, 0x00, 0x00, 0x00, 0x00,
  0x00, 0x00, 0x00, 0x00, 0x00, 0x00, 0x00, 0x00, 0x00, 0x00, 0x00, 0x00, 0x00,
  0x00, 0x00, 0x00, 0x00, 0x00, 0x00, 0x5e, 0xdf, 0xff, 0xff, 0x04, 0x00, 0x00,
  0x00, 0x90, 0x00, 0x00, 0x00, 0x72, 0x20, 0x7f, 0x81, 0x68, 0x81, 0x2a, 0x7f,
  0x07, 0x0f, 0x11, 0x08, 0xe0, 0xfb, 0xfe, 0x07, 0x18, 0x21, 0xcc, 0x31, 0xf5,
  0xe1, 0x3d, 0x38, 0x06, 0xd8, 0xe9, 0x07, 0x14, 0xf4, 0x12, 0xfa, 0x4b, 0xe6,
  0x25, 0x99, 0x51, 0xea, 0x0c, 0x27, 0xef, 0x34, 0xbb, 0x02, 0xee, 0xde, 0x0d,
  0xf8, 0x7f, 0x34, 0x02, 0x50, 0x29, 0xcf, 0x47, 0x05, 0xff, 0xd9, 0x00, 0x03,
  0x16, 0x1d, 0xf1, 0xf9, 0x11, 0x7f, 0xc9, 0xf6, 0x81, 0x1c, 0xde, 0x38, 0x81,
  0x81, 0xd7, 0x81, 0x7f, 0x4f, 0x46, 0x81, 0xef, 0xe6, 0xd1, 0x22, 0x1c, 0xdf,
  0x53, 0x21, 0x1b, 0x27, 0x81, 0x21, 0x2b, 0x81, 0xdc, 0xe6, 0x53, 0xd4, 0x65,
  0x9c, 0x2c, 0xf7, 0xf5, 0x3b, 0xfa, 0x2b, 0xc9, 0x01, 0xf8, 0x1d, 0xd2, 0xf6,
  0x05, 0x14, 0x0f, 0x00, 0x07, 0xda, 0x7f, 0xf8, 0x1e, 0x2d, 0x89, 0x22, 0x3b,
  0x0a, 0x81, 0xd1, 0x02, 0xe1, 0xf4, 0xc7, 0x33, 0xc9, 0xdd, 0x14, 0xfc, 0xff,
  0xc8, 0xf3, 0x15, 0xe1, 0xfd, 0xf2, 0xfa, 0xdf, 0xff, 0xff, 0x04, 0x00, 0x00,
  0x00, 0x80, 0x00, 0x00, 0x00, 0xcf, 0x9e, 0x00, 0x70, 0x6d, 0xa6, 0xb9, 0x05,
  0x5f, 0xfe, 0xde, 0x22, 0x6d, 0x7f, 0x58, 0x48, 0x0a, 0xb9, 0x00, 0x15, 0xff,
  0x21, 0xe3, 0x81, 0x32, 0xe3, 0x29, 0x19, 0x41, 0x5e, 0x25, 0x91, 0x0c, 0x2a,
  0x00, 0x1c, 0xfa, 0xc0, 0x81, 0xec, 0x15, 0xad, 0x2f, 0xfe, 0x10, 0xef, 0xfc,
  0xd0, 0xeb, 0x28, 0x00, 0x6c, 0x8b, 0x1c, 0x53, 0x7f, 0xe0, 0x6f, 0xfe, 0x51,
  0xce, 0x17, 0x10, 0xfa, 0xf4, 0x09, 0x00, 0xf7, 0xfa, 0x1d, 0xd8, 0x64, 0x18,
  0xcb, 0xfe, 0xd0, 0x0e, 0x81, 0xb5, 0x17, 0x6d, 0x19, 0x00, 0x37, 0x69, 0x7f,
  0x51, 0x86, 0xac, 0xbc, 0x61, 0xc4, 0xa0, 0x8a, 0xa0, 0x93, 0xca, 0xfc, 0x00,
  0x2e, 0x5b, 0xac, 0x7f, 0xfe, 0xe5, 0xd7, 0x24, 0x04, 0xac, 0x12, 0x05, 0xdc,
  0x31, 0xe6, 0x00, 0x7f, 0xd4, 0xbd, 0x20, 0x07, 0x1e, 0xf5, 0x3c, 0x00, 0x2e,
  0x11, 0x04, 0xb1, 0x86, 0xe0, 0xff, 0xff, 0x04, 0x00, 0x00, 0x00, 0x48, 0x00,
  0x00, 0x00, 0x30, 0xaf, 0xf3, 0xf8, 0xff, 0x05, 0x00, 0xf5, 0x49, 0xc3, 0xf4,
  0x0d, 0xfa, 0x04, 0x0c, 0xf4, 0x32, 0x3e, 0xf2, 0x05, 0xfd, 0x0d, 0x0c, 0x0a,
  0x5b, 0xcc, 0xef, 0x00, 0xf6, 0x04, 0x1a, 0x01, 0x7f, 0x9b, 0x7f, 0x7f, 0x81,
  0x81, 0x81, 0x81, 0x3b, 0x7f, 0xf1, 0x33, 0xf8, 0x00, 0x0d, 0xed, 0x27, 0x3b,
  0xf0, 0x05, 0xff, 0x0f, 0x03, 0x08, 0x5d, 0x5b, 0xf1, 0x46, 0xfb, 0xf5, 0x06,
  0xea, 0x42, 0x1f, 0xfb, 0x0d, 0x01, 0x06, 0x06, 0xee, 0xda, 0xe0, 0xff, 0xff,
  0x04, 0x00, 0x00, 0x00, 0x40, 0x00, 0x00, 0x00, 0x03, 0xef, 0xe9, 0x81, 0xe9,
  0x65, 0xf0, 0xba, 0xf4, 0x05, 0xd4, 0x7f, 0xd9, 0xd6, 0x51, 0x15, 0x7f, 0x08,
  0x15, 0xff, 0x7d, 0x24, 0xc7, 0x3a, 0x01, 0x9c, 0x71, 0xe9, 0xb6, 0x7f, 0xd6,
  0xe3, 0x3a, 0xba, 0x7f, 0x82, 0xe1, 0xed, 0x17, 0x23, 0xa4, 0xfd, 0x1f, 0x12,
  0x81, 0xe9, 0x0e, 0xbf, 0xa8, 0x39, 0x9b, 0x1c, 0xf6, 0xf2, 0x36, 0x7f, 0x81,
  0xea, 0xcf, 0xc7, 0x08, 0xd1, 0x5c, 0x9b, 0x26, 0xe1, 0xff, 0xff, 0x04, 0x00,
  0x00, 0x00, 0x48, 0x00, 0x00, 0x00, 0xfe, 0x25, 0xcd, 0x11, 0x11, 0x17, 0x13,
  0xa0, 0x36, 0x03, 0xfe, 0xf3, 0xfd, 0xda, 0x99, 0x36, 0x00, 0x1f, 0xa8, 0x23,
  0x07, 0x04, 0x34, 0x81, 0x2e, 0xdc, 0xde, 0x06, 0xf8, 0xeb, 0x8c, 0x17, 0x81,
  0x90, 0x67, 0xb4, 0x81, 0x57, 0x3a, 0x6e, 0x33, 0xc6, 0xf6, 0xc7, 0x03, 0xfc,
  0xb0, 0xfa, 0x15, 0x11, 0xdf, 0x2b, 0x0e, 0xee, 0x43, 0x86, 0x23, 0x81, 0x56,
  0x81, 0x8e, 0x7f, 0x81, 0x27, 0x1d, 0x63, 0x7f, 0xf1, 0x00, 0x36, 0xd1, 0x97,
  0x7a, 0xe1, 0xff, 0xff, 0x04, 0x00, 0x00, 0x00, 0x40, 0x00, 0x00, 0x00, 0x1a,
  0xec, 0x43, 0xda, 0x10, 0x81, 0x1d, 0xf6, 0x25, 0xc0, 0x1e, 0x81, 0xfe, 0x9e,
  0x0b, 0x22, 0x99, 0x2e, 0x73, 0x7f, 0xa4, 0xb7, 0x24, 0xf1, 0x7f, 0x74, 0x0d,
  0xaa, 0x1d, 0x33, 0xbb, 0xfa, 0x81, 0xb9, 0xe7, 0x34, 0xbe, 0xd5, 0xeb, 0xef,
  0xef, 0xcc, 0xd5, 0x07, 0xa5, 0xe5, 0x4a, 0x81, 0x7b, 0x7f, 0x13, 0xdf, 0x6d,
  0x6f, 0x19, 0x5d, 0x81, 0xb7, 0xf3, 0x1e, 0xe0, 0xda, 0x6c, 0xf3, 0xc6, 0xe1,
  0xff, 0xff, 0x04, 0x00, 0x00, 0x00, 0x90, 0x00, 0x00, 0x00, 0xfe, 0x25, 0x9d,
  0x05, 0x6d, 0xf5, 0xe9, 0x51, 0x0e, 0x27, 0x01, 0xfc, 0x27, 0xf3, 0xfe, 0xfd,
  0x0a, 0x55, 0xa9, 0x09, 0x14, 0x77, 0xa4, 0xe7, 0xf3, 0x3d, 0xe4, 0xf4, 0x2c,
  0xad, 0x11, 0x01, 0xeb, 0x50, 0xbc, 0xb0, 0x8b, 0x0c, 0x09, 0x43, 0x25, 0x4a,
  0xf4, 0x0a, 0x0d, 0xa0, 0x09, 0x06, 0x05, 0x7f, 0x94, 0x42, 0x17, 0x72, 0xae,
  0x04, 0xff, 0x34, 0xda, 0xf9, 0x34, 0x08, 0x08, 0xfd, 0x81, 0x9e, 0x0b, 0x7d,
  0xe2, 0xc3, 0x7f, 0x81, 0x7f, 0x82, 0x7f, 0xfb, 0x77, 0x81, 0xc8, 0x18, 0xd8,
  0x4f, 0x81, 0x7f, 0xbc, 0x65, 0xa9, 0xdd, 0x35, 0x81, 0xea, 0xea, 0x53, 0xeb,
  0xbb, 0x7f, 0x08, 0x08, 0xdf, 0x9b, 0x81, 0x0f, 0x0a, 0x5a, 0x16, 0x49, 0xec,
  0xdc, 0xff, 0xcd, 0xf9, 0xff, 0xfa, 0x6e, 0x98, 0xa8, 0xc3, 0x7f, 0xa4, 0xde,
  0xc8, 0x9f, 0x14, 0x7f, 0x7f, 0xbb, 0x7f, 0x02, 0xfa, 0xe3, 0xa4, 0xa3, 0xd5,
  0x0a, 0xb7, 0x4d, 0x8c, 0x8f, 0xf5, 0x16, 0x68, 0xd7, 0xe8, 0x08, 0x62, 0xe2,
  0xff, 0xff, 0x04, 0x00, 0x00, 0x00, 0x80, 0x00, 0x00, 0x00, 0x33, 0xbe, 0xe3,
  0x01, 0x6e, 0xd1, 0x7b, 0xad, 0x50, 0x15, 0x0a, 0x7f, 0x3d, 0x2b, 0x45, 0xff,
  0xf2, 0x9c, 0xd2, 0x18, 0xdf, 0x60, 0xb6, 0x0e, 0xe1, 0x5a, 0x5c, 0x7f, 0xc9,
  0xd9, 0x00, 0xf3, 0xe7, 0xb8, 0x7f, 0xc7, 0xe0, 0x12, 0x9e, 0x46, 0xa5, 0x7b,
  0x47, 0xe4, 0xe1, 0x0d, 0x16, 0xff, 0x12, 0xe8, 0xfe, 0x81, 0xfa, 0xfa, 0x06,
  0x00, 0xdd, 0x0f, 0x20, 0x06, 0x02, 0x12, 0xe4, 0x0a, 0xfe, 0x27, 0x01, 0x2a,
  0x30, 0x21, 0xf5, 0x0e, 0xfd, 0xe9, 0x05, 0xf5, 0xec, 0xf6, 0x0c, 0x81, 0xf3,
  0xfc, 0xe1, 0xe0, 0xdc, 0x81, 0xf5, 0x1c, 0xd3, 0xca, 0x93, 0x02, 0x01, 0xfc,
  0xfd, 0xed, 0xd3, 0xfe, 0x90, 0x0d, 0x2f, 0xa5, 0xce, 0xfc, 0x74, 0xb4, 0xb9,
  0x7f, 0x2a, 0x0b, 0x0b, 0xfc, 0x18, 0xff, 0xcf, 0x1b, 0x14, 0x20, 0x0a, 0x0e,
  0xb1, 0x26, 0x7f, 0x1b, 0x7a, 0x6e, 0x14, 0xe9, 0xee, 0xe2, 0xff, 0xff, 0x04,
  0x00, 0x00, 0x00, 0x48, 0x00, 0x00, 0x00, 0x10, 0xd8, 0x03, 0xee, 0x07, 0xf8,
  0xf0, 0x81, 0x7f, 0x81, 0x7f, 0x7f, 0x17, 0xe1, 0x81, 0x95, 0xf7, 0xd6, 0x09,
  0xf1, 0x0d, 0x05, 0x1b, 0xa3, 0xdc, 0x04, 0x2c, 0xf1, 0x2a, 0xe6, 0xfc, 0x12,
  0x21, 0xb2, 0x3f, 0xfe, 0x81, 0x7f, 0xe3, 0x87, 0x05, 0xf3, 0xc6, 0xf3, 0xf9,
  0xcd, 0x00, 0x93, 0xfc, 0x08, 0xf5, 0xfd, 0xff, 0xfc, 0x02, 0xe3, 0x09, 0x02,
  0xfd, 0xfe, 0xf7, 0xd8, 0xf4, 0xdd, 0xfe, 0xfc, 0x00, 0xfd, 0xf5, 0x03, 0x00,
  0xcc, 0x42, 0xe3, 0xff, 0xff, 0x04, 0x00, 0x00, 0x00, 0x40, 0x00, 0x00, 0x00,
  0xa7, 0xb2, 0x20, 0x7f, 0xd2, 0x62, 0xd7, 0xb3, 0x9e, 0xcf, 0x41, 0x21, 0xf1,
  0x4a, 0x81, 0x0b, 0x61, 0x17, 0xd2, 0x7f, 0xfb, 0x2d, 0xea, 0x18, 0x06, 0x7f,
  0xdd, 0xfc, 0xff, 0xd7, 0xf6, 0x4a, 0x20, 0xd8, 0xa0, 0xfc, 0x07, 0xe6, 0x36,
  0x7f, 0xed, 0xb2, 0xdb, 0x1e, 0x1e, 0xd5, 0xfc, 0x7f, 0x12, 0xb2, 0xaa, 0xeb,
  0xd1, 0x81, 0x01, 0x3a, 0xcb, 0xcb, 0x1d, 0x7f, 0x55, 0xca, 0xbc, 0xf2, 0x8e,
  0xe3, 0xff, 0xff, 0x04, 0x00, 0x00, 0x00, 0x48, 0x00, 0x00, 0x00, 0x81, 0x3d,
  0x4c, 0x7f, 0xef, 0x81, 0x53, 0x81, 0xcc, 0x41, 0x81, 0x28, 0xd1, 0x64, 0x25,
  0x05, 0xee, 0xff, 0xd6, 0xcd, 0xa8, 0xfc, 0x6f, 0xc6, 0xec, 0x20, 0x0d, 0x6d,
  0xc6, 0x58, 0x12, 0xf0, 0xa5, 0x60, 0x50, 0x60, 0x81, 0x30, 0x1a, 0xeb, 0x22,
  0x7f, 0x2e, 0xfb, 0xcf, 0x8d, 0x81, 0xda, 0xf5, 0xe9, 0xff, 0x08, 0x02, 0xf8,
  0x13, 0xfe, 0x0b, 0xd9, 0xed, 0xfb, 0x54, 0xa1, 0xef, 0xdb, 0xf2, 0xc5, 0xfa,
  0xd9, 0x30, 0x23, 0x45, 0x12, 0xe2, 0xe3, 0xff, 0xff, 0x04, 0x00, 0x00, 0x00,
  0x20, 0x00, 0x00, 0x00, 0x7f, 0x33, 0xe6, 0xa7, 0xd7, 0x46, 0xbe, 0xb6, 0xd4,
  0x5a, 0x86, 0x52, 0xd5, 0xc7, 0x81, 0x23, 0xea, 0xbc, 0x4f, 0x81, 0x19, 0x35,
  0x6b, 0xdf, 0x03, 0x2e, 0xf5, 0xe1, 0x81, 0x0d, 0x23, 0x04, 0x0e, 0xe4, 0xff,
  0xff, 0x04, 0x00, 0x00, 0x00, 0x48, 0x00, 0x00, 0x00, 0x74, 0xa6, 0xa9, 0xc4,
  0x12, 0x4c, 0xd5, 0xce, 0x18, 0x81, 0x81, 0x81, 0x42, 0x7f, 0xe5, 0xe0, 0x54,
  0x1d, 0xfa, 0x1b, 0xde, 0x1f, 0x27, 0x3c, 0xed, 0xe5, 0xe9, 0x0b, 0x39, 0x75,
  0x19, 0xcf, 0x81, 0xd7, 0xd5, 0xd3, 0xa3, 0x93, 0x4d, 0x81, 0xd6, 0xef, 0x01,
  0x20, 0x81, 0x33, 0x8e, 0xce, 0xb0, 0x20, 0xf7, 0x0e, 0x15, 0x09, 0x22, 0x34,
  0x9f, 0xfc, 0x11, 0xdd, 0xed, 0x73, 0x81, 0xc1, 0xf1, 0x08, 0xff, 0x03, 0x49,
  0x49, 0x5d, 0xcc, 0x62, 0xe4, 0xff, 0xff, 0x04, 0x00, 0x00, 0x00, 0x20, 0x00,
  0x00, 0x00, 0xfe, 0x00, 0xf4, 0xfe, 0x7f, 0xfe, 0x1a, 0xee, 0xab, 0x05, 0x08,
  0x00, 0xf8, 0xf9, 0x81, 0x0d, 0x01, 0x0f, 0x14, 0xf0, 0x7f, 0x12, 0xf2, 0x23,
  0xfb, 0x18, 0xeb, 0x0e, 0x68, 0x04, 0xec, 0x81, 0x8e, 0xe4, 0xff, 0xff, 0x04,
  0x00, 0x00, 0x00, 0x24, 0x00, 0x00, 0x00, 0xee, 0x54, 0x03, 0xf7, 0x03, 0xd0,
  0x04, 0xfd, 0xf6, 0xee, 0x14, 0x09, 0xe1, 0x18, 0xfc, 0xec, 0x33, 0x7f, 0xfe,
  0x25, 0xf5, 0xf6, 0xe5, 0xe1, 0x2b, 0xbb, 0xeb, 0x07, 0x7f, 0xe7, 0x7f, 0x7f,
  0x2b, 0xe7, 0x18, 0x36, 0xbe, 0xe4, 0xff, 0xff, 0x04, 0x00, 0x00, 0x00, 0x10,
  0x00, 0x00, 0x00, 0xdd, 0x68, 0x4c, 0x7f, 0x7f, 0x0a, 0x69, 0xc8, 0x7a, 0x14,
  0x1c, 0x7f, 0xe3, 0xdc, 0x58, 0x7f, 0xda, 0xe4, 0xff, 0xff, 0x04, 0x00, 0x00,
  0x00, 0x24, 0x00, 0x00, 0x00, 0x10, 0x41, 0x00, 0x08, 0x28, 0xf9, 0x16, 0x21,
  0x81, 0x0a, 0x02, 0xe6, 0x05, 0x09, 0x2b, 0x24, 0x20, 0x81, 0x81, 0x81, 0xf9,
  0xf9, 0x29, 0x1f, 0x01, 0xf2, 0xfc, 0x0e, 0x0c, 0x07, 0x16, 0x0e, 0xe3, 0x4b,
  0x02, 0xfc, 0x0a, 0xe5, 0xff, 0xff, 0x04, 0x00, 0x00, 0x00, 0x08, 0x00, 0x00,
  0x00, 0x11, 0x81, 0x07, 0x97, 0xf6, 0x7f, 0x0b, 0x3f, 0x1e, 0xe5, 0xff, 0xff,
  0x04, 0x00, 0x00, 0x00, 0x10, 0x00, 0x00, 0x00, 0xb6, 0x08, 0x00, 0x00, 0x00,
  0x00, 0x00, 0x00, 0xcd, 0xf7, 0xff, 0xff, 0xff, 0xff, 0xff, 0xff, 0x3a, 0xe5,
  0xff, 0xff, 0x04, 0x00, 0x00, 0x00, 0x20, 0x00, 0x00, 0x00, 0x02, 0x11, 0x16,
  0x00, 0x00, 0x00, 0x00, 0x00, 0x2c, 0x37, 0xec, 0xff, 0xff, 0xff, 0xff, 0xff,
  0xeb, 0xae, 0x13, 0x00, 0x00, 0x00, 0x00, 0x00, 0x96, 0xda, 0x09, 0x00, 0x00,
  0x00, 0x00, 0x00, 0x66, 0xe5, 0xff, 0xff, 0x04, 0x00, 0x00, 0x00, 0x20, 0x00,
  0x00, 0x00, 0xab, 0xad, 0x08, 0x00, 0x00, 0x00, 0x00, 0x00, 0x3f, 0x69, 0x01,
  0x00, 0x00, 0x00, 0x00, 0x00, 0xe3, 0xc6, 0xff, 0xff, 0xff, 0xff, 0xff, 0xff,
  0xd0, 0xd1, 0xfe, 0xff, 0xff, 0xff, 0xff, 0xff, 0x92, 0xe5, 0xff, 0xff, 0x04,
  0x00, 0x00, 0x00, 0x40, 0x00, 0x00, 0x00, 0x1c, 0x84, 0xff, 0xff, 0xff, 0xff,
  0xff, 0xff, 0x6d, 0xdd, 0x14, 0x00, 0x00, 0x00, 0x00, 0x00, 0xb5, 0x01, 0x00,
  0x00, 0x00, 0x00, 0x00, 0x00, 0x91, 0xae, 0x00, 0x00, 0x00, 0x00, 0x00, 0x00,
  0x59, 0xaf, 0xfe, 0xff, 0xff, 0xff, 0xff, 0xff, 0x3a, 0x3e, 0xf9, 0xff, 0xff,
  0xff, 0xff, 0xff, 0xc5, 0x5f, 0x01, 0x00, 0x00, 0x00, 0x00, 0x00, 0x1a, 0xeb,
  0x11, 0x00, 0x00, 0x00, 0x00, 0x00, 0xde, 0xe5, 0xff, 0xff, 0x04, 0x00, 0x00,
  0x00, 0x40, 0x00, 0x00, 0x00, 0x18, 0xd4, 0x06, 0x00, 0x00, 0x00, 0x00, 0x00,
  0x16, 0xfe, 0xfe, 0xff, 0xff, 0xff, 0xff, 0xff, 0xa0, 0x4c, 0x02, 0x00, 0x00,
  0x00, 0x00, 0x00, 0x5e, 0x22, 0x00, 0x00, 0x00, 0x00, 0x00, 0x00, 0xef, 0x9f,
  0x00, 0x00, 0x00, 0x00, 0x00, 0x00, 0xd2, 0x0e, 0x00, 0x00, 0x00, 0x00, 0x00,
  0x00, 0xea, 0xd6, 0x17, 0x00, 0x00, 0x00, 0x00, 0x00, 0xf4, 0xf5, 0xff, 0xff,
  0xff, 0xff, 0xff, 0xff, 0x2a, 0xe6, 0xff, 0xff, 0x04, 0x00, 0x00, 0x00, 0x40,
  0x00, 0x00, 0x00, 0x43, 0xc0, 0x00, 0x00, 0x00, 0x00, 0x00, 0x00, 0xdf, 0xab,
  0x01, 0x00, 0x00, 0x00, 0x00, 0x00, 0x40, 0xc3, 0x00, 0x00, 0x00, 0x00, 0x00,
  0x00, 0xab, 0x1e, 0x01, 0x00, 0x00, 0x00, 0x00, 0x00, 0x65, 0x72, 0xff, 0xff,
  0xff, 0xff, 0xff, 0xff, 0x7d, 0x1a, 0x00, 0x00, 0x00, 0x00, 0x00, 0x00, 0xc6,
  0xaa, 0xff, 0xff, 0xff, 0xff, 0xff, 0xff, 0x0d, 0xd2, 0xff, 0xff, 0xff, 0xff,
  0xff, 0xff, 0x76, 0xe6, 0xff, 0xff, 0x04, 0x00, 0x00, 0x00, 0x40, 0x00, 0x00,
  0x00, 0xd3, 0xfd, 0xff, 0xff, 0xff, 0xff, 0xff, 0xff, 0x46, 0x56, 0x02, 0x00,
  0x00, 0x00, 0x00, 0x00, 0x3d, 0x4e, 0xff, 0xff, 0xff, 0xff, 0xff, 0xff, 0xd6,
  0x30, 0x00, 0x00, 0x00, 0x00, 0x00, 0x00, 0xb2, 0xbc, 0x01, 0x00, 0x00, 0x00,
  0x00, 0x00, 0xd5, 0xae, 0xfd, 0xff, 0xff, 0xff, 0xff, 0xff, 0x74, 0xa3, 0x01,
  0x00, 0x00, 0x00, 0x00, 0x00, 0x47, 0x6f, 0x02, 0x00, 0x00, 0x00, 0x00, 0x00,
  0xc2, 0xe6, 0xff, 0xff, 0x04, 0x00, 0x00, 0x00, 0x30, 0x00, 0x00, 0x00, 0x39,
  0x09, 0x01, 0x00, 0x00, 0x00, 0x00, 0x00, 0x8b, 0x92, 0xff, 0xff, 0xff, 0xff,
  0xff, 0xff, 0x02, 0xea, 0x00, 0x00, 0x00, 0x00, 0x00, 0x00, 0xa0, 0xd2, 0xfe,
  0xff, 0xff, 0xff, 0xff, 0xff, 0x3e, 0xc3, 0x00, 0x00, 0x00, 0x00, 0x00, 0x00,
  0x47, 0xf5, 0xff, 0xff, 0xff, 0xff, 0xff, 0xff, 0xfe, 0xe6, 0xff, 0xff, 0x04,
  0x00, 0x00, 0x00, 0x30, 0x00, 0x00, 0x00, 0x66, 0x39, 0xff, 0xff, 0xff, 0xff,
  0xff, 0xff, 0x16, 0xa4, 0xff, 0xff, 0xff, 0xff, 0xff, 0xff, 0xd7, 0x8f, 0xff,
  0xff, 0xff, 0xff, 0xff, 0xff, 0xc4, 0x63, 0xfe, 0xff, 0xff, 0xff, 0xff, 0xff,
  0x3b, 0x52, 0x01, 0x00, 0x00, 0x00, 0x00, 0x00, 0xc8, 0x3b, 0xff, 0xff, 0xff,
  0xff, 0xff, 0xff, 0x3a, 0xe7, 0xff, 0xff, 0x04, 0x00, 0x00, 0x00, 0x30, 0x00,
  0x00, 0x00, 0xf6, 0x21, 0x03, 0x00, 0x00, 0x00, 0x00, 0x00, 0x67, 0xcb, 0x00,
  0x00, 0x00, 0x00, 0x00, 0x00, 0x4f, 0xf9, 0x00, 0x00, 0x00, 0x00, 0x00, 0x00,
  0x1b, 0xce, 0x01, 0x00, 0x00, 0x00, 0x00, 0x00, 0x12, 0x7a, 0x05, 0x00, 0x00,
  0x00, 0x00, 0x00, 0x1c, 0x91, 0x00, 0x00, 0x00, 0x00, 0x00, 0x00, 0x76, 0xe7,
  0xff, 0xff, 0x04, 0x00, 0x00, 0x00, 0x30, 0x00, 0x00, 0x00, 0xc3, 0xc1, 0x00,
  0x00, 0x00, 0x00, 0x00, 0x00, 0x8c, 0x2c, 0x04, 0x00, 0x00, 0x00, 0x00, 0x00,
  0x84, 0x21, 0x01, 0x00, 0x00, 0x00, 0x00, 0x00, 0x3f, 0x4c, 0x01, 0x00, 0x00,
  0x00, 0x00, 0x00, 0x86, 0xf6, 0x01, 0x00, 0x00, 0x00, 0x00, 0x00, 0xf6, 0x3b,
  0x01, 0x00, 0x00, 0x00, 0x00, 0x00, 0xb2, 0xe7, 0xff, 0xff, 0x04, 0x00, 0x00,
  0x00, 0x30, 0x00, 0x00, 0x00, 0x56, 0x46, 0x06, 0x00, 0x00, 0x00, 0x00, 0x00,
  0x68, 0x2f, 0x0b, 0x00, 0x00, 0x00, 0x00, 0x00, 0x65, 0x95, 0xfd, 0xff, 0xff,
  0xff, 0xff, 0xff, 0x64, 0x7c, 0xfd, 0xff, 0xff, 0xff, 0xff, 0xff, 0xde, 0x17,
  0x00, 0x00, 0x00, 0x00, 0x00, 0x00, 0x4c, 0xef, 0xfd, 0xff, 0xff, 0xff, 0xff,
  0xff, 0xee, 0xe7, 0xff, 0xff, 0x04, 0x00, 0x00, 0x00, 0x40, 0x00, 0x00, 0x00,
  0x45, 0xa0, 0x02, 0x00, 0x00, 0x00, 0x00, 0x00, 0xa7, 0xf1, 0xfd, 0xff, 0xff,
  0xff, 0xff, 0xff, 0x40, 0x00, 0x00, 0xc0, 0xff, 0xff, 0xff, 0xff, 0xa5, 0x1e,
  0x05, 0x00, 0x00, 0x00, 0x00, 0x00, 0xb1, 0x67, 0x12, 0x00, 0x00, 0x00, 0x00,
  0x00, 0x91, 0x13, 0x05, 0x00, 0x00, 0x00, 0x00, 0x00, 0x9e, 0x44, 0x13, 0x00,
  0x00, 0x00, 0x00, 0x00, 0x4c, 0x18, 0x17, 0x00, 0x00, 0x00, 0x00, 0x00, 0x3a,
  0xe8, 0xff, 0xff, 0x04, 0x00, 0x00, 0x00, 0x40, 0x00, 0x00, 0x00, 0x8c, 0x32,
  0x03, 0x00, 0x00, 0x00, 0x00, 0x00, 0x44, 0x77, 0xff, 0xff, 0xff, 0xff, 0xff,
  0xff, 0xa5, 0x5d, 0xfe, 0xff, 0xff, 0xff, 0xff, 0xff, 0xc9, 0xde, 0x01, 0x00,
  0x00, 0x00, 0x00, 0x00, 0xdf, 0xc3, 0x01, 0x00, 0x00, 0x00, 0x00, 0x00, 0xc7,
  0x84, 0xfe, 0xff, 0xff, 0xff, 0xff, 0xff, 0xbe, 0x43, 0xfd, 0xff, 0xff, 0xff,
  0xff, 0xff, 0xea, 0xe0, 0x00, 0x00, 0x00, 0x00, 0x00, 0x00, 0x86, 0xe8, 0xff,
  0xff, 0x04, 0x00, 0x00, 0x00, 0x40, 0x00, 0x00, 0x00, 0x38, 0x7f, 0x01, 0x00,
  0x00, 0x00, 0x00, 0x00, 0x91, 0xa9, 0xff, 0xff, 0xff, 0xff, 0xff, 0xff, 0x17,
  0xe3, 0x03, 0x00, 0x00, 0x00, 0x00, 0x00, 0x19, 0xac, 0x04, 0x00, 0x00, 0x00,
  0x00, 0x00, 0x96, 0x3e, 0x05, 0x00, 0x00, 0x00, 0x00, 0x00, 0xc3, 0xd2, 0xf9,
  0xff, 0xff, 0xff, 0xff, 0xff, 0x19, 0xb6, 0x01, 0x00, 0x00, 0x00, 0x00, 0x00,
  0xd3, 0xb5, 0x00, 0x00, 0x00, 0x00, 0x00, 0x00, 0xd2, 0xe8, 0xff, 0xff, 0x04,
  0x00, 0x00, 0x00, 0x40, 0x00, 0x00, 0x00, 0x22, 0xf9, 0x00, 0x00, 0x00, 0x00,
  0x00, 0x00, 0x6a, 0x35, 0xfd, 0xff, 0xff, 0xff, 0xff, 0xff, 0xc2, 0xc4, 0x0b,
  0x00, 0x00, 0x00, 0x00, 0x00, 0x71, 0x8c, 0x54, 0x00, 0x00, 0x00, 0x00, 0x00,
  0x62, 0xfd, 0x07, 0x00, 0x00, 0x00, 0x00, 0x00, 0x9d, 0x5b, 0x02, 0x00, 0x00,
  0x00, 0x00, 0x00, 0x48, 0xaa, 0x04, 0x00, 0x00, 0x00, 0x00, 0x00, 0x1f, 0x1d,
  0x03, 0x00, 0x00, 0x00, 0x00, 0x00, 0x1e, 0xe9, 0xff, 0xff, 0x04, 0x00, 0x00,
  0x00, 0x40, 0x00, 0x00, 0x00, 0xed, 0xfe, 0x03, 0x00, 0x00, 0x00, 0x00, 0x00,
  0x6e, 0xf8, 0xfe, 0xff, 0xff, 0xff, 0xff, 0xff, 0xfd, 0x68, 0x01, 0x00, 0x00,
  0x00, 0x00, 0x00, 0xbe, 0x4b, 0xff, 0xff, 0xff, 0xff, 0xff, 0xff, 0x99, 0x1b,
  0x00, 0x00, 0x00, 0x00, 0x00, 0x00, 0x2f, 0x58, 0x06, 0x00, 0x00, 0x00, 0x00,
  0x00, 0xca, 0x31, 0x00, 0x00, 0x00, 0x00, 0x00, 0x00, 0x66, 0x10, 0x00, 0x00,
  0x00, 0x00, 0x00, 0x00, 0x6a, 0xe9, 0xff, 0xff, 0x04, 0x00, 0x00, 0x00, 0x40,
  0x00, 0x00, 0x00, 0xaa, 0x69, 0xf9, 0xff, 0xff, 0xff, 0xff, 0xff, 0x87, 0x81,
  0x04, 0x00, 0x00, 0x00, 0x00, 0x00, 0x85, 0x3b, 0x00, 0x00, 0x00, 0x00, 0x00,
  0x00, 0x0a, 0x18, 0x0a, 0x00, 0x00, 0x00, 0x00, 0x00, 0x37, 0xe2, 0x07, 0x00,
  0x00, 0x00, 0x00, 0x00, 0xdb, 0xa3, 0xfe, 0xff, 0xff, 0xff, 0xff, 0xff, 0x42,
  0x22, 0x06, 0x00, 0x00, 0x00, 0x00, 0x00, 0x95, 0x72, 0x01, 0x00, 0x00, 0x00,
  0x00, 0x00, 0xb6, 0xe9, 0xff, 0xff, 0x04, 0x00, 0x00, 0x00, 0x20, 0x00, 0x00,
  0x00, 0x0c, 0x5c, 0x07, 0x00, 0x00, 0x00, 0x00, 0x00, 0x23, 0x2d, 0x02, 0x00,
  0x00, 0x00, 0x00, 0x00, 0x45, 0xb6, 0x01, 0x00, 0x00, 0x00, 0x00, 0x00, 0xc5,
  0xdb, 0xff, 0xff, 0xff, 0xff, 0xff, 0xff, 0xe2, 0xe9, 0xff, 0xff, 0x04, 0x00,
  0x00, 0x00, 0x20, 0x00, 0x00, 0x00, 0xe5, 0x46, 0x00, 0x00, 0x00, 0x00, 0x00,
  0x00, 0x9c, 0x28, 0x00, 0x00, 0x00, 0x00, 0x00, 0x00, 0xec, 0xbb, 0xff, 0xff,
  0xff, 0xff, 0xff, 0xff, 0x8e, 0x65, 0x00, 0x00, 0x00, 0x00, 0x00, 0x00, 0x0e,
  0xea, 0xff, 0xff, 0x04, 0x00, 0x00, 0x00, 0x20, 0x00, 0x00, 0x00, 0xe9, 0x07,
  0x00, 0x00, 0x00, 0x00, 0x00, 0x00, 0xfe, 0x86, 0xf2, 0xff, 0xff, 0xff, 0xff,
  0xff, 0x58, 0x09, 0x00, 0x00, 0x00, 0x00, 0x00, 0x00, 0xbe, 0x81, 0x01, 0x00,
  0x00, 0x00, 0x00, 0x00, 0x38, 0xa5, 0xff, 0xff, 0x3c, 0xa5, 0xff, 0xff, 0x0f,
  0x00, 0x00, 0x00, 0x4d, 0x4c, 0x49, 0x52, 0x20, 0x43, 0x6f, 0x6e, 0x76, 0x65,
  0x72, 0x74, 0x65, 0x64, 0x2e, 0x00, 0x01, 0x00, 0x00, 0x00, 0x14, 0x00, 0x00,
  0x00, 0x00, 0x00, 0x0e, 0x00, 0x18, 0x00, 0x14, 0x00, 0x10, 0x00, 0x0c, 0x00,
  0x08, 0x00, 0x04, 0x00, 0x0e, 0x00, 0x00, 0x00, 0x14, 0x00, 0x00, 0x00, 0x1c,
  0x00, 0x00, 0x00, 0x24, 0x16, 0x00, 0x00, 0x28, 0x16, 0x00, 0x00, 0x2c, 0x16,
  0x00, 0x00, 0x04, 0x00, 0x00, 0x00, 0x6d, 0x61, 0x69, 0x6e, 0x00, 0x00, 0x00,
  0x00, 0x59, 0x00, 0x00, 0x00, 0xe8, 0x15, 0x00, 0x00, 0xa4, 0x15, 0x00, 0x00,
  0x48, 0x15, 0x00, 0x00, 0x04, 0x15, 0x00, 0x00, 0xb0, 0x14, 0x00, 0x00, 0x54,
  0x14, 0x00, 0x00, 0x20, 0x14, 0x00, 0x00, 0xd8, 0x13, 0x00, 0x00, 0x90, 0x13,
  0x00, 0x00, 0x40, 0x13, 0x00, 0x00, 0x0c, 0x13, 0x00, 0x00, 0xdc, 0x12, 0x00,
  0x00, 0x98, 0x12, 0x00, 0x00, 0x50, 0x12, 0x00, 0x00, 0x08, 0x12, 0x00, 0x00,
  0xd4, 0x11, 0x00, 0x00, 0x8c, 0x11, 0x00, 0x00, 0x44, 0x11, 0x00, 0x00, 0x04,
  0x11, 0x00, 0x00, 0xd0, 0x10, 0x00, 0x00, 0xa0, 0x10, 0x00, 0x00, 0x5c, 0x10,
  0x00, 0x00, 0x14, 0x10, 0x00, 0x00, 0xcc, 0x0f, 0x00, 0x00, 0x98, 0x0f, 0x00,
  0x00, 0x50, 0x0f, 0x00, 0x00, 0x08, 0x0f, 0x00, 0x00, 0xc8, 0x0e, 0x00, 0x00,
  0x94, 0x0e, 0x00, 0x00, 0x64, 0x0e, 0x00, 0x00, 0x20, 0x0e, 0x00, 0x00, 0xd8,
  0x0d, 0x00, 0x00, 0x90, 0x0d, 0x00, 0x00, 0x5c, 0x0d, 0x00, 0x00, 0x14, 0x0d,
  0x00, 0x00, 0xcc, 0x0c, 0x00, 0x00, 0x8c, 0x0c, 0x00, 0x00, 0x48, 0x0c, 0x00,
  0x00, 0x14, 0x0c, 0x00, 0x00, 0xcc, 0x0b, 0x00, 0x00, 0x84, 0x0b, 0x00, 0x00,
  0x60, 0x0b, 0x00, 0x00, 0x28, 0x0b, 0x00, 0x00, 0xf4, 0x0a, 0x00, 0x00, 0xac,
  0x0a, 0x00, 0x00, 0x64, 0x0a, 0x00, 0x00, 0x30, 0x0a, 0x00, 0x00, 0xe8, 0x09,
  0x00, 0x00, 0xa0, 0x09, 0x00, 0x00, 0x68, 0x09, 0x00, 0x00, 0x34, 0x09, 0x00,
  0x00, 0xec, 0x08, 0x00, 0x00, 0xa4, 0x08, 0x00, 0x00, 0x80, 0x08, 0x00, 0x00,
  0x48, 0x08, 0x00, 0x00, 0x14, 0x08, 0x00, 0x00, 0xcc, 0x07, 0x00, 0x00, 0x84,
  0x07, 0x00, 0x00, 0x50, 0x07, 0x00, 0x00, 0x08, 0x07, 0x00, 0x00, 0xc0, 0x06,
  0x00, 0x00, 0x88, 0x06, 0x00, 0x00, 0x54, 0x06, 0x00, 0x00, 0x0c, 0x06, 0x00,
  0x00, 0xc4, 0x05, 0x00, 0x00, 0xa0, 0x05, 0x00, 0x00, 0x68, 0x05, 0x00, 0x00,
  0x34, 0x05, 0x00, 0x00, 0xec, 0x04, 0x00, 0x00, 0xa4, 0x04, 0x00, 0x00, 0x70,
  0x04, 0x00, 0x00, 0x28, 0x04, 0x00, 0x00, 0xe0, 0x03, 0x00, 0x00, 0xa8, 0x03,
  0x00, 0x00, 0x74, 0x03, 0x00, 0x00, 0x2c, 0x03, 0x00, 0x00, 0xe4, 0x02, 0x00,
  0x00, 0xc0, 0x02, 0x00, 0x00, 0x88, 0x02, 0x00, 0x00, 0x54, 0x02, 0x00, 0x00,
  0x0c, 0x02, 0x00, 0x00, 0xc4, 0x01, 0x00, 0x00, 0x90, 0x01, 0x00, 0x00, 0x48,
  0x01, 0x00, 0x00, 0x00, 0x01, 0x00, 0x00, 0xcc, 0x00, 0x00, 0x00, 0x84, 0x00,
  0x00, 0x00, 0x28, 0x00, 0x00, 0x00, 0x04, 0x00, 0x00, 0x00, 0x86, 0xeb, 0xff,
  0xff, 0x0c, 0x00, 0x00, 0x00, 0x10, 0x00, 0x00, 0x00, 0x09, 0x00, 0x00, 0x00,
  0x01, 0x00, 0x00, 0x00, 0xa9, 0x00, 0x00, 0x00, 0x01, 0x00, 0x00, 0x00, 0xa3,
  0x00, 0x00, 0x00, 0x42, 0xec, 0xff, 0xff, 0x28, 0x00, 0x00, 0x00, 0x00, 0x00,
  0x00, 0x01, 0x34, 0x00, 0x00, 0x00, 0x38, 0x00, 0x00, 0x00, 0x04, 0x00, 0x00,
  0x00, 0x00, 0x00, 0x12, 0x00, 0x14, 0x00, 0x13, 0x00, 0x0c, 0x00, 0x08, 0x00,
  0x00, 0x00, 0x00, 0x00, 0x00, 0x00, 0x07, 0x00, 0x12, 0x00, 0x00, 0x00, 0x00,
  0x00, 0x00, 0x04, 0x01, 0x00, 0x00, 0x00, 0x01, 0x00, 0x00, 0x00, 0x00, 0x00,
  0x00, 0x01, 0x01, 0x00, 0x00, 0x00, 0xa3, 0x00, 0x00, 0x00, 0x03, 0x00, 0x00,
  0x00, 0xa2, 0x00, 0x00, 0x00, 0x16, 0x00, 0x00, 0x00, 0x15, 0x00, 0x00, 0x00,
  0x9a, 0xec, 0xff, 0xff, 0x14, 0x00, 0x00, 0x00, 0x00, 0x00, 0x00, 0x02, 0x20,
  0x00, 0x00, 0x00, 0x24, 0x00, 0x00, 0x00, 0x03, 0x00, 0x00, 0x00, 0x1c, 0xed,
  0xff, 0xff, 0x01, 0x00, 0x00, 0x00, 0x01, 0x00, 0x00, 0x00, 0x01, 0x00, 0x00,
  0x00, 0x00, 0x00, 0x00, 0x01, 0x01, 0x00, 0x00, 0x00, 0xa2, 0x00, 0x00, 0x00,
  0x03, 0x00, 0x00, 0x00, 0xa1, 0x00, 0x00, 0x00, 0x17, 0x00, 0x00, 0x00, 0x43,
  0x00, 0x00, 0x00, 0xde, 0xec, 0xff, 0xff, 0x14, 0x00, 0x00, 0x00, 0x00, 0x00,
  0x00, 0x16, 0x10, 0x00, 0x00, 0x00, 0x14, 0x00, 0x00, 0x00, 0x02, 0x00, 0x00,
  0x00, 0xcc, 0xa7, 0xff, 0xff, 0x01, 0x00, 0x00, 0x00, 0xa1, 0x00, 0x00, 0x00,
  0x02, 0x00, 0x00, 0x00, 0xa0, 0x00, 0x00, 0x00, 0x47, 0x00, 0x00, 0x00, 0x0e,
  0xed, 0xff, 0xff, 0x14, 0x00, 0x00, 0x00, 0x00, 0x00, 0x00, 0x01, 0x20, 0x00,
  0x00, 0x00, 0x24, 0x00, 0x00, 0x00, 0x04, 0x00, 0x00, 0x00, 0xe6, 0xed, 0xff,
  0xff, 0x00, 0x00, 0x04, 0x01, 0x01, 0x00, 0x00, 0x00, 0x01, 0x00, 0x00, 0x00,
  0x00, 0x00, 0x00, 0x01, 0x01, 0x00, 0x00, 0x00, 0xa0, 0x00, 0x00, 0x00, 0x03,
  0x00, 0x00, 0x00, 0x9f, 0x00, 0x00, 0x00, 0x18, 0x00, 0x00, 0x00, 0x01, 0x00,
  0x00, 0x00, 0x52, 0xed, 0xff, 0xff, 0x14, 0x00, 0x00, 0x00, 0x00, 0x00, 0x00,
  0x02, 0x20, 0x00, 0x00, 0x00, 0x24, 0x00, 0x00, 0x00, 0x03, 0x00, 0x00, 0x00,
  0xd4, 0xed, 0xff, 0xff, 0x01, 0x00, 0x00, 0x00, 0x01, 0x00, 0x00, 0x00, 0x01,
  0x00, 0x00, 0x00, 0x00, 0x00, 0x00, 0x01, 0x01, 0x00, 0x00, 0x00, 0x9f, 0x00,
  0x00, 0x00, 0x03, 0x00, 0x00, 0x00, 0x9e, 0x00, 0x00, 0x00, 0x19, 0x00, 0x00,
  0x00, 0x43, 0x00, 0x00, 0x00, 0x96, 0xed, 0xff, 0xff, 0x14, 0x00, 0x00, 0x00,
  0x00, 0x00, 0x00, 0x16, 0x10, 0x00, 0x00, 0x00, 0x14, 0x00, 0x00, 0x00, 0x02,
  0x00, 0x00, 0x00, 0x84, 0xa8, 0xff, 0xff, 0x01, 0x00, 0x00, 0x00, 0x9e, 0x00,
  0x00, 0x00, 0x02, 0x00, 0x00, 0x00, 0x9d, 0x00, 0x00, 0x00, 0x47, 0x00, 0x00,
  0x00, 0xc6, 0xed, 0xff, 0xff, 0x14, 0x00, 0x00, 0x00, 0x00, 0x00, 0x00, 0x01,
  0x20, 0x00, 0x00, 0x00, 0x24, 0x00, 0x00, 0x00, 0x04, 0x00, 0x00, 0x00, 0x9e,
  0xee, 0xff, 0xff, 0x00, 0x00, 0x04, 0x01, 0x01, 0x00, 0x00, 0x00, 0x01, 0x00,
  0x00, 0x00, 0x00, 0x00, 0x00, 0x01, 0x01, 0x00, 0x00, 0x00, 0x9d, 0x00, 0x00,
  0x00, 0x03, 0x00, 0x00, 0x00, 0x9c, 0x00, 0x00, 0x00, 0x1a, 0x00, 0x00, 0x00,
  0x02, 0x00, 0x00, 0x00, 0x0a, 0xee, 0xff, 0xff, 0x14, 0x00, 0x00, 0x00, 0x00,
  0x00, 0x00, 0x02, 0x20, 0x00, 0x00, 0x00, 0x24, 0x00, 0x00, 0x00, 0x03, 0x00,
  0x00, 0x00, 0x8c, 0xee, 0xff, 0xff, 0x01, 0x00, 0x00, 0x00, 0x01, 0x00, 0x00,
  0x00, 0x01, 0x00, 0x00, 0x00, 0x00, 0x00, 0x00, 0x01, 0x01, 0x00, 0x00, 0x00,
  0x9c, 0x00, 0x00, 0x00, 0x03, 0x00, 0x00, 0x00, 0x9b, 0x00, 0x00, 0x00, 0x1b,
  0x00, 0x00, 0x00, 0x3e, 0x00, 0x00, 0x00, 0x4e, 0xee, 0xff, 0xff, 0x14, 0x00,
  0x00, 0x00, 0x00, 0x00, 0x00, 0x16, 0x10, 0x00, 0x00, 0x00, 0x14, 0x00, 0x00,
  0x00, 0x02, 0x00, 0x00, 0x00, 0x3c, 0xa9, 0xff, 0xff, 0x01, 0x00, 0x00, 0x00,
  0x9b, 0x00, 0x00, 0x00, 0x02, 0x00, 0x00, 0x00, 0x9a, 0x00, 0x00, 0x00, 0x47,
  0x00, 0x00, 0x00, 0x7e, 0xee, 0xff, 0xff, 0x14, 0x00, 0x00, 0x00, 0x00, 0x00,
  0x00, 0x0a, 0x14, 0x00, 0x00, 0x00, 0x18, 0x00, 0x00, 0x00, 0x07, 0x00, 0x00,
  0x00, 0x6e, 0xee, 0xff, 0xff, 0x03, 0x00, 0x00, 0x00, 0x01, 0x00, 0x00, 0x00,
  0x9a, 0x00, 0x00, 0x00, 0x02, 0x00, 0x00, 0x00, 0x99, 0x00, 0x00, 0x00, 0xa4,
  0x00, 0x00, 0x00, 0x16, 0xee, 0xff, 0xff, 0x0c, 0x00, 0x00, 0x00, 0x10, 0x00,
  0x00, 0x00, 0x08, 0x00, 0x00, 0x00, 0x01, 0x00, 0x00, 0x00, 0xa4, 0x00, 0x00,
  0x00, 0x01, 0x00, 0x00, 0x00, 0x52, 0x00, 0x00, 0x00, 0xd2, 0xee, 0xff, 0xff,
  0x14, 0x00, 0x00, 0x00, 0x00, 0x00, 0x00, 0x01, 0x20, 0x00, 0x00, 0x00, 0x24,
  0x00, 0x00, 0x00, 0x04, 0x00, 0x00, 0x00, 0xaa, 0xef, 0xff, 0xff, 0x00, 0x00,
  0x04, 0x01, 0x01, 0x00, 0x00, 0x00, 0x01, 0x00, 0x00, 0x00, 0x00, 0x00, 0x00,
  0x01, 0x01, 0x00, 0x00, 0x00, 0x99, 0x00, 0x00, 0x00, 0x03, 0x00, 0x00, 0x00,
  0x98, 0x00, 0x00, 0x00, 0x1c, 0x00, 0x00, 0x00, 0x03, 0x00, 0x00, 0x00, 0x16,
  0xef, 0xff, 0xff, 0x14, 0x00, 0x00, 0x00, 0x00, 0x00, 0x00, 0x02, 0x20, 0x00,
  0x00, 0x00, 0x24, 0x00, 0x00, 0x00, 0x03, 0x00, 0x00, 0x00, 0x98, 0xef, 0xff,
  0xff, 0x01, 0x00, 0x00, 0x00, 0x01, 0x00, 0x00, 0x00, 0x01, 0x00, 0x00, 0x00,
  0x00, 0x00, 0x00, 0x01, 0x01, 0x00, 0x00, 0x00, 0x98, 0x00, 0x00, 0x00, 0x03,
  0x00, 0x00, 0x00, 0x97, 0x00, 0x00, 0x00, 0x1d, 0x00, 0x00, 0x00, 0x3e, 0x00,
  0x00, 0x00, 0x5a, 0xef, 0xff, 0xff, 0x14, 0x00, 0x00, 0x00, 0x00, 0x00, 0x00,
  0x16, 0x10, 0x00, 0x00, 0x00, 0x14, 0x00, 0x00, 0x00, 0x02, 0x00, 0x00, 0x00,
  0x48, 0xaa, 0xff, 0xff, 0x01, 0x00, 0x00, 0x00, 0x97, 0x00, 0x00, 0x00, 0x02,
  0x00, 0x00, 0x00, 0x96, 0x00, 0x00, 0x00, 0x47, 0x00, 0x00, 0x00, 0x8a, 0xef,
  0xff, 0xff, 0x14, 0x00, 0x00, 0x00, 0x00, 0x00, 0x00, 0x0f, 0x14, 0x00, 0x00,
  0x00, 0x18, 0x00, 0x00, 0x00, 0x06, 0x00, 0x00, 0x00, 0xf0, 0xf7, 0xff, 0xff,
  0x00, 0x00, 0x00, 0x01, 0x01, 0x00, 0x00, 0x00, 0x96, 0x00, 0x00, 0x00, 0x02,
  0x00, 0x00, 0x00, 0x95, 0x00, 0x00, 0x00, 0x4b, 0x00, 0x00, 0x00, 0xbe, 0xef,
  0xff, 0xff, 0x14, 0x00, 0x00, 0x00, 0x00, 0x00, 0x00, 0x01, 0x20, 0x00, 0x00,
  0x00, 0x24, 0x00, 0x00, 0x00, 0x04, 0x00, 0x00, 0x00, 0x96, 0xf0, 0xff, 0xff,
  0x00, 0x00, 0x04, 0x01, 0x01, 0x00, 0x00, 0x00, 0x01, 0x00, 0x00, 0x00, 0x00,
  0x00, 0x00, 0x01, 0x01, 0x00, 0x00, 0x00, 0x95, 0x00, 0x00, 0x00, 0x03, 0x00,
  0x00, 0x00, 0x94, 0x00, 0x00, 0x00, 0x1e, 0x00, 0x00, 0x00, 0x04, 0x00, 0x00,
  0x00, 0x02, 0xf0, 0xff, 0xff, 0x14, 0x00, 0x00, 0x00, 0x00, 0x00, 0x00, 0x02,
  0x20, 0x00, 0x00, 0x00, 0x24, 0x00, 0x00, 0x00, 0x03, 0x00, 0x00, 0x00, 0x84,
  0xf0, 0xff, 0xff, 0x01, 0x00, 0x00, 0x00, 0x01, 0x00, 0x00, 0x00, 0x01, 0x00,
  0x00, 0x00, 0x00, 0x00, 0x00, 0x01, 0x01, 0x00, 0x00, 0x00, 0x94, 0x00, 0x00,
  0x00, 0x03, 0x00, 0x00, 0x00, 0x93, 0x00, 0x00, 0x00, 0x1f, 0x00, 0x00, 0x00,
  0x3e, 0x00, 0x00, 0x00, 0x46, 0xf0, 0xff, 0xff, 0x14, 0x00, 0x00, 0x00, 0x00,
  0x00, 0x00, 0x16, 0x10, 0x00, 0x00, 0x00, 0x14, 0x00, 0x00, 0x00, 0x02, 0x00,
  0x00, 0x00, 0x34, 0xab, 0xff, 0xff, 0x01, 0x00, 0x00, 0x00, 0x93, 0x00, 0x00,
  0x00, 0x02, 0x00, 0x00, 0x00, 0x92, 0x00, 0x00, 0x00, 0x47, 0x00, 0x00, 0x00,
  0x76, 0xf0, 0xff, 0xff, 0x14, 0x00, 0x00, 0x00, 0x00, 0x00, 0x00, 0x01, 0x20,
  0x00, 0x00, 0x00, 0x24, 0x00, 0x00, 0x00, 0x04, 0x00, 0x00, 0x00, 0x4e, 0xf1,
  0xff, 0xff, 0x00, 0x00, 0x04, 0x01, 0x01, 0x00, 0x00, 0x00, 0x01, 0x00, 0x00,
  0x00, 0x00, 0x00, 0x00, 0x01, 0x01, 0x00, 0x00, 0x00, 0x92, 0x00, 0x00, 0x00,
  0x03, 0x00, 0x00, 0x00, 0x91, 0x00, 0x00, 0x00, 0x20, 0x00, 0x00, 0x00, 0x05,
  0x00, 0x00, 0x00, 0xba, 0xf0, 0xff, 0xff, 0x14, 0x00, 0x00, 0x00, 0x00, 0x00,
  0x00, 0x02, 0x20, 0x00, 0x00, 0x00, 0x24, 0x00, 0x00, 0x00, 0x03, 0x00, 0x00,
  0x00, 0x3c, 0xf1, 0xff, 0xff, 0x01, 0x00, 0x00, 0x00, 0x01, 0x00, 0x00, 0x00,
  0x01, 0x00, 0x00, 0x00, 0x00, 0x00, 0x00, 0x01, 0x01, 0x00, 0x00, 0x00, 0x91,
  0x00, 0x00, 0x00, 0x03, 0x00, 0x00, 0x00, 0x90, 0x00, 0x00, 0x00, 0x21, 0x00,
  0x00, 0x00, 0x28, 0x00, 0x00, 0x00, 0xfe, 0xf0, 0xff, 0xff, 0x14, 0x00, 0x00,
  0x00, 0x00, 0x00, 0x00, 0x16, 0x10, 0x00, 0x00, 0x00, 0x14, 0x00, 0x00, 0x00,
  0x02, 0x00, 0x00, 0x00, 0xec, 0xab, 0xff, 0xff, 0x01, 0x00, 0x00, 0x00, 0x90,
  0x00, 0x00, 0x00, 0x02, 0x00, 0x00, 0x00, 0x8f, 0x00, 0x00, 0x00, 0x47, 0x00,
  0x00, 0x00, 0x2e, 0xf1, 0xff, 0xff, 0x14, 0x00, 0x00, 0x00, 0x00, 0x00, 0x00,
  0x0a, 0x14, 0x00, 0x00, 0x00, 0x18, 0x00, 0x00, 0x00, 0x07, 0x00, 0x00, 0x00,
  0x1e, 0xf1, 0xff, 0xff, 0x03, 0x00, 0x00, 0x00, 0x01, 0x00, 0x00, 0x00, 0x8f,
  0x00, 0x00, 0x00, 0x02, 0x00, 0x00, 0x00, 0xa5, 0x00, 0x00, 0x00, 0x5d, 0x00,
  0x00, 0x00, 0xc6, 0xf0, 0xff, 0xff, 0x0c, 0x00, 0x00, 0x00, 0x10, 0x00, 0x00,
  0x00, 0x08, 0x00, 0x00, 0x00, 0x01, 0x00, 0x00, 0x00, 0xa5, 0x00, 0x00, 0x00,
  0x01, 0x00, 0x00, 0x00, 0x8e, 0x00, 0x00, 0x00, 0x82, 0xf1, 0xff, 0xff, 0x14,
  0x00, 0x00, 0x00, 0x00, 0x00, 0x00, 0x01, 0x20, 0x00, 0x00, 0x00, 0x24, 0x00,
  0x00, 0x00, 0x04, 0x00, 0x00, 0x00, 0x5a, 0xf2, 0xff, 0xff, 0x00, 0x00, 0x04,
  0x01, 0x01, 0x00, 0x00, 0x00, 0x01, 0x00, 0x00, 0x00, 0x00, 0x00, 0x00, 0x01,
  0x01, 0x00, 0x00, 0x00, 0x8e, 0x00, 0x00, 0x00, 0x03, 0x00, 0x00, 0x00, 0x8d,
  0x00, 0x00, 0x00, 0x22, 0x00, 0x00, 0x00, 0x06, 0x00, 0x00, 0x00, 0xc6, 0xf1,
  0xff, 0xff, 0x14, 0x00, 0x00, 0x00, 0x00, 0x00, 0x00, 0x02, 0x20, 0x00, 0x00,
  0x00, 0x24, 0x00, 0x00, 0x00, 0x03, 0x00, 0x00, 0x00, 0x48, 0xf2, 0xff, 0xff,
  0x01, 0x00, 0x00, 0x00, 0x01, 0x00, 0x00, 0x00, 0x01, 0x00, 0x00, 0x00, 0x00,
  0x00, 0x00, 0x01, 0x01, 0x00, 0x00, 0x00, 0x8d, 0x00, 0x00, 0x00, 0x03, 0x00,
  0x00, 0x00, 0x8c, 0x00, 0x00, 0x00, 0x23, 0x00, 0x00, 0x00, 0x3e, 0x00, 0x00,
  0x00, 0x0a, 0xf2, 0xff, 0xff, 0x14, 0x00, 0x00, 0x00, 0x00, 0x00, 0x00, 0x16,
  0x10, 0x00, 0x00, 0x00, 0x14, 0x00, 0x00, 0x00, 0x02, 0x00, 0x00, 0x00, 0xf8,
  0xac, 0xff, 0xff, 0x01, 0x00, 0x00, 0x00, 0x8c, 0x00, 0x00, 0x00, 0x02, 0x00,
  0x00, 0x00, 0x8b, 0x00, 0x00, 0x00, 0x47, 0x00, 0x00, 0x00, 0x3a, 0xf2, 0xff,
  0xff, 0x14, 0x00, 0x00, 0x00, 0x00, 0x00, 0x00, 0x0f, 0x14, 0x00, 0x00, 0x00,
  0x18, 0x00, 0x00, 0x00, 0x06, 0x00, 0x00, 0x00, 0xa0, 0xfa, 0xff, 0xff, 0x00,
  0x00, 0x00, 0x01, 0x01, 0x00, 0x00, 0x00, 0x8b, 0x00, 0x00, 0x00, 0x02, 0x00,
  0x00, 0x00, 0x8a, 0x00, 0x00, 0x00, 0x57, 0x00, 0x00, 0x00, 0x6e, 0xf2, 0xff,
  0xff, 0x14, 0x00, 0x00, 0x00, 0x00, 0x00, 0x00, 0x01, 0x20, 0x00, 0x00, 0x00,
  0x24, 0x00, 0x00, 0x00, 0x04, 0x00, 0x00, 0x00, 0x46, 0xf3, 0xff, 0xff, 0x00,
  0x00, 0x04, 0x01, 0x01, 0x00, 0x00, 0x00, 0x01, 0x00, 0x00, 0x00, 0x00, 0x00,
  0x00, 0x01, 0x01, 0x00, 0x00, 0x00, 0x8a, 0x00, 0x00, 0x00, 0x03, 0x00, 0x00,
  0x00, 0x89, 0x00, 0x00, 0x00, 0x24, 0x00, 0x00, 0x00, 0x07, 0x00, 0x00, 0x00,
  0xb2, 0xf2, 0xff, 0xff, 0x14, 0x00, 0x00, 0x00, 0x00, 0x00, 0x00, 0x02, 0x20,
  0x00, 0x00, 0x00, 0x24, 0x00, 0x00, 0x00, 0x03, 0x00, 0x00, 0x00, 0x34, 0xf3,
  0xff, 0xff, 0x01, 0x00, 0x00, 0x00, 0x01, 0x00, 0x00, 0x00, 0x01, 0x00, 0x00,
  0x00, 0x00, 0x00, 0x00, 0x01, 0x01, 0x00, 0x00, 0x00, 0x89, 0x00, 0x00, 0x00,
  0x03, 0x00, 0x00, 0x00, 0x88, 0x00, 0x00, 0x00, 0x25, 0x00, 0x00, 0x00, 0x3e,
  0x00, 0x00, 0x00, 0xf6, 0xf2, 0xff, 0xff, 0x14, 0x00, 0x00, 0x00, 0x00, 0x00,
  0x00, 0x16, 0x10, 0x00, 0x00, 0x00, 0x14, 0x00, 0x00, 0x00, 0x02, 0x00, 0x00,
  0x00, 0xe4, 0xad, 0xff, 0xff, 0x01, 0x00, 0x00, 0x00, 0x88, 0x00, 0x00, 0x00,
  0x02, 0x00, 0x00, 0x00, 0x87, 0x00, 0x00, 0x00, 0x47, 0x00, 0x00, 0x00, 0x26,
  0xf3, 0xff, 0xff, 0x14, 0x00, 0x00, 0x00, 0x00, 0x00, 0x00, 0x01, 0x20, 0x00,
  0x00, 0x00, 0x24, 0x00, 0x00, 0x00, 0x04, 0x00, 0x00, 0x00, 0xfe, 0xf3, 0xff,
  0xff, 0x00, 0x00, 0x04, 0x01, 0x01, 0x00, 0x00, 0x00, 0x01, 0x00, 0x00, 0x00,
  0x00, 0x00, 0x00, 0x01, 0x01, 0x00, 0x00, 0x00, 0x87, 0x00, 0x00, 0x00, 0x03,
  0x00, 0x00, 0x00, 0x86, 0x00, 0x00, 0x00, 0x26, 0x00, 0x00, 0x00, 0x08, 0x00,
  0x00, 0x00, 0x6a, 0xf3, 0xff, 0xff, 0x14, 0x00, 0x00, 0x00, 0x00, 0x00, 0x00,
  0x02, 0x20, 0x00, 0x00, 0x00, 0x24, 0x00, 0x00, 0x00, 0x03, 0x00, 0x00, 0x00,
  0xec, 0xf3, 0xff, 0xff, 0x01, 0x00, 0x00, 0x00, 0x01, 0x00, 0x00, 0x00, 0x01,
  0x00, 0x00, 0x00, 0x00, 0x00, 0x00, 0x01, 0x01, 0x00, 0x00, 0x00, 0x86, 0x00,
  0x00, 0x00, 0x03, 0x00, 0x00, 0x00, 0x85, 0x00, 0x00, 0x00, 0x27, 0x00, 0x00,
  0x00, 0x28, 0x00, 0x00, 0x00, 0xae, 0xf3, 0xff, 0xff, 0x14, 0x00, 0x00, 0x00,
  0x00, 0x00, 0x00, 0x16, 0x10, 0x00, 0x00, 0x00, 0x14, 0x00, 0x00, 0x00, 0x02,
  0x00, 0x00, 0x00, 0x9c, 0xae, 0xff, 0xff, 0x01, 0x00, 0x00, 0x00, 0x85, 0x00,
  0x00, 0x00, 0x02, 0x00, 0x00, 0x00, 0x84, 0x00, 0x00, 0x00, 0x47, 0x00, 0x00,
  0x00, 0xde, 0xf3, 0xff, 0xff, 0x14, 0x00, 0x00, 0x00, 0x00, 0x00, 0x00, 0x0a,
  0x14, 0x00, 0x00, 0x00, 0x18, 0x00, 0x00, 0x00, 0x07, 0x00, 0x00, 0x00, 0xce,
  0xf3, 0xff, 0xff, 0x03, 0x00, 0x00, 0x00, 0x01, 0x00, 0x00, 0x00, 0x84, 0x00,
  0x00, 0x00, 0x02, 0x00, 0x00, 0x00, 0xa6, 0x00, 0x00, 0x00, 0x68, 0x00, 0x00,
  0x00, 0x76, 0xf3, 0xff, 0xff, 0x0c, 0x00, 0x00, 0x00, 0x10, 0x00, 0x00, 0x00,
  0x08, 0x00, 0x00, 0x00, 0x01, 0x00, 0x00, 0x00, 0xa6, 0x00, 0x00, 0x00, 0x01,
  0x00, 0x00, 0x00, 0x83, 0x00, 0x00, 0x00, 0x32, 0xf4, 0xff, 0xff, 0x14, 0x00,
  0x00, 0x00, 0x00, 0x00, 0x00, 0x01, 0x20, 0x00, 0x00, 0x00, 0x24, 0x00, 0x00,
  0x00, 0x04, 0x00, 0x00, 0x00, 0x0a, 0xf5, 0xff, 0xff, 0x00, 0x00, 0x04, 0x01,
  0x01, 0x00, 0x00, 0x00, 0x01, 0x00, 0x00, 0x00, 0x00, 0x00, 0x00, 0x01, 0x01,
  0x00, 0x00, 0x00, 0x83, 0x00, 0x00, 0x00, 0x03, 0x00, 0x00, 0x00, 0x82, 0x00,
  0x00, 0x00, 0x29, 0x00, 0x00, 0x00, 0x09, 0x00, 0x00, 0x00, 0x76, 0xf4, 0xff,
  0xff, 0x14, 0x00, 0x00, 0x00, 0x00, 0x00, 0x00, 0x02, 0x20, 0x00, 0x00, 0x00,
  0x24, 0x00, 0x00, 0x00, 0x03, 0x00, 0x00, 0x00, 0xf8, 0xf4, 0xff, 0xff, 0x01,
  0x00, 0x00, 0x00, 0x01, 0x00, 0x00, 0x00, 0x01, 0x00, 0x00, 0x00, 0x00, 0x00,
  0x00, 0x01, 0x01, 0x00, 0x00, 0x00, 0x82, 0x00, 0x00, 0x00, 0x03, 0x00, 0x00,
  0x00, 0x81, 0x00, 0x00, 0x00, 0x2a, 0x00, 0x00, 0x00, 0x35, 0x00, 0x00, 0x00,
  0xba, 0xf4, 0xff, 0xff, 0x14, 0x00, 0x00, 0x00, 0x00, 0x00, 0x00, 0x16, 0x10,
  0x00, 0x00, 0x00, 0x14, 0x00, 0x00, 0x00, 0x02, 0x00, 0x00, 0x00, 0xa8, 0xaf,
  0xff, 0xff, 0x01, 0x00, 0x00, 0x00, 0x81, 0x00, 0x00, 0x00, 0x02, 0x00, 0x00,
  0x00, 0x80, 0x00, 0x00, 0x00, 0x47, 0x00, 0x00, 0x00, 0xea, 0xf4, 0xff, 0xff,
  0x14, 0x00, 0x00, 0x00, 0x00, 0x00, 0x00, 0x0f, 0x14, 0x00, 0x00, 0x00, 0x18,
  0x00, 0x00, 0x00, 0x06, 0x00, 0x00, 0x00, 0x50, 0xfd, 0xff, 0xff, 0x00, 0x00,
  0x00, 0x01, 0x01, 0x00, 0x00, 0x00, 0x80, 0x00, 0x00, 0x00, 0x02, 0x00, 0x00,
  0x00, 0x7f, 0x00, 0x00, 0x00, 0x62, 0x00, 0x00, 0x00, 0x1e, 0xf5, 0xff, 0xff,
  0x14, 0x00, 0x00, 0x00, 0x00, 0x00, 0x00, 0x01, 0x20, 0x00, 0x00, 0x00, 0x24,
  0x00, 0x00, 0x00, 0x04, 0x00, 0x00, 0x00, 0xf6, 0xf5, 0xff, 0xff, 0x00, 0x00,
  0x04, 0x01, 0x01, 0x00, 0x00, 0x00, 0x01, 0x00, 0x00, 0x00, 0x00, 0x00, 0x00,
  0x01, 0x01, 0x00, 0x00, 0x00, 0x7f, 0x00, 0x00, 0x00, 0x03, 0x00, 0x00, 0x00,
  0x7e, 0x00, 0x00, 0x00, 0x2b, 0x00, 0x00, 0x00, 0x0a, 0x00, 0x00, 0x00, 0x62,
  0xf5, 0xff, 0xff, 0x14, 0x00, 0x00, 0x00, 0x00, 0x00, 0x00, 0x02, 0x20, 0x00,
  0x00, 0x00, 0x24, 0x00, 0x00, 0x00, 0x03, 0x00, 0x00, 0x00, 0xe4, 0xf5, 0xff,
  0xff, 0x01, 0x00, 0x00, 0x00, 0x01, 0x00, 0x00, 0x00, 0x01, 0x00, 0x00, 0x00,
  0x00, 0x00, 0x00, 0x01, 0x01, 0x00, 0x00, 0x00, 0x7e, 0x00, 0x00, 0x00, 0x03,
  0x00, 0x00, 0x00, 0x7d, 0x00, 0x00, 0x00, 0x2c, 0x00, 0x00, 0x00, 0x35, 0x00,
  0x00, 0x00, 0xa6, 0xf5, 0xff, 0xff, 0x14, 0x00, 0x00, 0x00, 0x00, 0x00, 0x00,
  0x16, 0x10, 0x00, 0x00, 0x00, 0x14, 0x00, 0x00, 0x00, 0x02, 0x00, 0x00, 0x00,
  0x94, 0xb0, 0xff, 0xff, 0x01, 0x00, 0x00, 0x00, 0x7d, 0x00, 0x00, 0x00, 0x02,
  0x00, 0x00, 0x00, 0x7c, 0x00, 0x00, 0x00, 0x47, 0x00, 0x00, 0x00, 0xd6, 0xf5,
  0xff, 0xff, 0x14, 0x00, 0x00, 0x00, 0x00, 0x00, 0x00, 0x01, 0x20, 0x00, 0x00,
  0x00, 0x24, 0x00, 0x00, 0x00, 0x04, 0x00, 0x00, 0x00, 0xae, 0xf6, 0xff, 0xff,
  0x00, 0x00, 0x04, 0x01, 0x01, 0x00, 0x00, 0x00, 0x01, 0x00, 0x00, 0x00, 0x00,
  0x00, 0x00, 0x01, 0x01, 0x00, 0x00, 0x00, 0x7c, 0x00, 0x00, 0x00, 0x03, 0x00,
  0x00, 0x00, 0x7b, 0x00, 0x00, 0x00, 0x2d, 0x00, 0x00, 0x00, 0x0b, 0x00, 0x00,
  0x00, 0x1a, 0xf6, 0xff, 0xff, 0x14, 0x00, 0x00, 0x00, 0x00, 0x00, 0x00, 0x02,
  0x20, 0x00, 0x00, 0x00, 0x24, 0x00, 0x00, 0x00, 0x03, 0x00, 0x00, 0x00, 0x9c,
  0xf6, 0xff, 0xff, 0x01, 0x00, 0x00, 0x00, 0x01, 0x00, 0x00, 0x00, 0x01, 0x00,
  0x00, 0x00, 0x00, 0x00, 0x00, 0x01, 0x01, 0x00, 0x00, 0x00, 0x7b, 0x00, 0x00,
  0x00, 0x03, 0x00, 0x00, 0x00, 0x7a, 0x00, 0x00, 0x00, 0x2e, 0x00, 0x00, 0x00,
  0x2f, 0x00, 0x00, 0x00, 0x5e, 0xf6, 0xff, 0xff, 0x14, 0x00, 0x00, 0x00, 0x00,
  0x00, 0x00, 0x16, 0x10, 0x00, 0x00, 0x00, 0x14, 0x00, 0x00, 0x00, 0x02, 0x00,
  0x00, 0x00, 0x4c, 0xb1, 0xff, 0xff, 0x01, 0x00, 0x00, 0x00, 0x7a, 0x00, 0x00,
  0x00, 0x02, 0x00, 0x00, 0x00, 0x79, 0x00, 0x00, 0x00, 0x47, 0x00, 0x00, 0x00,
  0x8e, 0xf6, 0xff, 0xff, 0x14, 0x00, 0x00, 0x00, 0x00, 0x00, 0x00, 0x0a, 0x14,
  0x00, 0x00, 0x00, 0x18, 0x00, 0x00, 0x00, 0x07, 0x00, 0x00, 0x00, 0x7e, 0xf6,
  0xff, 0xff, 0x03, 0x00, 0x00, 0x00, 0x01, 0x00, 0x00, 0x00, 0x79, 0x00, 0x00,
  0x00, 0x02, 0x00, 0x00, 0x00, 0xa7, 0x00, 0x00, 0x00, 0x73, 0x00, 0x00, 0x00,
  0x26, 0xf6, 0xff, 0xff, 0x0c, 0x00, 0x00, 0x00, 0x10, 0x00, 0x00, 0x00, 0x08,
  0x00, 0x00, 0x00, 0x01, 0x00, 0x00, 0x00, 0xa7, 0x00, 0x00, 0x00, 0x01, 0x00,
  0x00, 0x00, 0x78, 0x00, 0x00, 0x00, 0xe2, 0xf6, 0xff, 0xff, 0x14, 0x00, 0x00,
  0x00, 0x00, 0x00, 0x00, 0x01, 0x20, 0x00, 0x00, 0x00, 0x24, 0x00, 0x00, 0x00,
  0x04, 0x00, 0x00, 0x00, 0xba, 0xf7, 0xff, 0xff, 0x00, 0x00, 0x04, 0x01, 0x01,
  0x00, 0x00, 0x00, 0x01, 0x00, 0x00, 0x00, 0x00, 0x00, 0x00, 0x01, 0x01, 0x00,
  0x00, 0x00, 0x78, 0x00, 0x00, 0x00, 0x03, 0x00, 0x00, 0x00, 0x77, 0x00, 0x00,
  0x00, 0x30, 0x00, 0x00, 0x00, 0x0c, 0x00, 0x00, 0x00, 0x26, 0xf7, 0xff, 0xff,
  0x14, 0x00, 0x00, 0x00, 0x00, 0x00, 0x00, 0x02, 0x20, 0x00, 0x00, 0x00, 0x24,
  0x00, 0x00, 0x00, 0x03, 0x00, 0x00, 0x00, 0xa8, 0xf7, 0xff, 0xff, 0x01, 0x00,
  0x00, 0x00, 0x01, 0x00, 0x00, 0x00, 0x01, 0x00, 0x00, 0x00, 0x00, 0x00, 0x00,
  0x01, 0x01, 0x00, 0x00, 0x00, 0x77, 0x00, 0x00, 0x00, 0x03, 0x00, 0x00, 0x00,
  0x76, 0x00, 0x00, 0x00, 0x31, 0x00, 0x00, 0x00, 0x35, 0x00, 0x00, 0x00, 0x6a,
  0xf7, 0xff, 0xff, 0x14, 0x00, 0x00, 0x00, 0x00, 0x00, 0x00, 0x16, 0x10, 0x00,
  0x00, 0x00, 0x14, 0x00, 0x00, 0x00, 0x02, 0x00, 0x00, 0x00, 0x58, 0xb2, 0xff,
  0xff, 0x01, 0x00, 0x00, 0x00, 0x76, 0x00, 0x00, 0x00, 0x02, 0x00, 0x00, 0x00,
  0x75, 0x00, 0x00, 0x00, 0x47, 0x00, 0x00, 0x00, 0x9a, 0xf7, 0xff, 0xff, 0x20,
  0x00, 0x00, 0x00, 0x00, 0x00, 0x00, 0x0f, 0x20, 0x00, 0x00, 0x00, 0x24, 0x00,
  0x00, 0x00, 0x06, 0x00, 0x00, 0x00, 0x0c, 0x00, 0x08, 0x00, 0x00, 0x00, 0x00,
  0x00, 0x00, 0x00, 0x07, 0x00, 0x0c, 0x00, 0x00, 0x00, 0x00, 0x00, 0x00, 0x01,
  0x01, 0x00, 0x00, 0x00, 0x75, 0x00, 0x00, 0x00, 0x02, 0x00, 0x00, 0x00, 0x74,
  0x00, 0x00, 0x00, 0x6d, 0x00, 0x00, 0x00, 0xda, 0xf7, 0xff, 0xff, 0x14, 0x00,
  0x00, 0x00, 0x00, 0x00, 0x00, 0x05, 0x20, 0x00, 0x00, 0x00, 0x24, 0x00, 0x00,
  0x00, 0x05, 0x00, 0x00, 0x00, 0xb6, 0xf9, 0xff, 0xff, 0x02, 0x00, 0x00, 0x00,
  0x02, 0x00, 0x00, 0x00, 0x02, 0x00, 0x00, 0x00, 0x02, 0x00, 0x00, 0x00, 0x01,
  0x00, 0x00, 0x00, 0x74, 0x00, 0x00, 0x00, 0x01, 0x00, 0x00, 0x00, 0x73, 0x00,
  0x00, 0x00, 0x16, 0xf8, 0xff, 0xff, 0x14, 0x00, 0x00, 0x00, 0x00, 0x00, 0x00,
  0x01, 0x20, 0x00, 0x00, 0x00, 0x24, 0x00, 0x00, 0x00, 0x04, 0x00, 0x00, 0x00,
  0xee, 0xf8, 0xff, 0xff, 0x00, 0x00, 0x04, 0x01, 0x01, 0x00, 0x00, 0x00, 0x01,
  0x00, 0x00, 0x00, 0x00, 0x00, 0x00, 0x01, 0x01, 0x00, 0x00, 0x00, 0x73, 0x00,
  0x00, 0x00, 0x03, 0x00, 0x00, 0x00, 0x72, 0x00, 0x00, 0x00, 0x32, 0x00, 0x00,
  0x00, 0x0d, 0x00, 0x00, 0x00, 0x5a, 0xf8, 0xff, 0xff, 0x14, 0x00, 0x00, 0x00,
  0x00, 0x00, 0x00, 0x02, 0x20, 0x00, 0x00, 0x00, 0x24, 0x00, 0x00, 0x00, 0x03,
  0x00, 0x00, 0x00, 0xdc, 0xf8, 0xff, 0xff, 0x01, 0x00, 0x00, 0x00, 0x01, 0x00,
  0x00, 0x00, 0x01, 0x00, 0x00, 0x00, 0x00, 0x00, 0x00, 0x01, 0x01, 0x00, 0x00,
  0x00, 0x72, 0x00, 0x00, 0x00, 0x03, 0x00, 0x00, 0x00, 0x71, 0x00, 0x00, 0x00,
  0x33, 0x00, 0x00, 0x00, 0x35, 0x00, 0x00, 0x00, 0x9e, 0xf8, 0xff, 0xff, 0x14,
  0x00, 0x00, 0x00, 0x00, 0x00, 0x00, 0x16, 0x10, 0x00, 0x00, 0x00, 0x14, 0x00,
  0x00, 0x00, 0x02, 0x00, 0x00, 0x00, 0x8c, 0xb3, 0xff, 0xff, 0x01, 0x00, 0x00,
  0x00, 0x71, 0x00, 0x00, 0x00, 0x02, 0x00, 0x00, 0x00, 0x70, 0x00, 0x00, 0x00,
  0x47, 0x00, 0x00, 0x00, 0xce, 0xf8, 0xff, 0xff, 0x14, 0x00, 0x00, 0x00, 0x00,
  0x00, 0x00, 0x01, 0x20, 0x00, 0x00, 0x00, 0x24, 0x00, 0x00, 0x00, 0x04, 0x00,
  0x00, 0x00, 0xa6, 0xf9, 0xff, 0xff, 0x00, 0x00, 0x04, 0x01, 0x01, 0x00, 0x00,
  0x00, 0x01, 0x00, 0x00, 0x00, 0x00, 0x00, 0x00, 0x01, 0x01, 0x00, 0x00, 0x00,
  0x70, 0x00, 0x00, 0x00, 0x03, 0x00, 0x00, 0x00, 0x6f, 0x00, 0x00, 0x00, 0x34,
  0x00, 0x00, 0x00, 0x0e, 0x00, 0x00, 0x00, 0x12, 0xf9, 0xff, 0xff, 0x14, 0x00,
  0x00, 0x00, 0x00, 0x00, 0x00, 0x02, 0x20, 0x00, 0x00, 0x00, 0x24, 0x00, 0x00,
  0x00, 0x03, 0x00, 0x00, 0x00, 0x94, 0xf9, 0xff, 0xff, 0x01, 0x00, 0x00, 0x00,
  0x01, 0x00, 0x00, 0x00, 0x01, 0x00, 0x00, 0x00, 0x00, 0x00, 0x00, 0x01, 0x01,
  0x00, 0x00, 0x00, 0x6f, 0x00, 0x00, 0x00, 0x03, 0x00, 0x00, 0x00, 0x6a, 0x00,
  0x00, 0x00, 0x36, 0x00, 0x00, 0x00, 0x3e, 0x00, 0x00, 0x00, 0x56, 0xf9, 0xff,
  0xff, 0x14, 0x00, 0x00, 0x00, 0x00, 0x00, 0x00, 0x4f, 0x14, 0x00, 0x00, 0x00,
  0x20, 0x00, 0x00, 0x00, 0x01, 0x00, 0x00, 0x00, 0x46, 0xf9, 0xff, 0xff, 0x03,
  0x00, 0x00, 0x00, 0x03, 0x00, 0x00, 0x00, 0x6c, 0x00, 0x00, 0x00, 0x6d, 0x00,
  0x00, 0x00, 0x6e, 0x00, 0x00, 0x00, 0x03, 0x00, 0x00, 0x00, 0x6b, 0x00, 0x00,
  0x00, 0x48, 0x00, 0x00, 0x00, 0x46, 0x00, 0x00, 0x00, 0x3e, 0xf9, 0xff, 0xff,
  0x10, 0x00, 0x00, 0x00, 0x00, 0x00, 0x00, 0x37, 0x10, 0x00, 0x00, 0x00, 0x14,
  0x00, 0x00, 0x00, 0x2e, 0xf9, 0xff, 0xff, 0x00, 0x00, 0x00, 0x02, 0x01, 0x00,
  0x00, 0x00, 0x6b, 0x00, 0x00, 0x00, 0x01, 0x00, 0x00, 0x00, 0x69, 0x00, 0x00,
  0x00, 0xc2, 0xf9, 0xff, 0xff, 0x14, 0x00, 0x00, 0x00, 0x00, 0x00, 0x00, 0x16,
  0x10, 0x00, 0x00, 0x00, 0x14, 0x00, 0x00, 0x00, 0x02, 0x00, 0x00, 0x00, 0xb0,
  0xb4, 0xff, 0xff, 0x01, 0x00, 0x00, 0x00, 0x6a, 0x00, 0x00, 0x00, 0x02, 0x00,
  0x00, 0x00, 0x69, 0x00, 0x00, 0x00, 0x47, 0x00, 0x00, 0x00, 0xf2, 0xf9, 0xff,
  0xff, 0x14, 0x00, 0x00, 0x00, 0x00, 0x00, 0x00, 0x05, 0x20, 0x00, 0x00, 0x00,
  0x24, 0x00, 0x00, 0x00, 0x05, 0x00, 0x00, 0x00, 0xce, 0xfb, 0xff, 0xff, 0x02,
  0x00, 0x00, 0x00, 0x02, 0x00, 0x00, 0x00, 0x02, 0x00, 0x00, 0x00, 0x02, 0x00,
  0x00, 0x00, 0x01, 0x00, 0x00, 0x00, 0x69, 0x00, 0x00, 0x00, 0x01, 0x00, 0x00,
  0x00, 0x68, 0x00, 0x00, 0x00, 0x2e, 0xfa, 0xff, 0xff, 0x14, 0x00, 0x00, 0x00,
  0x00, 0x00, 0x00, 0x01, 0x20, 0x00, 0x00, 0x00, 0x24, 0x00, 0x00, 0x00, 0x04,
  0x00, 0x00, 0x00, 0x06, 0xfb, 0xff, 0xff, 0x00, 0x00, 0x04, 0x01, 0x01, 0x00,
  0x00, 0x00, 0x01, 0x00, 0x00, 0x00, 0x00, 0x00, 0x00, 0x01, 0x01, 0x00, 0x00,
  0x00, 0x68, 0x00, 0x00, 0x00, 0x03, 0x00, 0x00, 0x00, 0x67, 0x00, 0x00, 0x00,
  0x37, 0x00, 0x00, 0x00, 0x0f, 0x00, 0x00, 0x00, 0x72, 0xfa, 0xff, 0xff, 0x14,
  0x00, 0x00, 0x00, 0x00, 0x00, 0x00, 0x02, 0x20, 0x00, 0x00, 0x00, 0x24, 0x00,
  0x00, 0x00, 0x03, 0x00, 0x00, 0x00, 0xf4, 0xfa, 0xff, 0xff, 0x01, 0x00, 0x00,
  0x00, 0x01, 0x00, 0x00, 0x00, 0x01, 0x00, 0x00, 0x00, 0x00, 0x00, 0x00, 0x01,
  0x01, 0x00, 0x00, 0x00, 0x67, 0x00, 0x00, 0x00, 0x03, 0x00, 0x00, 0x00, 0x66,
  0x00, 0x00, 0x00, 0x38, 0x00, 0x00, 0x00, 0x3e, 0x00, 0x00, 0x00, 0xb6, 0xfa,
  0xff, 0xff, 0x14, 0x00, 0x00, 0x00, 0x00, 0x00, 0x00, 0x16, 0x10, 0x00, 0x00,
  0x00, 0x14, 0x00, 0x00, 0x00, 0x02, 0x00, 0x00, 0x00, 0xa4, 0xb5, 0xff, 0xff,
  0x01, 0x00, 0x00, 0x00, 0x66, 0x00, 0x00, 0x00, 0x02, 0x00, 0x00, 0x00, 0x65,
  0x00, 0x00, 0x00, 0x47, 0x00, 0x00, 0x00, 0xe6, 0xfa, 0xff, 0xff, 0x14, 0x00,
  0x00, 0x00, 0x00, 0x00, 0x00, 0x01, 0x20, 0x00, 0x00, 0x00, 0x24, 0x00, 0x00,
  0x00, 0x04, 0x00, 0x00, 0x00, 0xbe, 0xfb, 0xff, 0xff, 0x00, 0x00, 0x04, 0x01,
  0x01, 0x00, 0x00, 0x00, 0x01, 0x00, 0x00, 0x00, 0x00, 0x00, 0x00, 0x01, 0x01,
  0x00, 0x00, 0x00, 0x65, 0x00, 0x00, 0x00, 0x03, 0x00, 0x00, 0x00, 0x64, 0x00,
  0x00, 0x00, 0x39, 0x00, 0x00, 0x00, 0x10, 0x00, 0x00, 0x00, 0x2a, 0xfb, 0xff,
  0xff, 0x14, 0x00, 0x00, 0x00, 0x00, 0x00, 0x00, 0x02, 0x20, 0x00, 0x00, 0x00,
  0x24, 0x00, 0x00, 0x00, 0x03, 0x00, 0x00, 0x00, 0xac, 0xfb, 0xff, 0xff, 0x01,
  0x00, 0x00, 0x00, 0x01, 0x00, 0x00, 0x00, 0x01, 0x00, 0x00, 0x00, 0x00, 0x00,
  0x00, 0x01, 0x01, 0x00, 0x00, 0x00, 0x64, 0x00, 0x00, 0x00, 0x03, 0x00, 0x00,
  0x00, 0x5f, 0x00, 0x00, 0x00, 0x3a, 0x00, 0x00, 0x00, 0x3e, 0x00, 0x00, 0x00,
  0x6e, 0xfb, 0xff, 0xff, 0x14, 0x00, 0x00, 0x00, 0x00, 0x00, 0x00, 0x4f, 0x14,
  0x00, 0x00, 0x00, 0x20, 0x00, 0x00, 0x00, 0x01, 0x00, 0x00, 0x00, 0x5e, 0xfb,
  0xff, 0xff, 0x03, 0x00, 0x00, 0x00, 0x03, 0x00, 0x00, 0x00, 0x61, 0x00, 0x00,
  0x00, 0x62, 0x00, 0x00, 0x00, 0x63, 0x00, 0x00, 0x00, 0x03, 0x00, 0x00, 0x00,
  0x60, 0x00, 0x00, 0x00, 0x48, 0x00, 0x00, 0x00, 0x46, 0x00, 0x00, 0x00, 0x56,
  0xfb, 0xff, 0xff, 0x10, 0x00, 0x00, 0x00, 0x00, 0x00, 0x00, 0x37, 0x10, 0x00,
  0x00, 0x00, 0x14, 0x00, 0x00, 0x00, 0x46, 0xfb, 0xff, 0xff, 0x00, 0x00, 0x00,
  0x02, 0x01, 0x00, 0x00, 0x00, 0x60, 0x00, 0x00, 0x00, 0x01, 0x00, 0x00, 0x00,
  0x5e, 0x00, 0x00, 0x00, 0xda, 0xfb, 0xff, 0xff, 0x14, 0x00, 0x00, 0x00, 0x00,
  0x00, 0x00, 0x16, 0x10, 0x00, 0x00, 0x00, 0x14, 0x00, 0x00, 0x00, 0x02, 0x00,
  0x00, 0x00, 0xc8, 0xb6, 0xff, 0xff, 0x01, 0x00, 0x00, 0x00, 0x5f, 0x00, 0x00,
  0x00, 0x02, 0x00, 0x00, 0x00, 0x5e, 0x00, 0x00, 0x00, 0x47, 0x00, 0x00, 0x00,
  0x0a, 0xfc, 0xff, 0xff, 0x14, 0x00, 0x00, 0x00, 0x00, 0x00, 0x00, 0x05, 0x20,
  0x00, 0x00, 0x00, 0x24, 0x00, 0x00, 0x00, 0x05, 0x00, 0x00, 0x00, 0xe6, 0xfd,
  0xff, 0xff, 0x02, 0x00, 0x00, 0x00, 0x02, 0x00, 0x00, 0x00, 0x02, 0x00, 0x00,
  0x00, 0x02, 0x00, 0x00, 0x00, 0x01, 0x00, 0x00, 0x00, 0x5e, 0x00, 0x00, 0x00,
  0x01, 0x00, 0x00, 0x00, 0x5d, 0x00, 0x00, 0x00, 0x46, 0xfc, 0xff, 0xff, 0x14,
  0x00, 0x00, 0x00, 0x00, 0x00, 0x00, 0x01, 0x20, 0x00, 0x00, 0x00, 0x24, 0x00,
  0x00, 0x00, 0x04, 0x00, 0x00, 0x00, 0x1e, 0xfd, 0xff, 0xff, 0x00, 0x00, 0x04,
  0x01, 0x01, 0x00, 0x00, 0x00, 0x01, 0x00, 0x00, 0x00, 0x00, 0x00, 0x00, 0x01,
  0x01, 0x00, 0x00, 0x00, 0x5d, 0x00, 0x00, 0x00, 0x03, 0x00, 0x00, 0x00, 0x5c,
  0x00, 0x00, 0x00, 0x3b, 0x00, 0x00, 0x00, 0x11, 0x00, 0x00, 0x00, 0x8a, 0xfc,
  0xff, 0xff, 0x14, 0x00, 0x00, 0x00, 0x00, 0x00, 0x00, 0x02, 0x20, 0x00, 0x00,
  0x00, 0x24, 0x00, 0x00, 0x00, 0x03, 0x00, 0x00, 0x00, 0x0c, 0xfd, 0xff, 0xff,
  0x01, 0x00, 0x00, 0x00, 0x01, 0x00, 0x00, 0x00, 0x01, 0x00, 0x00, 0x00, 0x00,
  0x00, 0x00, 0x01, 0x01, 0x00, 0x00, 0x00, 0x5c, 0x00, 0x00, 0x00, 0x03, 0x00,
  0x00, 0x00, 0x5b, 0x00, 0x00, 0x00, 0x3c, 0x00, 0x00, 0x00, 0x3e, 0x00, 0x00,
  0x00, 0xce, 0xfc, 0xff, 0xff, 0x14, 0x00, 0x00, 0x00, 0x00, 0x00, 0x00, 0x16,
  0x10, 0x00, 0x00, 0x00, 0x14, 0x00, 0x00, 0x00, 0x02, 0x00, 0x00, 0x00, 0xbc,
  0xb7, 0xff, 0xff, 0x01, 0x00, 0x00, 0x00, 0x5b, 0x00, 0x00, 0x00, 0x02, 0x00,
  0x00, 0x00, 0x5a, 0x00, 0x00, 0x00, 0x47, 0x00, 0x00, 0x00, 0xfe, 0xfc, 0xff,
  0xff, 0x14, 0x00, 0x00, 0x00, 0x00, 0x00, 0x00, 0x01, 0x20, 0x00, 0x00, 0x00,
  0x24, 0x00, 0x00, 0x00, 0x04, 0x00, 0x00, 0x00, 0xd6, 0xfd, 0xff, 0xff, 0x00,
  0x00, 0x04, 0x01, 0x01, 0x00, 0x00, 0x00, 0x01, 0x00, 0x00, 0x00, 0x00, 0x00,
  0x00, 0x01, 0x01, 0x00, 0x00, 0x00, 0x5a, 0x00, 0x00, 0x00, 0x03, 0x00, 0x00,
  0x00, 0x59, 0x00, 0x00, 0x00, 0x3d, 0x00, 0x00, 0x00, 0x12, 0x00, 0x00, 0x00,
  0x42, 0xfd, 0xff, 0xff, 0x14, 0x00, 0x00, 0x00, 0x00, 0x00, 0x00, 0x02, 0x20,
  0x00, 0x00, 0x00, 0x24, 0x00, 0x00, 0x00, 0x03, 0x00, 0x00, 0x00, 0xc4, 0xfd,
  0xff, 0xff, 0x01, 0x00, 0x00, 0x00, 0x01, 0x00, 0x00, 0x00, 0x01, 0x00, 0x00,
  0x00, 0x00, 0x00, 0x00, 0x01, 0x01, 0x00, 0x00, 0x00, 0x59, 0x00, 0x00, 0x00,
  0x03, 0x00, 0x00, 0x00, 0x54, 0x00, 0x00, 0x00, 0x3f, 0x00, 0x00, 0x00, 0x43,
  0x00, 0x00, 0x00, 0x86, 0xfd, 0xff, 0xff, 0x14, 0x00, 0x00, 0x00, 0x00, 0x00,
  0x00, 0x4f, 0x14, 0x00, 0x00, 0x00, 0x20, 0x00, 0x00, 0x00, 0x01, 0x00, 0x00,
  0x00, 0x76, 0xfd, 0xff, 0xff, 0x03, 0x00, 0x00, 0x00, 0x03, 0x00, 0x00, 0x00,
  0x56, 0x00, 0x00, 0x00, 0x57, 0x00, 0x00, 0x00, 0x58, 0x00, 0x00, 0x00, 0x03,
  0x00, 0x00, 0x00, 0x55, 0x00, 0x00, 0x00, 0x48, 0x00, 0x00, 0x00, 0x46, 0x00,
  0x00, 0x00, 0x6e, 0xfd, 0xff, 0xff, 0x10, 0x00, 0x00, 0x00, 0x00, 0x00, 0x00,
  0x37, 0x10, 0x00, 0x00, 0x00, 0x14, 0x00, 0x00, 0x00, 0x5e, 0xfd, 0xff, 0xff,
  0x00, 0x00, 0x00, 0x02, 0x01, 0x00, 0x00, 0x00, 0x55, 0x00, 0x00, 0x00, 0x01,
  0x00, 0x00, 0x00, 0x53, 0x00, 0x00, 0x00, 0xf2, 0xfd, 0xff, 0xff, 0x14, 0x00,
  0x00, 0x00, 0x00, 0x00, 0x00, 0x16, 0x10, 0x00, 0x00, 0x00, 0x14, 0x00, 0x00,
  0x00, 0x02, 0x00, 0x00, 0x00, 0xe0, 0xb8, 0xff, 0xff, 0x01, 0x00, 0x00, 0x00,
  0x54, 0x00, 0x00, 0x00, 0x02, 0x00, 0x00, 0x00, 0x53, 0x00, 0x00, 0x00, 0x47,
  0x00, 0x00, 0x00, 0x22, 0xfe, 0xff, 0xff, 0x24, 0x00, 0x00, 0x00, 0x00, 0x00,
  0x00, 0x05, 0x30, 0x00, 0x00, 0x00, 0x34, 0x00, 0x00, 0x00, 0x05, 0x00, 0x00,
  0x00, 0x00, 0x00, 0x0e, 0x00, 0x14, 0x00, 0x00, 0x00, 0x10, 0x00, 0x0c, 0x00,
  0x08, 0x00, 0x04, 0x00, 0x0e, 0x00, 0x00, 0x00, 0x02, 0x00, 0x00, 0x00, 0x02,
  0x00, 0x00, 0x00, 0x02, 0x00, 0x00, 0x00, 0x02, 0x00, 0x00, 0x00, 0x01, 0x00,
  0x00, 0x00, 0x53, 0x00, 0x00, 0x00, 0x01, 0x00, 0x00, 0x00, 0x52, 0x00, 0x00,
  0x00, 0x6e, 0xfe, 0xff, 0xff, 0x14, 0x00, 0x00, 0x00, 0x00, 0x00, 0x00, 0x01,
  0x20, 0x00, 0x00, 0x00, 0x24, 0x00, 0x00, 0x00, 0x04, 0x00, 0x00, 0x00, 0x46,
  0xff, 0xff, 0xff, 0x00, 0x00, 0x04, 0x01, 0x01, 0x00, 0x00, 0x00, 0x01, 0x00,
  0x00, 0x00, 0x00, 0x00, 0x00, 0x01, 0x01, 0x00, 0x00, 0x00, 0x52, 0x00, 0x00,
  0x00, 0x03, 0x00, 0x00, 0x00, 0x51, 0x00, 0x00, 0x00, 0x40, 0x00, 0x00, 0x00,
  0x13, 0x00, 0x00, 0x00, 0xb2, 0xfe, 0xff, 0xff, 0x14, 0x00, 0x00, 0x00, 0x00,
  0x00, 0x00, 0x02, 0x20, 0x00, 0x00, 0x00, 0x24, 0x00, 0x00, 0x00, 0x03, 0x00,
  0x00, 0x00, 0x34, 0xff, 0xff, 0xff, 0x01, 0x00, 0x00, 0x00, 0x01, 0x00, 0x00,
  0x00, 0x01, 0x00, 0x00, 0x00, 0x00, 0x00, 0x00, 0x01, 0x01, 0x00, 0x00, 0x00,
  0x51, 0x00, 0x00, 0x00, 0x03, 0x00, 0x00, 0x00, 0x50, 0x00, 0x00, 0x00, 0x41,
  0x00, 0x00, 0x00, 0x43, 0x00, 0x00, 0x00, 0xf6, 0xfe, 0xff, 0xff, 0x14, 0x00,
  0x00, 0x00, 0x00, 0x00, 0x00, 0x16, 0x10, 0x00, 0x00, 0x00, 0x14, 0x00, 0x00,
  0x00, 0x02, 0x00, 0x00, 0x00, 0xe4, 0xb9, 0xff, 0xff, 0x01, 0x00, 0x00, 0x00,
  0x50, 0x00, 0x00, 0x00, 0x02, 0x00, 0x00, 0x00, 0x4f, 0x00, 0x00, 0x00, 0x47,
  0x00, 0x00, 0x00, 0x26, 0xff, 0xff, 0xff, 0x28, 0x00, 0x00, 0x00, 0x00, 0x00,
  0x00, 0x01, 0x34, 0x00, 0x00, 0x00, 0x38, 0x00, 0x00, 0x00, 0x04, 0x00, 0x00,
  0x00, 0x00, 0x00, 0x12, 0x00, 0x14, 0x00, 0x13, 0x00, 0x0c, 0x00, 0x08, 0x00,
  0x07, 0x00, 0x00, 0x00, 0x00, 0x00, 0x06, 0x00, 0x12, 0x00, 0x00, 0x00, 0x00,
  0x00, 0x04, 0x01, 0x01, 0x00, 0x00, 0x00, 0x01, 0x00, 0x00, 0x00, 0x00, 0x00,
  0x00, 0x01, 0x01, 0x00, 0x00, 0x00, 0x4f, 0x00, 0x00, 0x00, 0x03, 0x00, 0x00,
  0x00, 0x4e, 0x00, 0x00, 0x00, 0x42, 0x00, 0x00, 0x00, 0x14, 0x00, 0x00, 0x00,
  0x7e, 0xff, 0xff, 0xff, 0x20, 0x00, 0x00, 0x00, 0x00, 0x00, 0x00, 0x02, 0x2c,
  0x00, 0x00, 0x00, 0x30, 0x00, 0x00, 0x00, 0x03, 0x00, 0x00, 0x00, 0x0c, 0x00,
  0x14, 0x00, 0x13, 0x00, 0x0c, 0x00, 0x08, 0x00, 0x04, 0x00, 0x0c, 0x00, 0x00,
  0x00, 0x01, 0x00, 0x00, 0x00, 0x01, 0x00, 0x00, 0x00, 0x01, 0x00, 0x00, 0x00,
  0x00, 0x00, 0x00, 0x01, 0x01, 0x00, 0x00, 0x00, 0x4e, 0x00, 0x00, 0x00, 0x03,
  0x00, 0x00, 0x00, 0x4d, 0x00, 0x00, 0x00, 0x44, 0x00, 0x00, 0x00, 0x45, 0x00,
  0x00, 0x00, 0xce, 0xff, 0xff, 0xff, 0x14, 0x00, 0x00, 0x00, 0x00, 0x00, 0x00,
  0x16, 0x10, 0x00, 0x00, 0x00, 0x14, 0x00, 0x00, 0x00, 0x02, 0x00, 0x00, 0x00,
  0xbc, 0xba, 0xff, 0xff, 0x01, 0x00, 0x00, 0x00, 0x4d, 0x00, 0x00, 0x00, 0x02,
  0x00, 0x00, 0x00, 0x00, 0x00, 0x00, 0x00, 0x47, 0x00, 0x00, 0x00, 0x00, 0x00,
  0x0e, 0x00, 0x1a, 0x00, 0x14, 0x00, 0x10, 0x00, 0x0c, 0x00, 0x0b, 0x00, 0x04,
  0x00, 0x0e, 0x00, 0x00, 0x00, 0x1c, 0x00, 0x00, 0x00, 0x00, 0x00, 0x00, 0x4f,
  0x1c, 0x00, 0x00, 0x00, 0x28, 0x00, 0x00, 0x00, 0x01, 0x00, 0x00, 0x00, 0x00,
  0x00, 0x06, 0x00, 0x08, 0x00, 0x04, 0x00, 0x06, 0x00, 0x00, 0x00, 0x03, 0x00,
  0x00, 0x00, 0x03, 0x00, 0x00, 0x00, 0x4a, 0x00, 0x00, 0x00, 0x4b, 0x00, 0x00,
  0x00, 0x4c, 0x00, 0x00, 0x00, 0x03, 0x00, 0x00, 0x00, 0x49, 0x00, 0x00, 0x00,
  0x48, 0x00, 0x00, 0x00, 0x46, 0x00, 0x00, 0x00, 0x00, 0x00, 0x0e, 0x00, 0x16,
  0x00, 0x00, 0x00, 0x10, 0x00, 0x0c, 0x00, 0x0b, 0x00, 0x04, 0x00, 0x0e, 0x00,
  0x00, 0x00, 0x18, 0x00, 0x00, 0x00, 0x00, 0x00, 0x00, 0x37, 0x18, 0x00, 0x00,
  0x00, 0x1c, 0x00, 0x00, 0x00, 0x00, 0x00, 0x06, 0x00, 0x08, 0x00, 0x07, 0x00,
  0x06, 0x00, 0x00, 0x00, 0x00, 0x00, 0x00, 0x02, 0x01, 0x00, 0x00, 0x00, 0x49,
  0x00, 0x00, 0x00, 0x01, 0x00, 0x00, 0x00, 0x00, 0x00, 0x00, 0x00, 0x00, 0x00,
  0x0a, 0x00, 0x10, 0x00, 0x0c, 0x00, 0x08, 0x00, 0x04, 0x00, 0x0a, 0x00, 0x00,
  0x00, 0x0c, 0x00, 0x00, 0x00, 0x10, 0x00, 0x00, 0x00, 0x08, 0x00, 0x00, 0x00,
  0x01, 0x00, 0x00, 0x00, 0x00, 0x00, 0x00, 0x00, 0x01, 0x00, 0x00, 0x00, 0xa8,
  0x00, 0x00, 0x00, 0x01, 0x00, 0x00, 0x00, 0xa9, 0x00, 0x00, 0x00, 0x01, 0x00,
  0x00, 0x00, 0xa8, 0x00, 0x00, 0x00, 0xaa, 0x00, 0x00, 0x00, 0x94, 0x7e, 0x00,
  0x00, 0xf0, 0x7d, 0x00, 0x00, 0x58, 0x7d, 0x00, 0x00, 0xd4, 0x7c, 0x00, 0x00,
  0x20, 0x7c, 0x00, 0x00, 0x6c, 0x7b, 0x00, 0x00, 0xb8, 0x7a, 0x00, 0x00, 0x04,
  0x7a, 0x00, 0x00, 0x50, 0x79, 0x00, 0x00, 0x9c, 0x78, 0x00, 0x00, 0x00, 0x78,
  0x00, 0x00, 0x64, 0x77, 0x00, 0x00, 0xc8, 0x76, 0x00, 0x00, 0x2c, 0x76, 0x00,
  0x00, 0x90, 0x75, 0x00, 0x00, 0xdc, 0x74, 0x00, 0x00, 0x28, 0x74, 0x00, 0x00,
  0x74, 0x73, 0x00, 0x00, 0xc0, 0x72, 0x00, 0x00, 0x3c, 0x72, 0x00, 0x00, 0xb8,
  0x71, 0x00, 0x00, 0x4c, 0x71, 0x00, 0x00, 0xb0, 0x70, 0x00, 0x00, 0xd4, 0x6f,
  0x00, 0x00, 0x10, 0x6f, 0x00, 0x00, 0x48, 0x6e, 0x00, 0x00, 0x88, 0x6d, 0x00,
  0x00, 0x70, 0x6c, 0x00, 0x00, 0xb0, 0x6b, 0x00, 0x00, 0x98, 0x6a, 0x00, 0x00,
  0x88, 0x69, 0x00, 0x00, 0x70, 0x68, 0x00, 0x00, 0x60, 0x67, 0x00, 0x00, 0xa8,
  0x65, 0x00, 0x00, 0x98, 0x64, 0x00, 0x00, 0x80, 0x63, 0x00, 0x00, 0x70, 0x62,
  0x00, 0x00, 0x58, 0x61, 0x00, 0x00, 0x48, 0x60, 0x00, 0x00, 0x90, 0x5e, 0x00,
  0x00, 0x78, 0x5d, 0x00, 0x00, 0x64, 0x5c, 0x00, 0x00, 0x74, 0x5b, 0x00, 0x00,
  0x8c, 0x5a, 0x00, 0x00, 0x9c, 0x59, 0x00, 0x00, 0xb4, 0x58, 0x00, 0x00, 0x4c,
  0x57, 0x00, 0x00, 0x64, 0x56, 0x00, 0x00, 0x78, 0x55, 0x00, 0x00, 0x88, 0x54,
  0x00, 0x00, 0xa0, 0x53, 0x00, 0x00, 0xb0, 0x52, 0x00, 0x00, 0xc8, 0x51, 0x00,
  0x00, 0x2c, 0x51, 0x00, 0x00, 0x14, 0x50, 0x00, 0x00, 0x04, 0x4f, 0x00, 0x00,
  0xec, 0x4d, 0x00, 0x00, 0xdc, 0x4c, 0x00, 0x00, 0xc4, 0x4b, 0x00, 0x00, 0xb4,
  0x4a, 0x00, 0x00, 0x9c, 0x49, 0x00, 0x00, 0x8c, 0x48, 0x00, 0x00, 0xd8, 0x47,
  0x00, 0x00, 0x10, 0x47, 0x00, 0x00, 0x50, 0x46, 0x00, 0x00, 0x88, 0x45, 0x00,
  0x00, 0xc8, 0x44, 0x00, 0x00, 0x44, 0x44, 0x00, 0x00, 0xbc, 0x43, 0x00, 0x00,
  0x5c, 0x43, 0x00, 0x00, 0x20, 0x43, 0x00, 0x00, 0xc0, 0x42, 0x00, 0x00, 0x7c,
  0x42, 0x00, 0x00, 0x38, 0x42, 0x00, 0x00, 0xe8, 0x41, 0x00, 0x00, 0x98, 0x41,
  0x00, 0x00, 0x48, 0x41, 0x00, 0x00, 0xa4, 0x40, 0x00, 0x00, 0xe8, 0x3f, 0x00,
  0x00, 0xfc, 0x3e, 0x00, 0x00, 0x58, 0x3e, 0x00, 0x00, 0x9c, 0x3d, 0x00, 0x00,
  0xa8, 0x3c, 0x00, 0x00, 0xfc, 0x3b, 0x00, 0x00, 0x58, 0x3b, 0x00, 0x00, 0x0c,
  0x3b, 0x00, 0x00, 0xbc, 0x3a, 0x00, 0x00, 0x6c, 0x3a, 0x00, 0x00, 0x1c, 0x3a,
  0x00, 0x00, 0x5c, 0x39, 0x00, 0x00, 0x68, 0x38, 0x00, 0x00, 0xc4, 0x37, 0x00,
  0x00, 0x08, 0x37, 0x00, 0x00, 0x14, 0x36, 0x00, 0x00, 0x68, 0x35, 0x00, 0x00,
  0xc4, 0x34, 0x00, 0x00, 0x74, 0x34, 0x00, 0x00, 0x24, 0x34, 0x00, 0x00, 0xd4,
  0x33, 0x00, 0x00, 0x84, 0x33, 0x00, 0x00, 0xc8, 0x32, 0x00, 0x00, 0xd4, 0x31,
  0x00, 0x00, 0x30, 0x31, 0x00, 0x00, 0x74, 0x30, 0x00, 0x00, 0x80, 0x2f, 0x00,
  0x00, 0xd4, 0x2e, 0x00, 0x00, 0x30, 0x2e, 0x00, 0x00, 0xe0, 0x2d, 0x00, 0x00,
  0x94, 0x2d, 0x00, 0x00, 0x44, 0x2d, 0x00, 0x00, 0xf4, 0x2c, 0x00, 0x00, 0x34,
  0x2c, 0x00, 0x00, 0x40, 0x2b, 0x00, 0x00, 0x9c, 0x2a, 0x00, 0x00, 0xe0, 0x29,
  0x00, 0x00, 0xec, 0x28, 0x00, 0x00, 0x40, 0x28, 0x00, 0x00, 0x7c, 0x27, 0x00,
  0x00, 0xd8, 0x26, 0x00, 0x00, 0x1c, 0x26, 0x00, 0x00, 0x30, 0x25, 0x00, 0x00,
  0x7c, 0x24, 0x00, 0x00, 0xd8, 0x23, 0x00, 0x00, 0x1c, 0x23, 0x00, 0x00, 0x28,
  0x22, 0x00, 0x00, 0x84, 0x21, 0x00, 0x00, 0xc8, 0x20, 0x00, 0x00, 0xd4, 0x1f,
  0x00, 0x00, 0x10, 0x1f, 0x00, 0x00, 0x6c, 0x1e, 0x00, 0x00, 0xb0, 0x1d, 0x00,
  0x00, 0xbc, 0x1c, 0x00, 0x00, 0x08, 0x1c, 0x00, 0x00, 0x64, 0x1b, 0x00, 0x00,
  0xa8, 0x1a, 0x00, 0x00, 0xb4, 0x19, 0x00, 0x00, 0x10, 0x19, 0x00, 0x00, 0x54,
  0x18, 0x00, 0x00, 0x60, 0x17, 0x00, 0x00, 0x9c, 0x16, 0x00, 0x00, 0xf8, 0x15,
  0x00, 0x00, 0x3c, 0x15, 0x00, 0x00, 0x48, 0x14, 0x00, 0x00, 0x94, 0x13, 0x00,
  0x00, 0xf0, 0x12, 0x00, 0x00, 0x34, 0x12, 0x00, 0x00, 0x40, 0x11, 0x00, 0x00,
  0x9c, 0x10, 0x00, 0x00, 0xe0, 0x0f, 0x00, 0x00, 0xec, 0x0e, 0x00, 0x00, 0x28,
  0x0e, 0x00, 0x00, 0x84, 0x0d, 0x00, 0x00, 0xc8, 0x0c, 0x00, 0x00, 0xd4, 0x0b,
  0x00, 0x00, 0x20, 0x0b, 0x00, 0x00, 0x74, 0x0a, 0x00, 0x00, 0xb8, 0x09, 0x00,
  0x00, 0xc4, 0x08, 0x00, 0x00, 0x18, 0x08, 0x00, 0x00, 0x5c, 0x07, 0x00, 0x00,
  0x68, 0x06, 0x00, 0x00, 0xbc, 0x05, 0x00, 0x00, 0x00, 0x05, 0x00, 0x00, 0x4c,
  0x04, 0x00, 0x00, 0x70, 0x03, 0x00, 0x00, 0x7c, 0x02, 0x00, 0x00, 0xa0, 0x01,
  0x00, 0x00, 0xcc, 0x00, 0x00, 0x00, 0x7c, 0x00, 0x00, 0x00, 0x04, 0x00, 0x00,
  0x00, 0xa0, 0xff, 0xff, 0xff, 0x0c, 0x00, 0x00, 0x00, 0x1c, 0x00, 0x00, 0x00,
  0x40, 0x00, 0x00, 0x00, 0x04, 0x00, 0x00, 0x00, 0x01, 0x00, 0x00, 0x00, 0xff,
  0xff, 0xff, 0xff, 0xff, 0xff, 0xff, 0xff, 0x02, 0x00, 0x00, 0x00, 0x22, 0x00,
  0x00, 0x00, 0x72, 0x65, 0x73, 0x74, 0x6f, 0x72, 0x61, 0x74, 0x69, 0x6f, 0x6e,
  0x5f, 0x30, 0x2f, 0x64, 0x65, 0x63, 0x6f, 0x64, 0x65, 0x72, 0x2f, 0x42, 0x69,
  0x61, 0x73, 0x41, 0x64, 0x64, 0x5f, 0x31, 0x32, 0x3a, 0x30, 0x00, 0x00, 0x04,
  0x00, 0x00, 0x00, 0x01, 0x00, 0x00, 0x00, 0x01, 0x00, 0x00, 0x00, 0x01, 0x00,
  0x00, 0x00, 0x02, 0x00, 0x00, 0x00, 0x14, 0x00, 0x10, 0x00, 0x0c, 0x00, 0x00,
  0x00, 0x00, 0x00, 0x08, 0x00, 0x00, 0x00, 0x00, 0x00, 0x00, 0x00, 0x04, 0x00,
  0x14, 0x00, 0x00, 0x00, 0x0c, 0x00, 0x00, 0x00, 0x1c, 0x00, 0x00, 0x00, 0x2c,
  0x00, 0x00, 0x00, 0x04, 0x00, 0x00, 0x00, 0x01, 0x00, 0x00, 0x00, 0xff, 0xff,
  0xff, 0xff, 0xff, 0xff, 0xff, 0xff, 0x01, 0x00, 0x00, 0x00, 0x0d, 0x00, 0x00,
  0x00, 0x50, 0x6c, 0x61, 0x63, 0x65, 0x68, 0x6f, 0x6c, 0x64, 0x65, 0x72, 0x3a,
  0x30, 0x00, 0x00, 0x00, 0x04, 0x00, 0x00, 0x00, 0x01, 0x00, 0x00, 0x00, 0x01,
  0x00, 0x00, 0x00, 0x01, 0x00, 0x00, 0x00, 0x01, 0x00, 0x00, 0x00, 0x7c, 0xfd,
  0xff, 0xff, 0x14, 0x00, 0x00, 0x00, 0x24, 0x00, 0x00, 0x00, 0x40, 0x00, 0x00,
  0x00, 0x00, 0x00, 0x00, 0x07, 0xa8, 0x00, 0x00, 0x00, 0x04, 0x00, 0x00, 0x00,
  0x01, 0x00, 0x00, 0x00, 0xff, 0xff, 0xff, 0xff, 0xff, 0xff, 0xff, 0xff, 0x06,
  0x00, 0x00, 0x00, 0x84, 0x85, 0xff, 0xff, 0x08, 0x00, 0x00, 0x00, 0x10, 0x00,
  0x00, 0x00, 0x01, 0x00, 0x00, 0x00, 0x00, 0x00, 0x00, 0x00, 0x00, 0x00, 0x00,
  0x00, 0x01, 0x00, 0x00, 0x00, 0x52, 0x07, 0xe5, 0x3a, 0x6b, 0x00, 0x00, 0x00,
  0x72, 0x65, 0x73, 0x74, 0x6f, 0x72, 0x61, 0x74, 0x69, 0x6f, 0x6e, 0x5f, 0x30,
  0x2f, 0x64, 0x65, 0x63, 0x6f, 0x64, 0x65, 0x72, 0x2f, 0x52, 0x65, 0x6c, 0x75,
  0x3b, 0x72, 0x65, 0x73, 0x74, 0x6f, 0x72, 0x61, 0x74, 0x69, 0x6f, 0x6e, 0x5f,
  0x30, 0x2f, 0x64, 0x65, 0x63, 0x6f, 0x64, 0x65, 0x72, 0x2f, 0x42, 0x69, 0x61,
  0x73, 0x41, 0x64, 0x64, 0x3b, 0x72, 0x65, 0x73, 0x74, 0x6f, 0x72, 0x61, 0x74,
  0x69, 0x6f, 0x6e, 0x5f, 0x30, 0x2f, 0x64, 0x65, 0x63, 0x6f, 0x64, 0x65, 0x72,
  0x2f, 0x73, 0x65, 0x70, 0x61, 0x72, 0x61, 0x62, 0x6c, 0x65, 0x5f, 0x63, 0x6f,
  0x6e, 0x76, 0x32, 0x64, 0x5f, 0x72, 0x65, 0x71, 0x75, 0x61, 0x6e, 0x74, 0x69,
  0x7a, 0x65, 0x64, 0x00, 0x04, 0x00, 0x00, 0x00, 0x01, 0x00, 0x00, 0x00, 0x01,
  0x00, 0x00, 0x00, 0x01, 0x00, 0x00, 0x00, 0x06, 0x00, 0x00, 0x00, 0x4c, 0xfe,
  0xff, 0xff, 0x14, 0x00, 0x00, 0x00, 0x24, 0x00, 0x00, 0x00, 0x40, 0x00, 0x00,
  0x00, 0x00, 0x00, 0x00, 0x07, 0xb0, 0x00, 0x00, 0x00, 0x04, 0x00, 0x00, 0x00,
  0x01, 0x00, 0x00, 0x00, 0xff, 0xff, 0xff, 0xff, 0xff, 0xff, 0xff, 0xff, 0x08,
  0x00, 0x00, 0x00, 0x54, 0x86, 0xff, 0xff, 0x08, 0x00, 0x00, 0x00, 0x10, 0x00,
  0x00, 0x00, 0x01, 0x00, 0x00, 0x00, 0x00, 0x00, 0x00, 0x00, 0x00, 0x00, 0x00,
  0x00, 0x01, 0x00, 0x00, 0x00, 0xff, 0xa7, 0xa5, 0x3a, 0x71, 0x00, 0x00, 0x00,
  0x72, 0x65, 0x73, 0x74, 0x6f, 0x72, 0x61, 0x74, 0x69, 0x6f, 0x6e, 0x5f, 0x30,
  0x2f, 0x64, 0x65, 0x63, 0x6f, 0x64, 0x65, 0x72, 0x2f, 0x52, 0x65, 0x6c, 0x75,
  0x5f, 0x33, 0x3b, 0x72, 0x65, 0x73, 0x74, 0x6f, 0x72, 0x61, 0x74, 0x69, 0x6f,
  0x6e, 0x5f, 0x30, 0x2f, 0x64, 0x65, 0x63, 0x6f, 0x64, 0x65, 0x72, 0x2f, 0x42,
  0x69, 0x61, 0x73, 0x41, 0x64, 0x64, 0x5f, 0x33, 0x3b, 0x72, 0x65, 0x73, 0x74,
  0x6f, 0x72, 0x61, 0x74, 0x69, 0x6f, 0x6e, 0x5f, 0x30, 0x2f, 0x64, 0x65, 0x63,
  0x6f, 0x64, 0x65, 0x72, 0x2f, 0x73, 0x65, 0x70, 0x61, 0x72, 0x61, 0x62, 0x6c,
  0x65, 0x5f, 0x63, 0x6f, 0x6e, 0x76, 0x32, 0x64, 0x5f, 0x33, 0x5f, 0x72, 0x65,
  0x71, 0x75, 0x61, 0x6e, 0x74, 0x69, 0x7a, 0x65, 0x64, 0x00, 0x00, 0x00, 0x04,
  0x00, 0x00, 0x00, 0x01, 0x00, 0x00, 0x00, 0x01, 0x00, 0x00, 0x00, 0x01, 0x00,
  0x00, 0x00, 0x08, 0x00, 0x00, 0x00, 0x24, 0xff, 0xff, 0xff, 0x14, 0x00, 0x00,
  0x00, 0x24, 0x00, 0x00, 0x00, 0x44, 0x00, 0x00, 0x00, 0x00, 0x00, 0x00, 0x07,
  0xb4, 0x00, 0x00, 0x00, 0x04, 0x00, 0x00, 0x00, 0x01, 0x00, 0x00, 0x00, 0xff,
  0xff, 0xff, 0xff, 0xff, 0xff, 0xff, 0xff, 0x08, 0x00, 0x00, 0x00, 0x2c, 0x87,
  0xff, 0xff, 0x08, 0x00, 0x00, 0x00, 0x14, 0x00, 0x00, 0x00, 0x01, 0x00, 0x00,
  0x00, 0x00, 0x00, 0x00, 0x00, 0x00, 0x00, 0x00, 0x00, 0x00, 0x00, 0x00, 0x00,
  0x01, 0x00, 0x00, 0x00, 0x46, 0xd2, 0x10, 0x3b, 0x71, 0x00, 0x00, 0x00, 0x72,
  0x65, 0x73, 0x74, 0x6f, 0x72, 0x61, 0x74, 0x69, 0x6f, 0x6e, 0x5f, 0x30, 0x2f,
  0x64, 0x65, 0x63, 0x6f, 0x64, 0x65, 0x72, 0x2f, 0x52, 0x65, 0x6c, 0x75, 0x5f,
  0x36, 0x3b, 0x72, 0x65, 0x73, 0x74, 0x6f, 0x72, 0x61, 0x74, 0x69, 0x6f, 0x6e,
  0x5f, 0x30, 0x2f, 0x64, 0x65, 0x63, 0x6f, 0x64, 0x65, 0x72, 0x2f, 0x42, 0x69,
  0x61, 0x73, 0x41, 0x64, 0x64, 0x5f, 0x36, 0x3b, 0x72, 0x65, 0x73, 0x74, 0x6f,
  0x72, 0x61, 0x74, 0x69, 0x6f, 0x6e, 0x5f, 0x30, 0x2f, 0x64, 0x65, 0x63, 0x6f,
  0x64, 0x65, 0x72, 0x2f, 0x73, 0x65, 0x70, 0x61, 0x72, 0x61, 0x62, 0x6c, 0x65,
  0x5f, 0x63, 0x6f, 0x6e, 0x76, 0x32, 0x64, 0x5f, 0x36, 0x5f, 0x72, 0x65, 0x71,
  0x75, 0x61, 0x6e, 0x74, 0x69, 0x7a, 0x65, 0x64, 0x00, 0x00, 0x00, 0x04, 0x00,
  0x00, 0x00, 0x01, 0x00, 0x00, 0x00, 0x01, 0x00, 0x00, 0x00, 0x01, 0x00, 0x00,
  0x00, 0x08, 0x00, 0x00, 0x00, 0x14, 0x00, 0x18, 0x00, 0x14, 0x00, 0x13, 0x00,
  0x00, 0x00, 0x0c, 0x00, 0x08, 0x00, 0x00, 0x00, 0x00, 0x00, 0x04, 0x00, 0x14,
  0x00, 0x00, 0x00, 0x14, 0x00, 0x00, 0x00, 0x24, 0x00, 0x00, 0x00, 0x40, 0x00,
  0x00, 0x00, 0x00, 0x00, 0x00, 0x07, 0xb0, 0x00, 0x00, 0x00, 0x04, 0x00, 0x00,
  0x00, 0x01, 0x00, 0x00, 0x00, 0xff, 0xff, 0xff, 0xff, 0xff, 0xff, 0xff, 0xff,
  0x04, 0x00, 0x00, 0x00, 0x1c, 0x88, 0xff, 0xff, 0x08, 0x00, 0x00, 0x00, 0x10,
  0x00, 0x00, 0x00, 0x01, 0x00, 0x00, 0x00, 0x00, 0x00, 0x00, 0x00, 0x00, 0x00,
  0x00, 0x00, 0x01, 0x00, 0x00, 0x00, 0xa9, 0x00, 0x04, 0x3c, 0x71, 0x00, 0x00,
  0x00, 0x72, 0x65, 0x73, 0x74, 0x6f, 0x72, 0x61, 0x74, 0x69, 0x6f, 0x6e, 0x5f,
  0x30, 0x2f, 0x65, 0x6e, 0x63, 0x6f, 0x64, 0x65, 0x72, 0x2f, 0x52, 0x65, 0x6c,
  0x75, 0x5f, 0x31, 0x3b, 0x72, 0x65, 0x73, 0x74, 0x6f, 0x72, 0x61, 0x74, 0x69,
  0x6f, 0x6e, 0x5f, 0x30, 0x2f, 0x65, 0x6e, 0x63, 0x6f, 0x64, 0x65, 0x72, 0x2f,
  0x42, 0x69, 0x61, 0x73, 0x41, 0x64, 0x64, 0x5f, 0x31, 0x3b, 0x72, 0x65, 0x73,
  0x74, 0x6f, 0x72, 0x61, 0x74, 0x69, 0x6f, 0x6e, 0x5f, 0x30, 0x2f, 0x65, 0x6e,
  0x63, 0x6f, 0x64, 0x65, 0x72, 0x2f, 0x73, 0x65, 0x70, 0x61, 0x72, 0x61, 0x62,
  0x6c, 0x65, 0x5f, 0x63, 0x6f, 0x6e, 0x76, 0x32, 0x64, 0x5f, 0x31, 0x5f, 0x72,
  0x65, 0x71, 0x75, 0x61, 0x6e, 0x74, 0x69, 0x7a, 0x65, 0x64, 0x00, 0x00, 0x00,
  0x04, 0x00, 0x00, 0x00, 0x01, 0x00, 0x00, 0x00, 0x01, 0x00, 0x00, 0x00, 0x01,
  0x00, 0x00, 0x00, 0x04, 0x00, 0x00, 0x00, 0x5a, 0x88, 0xff, 0xff, 0x00, 0x00,
  0x00, 0x01, 0x18, 0x00, 0x00, 0x00, 0x28, 0x00, 0x00, 0x00, 0x5c, 0x00, 0x00,
  0x00, 0xa4, 0x00, 0x00, 0x00, 0x00, 0x00, 0x00, 0x07, 0x80, 0x00, 0x00, 0x00,
  0x04, 0x00, 0x00, 0x00, 0x01, 0x00, 0x00, 0x00, 0xff, 0xff, 0xff, 0xff, 0xff,
  0xff, 0xff, 0xff, 0x02, 0x00, 0x00, 0x00, 0x44, 0x88, 0xff, 0xff, 0x10, 0x00,
  0x00, 0x00, 0x18, 0x00, 0x00, 0x00, 0x1c, 0x00, 0x00, 0x00, 0x20, 0x00, 0x00,
  0x00, 0x01, 0x00, 0x00, 0x00, 0x00, 0x00, 0x00, 0x00, 0x00, 0x00, 0x00, 0x00,
  0x01, 0x00, 0x00, 0x00, 0xee, 0x94, 0x3f, 0x3d, 0x01, 0x00, 0x00, 0x00, 0x45,
  0x37, 0xbe, 0x44, 0x01, 0x00, 0x00, 0x00, 0x6f, 0x93, 0xbf, 0xc4, 0x28, 0x00,
  0x00, 0x00, 0x72, 0x65, 0x73, 0x74, 0x6f, 0x72, 0x61, 0x74, 0x69, 0x6f, 0x6e,
  0x5f, 0x30, 0x2f, 0x64, 0x65, 0x63, 0x6f, 0x64, 0x65, 0x72, 0x2f, 0x42, 0x69,
  0x61, 0x73, 0x41, 0x64, 0x64, 0x5f, 0x31, 0x32, 0x3a, 0x30, 0x5f, 0x69, 0x6e,
  0x74, 0x31, 0x36, 0x00, 0x00, 0x00, 0x00, 0x04, 0x00, 0x00, 0x00, 0x01, 0x00,
  0x00, 0x00, 0x01, 0x00, 0x00, 0x00, 0x01, 0x00, 0x00, 0x00, 0x02, 0x00, 0x00,
  0x00, 0x0a, 0x89, 0xff, 0xff, 0x00, 0x00, 0x00, 0x01, 0x18, 0x00, 0x00, 0x00,
  0x28, 0x00, 0x00, 0x00, 0x5c, 0x00, 0x00, 0x00, 0xa3, 0x00, 0x00, 0x00, 0x00,
  0x00, 0x00, 0x07, 0x88, 0x00, 0x00, 0x00, 0x04, 0x00, 0x00, 0x00, 0x01, 0x00,
  0x00, 0x00, 0xff, 0xff, 0xff, 0xff, 0xff, 0xff, 0xff, 0xff, 0x04, 0x00, 0x00,
  0x00, 0xf4, 0x88, 0xff, 0xff, 0x10, 0x00, 0x00, 0x00, 0x18, 0x00, 0x00, 0x00,
  0x1c, 0x00, 0x00, 0x00, 0x20, 0x00, 0x00, 0x00, 0x01, 0x00, 0x00, 0x00, 0x00,
  0x00, 0x00, 0x00, 0x00, 0x00, 0x00, 0x00, 0x01, 0x00, 0x00, 0x00, 0x2e, 0xb8,
  0xb2, 0x3d, 0x01, 0x00, 0x00, 0x00, 0x1f, 0x77, 0x18, 0x45, 0x01, 0x00, 0x00,
  0x00, 0xc9, 0xb6, 0x32, 0xc5, 0x33, 0x00, 0x00, 0x00, 0x72, 0x65, 0x73, 0x74,
  0x6f, 0x72, 0x61, 0x74, 0x69, 0x6f, 0x6e, 0x5f, 0x30, 0x2f, 0x64, 0x65, 0x63,
  0x6f, 0x64, 0x65, 0x72, 0x2f, 0x73, 0x65, 0x70, 0x61, 0x72, 0x61, 0x62, 0x6c,
  0x65, 0x5f, 0x63, 0x6f, 0x6e, 0x76, 0x32, 0x64, 0x5f, 0x31, 0x32, 0x2f, 0x64,
  0x65, 0x70, 0x74, 0x68, 0x77, 0x69, 0x73, 0x65, 0x00, 0x04, 0x00, 0x00, 0x00,
  0x01, 0x00, 0x00, 0x00, 0x01, 0x00, 0x00, 0x00, 0x01, 0x00, 0x00, 0x00, 0x04,
  0x00, 0x00, 0x00, 0xc2, 0x89, 0xff, 0xff, 0x00, 0x00, 0x00, 0x01, 0x18, 0x00,
  0x00, 0x00, 0x28, 0x00, 0x00, 0x00, 0x60, 0x00, 0x00, 0x00, 0xa2, 0x00, 0x00,
  0x00, 0x00, 0x00, 0x00, 0x07, 0x78, 0x00, 0x00, 0x00, 0x04, 0x00, 0x00, 0x00,
  0x01, 0x00, 0x00, 0x00, 0xff, 0xff, 0xff, 0xff, 0xff, 0xff, 0xff, 0xff, 0x04,
  0x00, 0x00, 0x00, 0xac, 0x89, 0xff, 0xff, 0x10, 0x00, 0x00, 0x00, 0x1c, 0x00,
  0x00, 0x00, 0x20, 0x00, 0x00, 0x00, 0x24, 0x00, 0x00, 0x00, 0x01, 0x00, 0x00,
  0x00, 0x00, 0x00, 0x00, 0x00, 0x00, 0x00, 0x00, 0x00, 0x00, 0x00, 0x00, 0x00,
  0x01, 0x00, 0x00, 0x00, 0xef, 0x0c, 0xab, 0x3d, 0x01, 0x00, 0x00, 0x00, 0x99,
  0x0b, 0x2b, 0x45, 0x01, 0x00, 0x00, 0x00, 0x00, 0x00, 0x00, 0x00, 0x1c, 0x00,
  0x00, 0x00, 0x72, 0x65, 0x73, 0x74, 0x6f, 0x72, 0x61, 0x74, 0x69, 0x6f, 0x6e,
  0x5f, 0x30, 0x2f, 0x64, 0x65, 0x63, 0x6f, 0x64, 0x65, 0x72, 0x2f, 0x50, 0x61,
  0x64, 0x5f, 0x31, 0x32, 0x00, 0x00, 0x00, 0x00, 0x04, 0x00, 0x00, 0x00, 0x01,
  0x00, 0x00, 0x00, 0x01, 0x00, 0x00, 0x00, 0x01, 0x00, 0x00, 0x00, 0x04, 0x00,
  0x00, 0x00, 0x6a, 0x8a, 0xff, 0xff, 0x00, 0x00, 0x00, 0x01, 0x18, 0x00, 0x00,
  0x00, 0x28, 0x00, 0x00, 0x00, 0x5c, 0x00, 0x00, 0x00, 0xa1, 0x00, 0x00, 0x00,
  0x00, 0x00, 0x00, 0x07, 0xc0, 0x00, 0x00, 0x00, 0x04, 0x00, 0x00, 0x00, 0x01,
  0x00, 0x00, 0x00, 0xff, 0xff, 0xff, 0xff, 0xff, 0xff, 0xff, 0xff, 0x04, 0x00,
  0x00, 0x00, 0x54, 0x8a, 0xff, 0xff, 0x10, 0x00, 0x00, 0x00, 0x18, 0x00, 0x00,
  0x00, 0x1c, 0x00, 0x00, 0x00, 0x20, 0x00, 0x00, 0x00, 0x01, 0x00, 0x00, 0x00,
  0x00, 0x00, 0x00, 0x00, 0x00, 0x00, 0x00, 0x00, 0x01, 0x00, 0x00, 0x00, 0xef,
  0x0c, 0xab, 0x3d, 0x01, 0x00, 0x00, 0x00, 0x99, 0x0b, 0x2b, 0x45, 0x01, 0x00,
  0x00, 0x00, 0x00, 0x00, 0x00, 0x00, 0x68, 0x00, 0x00, 0x00, 0x72, 0x65, 0x73,
  0x74, 0x6f, 0x72, 0x61, 0x74, 0x69, 0x6f, 0x6e, 0x5f, 0x30, 0x2f, 0x64, 0x65,
  0x63, 0x6f, 0x64, 0x65, 0x72, 0x2f, 0x52, 0x65, 0x6c, 0x75, 0x5f, 0x31, 0x31,
  0x3b, 0x72, 0x65, 0x73, 0x74, 0x6f, 0x72, 0x61, 0x74, 0x69, 0x6f, 0x6e, 0x5f,
  0x30, 0x2f, 0x64, 0x65, 0x63, 0x6f, 0x64, 0x65, 0x72, 0x2f, 0x42, 0x69, 0x61,
  0x73, 0x41, 0x64, 0x64, 0x5f, 0x31, 0x31, 0x3b, 0x72, 0x65, 0x73, 0x74, 0x6f,
  0x72, 0x61, 0x74, 0x69, 0x6f, 0x6e, 0x5f, 0x30, 0x2f, 0x64, 0x65, 0x63, 0x6f,
  0x64, 0x65, 0x72, 0x2f, 0x73, 0x65, 0x70, 0x61, 0x72, 0x61, 0x62, 0x6c, 0x65,
  0x5f, 0x63, 0x6f, 0x6e, 0x76, 0x32, 0x64, 0x5f, 0x31, 0x31, 0x00, 0x00, 0x00,
  0x00, 0x04, 0x00, 0x00, 0x00, 0x01, 0x00, 0x00, 0x00, 0x01, 0x00, 0x00, 0x00,
  0x01, 0x00, 0x00, 0x00, 0x04, 0x00, 0x00, 0x00, 0x5a, 0x8b, 0xff, 0xff, 0x00,
  0x00, 0x00, 0x01, 0x18, 0x00, 0x00, 0x00, 0x28, 0x00, 0x00, 0x00, 0x5c, 0x00,
  0x00, 0x00, 0xa0, 0x00, 0x00, 0x00, 0x00, 0x00, 0x00, 0x07, 0x88, 0x00, 0x00,
  0x00, 0x04, 0x00, 0x00, 0x00, 0x01, 0x00, 0x00, 0x00, 0xff, 0xff, 0xff, 0xff,
  0xff, 0xff, 0xff, 0xff, 0x04, 0x00, 0x00, 0x00, 0x44, 0x8b, 0xff, 0xff, 0x10,
  0x00, 0x00, 0x00, 0x18, 0x00, 0x00, 0x00, 0x1c, 0x00, 0x00, 0x00, 0x20, 0x00,
  0x00, 0x00, 0x01, 0x00, 0x00, 0x00, 0x00, 0x00, 0x00, 0x00, 0x00, 0x00, 0x00,
  0x00, 0x01, 0x00, 0x00, 0x00, 0x32, 0x38, 0x35, 0x3d, 0x01, 0x00, 0x00, 0x00,
  0xc8, 0x36, 0xb5, 0x44, 0x01, 0x00, 0x00, 0x00, 0xa7, 0xc3, 0xda, 0xc3, 0x33,
  0x00, 0x00, 0x00, 0x72, 0x65, 0x73, 0x74, 0x6f, 0x72, 0x61, 0x74, 0x69, 0x6f,
  0x6e, 0x5f, 0x30, 0x2f, 0x64, 0x65, 0x63, 0x6f, 0x64, 0x65, 0x72, 0x2f, 0x73,
  0x65, 0x70, 0x61, 0x72, 0x61, 0x62, 0x6c, 0x65, 0x5f, 0x63, 0x6f, 0x6e, 0x76,
  0x32, 0x64, 0x5f, 0x31, 0x31, 0x2f, 0x64, 0x65, 0x70, 0x74, 0x68, 0x77, 0x69,
  0x73, 0x65, 0x00, 0x04, 0x00, 0x00, 0x00, 0x01, 0x00, 0x00, 0x00, 0x01, 0x00,
  0x00, 0x00, 0x01, 0x00, 0x00, 0x00, 0x04, 0x00, 0x00, 0x00, 0x12, 0x8c, 0xff,
  0xff, 0x00, 0x00, 0x00, 0x01, 0x18, 0x00, 0x00, 0x00, 0x28, 0x00, 0x00, 0x00,
  0x60, 0x00, 0x00, 0x00, 0x9f, 0x00, 0x00, 0x00, 0x00, 0x00, 0x00, 0x07, 0x78,
  0x00, 0x00, 0x00, 0x04, 0x00, 0x00, 0x00, 0x01, 0x00, 0x00, 0x00, 0xff, 0xff,
  0xff, 0xff, 0xff, 0xff, 0xff, 0xff, 0x04, 0x00, 0x00, 0x00, 0xfc, 0x8b, 0xff,
  0xff, 0x10, 0x00, 0x00, 0x00, 0x1c, 0x00, 0x00, 0x00, 0x20, 0x00, 0x00, 0x00,
  0x24, 0x00, 0x00, 0x00, 0x01, 0x00, 0x00, 0x00, 0x00, 0x00, 0x00, 0x00, 0x00,
  0x00, 0x00, 0x00, 0x00, 0x00, 0x00, 0x00, 0x01, 0x00, 0x00, 0x00, 0x3c, 0xdc,
  0x96, 0x3c, 0x01, 0x00, 0x00, 0x00, 0x0e, 0xdb, 0x16, 0x44, 0x01, 0x00, 0x00,
  0x00, 0x00, 0x00, 0x00, 0x00, 0x1c, 0x00, 0x00, 0x00, 0x72, 0x65, 0x73, 0x74,
  0x6f, 0x72, 0x61, 0x74, 0x69, 0x6f, 0x6e, 0x5f, 0x30, 0x2f, 0x64, 0x65, 0x63,
  0x6f, 0x64, 0x65, 0x72, 0x2f, 0x50, 0x61, 0x64, 0x5f, 0x31, 0x31, 0x00, 0x00,
  0x00, 0x00, 0x04, 0x00, 0x00, 0x00, 0x01, 0x00, 0x00, 0x00, 0x01, 0x00, 0x00,
  0x00, 0x01, 0x00, 0x00, 0x00, 0x04, 0x00, 0x00, 0x00, 0xba, 0x8c, 0xff, 0xff,
  0x00, 0x00, 0x00, 0x01, 0x18, 0x00, 0x00, 0x00, 0x28, 0x00, 0x00, 0x00, 0x5c,
  0x00, 0x00, 0x00, 0x9e, 0x00, 0x00, 0x00, 0x00, 0x00, 0x00, 0x07, 0xc0, 0x00,
  0x00, 0x00, 0x04, 0x00, 0x00, 0x00, 0x01, 0x00, 0x00, 0x00, 0xff, 0xff, 0xff,
  0xff, 0xff, 0xff, 0xff, 0xff, 0x04, 0x00, 0x00, 0x00, 0xa4, 0x8c, 0xff, 0xff,
  0x10, 0x00, 0x00, 0x00, 0x18, 0x00, 0x00, 0x00, 0x1c, 0x00, 0x00, 0x00, 0x20,
  0x00, 0x00, 0x00, 0x01, 0x00, 0x00, 0x00, 0x00, 0x00, 0x00, 0x00, 0x00, 0x00,
  0x00, 0x00, 0x01, 0x00, 0x00, 0x00, 0x3c, 0xdc, 0x96, 0x3c, 0x01, 0x00, 0x00,
  0x00, 0x0e, 0xdb, 0x16, 0x44, 0x01, 0x00, 0x00, 0x00, 0x00, 0x00, 0x00, 0x00,
  0x68, 0x00, 0x00, 0x00, 0x72, 0x65, 0x73, 0x74, 0x6f, 0x72, 0x61, 0x74, 0x69,
  0x6f, 0x6e, 0x5f, 0x30, 0x2f, 0x64, 0x65, 0x63, 0x6f, 0x64, 0x65, 0x72, 0x2f,
  0x52, 0x65, 0x6c, 0x75, 0x5f, 0x31, 0x30, 0x3b, 0x72, 0x65, 0x73, 0x74, 0x6f,
  0x72, 0x61, 0x74, 0x69, 0x6f, 0x6e, 0x5f, 0x30, 0x2f, 0x64, 0x65, 0x63, 0x6f,
  0x64, 0x65, 0x72, 0x2f, 0x42, 0x69, 0x61, 0x73, 0x41, 0x64, 0x64, 0x5f, 0x31,
  0x30, 0x3b, 0x72, 0x65, 0x73, 0x74, 0x6f, 0x72, 0x61, 0x74, 0x69, 0x6f, 0x6e,
  0x5f, 0x30, 0x2f, 0x64, 0x65, 0x63, 0x6f, 0x64, 0x65, 0x72, 0x2f, 0x73, 0x65,
  0x70, 0x61, 0x72, 0x61, 0x62, 0x6c, 0x65, 0x5f, 0x63, 0x6f, 0x6e, 0x76, 0x32,
  0x64, 0x5f, 0x31, 0x30, 0x00, 0x00, 0x00, 0x00, 0x04, 0x00, 0x00, 0x00, 0x01,
  0x00, 0x00, 0x00, 0x01, 0x00, 0x00, 0x00, 0x01, 0x00, 0x00, 0x00, 0x04, 0x00,
  0x00, 0x00, 0xaa, 0x8d, 0xff, 0xff, 0x00, 0x00, 0x00, 0x01, 0x18, 0x00, 0x00,
  0x00, 0x28, 0x00, 0x00, 0x00, 0x5c, 0x00, 0x00, 0x00, 0x9d, 0x00, 0x00, 0x00,
  0x00, 0x00, 0x00, 0x07, 0x88, 0x00, 0x00, 0x00, 0x04, 0x00, 0x00, 0x00, 0x01,
  0x00, 0x00, 0x00, 0xff, 0xff, 0xff, 0xff, 0xff, 0xff, 0xff, 0xff, 0x08, 0x00,
  0x00, 0x00, 0x94, 0x8d, 0xff, 0xff, 0x10, 0x00, 0x00, 0x00, 0x18, 0x00, 0x00,
  0x00, 0x1c, 0x00, 0x00, 0x00, 0x20, 0x00, 0x00, 0x00, 0x01, 0x00, 0x00, 0x00,
  0x00, 0x00, 0x00, 0x00, 0x00, 0x00, 0x00, 0x00, 0x01, 0x00, 0x00, 0x00, 0xa9,
  0xee, 0xd3, 0x3c, 0x01, 0x00, 0x00, 0x00, 0x2f, 0xa1, 0xf7, 0x43, 0x01, 0x00,
  0x00, 0x00, 0x01, 0xed, 0x53, 0xc4, 0x33, 0x00, 0x00, 0x00, 0x72, 0x65, 0x73,
  0x74, 0x6f, 0x72, 0x61, 0x74, 0x69, 0x6f, 0x6e, 0x5f, 0x30, 0x2f, 0x64, 0x65,
  0x63, 0x6f, 0x64, 0x65, 0x72, 0x2f, 0x73, 0x65, 0x70, 0x61, 0x72, 0x61, 0x62,
  0x6c, 0x65, 0x5f, 0x63, 0x6f, 0x6e, 0x76, 0x32, 0x64, 0x5f, 0x31, 0x30, 0x2f,
  0x64, 0x65, 0x70, 0x74, 0x68, 0x77, 0x69, 0x73, 0x65, 0x00, 0x04, 0x00, 0x00,
  0x00, 0x01, 0x00, 0x00, 0x00, 0x01, 0x00, 0x00, 0x00, 0x01, 0x00, 0x00, 0x00,
  0x08, 0x00, 0x00, 0x00, 0x62, 0x8e, 0xff, 0xff, 0x00, 0x00, 0x00, 0x01, 0x18,
  0x00, 0x00, 0x00, 0x28, 0x00, 0x00, 0x00, 0x60, 0x00, 0x00, 0x00, 0x9c, 0x00,
  0x00, 0x00, 0x00, 0x00, 0x00, 0x07, 0x78, 0x00, 0x00, 0x00, 0x04, 0x00, 0x00,
  0x00, 0x01, 0x00, 0x00, 0x00, 0xff, 0xff, 0xff, 0xff, 0xff, 0xff, 0xff, 0xff,
  0x08, 0x00, 0x00, 0x00, 0x4c, 0x8e, 0xff, 0xff, 0x10, 0x00, 0x00, 0x00, 0x1c,
  0x00, 0x00, 0x00, 0x20, 0x00, 0x00, 0x00, 0x24, 0x00, 0x00, 0x00, 0x01, 0x00,
  0x00, 0x00, 0x00, 0x00, 0x00, 0x00, 0x00, 0x00, 0x00, 0x00, 0x00, 0x00, 0x00,
  0x00, 0x01, 0x00, 0x00, 0x00, 0xa9, 0x00, 0x04, 0x3c, 0x01, 0x00, 0x00, 0x00,
  0xa1, 0xff, 0x83, 0x43, 0x01, 0x00, 0x00, 0x00, 0x00, 0x00, 0x00, 0x00, 0x1c,
  0x00, 0x00, 0x00, 0x72, 0x65, 0x73, 0x74, 0x6f, 0x72, 0x61, 0x74, 0x69, 0x6f,
  0x6e, 0x5f, 0x30, 0x2f, 0x64, 0x65, 0x63, 0x6f, 0x64, 0x65, 0x72, 0x2f, 0x50,
  0x61, 0x64, 0x5f, 0x31, 0x30, 0x00, 0x00, 0x00, 0x00, 0x04, 0x00, 0x00, 0x00,
  0x01, 0x00, 0x00, 0x00, 0x01, 0x00, 0x00, 0x00, 0x01, 0x00, 0x00, 0x00, 0x08,
  0x00, 0x00, 0x00, 0x0a, 0x8f, 0xff, 0xff, 0x00, 0x00, 0x00, 0x01, 0x18, 0x00,
  0x00, 0x00, 0x28, 0x00, 0x00, 0x00, 0x60, 0x00, 0x00, 0x00, 0x9b, 0x00, 0x00,
  0x00, 0x00, 0x00, 0x00, 0x07, 0x80, 0x00, 0x00, 0x00, 0x04, 0x00, 0x00, 0x00,
  0x01, 0x00, 0x00, 0x00, 0xff, 0xff, 0xff, 0xff, 0xff, 0xff, 0xff, 0xff, 0x08,
  0x00, 0x00, 0x00, 0xf4, 0x8e, 0xff, 0xff, 0x10, 0x00, 0x00, 0x00, 0x1c, 0x00,
  0x00, 0x00, 0x20, 0x00, 0x00, 0x00, 0x24, 0x00, 0x00, 0x00, 0x01, 0x00, 0x00,
  0x00, 0x00, 0x00, 0x00, 0x00, 0x00, 0x00, 0x00, 0x00, 0x00, 0x00, 0x00, 0x00,
  0x01, 0x00, 0x00, 0x00, 0xa9, 0x00, 0x04, 0x3c, 0x01, 0x00, 0x00, 0x00, 0xa1,
  0xff, 0x83, 0x43, 0x01, 0x00, 0x00, 0x00, 0x00, 0x00, 0x00, 0x00, 0x26, 0x00,
  0x00, 0x00, 0x72, 0x65, 0x73, 0x74, 0x6f, 0x72, 0x61, 0x74, 0x69, 0x6f, 0x6e,
  0x5f, 0x30, 0x2f, 0x64, 0x65, 0x63, 0x6f, 0x64, 0x65, 0x72, 0x2f, 0x64, 0x65,
  0x63, 0x6f, 0x64, 0x65, 0x72, 0x5f, 0x30, 0x5f, 0x63, 0x6f, 0x6e, 0x63, 0x61,
  0x74, 0x00, 0x00, 0x04, 0x00, 0x00, 0x00, 0x01, 0x00, 0x00, 0x00, 0x01, 0x00,
  0x00, 0x00, 0x01, 0x00, 0x00, 0x00, 0x08, 0x00, 0x00, 0x00, 0xba, 0x8f, 0xff,
  0xff, 0x00, 0x00, 0x00, 0x01, 0x18, 0x00, 0x00, 0x00, 0x28, 0x00, 0x00, 0x00,
  0x60, 0x00, 0x00, 0x00, 0x9a, 0x00, 0x00, 0x00, 0x00, 0x00, 0x00, 0x07, 0xc0,
  0x00, 0x00, 0x00, 0x04, 0x00, 0x00, 0x00, 0x01, 0x00, 0x00, 0x00, 0xff, 0xff,
  0xff, 0xff, 0xff, 0xff, 0xff, 0xff, 0x04, 0x00, 0x00, 0x00, 0xa4, 0x8f, 0xff,
  0xff, 0x10, 0x00, 0x00, 0x00, 0x1c, 0x00, 0x00, 0x00, 0x20, 0x00, 0x00, 0x00,
  0x24, 0x00, 0x00, 0x00, 0x01, 0x00, 0x00, 0x00, 0x00, 0x00, 0x00, 0x00, 0x00,
  0x00, 0x00, 0x00, 0x00, 0x00, 0x00, 0x00, 0x01, 0x00, 0x00, 0x00, 0xa9, 0x00,
  0x04, 0x3c, 0x01, 0x00, 0x00, 0x00, 0xa1, 0xff, 0x83, 0x43, 0x01, 0x00, 0x00,
  0x00, 0x00, 0x00, 0x00, 0x00, 0x65, 0x00, 0x00, 0x00, 0x72, 0x65, 0x73, 0x74,
  0x6f, 0x72, 0x61, 0x74, 0x69, 0x6f, 0x6e, 0x5f, 0x30, 0x2f, 0x64, 0x65, 0x63,
  0x6f, 0x64, 0x65, 0x72, 0x2f, 0x52, 0x65, 0x6c, 0x75, 0x5f, 0x39, 0x3b, 0x72,
  0x65, 0x73, 0x74, 0x6f, 0x72, 0x61, 0x74, 0x69, 0x6f, 0x6e, 0x5f, 0x30, 0x2f,
  0x64, 0x65, 0x63, 0x6f, 0x64, 0x65, 0x72, 0x2f, 0x42, 0x69, 0x61, 0x73, 0x41,
  0x64, 0x64, 0x5f, 0x39, 0x3b, 0x72, 0x65, 0x73, 0x74, 0x6f, 0x72, 0x61, 0x74,
  0x69, 0x6f, 0x6e, 0x5f, 0x30, 0x2f, 0x64, 0x65, 0x63, 0x6f, 0x64, 0x65, 0x72,
  0x2f, 0x73, 0x65, 0x70, 0x61, 0x72, 0x61, 0x62, 0x6c, 0x65, 0x5f, 0x63, 0x6f,
  0x6e, 0x76, 0x32, 0x64, 0x5f, 0x39, 0x00, 0x00, 0x00, 0x04, 0x00, 0x00, 0x00,
  0x01, 0x00, 0x00, 0x00, 0x01, 0x00, 0x00, 0x00, 0x01, 0x00, 0x00, 0x00, 0x04,
  0x00, 0x00, 0x00, 0xaa, 0x90, 0xff, 0xff, 0x00, 0x00, 0x00, 0x01, 0x18, 0x00,
  0x00, 0x00, 0x28, 0x00, 0x00, 0x00, 0x5c, 0x00, 0x00, 0x00, 0x99, 0x00, 0x00,
  0x00, 0x00, 0x00, 0x00, 0x07, 0x88, 0x00, 0x00, 0x00, 0x04, 0x00, 0x00, 0x00,
  0x01, 0x00, 0x00, 0x00, 0xff, 0xff, 0xff, 0xff, 0xff, 0xff, 0xff, 0xff, 0x08,
  0x00, 0x00, 0x00, 0x94, 0x90, 0xff, 0xff, 0x10, 0x00, 0x00, 0x00, 0x18, 0x00,
  0x00, 0x00, 0x1c, 0x00, 0x00, 0x00, 0x20, 0x00, 0x00, 0x00, 0x01, 0x00, 0x00,
  0x00, 0x00, 0x00, 0x00, 0x00, 0x00, 0x00, 0x00, 0x00, 0x01, 0x00, 0x00, 0x00,
  0x41, 0xfd, 0xe0, 0x3b, 0x01, 0x00, 0x00, 0x00, 0xbb, 0x45, 0x59, 0x43, 0x01,
  0x00, 0x00, 0x00, 0x7f, 0xfb, 0x60, 0xc3, 0x32, 0x00, 0x00, 0x00, 0x72, 0x65,
  0x73, 0x74, 0x6f, 0x72, 0x61, 0x74, 0x69, 0x6f, 0x6e, 0x5f, 0x30, 0x2f, 0x64,
  0x65, 0x63, 0x6f, 0x64, 0x65, 0x72, 0x2f, 0x73, 0x65, 0x70, 0x61, 0x72, 0x61,
  0x62, 0x6c, 0x65, 0x5f, 0x63, 0x6f, 0x6e, 0x76, 0x32, 0x64, 0x5f, 0x39, 0x2f,
  0x64, 0x65, 0x70, 0x74, 0x68, 0x77, 0x69, 0x73, 0x65, 0x00, 0x00, 0x04, 0x00,
  0x00, 0x00, 0x01, 0x00, 0x00, 0x00, 0x01, 0x00, 0x00, 0x00, 0x01, 0x00, 0x00,
  0x00, 0x08, 0x00, 0x00, 0x00, 0x62, 0x91, 0xff, 0xff, 0x00, 0x00, 0x00, 0x01,
  0x18, 0x00, 0x00, 0x00, 0x28, 0x00, 0x00, 0x00, 0x5c, 0x00, 0x00, 0x00, 0x98,
  0x00, 0x00, 0x00, 0x00, 0x00, 0x00, 0x07, 0x70, 0x00, 0x00, 0x00, 0x04, 0x00,
  0x00, 0x00, 0x01, 0x00, 0x00, 0x00, 0xff, 0xff, 0xff, 0xff, 0xff, 0xff, 0xff,
  0xff, 0x08, 0x00, 0x00, 0x00, 0x4c, 0x91, 0xff, 0xff, 0x10, 0x00, 0x00, 0x00,
  0x18, 0x00, 0x00, 0x00, 0x1c, 0x00, 0x00, 0x00, 0x20, 0x00, 0x00, 0x00, 0x01,
