/*
 * Copyright (c) 2020, Alliance for Open Media. All rights reserved
 *
 * This source code is subject to the terms of the BSD 2 Clause License and
 * the Alliance for Open Media Patent License 1.0. If the BSD 2 Clause License
 * was not distributed with this source code in the LICENSE file, you can
 * obtain it at www.aomedia.org/license/software. If the Alliance for Open
 * Media Patent License 1.0 was not distributed with this source code in the
 * PATENTS file, you can obtain it at www.aomedia.org/license/patent.
 */

#include "av1/tflite_models/intra_frame_model/qp176_205_quadtree.h"

const unsigned char qp176_205_quadtree_model_tflite_data[] = {
  0x1c, 0x00, 0x00, 0x00, 0x54, 0x46, 0x4c, 0x33, 0x14, 0x00, 0x20, 0x00, 0x1c,
  0x00, 0x18, 0x00, 0x14, 0x00, 0x10, 0x00, 0x0c, 0x00, 0x00, 0x00, 0x08, 0x00,
  0x04, 0x00, 0x14, 0x00, 0x00, 0x00, 0x1c, 0x00, 0x00, 0x00, 0x80, 0x00, 0x00,
  0x00, 0xd8, 0x00, 0x00, 0x00, 0x40, 0x17, 0x00, 0x00, 0x50, 0x17, 0x00, 0x00,
  0xec, 0xac, 0x00, 0x00, 0x03, 0x00, 0x00, 0x00, 0x01, 0x00, 0x00, 0x00, 0x04,
  0x00, 0x00, 0x00, 0xa6, 0xd2, 0xff, 0xff, 0x0c, 0x00, 0x00, 0x00, 0x1c, 0x00,
  0x00, 0x00, 0x38, 0x00, 0x00, 0x00, 0x0f, 0x00, 0x00, 0x00, 0x73, 0x65, 0x72,
  0x76, 0x69, 0x6e, 0x67, 0x5f, 0x64, 0x65, 0x66, 0x61, 0x75, 0x6c, 0x74, 0x00,
  0x01, 0x00, 0x00, 0x00, 0x04, 0x00, 0x00, 0x00, 0x9c, 0xff, 0xff, 0xff, 0xa9,
  0x00, 0x00, 0x00, 0x04, 0x00, 0x00, 0x00, 0x06, 0x00, 0x00, 0x00, 0x6f, 0x75,
  0x74, 0x70, 0x75, 0x74, 0x00, 0x00, 0x01, 0x00, 0x00, 0x00, 0x04, 0x00, 0x00,
  0x00, 0xbc, 0xff, 0xff, 0xff, 0xa8, 0x00, 0x00, 0x00, 0x04, 0x00, 0x00, 0x00,
  0x03, 0x00, 0x00, 0x00, 0x69, 0x6d, 0x67, 0x00, 0x02, 0x00, 0x00, 0x00, 0x34,
  0x00, 0x00, 0x00, 0x04, 0x00, 0x00, 0x00, 0xdc, 0xff, 0xff, 0xff, 0xa6, 0x00,
  0x00, 0x00, 0x04, 0x00, 0x00, 0x00, 0x13, 0x00, 0x00, 0x00, 0x43, 0x4f, 0x4e,
  0x56, 0x45, 0x52, 0x53, 0x49, 0x4f, 0x4e, 0x5f, 0x4d, 0x45, 0x54, 0x41, 0x44,
  0x41, 0x54, 0x41, 0x00, 0x08, 0x00, 0x0c, 0x00, 0x08, 0x00, 0x04, 0x00, 0x08,
  0x00, 0x00, 0x00, 0xa5, 0x00, 0x00, 0x00, 0x04, 0x00, 0x00, 0x00, 0x13, 0x00,
  0x00, 0x00, 0x6d, 0x69, 0x6e, 0x5f, 0x72, 0x75, 0x6e, 0x74, 0x69, 0x6d, 0x65,
  0x5f, 0x76, 0x65, 0x72, 0x73, 0x69, 0x6f, 0x6e, 0x00, 0xa7, 0x00, 0x00, 0x00,
  0x64, 0x16, 0x00, 0x00, 0x5c, 0x16, 0x00, 0x00, 0x2c, 0x16, 0x00, 0x00, 0xfc,
  0x15, 0x00, 0x00, 0xcc, 0x15, 0x00, 0x00, 0x7c, 0x15, 0x00, 0x00, 0x2c, 0x15,
  0x00, 0x00, 0xdc, 0x14, 0x00, 0x00, 0x8c, 0x14, 0x00, 0x00, 0x3c, 0x14, 0x00,
  0x00, 0xec, 0x13, 0x00, 0x00, 0xac, 0x13, 0x00, 0x00, 0x6c, 0x13, 0x00, 0x00,
  0x2c, 0x13, 0x00, 0x00, 0xec, 0x12, 0x00, 0x00, 0xac, 0x12, 0x00, 0x00, 0x5c,
  0x12, 0x00, 0x00, 0x0c, 0x12, 0x00, 0x00, 0xbc, 0x11, 0x00, 0x00, 0x6c, 0x11,
  0x00, 0x00, 0x3c, 0x11, 0x00, 0x00, 0x0c, 0x11, 0x00, 0x00, 0xec, 0x10, 0x00,
  0x00, 0xd4, 0x10, 0x00, 0x00, 0xa0, 0x10, 0x00, 0x00, 0x80, 0x10, 0x00, 0x00,
  0x4c, 0x10, 0x00, 0x00, 0x1c, 0x10, 0x00, 0x00, 0xc4, 0x0f, 0x00, 0x00, 0x94,
  0x0f, 0x00, 0x00, 0x3c, 0x0f, 0x00, 0x00, 0xec, 0x0e, 0x00, 0x00, 0x94, 0x0e,
  0x00, 0x00, 0x04, 0x0e, 0x00, 0x00, 0x64, 0x0d, 0x00, 0x00, 0x14, 0x0d, 0x00,
  0x00, 0xbc, 0x0c, 0x00, 0x00, 0x6c, 0x0c, 0x00, 0x00, 0x14, 0x0c, 0x00, 0x00,
  0x84, 0x0b, 0x00, 0x00, 0xe4, 0x0a, 0x00, 0x00, 0x54, 0x0a, 0x00, 0x00, 0x4c,
  0x0a, 0x00, 0x00, 0x04, 0x0a, 0x00, 0x00, 0xd0, 0x09, 0x00, 0x00, 0x88, 0x09,
  0x00, 0x00, 0x30, 0x09, 0x00, 0x00, 0xb4, 0x08, 0x00, 0x00, 0x44, 0x08, 0x00,
  0x00, 0x3c, 0x08, 0x00, 0x00, 0xf4, 0x07, 0x00, 0x00, 0xec, 0x07, 0x00, 0x00,
  0xa4, 0x07, 0x00, 0x00, 0x9c, 0x07, 0x00, 0x00, 0x94, 0x07, 0x00, 0x00, 0x3c,
  0x07, 0x00, 0x00, 0xec, 0x06, 0x00, 0x00, 0x94, 0x06, 0x00, 0x00, 0x44, 0x06,
  0x00, 0x00, 0xec, 0x05, 0x00, 0x00, 0x9c, 0x05, 0x00, 0x00, 0x44, 0x05, 0x00,
  0x00, 0x14, 0x05, 0x00, 0x00, 0xc4, 0x04, 0x00, 0x00, 0x90, 0x04, 0x00, 0x00,
  0x70, 0x04, 0x00, 0x00, 0x3c, 0x04, 0x00, 0x00, 0x28, 0x04, 0x00, 0x00, 0xf8,
  0x03, 0x00, 0x00, 0xdc, 0x03, 0x00, 0x00, 0xc4, 0x03, 0x00, 0x00, 0xb0, 0x03,
  0x00, 0x00, 0x80, 0x03, 0x00, 0x00, 0x64, 0x03, 0x00, 0x00, 0x5c, 0x03, 0x00,
  0x00, 0x54, 0x03, 0x00, 0x00, 0x4c, 0x03, 0x00, 0x00, 0x44, 0x03, 0x00, 0x00,
  0x3c, 0x03, 0x00, 0x00, 0x34, 0x03, 0x00, 0x00, 0x2c, 0x03, 0x00, 0x00, 0x24,
  0x03, 0x00, 0x00, 0x1c, 0x03, 0x00, 0x00, 0x14, 0x03, 0x00, 0x00, 0x0c, 0x03,
  0x00, 0x00, 0x04, 0x03, 0x00, 0x00, 0xfc, 0x02, 0x00, 0x00, 0xf4, 0x02, 0x00,
  0x00, 0xec, 0x02, 0x00, 0x00, 0xe4, 0x02, 0x00, 0x00, 0xdc, 0x02, 0x00, 0x00,
  0xd4, 0x02, 0x00, 0x00, 0xcc, 0x02, 0x00, 0x00, 0xc4, 0x02, 0x00, 0x00, 0xbc,
  0x02, 0x00, 0x00, 0xb4, 0x02, 0x00, 0x00, 0xac, 0x02, 0x00, 0x00, 0xa4, 0x02,
  0x00, 0x00, 0x9c, 0x02, 0x00, 0x00, 0x94, 0x02, 0x00, 0x00, 0x8c, 0x02, 0x00,
  0x00, 0x84, 0x02, 0x00, 0x00, 0x7c, 0x02, 0x00, 0x00, 0x74, 0x02, 0x00, 0x00,
  0x6c, 0x02, 0x00, 0x00, 0x64, 0x02, 0x00, 0x00, 0x5c, 0x02, 0x00, 0x00, 0x54,
  0x02, 0x00, 0x00, 0x4c, 0x02, 0x00, 0x00, 0x44, 0x02, 0x00, 0x00, 0x3c, 0x02,
  0x00, 0x00, 0x34, 0x02, 0x00, 0x00, 0x2c, 0x02, 0x00, 0x00, 0x24, 0x02, 0x00,
  0x00, 0x1c, 0x02, 0x00, 0x00, 0x14, 0x02, 0x00, 0x00, 0x0c, 0x02, 0x00, 0x00,
  0x04, 0x02, 0x00, 0x00, 0xfc, 0x01, 0x00, 0x00, 0xf4, 0x01, 0x00, 0x00, 0xec,
  0x01, 0x00, 0x00, 0xe4, 0x01, 0x00, 0x00, 0xdc, 0x01, 0x00, 0x00, 0xd4, 0x01,
  0x00, 0x00, 0xcc, 0x01, 0x00, 0x00, 0xc4, 0x01, 0x00, 0x00, 0xbc, 0x01, 0x00,
  0x00, 0xb4, 0x01, 0x00, 0x00, 0xac, 0x01, 0x00, 0x00, 0xa4, 0x01, 0x00, 0x00,
  0x9c, 0x01, 0x00, 0x00, 0x94, 0x01, 0x00, 0x00, 0x8c, 0x01, 0x00, 0x00, 0x84,
  0x01, 0x00, 0x00, 0x7c, 0x01, 0x00, 0x00, 0x74, 0x01, 0x00, 0x00, 0x6c, 0x01,
  0x00, 0x00, 0x64, 0x01, 0x00, 0x00, 0x5c, 0x01, 0x00, 0x00, 0x54, 0x01, 0x00,
  0x00, 0x4c, 0x01, 0x00, 0x00, 0x44, 0x01, 0x00, 0x00, 0x3c, 0x01, 0x00, 0x00,
  0x34, 0x01, 0x00, 0x00, 0x2c, 0x01, 0x00, 0x00, 0x24, 0x01, 0x00, 0x00, 0x1c,
  0x01, 0x00, 0x00, 0x14, 0x01, 0x00, 0x00, 0x0c, 0x01, 0x00, 0x00, 0x04, 0x01,
  0x00, 0x00, 0xfc, 0x00, 0x00, 0x00, 0xf4, 0x00, 0x00, 0x00, 0xec, 0x00, 0x00,
  0x00, 0xe4, 0x00, 0x00, 0x00, 0xdc, 0x00, 0x00, 0x00, 0xd4, 0x00, 0x00, 0x00,
  0xcc, 0x00, 0x00, 0x00, 0xc4, 0x00, 0x00, 0x00, 0xbc, 0x00, 0x00, 0x00, 0xb4,
  0x00, 0x00, 0x00, 0xac, 0x00, 0x00, 0x00, 0xa4, 0x00, 0x00, 0x00, 0x9c, 0x00,
  0x00, 0x00, 0x94, 0x00, 0x00, 0x00, 0x8c, 0x00, 0x00, 0x00, 0x6c, 0x00, 0x00,
  0x00, 0x04, 0x00, 0x00, 0x00, 0x76, 0xd6, 0xff, 0xff, 0x04, 0x00, 0x00, 0x00,
  0x58, 0x00, 0x00, 0x00, 0x0c, 0x00, 0x00, 0x00, 0x08, 0x00, 0x0e, 0x00, 0x08,
  0x00, 0x04, 0x00, 0x08, 0x00, 0x00, 0x00, 0x10, 0x00, 0x00, 0x00, 0x28, 0x00,
  0x00, 0x00, 0x00, 0x00, 0x06, 0x00, 0x08, 0x00, 0x04, 0x00, 0x06, 0x00, 0x00,
  0x00, 0x04, 0x00, 0x00, 0x00, 0x01, 0x00, 0x00, 0x00, 0xec, 0x03, 0x00, 0x00,
  0x00, 0x00, 0x0a, 0x00, 0x10, 0x00, 0x0c, 0x00, 0x08, 0x00, 0x04, 0x00, 0x0a,
  0x00, 0x00, 0x00, 0x01, 0x00, 0x00, 0x00, 0x02, 0x00, 0x00, 0x00, 0x04, 0x00,
  0x00, 0x00, 0x06, 0x00, 0x00, 0x00, 0x32, 0x2e, 0x31, 0x36, 0x2e, 0x30, 0x00,
  0x00, 0xda, 0xd6, 0xff, 0xff, 0x04, 0x00, 0x00, 0x00, 0x10, 0x00, 0x00, 0x00,
  0x32, 0x2e, 0x32, 0x2e, 0x30, 0x00, 0x00, 0x00, 0x00, 0x00, 0x00, 0x00, 0x00,
  0x00, 0x00, 0x00, 0xec, 0x91, 0xff, 0xff, 0xf0, 0x91, 0xff, 0xff, 0xf4, 0x91,
  0xff, 0xff, 0xf8, 0x91, 0xff, 0xff, 0xfc, 0x91, 0xff, 0xff, 0x00, 0x92, 0xff,
  0xff, 0x04, 0x92, 0xff, 0xff, 0x08, 0x92, 0xff, 0xff, 0x0c, 0x92, 0xff, 0xff,
  0x10, 0x92, 0xff, 0xff, 0x14, 0x92, 0xff, 0xff, 0x18, 0x92, 0xff, 0xff, 0x1c,
  0x92, 0xff, 0xff, 0x20, 0x92, 0xff, 0xff, 0x24, 0x92, 0xff, 0xff, 0x28, 0x92,
  0xff, 0xff, 0x2c, 0x92, 0xff, 0xff, 0x30, 0x92, 0xff, 0xff, 0x34, 0x92, 0xff,
  0xff, 0x38, 0x92, 0xff, 0xff, 0x3c, 0x92, 0xff, 0xff, 0x40, 0x92, 0xff, 0xff,
  0x44, 0x92, 0xff, 0xff, 0x48, 0x92, 0xff, 0xff, 0x4c, 0x92, 0xff, 0xff, 0x50,
  0x92, 0xff, 0xff, 0x54, 0x92, 0xff, 0xff, 0x58, 0x92, 0xff, 0xff, 0x5c, 0x92,
  0xff, 0xff, 0x60, 0x92, 0xff, 0xff, 0x64, 0x92, 0xff, 0xff, 0x68, 0x92, 0xff,
  0xff, 0x6c, 0x92, 0xff, 0xff, 0x70, 0x92, 0xff, 0xff, 0x74, 0x92, 0xff, 0xff,
  0x78, 0x92, 0xff, 0xff, 0x7c, 0x92, 0xff, 0xff, 0x80, 0x92, 0xff, 0xff, 0x84,
  0x92, 0xff, 0xff, 0x88, 0x92, 0xff, 0xff, 0x8c, 0x92, 0xff, 0xff, 0x90, 0x92,
  0xff, 0xff, 0x94, 0x92, 0xff, 0xff, 0x98, 0x92, 0xff, 0xff, 0x9c, 0x92, 0xff,
  0xff, 0xa0, 0x92, 0xff, 0xff, 0xa4, 0x92, 0xff, 0xff, 0xa8, 0x92, 0xff, 0xff,
  0xac, 0x92, 0xff, 0xff, 0xb0, 0x92, 0xff, 0xff, 0xb4, 0x92, 0xff, 0xff, 0xb8,
  0x92, 0xff, 0xff, 0xbc, 0x92, 0xff, 0xff, 0xc0, 0x92, 0xff, 0xff, 0xc4, 0x92,
  0xff, 0xff, 0xc8, 0x92, 0xff, 0xff, 0xcc, 0x92, 0xff, 0xff, 0xd0, 0x92, 0xff,
  0xff, 0xd4, 0x92, 0xff, 0xff, 0xd8, 0x92, 0xff, 0xff, 0xdc, 0x92, 0xff, 0xff,
  0xe0, 0x92, 0xff, 0xff, 0xe4, 0x92, 0xff, 0xff, 0xe8, 0x92, 0xff, 0xff, 0xec,
  0x92, 0xff, 0xff, 0xf0, 0x92, 0xff, 0xff, 0xf4, 0x92, 0xff, 0xff, 0xf8, 0x92,
  0xff, 0xff, 0xfc, 0x92, 0xff, 0xff, 0x00, 0x93, 0xff, 0xff, 0x04, 0x93, 0xff,
  0xff, 0x08, 0x93, 0xff, 0xff, 0x0c, 0x93, 0xff, 0xff, 0x10, 0x93, 0xff, 0xff,
  0x14, 0x93, 0xff, 0xff, 0x18, 0x93, 0xff, 0xff, 0x1c, 0x93, 0xff, 0xff, 0x20,
  0x93, 0xff, 0xff, 0x24, 0x93, 0xff, 0xff, 0x28, 0x93, 0xff, 0xff, 0x2c, 0x93,
  0xff, 0xff, 0x30, 0x93, 0xff, 0xff, 0x34, 0x93, 0xff, 0xff, 0x38, 0x93, 0xff,
  0xff, 0x3c, 0x93, 0xff, 0xff, 0x40, 0x93, 0xff, 0xff, 0x44, 0x93, 0xff, 0xff,
  0x48, 0x93, 0xff, 0xff, 0x4c, 0x93, 0xff, 0xff, 0x50, 0x93, 0xff, 0xff, 0x54,
  0x93, 0xff, 0xff, 0x62, 0xd8, 0xff, 0xff, 0x04, 0x00, 0x00, 0x00, 0x0c, 0x00,
  0x00, 0x00, 0x01, 0x00, 0x00, 0x00, 0x02, 0x00, 0x00, 0x00, 0x01, 0x00, 0x00,
  0x00, 0x7a, 0xd8, 0xff, 0xff, 0x04, 0x00, 0x00, 0x00, 0x20, 0x00, 0x00, 0x00,
  0x00, 0x00, 0x00, 0x00, 0x00, 0x00, 0x00, 0x00, 0x01, 0x00, 0x00, 0x00, 0x01,
  0x00, 0x00, 0x00, 0x01, 0x00, 0x00, 0x00, 0x01, 0x00, 0x00, 0x00, 0x00, 0x00,
  0x00, 0x00, 0x00, 0x00, 0x00, 0x00, 0xa6, 0xd8, 0xff, 0xff, 0x04, 0x00, 0x00,
  0x00, 0x04, 0x00, 0x00, 0x00, 0x00, 0x00, 0x00, 0x00, 0xb6, 0xd8, 0xff, 0xff,
  0x04, 0x00, 0x00, 0x00, 0x08, 0x00, 0x00, 0x00, 0x00, 0x00, 0x00, 0x00, 0x00,
  0x00, 0x00, 0x00, 0xca, 0xd8, 0xff, 0xff, 0x04, 0x00, 0x00, 0x00, 0x09, 0x00,
  0x00, 0x00, 0x01, 0x7f, 0x6e, 0xe8, 0x4b, 0x9f, 0xf9, 0xf5, 0x15, 0x00, 0x00,
  0x00, 0xe2, 0xd8, 0xff, 0xff, 0x04, 0x00, 0x00, 0x00, 0x20, 0x00, 0x00, 0x00,
  0x00, 0x00, 0x00, 0x00, 0x00, 0x00, 0x00, 0x00, 0x00, 0x00, 0x00, 0x00, 0x00,
  0x00, 0x00, 0x00, 0x00, 0x00, 0x00, 0x00, 0x00, 0x00, 0x00, 0x00, 0x00, 0x00,
  0x00, 0x00, 0x00, 0x00, 0x00, 0x00, 0x0e, 0xd9, 0xff, 0xff, 0x04, 0x00, 0x00,
  0x00, 0x04, 0x00, 0x00, 0x00, 0x81, 0x7f, 0x7f, 0x81, 0x1e, 0xd9, 0xff, 0xff,
  0x04, 0x00, 0x00, 0x00, 0x24, 0x00, 0x00, 0x00, 0x01, 0xec, 0x22, 0x13, 0xf7,
  0x14, 0x81, 0xc9, 0x18, 0xea, 0x2b, 0x15, 0x50, 0xf4, 0xd2, 0xe9, 0x63, 0x27,
  0xed, 0xbd, 0xd4, 0xf2, 0x15, 0x0b, 0x36, 0x1f, 0xec, 0xdb, 0x52, 0x7f, 0xe7,
  0x81, 0x7f, 0x2c, 0xda, 0xbf, 0x4e, 0xd9, 0xff, 0xff, 0x04, 0x00, 0x00, 0x00,
  0x10, 0x00, 0x00, 0x00, 0x37, 0x0a, 0xf9, 0x7f, 0xf3, 0xeb, 0xf4, 0x7f, 0x1d,
  0x0b, 0xff, 0x7f, 0x32, 0x81, 0xaa, 0xc6, 0x6a, 0xd9, 0xff, 0xff, 0x04, 0x00,
  0x00, 0x00, 0x24, 0x00, 0x00, 0x00, 0xfd, 0xd7, 0xf9, 0xf6, 0xbe, 0x1b, 0x01,
  0xf9, 0x0b, 0xf3, 0xfe, 0x05, 0xfa, 0x05, 0x0d, 0xf9, 0x1a, 0xcb, 0x81, 0x03,
  0xc8, 0x20, 0x07, 0xfa, 0x0b, 0x14, 0xfe, 0xee, 0x7f, 0x7f, 0x2c, 0x7f, 0x16,
  0x07, 0x04, 0x0b, 0x9a, 0xd9, 0xff, 0xff, 0x04, 0x00, 0x00, 0x00, 0x40, 0x00,
  0x00, 0x00, 0x00, 0x00, 0x00, 0x00, 0x00, 0x00, 0x00, 0x00, 0x00, 0x00, 0x00,
  0x00, 0x00, 0x00, 0x00, 0x00, 0x00, 0x00, 0x00, 0x00, 0x00, 0x00, 0x00, 0x00,
  0x00, 0x00, 0x00, 0x00, 0x00, 0x00, 0x00, 0x00, 0x00, 0x00, 0x00, 0x00, 0x00,
  0x00, 0x00, 0x00, 0x00, 0x00, 0x00, 0x00, 0x00, 0x00, 0x00, 0x00, 0x00, 0x00,
  0x00, 0x00, 0x00, 0x00, 0x00, 0x00, 0x00, 0x00, 0x00, 0x00, 0x00, 0x00, 0x00,
  0x00, 0xe6, 0xd9, 0xff, 0xff, 0x04, 0x00, 0x00, 0x00, 0x20, 0x00, 0x00, 0x00,
  0xf2, 0x06, 0x7f, 0xed, 0xfe, 0x92, 0x81, 0x5d, 0xf5, 0xe4, 0x7f, 0x09, 0xf2,
  0xe8, 0x81, 0x0d, 0xef, 0xe4, 0xed, 0x7f, 0xf4, 0x5a, 0xd7, 0x81, 0xb5, 0x04,
  0x81, 0x6e, 0x3a, 0x1b, 0x81, 0xc6, 0x12, 0xda, 0xff, 0xff, 0x04, 0x00, 0x00,
  0x00, 0x48, 0x00, 0x00, 0x00, 0xfa, 0x22, 0x1d, 0xea, 0x00, 0xf0, 0x21, 0x0c,
  0xb9, 0x7f, 0x07, 0xb9, 0xf5, 0xd5, 0x03, 0x02, 0x0b, 0x1d, 0x03, 0xf9, 0xfb,
  0xe0, 0x15, 0xff, 0xcd, 0x22, 0x07, 0xc8, 0x26, 0x04, 0x41, 0x20, 0x81, 0xf7,
  0xd8, 0x81, 0x7f, 0x04, 0x7f, 0x7f, 0x05, 0x12, 0x0b, 0xe0, 0x21, 0x1e, 0x2f,
  0xff, 0x0f, 0x18, 0x16, 0x1e, 0x1b, 0xff, 0x23, 0x0e, 0x19, 0x81, 0x81, 0x82,
  0x10, 0xa4, 0x43, 0x44, 0x0b, 0xd6, 0xd9, 0x00, 0xfb, 0x81, 0x1b, 0x19, 0x66,
  0xda, 0xff, 0xff, 0x04, 0x00, 0x00, 0x00, 0x40, 0x00, 0x00, 0x00, 0x81, 0x1b,
  0xf5, 0xe5, 0xfb, 0xf6, 0xef, 0xea, 0x81, 0xbd, 0xd3, 0xcb, 0x1e, 0xf8, 0xf8,
  0x3c, 0xca, 0xd2, 0xcf, 0xab, 0x39, 0x1d, 0x05, 0x7f, 0xf6, 0x27, 0x81, 0x0d,
  0x04, 0xf5, 0xef, 0xfa, 0xa7, 0x7f, 0x02, 0x9d, 0x10, 0x13, 0xfc, 0x62, 0xe0,
  0xd9, 0x21, 0xdc, 0x81, 0x65, 0x29, 0xf8, 0xf2, 0x07, 0x81, 0x20, 0x2a, 0xfd,
  0x08, 0xef, 0x09, 0x21, 0xdc, 0xb9, 0x20, 0xe9, 0x81, 0xd0, 0xb2, 0xda, 0xff,
  0xff, 0x04, 0x00, 0x00, 0x00, 0x48, 0x00, 0x00, 0x00, 0xf8, 0xa0, 0xf1, 0x15,
  0xad, 0x4a, 0x06, 0xdf, 0x0f, 0x2a, 0x0a, 0xdf, 0x2a, 0x61, 0x09, 0xf5, 0x2d,
  0xf4, 0xe3, 0x12, 0x90, 0xdc, 0xec, 0x28, 0xd6, 0x81, 0xd0, 0xf7, 0x0c, 0x96,
  0x15, 0x28, 0x81, 0xf9, 0x7f, 0x81, 0x72, 0xf0, 0x7f, 0x81, 0xcb, 0x3d, 0x10,
  0x00, 0x11, 0x97, 0xbe, 0x0e, 0x16, 0x08, 0xec, 0x19, 0x81, 0x81, 0xf1, 0x0d,
  0xdc, 0x18, 0xf8, 0xfb, 0xc4, 0xd0, 0xe2, 0x76, 0xcf, 0x2f, 0x0a, 0xf7, 0xe5,
  0xaa, 0xe9, 0xc8, 0x06, 0xdb, 0xff, 0xff, 0x04, 0x00, 0x00, 0x00, 0x40, 0x00,
  0x00, 0x00, 0x32, 0x81, 0x23, 0x0a, 0x36, 0x65, 0x9d, 0x39, 0x30, 0xec, 0x29,
  0x00, 0x34, 0x33, 0x81, 0xf6, 0x05, 0x0f, 0x7f, 0x04, 0x25, 0x15, 0xc9, 0x59,
  0x8a, 0xfe, 0xe5, 0x81, 0xdb, 0xf7, 0x32, 0x1d, 0xd3, 0xdf, 0x52, 0x0b, 0x81,
  0xda, 0x1e, 0xa2, 0x84, 0x23, 0xed, 0x81, 0xbf, 0xf3, 0x82, 0xec, 0xe2, 0x0a,
  0x03, 0xfe, 0xf3, 0xf9, 0x7f, 0x42, 0x5a, 0x7f, 0xac, 0x11, 0x84, 0x4f, 0xf8,
  0x27, 0x52, 0xdb, 0xff, 0xff, 0x04, 0x00, 0x00, 0x00, 0x48, 0x00, 0x00, 0x00,
  0xa6, 0x38, 0xf2, 0x1e, 0xe5, 0xf5, 0xb3, 0x3a, 0xea, 0x1b, 0xf5, 0xdd, 0x1a,
  0x2b, 0xcd, 0x04, 0x92, 0x25, 0xf0, 0xe7, 0xda, 0x17, 0xd0, 0xe4, 0xad, 0x17,
  0xe4, 0xf8, 0xda, 0x31, 0x81, 0x21, 0xe3, 0x7f, 0x81, 0x7f, 0x81, 0x81, 0x16,
  0xe0, 0x7f, 0xf1, 0xef, 0x4d, 0x17, 0x00, 0x25, 0x7f, 0xf7, 0x13, 0x0f, 0xd8,
  0xf4, 0x13, 0xe6, 0x2c, 0xbb, 0x1a, 0xd6, 0x30, 0x0b, 0x11, 0xf1, 0x01, 0xca,
  0x16, 0xfd, 0xf0, 0x13, 0x0a, 0x0e, 0x20, 0xa6, 0xdb, 0xff, 0xff, 0x04, 0x00,
  0x00, 0x00, 0x40, 0x00, 0x00, 0x00, 0xee, 0xad, 0xe1, 0x2a, 0x0b, 0xdf, 0x7f,
  0x6a, 0xd3, 0x1c, 0xea, 0xf9, 0x08, 0x22, 0x81, 0xdd, 0x0b, 0x1b, 0x23, 0x7f,
  0x0a, 0x72, 0x51, 0xd8, 0xe8, 0x01, 0xc1, 0x18, 0x81, 0x15, 0xf7, 0xee, 0x00,
  0x00, 0x00, 0x00, 0x00, 0x00, 0x00, 0x00, 0x2b, 0x43, 0x24, 0xb0, 0x09, 0x05,
  0x81, 0x97, 0x09, 0xe1, 0xe5, 0x4a, 0x25, 0x7f, 0xf6, 0xda, 0xe3, 0xf5, 0xc4,
  0x25, 0x81, 0x50, 0x09, 0x5e, 0xf2, 0xdb, 0xff, 0xff, 0x04, 0x00, 0x00, 0x00,
  0x48, 0x00, 0x00, 0x00, 0xef, 0x81, 0xa6, 0x25, 0x59, 0x48, 0x10, 0x3f, 0x7f,
  0x4e, 0x4d, 0x12, 0x5c, 0x64, 0x07, 0xe6, 0x05, 0x56, 0x7e, 0x72, 0x05, 0x7d,
  0x3d, 0x3e, 0x43, 0x65, 0xbe, 0x40, 0x21, 0xcb, 0xe1, 0x81, 0xb4, 0xb2, 0xca,
  0x02, 0xbd, 0xf3, 0x99, 0x8a, 0x0b, 0xb1, 0xcf, 0x38, 0x72, 0xd8, 0x7b, 0x96,
  0xb8, 0x39, 0x44, 0x90, 0x7f, 0xaf, 0x34, 0x15, 0x26, 0x1b, 0x75, 0x4c, 0xb8,
  0x43, 0x81, 0x72, 0x5c, 0x10, 0x7f, 0x81, 0xa6, 0x81, 0xf0, 0x97, 0x3c, 0x97,
  0xff, 0xff, 0x40, 0x97, 0xff, 0xff, 0x4e, 0xdc, 0xff, 0xff, 0x04, 0x00, 0x00,
  0x00, 0x36, 0x00, 0x00, 0x00, 0xb6, 0xbb, 0xdf, 0x25, 0x36, 0x7f, 0x7f, 0xe8,
  0x22, 0x61, 0x2a, 0xd4, 0x7e, 0x4a, 0xc8, 0x7f, 0x51, 0xc7, 0x7f, 0x8a, 0x7f,
  0xfc, 0x97, 0xdf, 0x0a, 0xda, 0x47, 0x98, 0x42, 0x2f, 0x36, 0x58, 0xe0, 0x77,
  0x81, 0x5d, 0x6a, 0x9b, 0x34, 0x77, 0x6a, 0x29, 0x29, 0x03, 0x3e, 0xb0, 0xfc,
  0x05, 0x64, 0x7f, 0x45, 0xae, 0x9c, 0x68, 0x00, 0x00, 0x88, 0x97, 0xff, 0xff,
  0x96, 0xdc, 0xff, 0xff, 0x04, 0x00, 0x00, 0x00, 0x36, 0x00, 0x00, 0x00, 0x7b,
  0x61, 0xd0, 0x54, 0x27, 0x15, 0xb2, 0x8f, 0x81, 0xf5, 0x3a, 0x2c, 0xc3, 0xce,
  0x3c, 0xb0, 0x0d, 0x70, 0xeb, 0x7f, 0xd7, 0xe1, 0x30, 0xa0, 0x7f, 0x6e, 0x4d,
  0x67, 0xea, 0x7f, 0xf1, 0xb9, 0x5e, 0x7f, 0x33, 0xcc, 0xc2, 0x64, 0xb2, 0xc8,
  0x08, 0xb6, 0x4d, 0xed, 0xfb, 0xad, 0x22, 0xb9, 0x24, 0x72, 0x73, 0x56, 0x81,
  0xbd, 0x00, 0x00, 0xd0, 0x97, 0xff, 0xff, 0xde, 0xdc, 0xff, 0xff, 0x04, 0x00,
  0x00, 0x00, 0x60, 0x00, 0x00, 0x00, 0x00, 0x00, 0x00, 0x00, 0x00, 0x00, 0x00,
  0x00, 0x00, 0x00, 0x00, 0x00, 0x00, 0x00, 0x00, 0x00, 0x00, 0x00, 0x00, 0x00,
  0x00, 0x00, 0x00, 0x00, 0x00, 0x00, 0x00, 0x00, 0x00, 0x00, 0x00, 0x00, 0x00,
  0x00, 0x00, 0x00, 0x00, 0x00, 0x00, 0x00, 0x00, 0x00, 0x00, 0x00, 0x00, 0x00,
  0x00, 0x00, 0x00, 0x00, 0x00, 0x00, 0x00, 0x00, 0x00, 0x00, 0x00, 0x00, 0x00,
  0x00, 0x00, 0x00, 0x00, 0x00, 0x00, 0x00, 0x00, 0x00, 0x00, 0x00, 0x00, 0x00,
  0x00, 0x00, 0x00, 0x00, 0x00, 0x00, 0x00, 0x00, 0x00, 0x00, 0x00, 0x00, 0x00,
  0x00, 0x00, 0x00, 0x00, 0x00, 0x00, 0x00, 0x00, 0x00, 0x00, 0x00, 0x4a, 0xdd,
  0xff, 0xff, 0x04, 0x00, 0x00, 0x00, 0x6c, 0x00, 0x00, 0x00, 0xfe, 0xcb, 0x7f,
  0x50, 0x17, 0x75, 0x7f, 0x7f, 0x55, 0x9e, 0x4d, 0xb2, 0xff, 0xc6, 0x43, 0x87,
  0x7f, 0x81, 0x63, 0xb4, 0xd2, 0x30, 0xd3, 0x2c, 0x2f, 0x81, 0x9b, 0x76, 0x56,
  0xba, 0xe8, 0xec, 0xdc, 0x00, 0x81, 0x16, 0x18, 0xf0, 0xb5, 0x43, 0x34, 0x57,
  0x8c, 0x9b, 0x9a, 0xc8, 0x1e, 0x3a, 0x7f, 0xc8, 0x6b, 0xdf, 0xca, 0x2d, 0xd0,
  0xb4, 0xbe, 0xa6, 0x5e, 0xf8, 0x95, 0xeb, 0x9f, 0xc3, 0x2b, 0xf0, 0x08, 0x5c,
  0x5c, 0xfb, 0x1e, 0x81, 0xd7, 0x38, 0x08, 0x17, 0x71, 0xee, 0x5d, 0x69, 0x01,
  0x7f, 0x22, 0x83, 0xb0, 0xbe, 0xec, 0xdb, 0x09, 0x30, 0x12, 0x60, 0x81, 0x88,
  0xaf, 0x4a, 0x3e, 0x44, 0x9e, 0x7f, 0x75, 0x37, 0xa8, 0xc8, 0x42, 0x82, 0x3c,
  0x3e, 0xc2, 0xdd, 0xff, 0xff, 0x04, 0x00, 0x00, 0x00, 0x48, 0x00, 0x00, 0x00,
  0x00, 0x00, 0x00, 0x00, 0x00, 0x00, 0x00, 0x00, 0x00, 0x00, 0x00, 0x00, 0x00,
  0x00, 0x00, 0x00, 0x00, 0x00, 0x00, 0x00, 0x00, 0x00, 0x00, 0x00, 0x00, 0x00,
  0x00, 0x00, 0x00, 0x00, 0x00, 0x00, 0x00, 0x00, 0x00, 0x00, 0x00, 0x00, 0x00,
  0x00, 0x00, 0x00, 0x00, 0x00, 0x00, 0x00, 0x00, 0x00, 0x00, 0x00, 0x00, 0x00,
  0x00, 0x00, 0x00, 0x00, 0x00, 0x00, 0x00, 0x00, 0x00, 0x00, 0x00, 0x00, 0x00,
  0x00, 0x00, 0x00, 0x00, 0x00, 0x00, 0x00, 0x16, 0xde, 0xff, 0xff, 0x04, 0x00,
  0x00, 0x00, 0x36, 0x00, 0x00, 0x00, 0xb9, 0x2d, 0xa7, 0x04, 0x3f, 0x32, 0x3c,
  0x56, 0x02, 0xf6, 0x9a, 0xba, 0x81, 0x1d, 0x22, 0x7f, 0xc6, 0x18, 0xc6, 0x12,
  0x0d, 0x8f, 0x47, 0xdf, 0x31, 0x01, 0x7f, 0x02, 0x81, 0x90, 0xdd, 0x81, 0xe8,
  0x07, 0x9a, 0xb3, 0xb5, 0x6f, 0xd6, 0x64, 0x02, 0x49, 0xdf, 0x42, 0x27, 0x8c,
  0x83, 0x55, 0xd4, 0x6f, 0xbe, 0xb0, 0xa5, 0x81, 0x00, 0x00, 0x5a, 0xde, 0xff,
  0xff, 0x04, 0x00, 0x00, 0x00, 0x24, 0x00, 0x00, 0x00, 0x00, 0x00, 0x00, 0x00,
  0x00, 0x00, 0x00, 0x00, 0x00, 0x00, 0x00, 0x00, 0x00, 0x00, 0x00, 0x00, 0x00,
  0x00, 0x00, 0x00, 0x00, 0x00, 0x00, 0x00, 0x00, 0x00, 0x00, 0x00, 0x00, 0x00,
  0x00, 0x00, 0x00, 0x00, 0x00, 0x00, 0x8a, 0xde, 0xff, 0xff, 0x04, 0x00, 0x00,
  0x00, 0x36, 0x00, 0x00, 0x00, 0xe1, 0x39, 0x05, 0x7c, 0x21, 0x44, 0xe1, 0x81,
  0x41, 0x7f, 0x96, 0x2e, 0xcf, 0x66, 0xbf, 0xf2, 0x8e, 0x7f, 0xe3, 0xc0, 0x85,
  0x6e, 0xe1, 0x6f, 0x7f, 0x3c, 0xfb, 0xf2, 0x81, 0x8b, 0x3f, 0x12, 0x38, 0xc9,
  0xbc, 0xb8, 0x10, 0xdc, 0x6c, 0x50, 0xe3, 0x2f, 0x63, 0x3c, 0x81, 0x5c, 0x81,
  0x22, 0xe6, 0x1c, 0xa2, 0x70, 0x44, 0xb8, 0x00, 0x00, 0xc4, 0x99, 0xff, 0xff,
  0xd2, 0xde, 0xff, 0xff, 0x04, 0x00, 0x00, 0x00, 0x80, 0x00, 0x00, 0x00, 0x00,
  0x00, 0x00, 0x00, 0x00, 0x00, 0x00, 0x00, 0x00, 0x00, 0x00, 0x00, 0x00, 0x00,
  0x00, 0x00, 0x00, 0x00, 0x00, 0x00, 0x00, 0x00, 0x00, 0x00, 0x00, 0x00, 0x00,
  0x00, 0x00, 0x00, 0x00, 0x00, 0x00, 0x00, 0x00, 0x00, 0x00, 0x00, 0x00, 0x00,
  0x00, 0x00, 0x00, 0x00, 0x00, 0x00, 0x00, 0x00, 0x00, 0x00, 0x00, 0x00, 0x00,
  0x00, 0x00, 0x00, 0x00, 0x00, 0x00, 0x00, 0x00, 0x00, 0x00, 0x00, 0x00, 0x00,
  0x00, 0x00, 0x00, 0x00, 0x00, 0x00, 0x00, 0x00, 0x00, 0x00, 0x00, 0x00, 0x00,
  0x00, 0x00, 0x00, 0x00, 0x00, 0x00, 0x00, 0x00, 0x00, 0x00, 0x00, 0x00, 0x00,
  0x00, 0x00, 0x00, 0x00, 0x00, 0x00, 0x00, 0x00, 0x00, 0x00, 0x00, 0x00, 0x00,
  0x00, 0x00, 0x00, 0x00, 0x00, 0x00, 0x00, 0x00, 0x00, 0x00, 0x00, 0x00, 0x00,
  0x00, 0x00, 0x00, 0x00, 0x00, 0x00, 0x00, 0x00, 0x00, 0x00, 0x5e, 0xdf, 0xff,
  0xff, 0x04, 0x00, 0x00, 0x00, 0x90, 0x00, 0x00, 0x00, 0x64, 0x19, 0xf9, 0x0a,
  0x3c, 0xc6, 0xcd, 0x8c, 0xe7, 0x0d, 0xec, 0x19, 0x89, 0x0d, 0x52, 0x0b, 0xb5,
  0xf2, 0xb6, 0xa9, 0x6f, 0x22, 0x84, 0xa7, 0xd0, 0xc1, 0x20, 0xf0, 0x0f, 0x17,
  0xca, 0x17, 0x7f, 0x34, 0x0e, 0x84, 0xd5, 0x64, 0x6f, 0x4b, 0xf7, 0xf0, 0x00,
  0x15, 0xa2, 0x27, 0x98, 0x14, 0xfe, 0x81, 0xc8, 0x04, 0x50, 0x7f, 0x81, 0x5e,
  0xae, 0xa4, 0x1d, 0xf7, 0x46, 0x30, 0xb1, 0x11, 0xb4, 0x65, 0xc0, 0xd3, 0x7f,
  0xcb, 0x29, 0x95, 0x81, 0x81, 0x7f, 0x81, 0x9b, 0x7f, 0xf3, 0x81, 0x06, 0x0c,
  0x7f, 0xfa, 0x23, 0x8d, 0xfe, 0x7f, 0xd0, 0xaf, 0xf8, 0xe7, 0x81, 0x1e, 0xac,
  0xcd, 0x02, 0x2d, 0xf8, 0xf8, 0xbe, 0x95, 0xce, 0xf9, 0xfe, 0xe6, 0x17, 0xf2,
  0x43, 0x2c, 0xc8, 0xd1, 0x74, 0x2d, 0xb8, 0x21, 0x02, 0x61, 0xb2, 0x75, 0xda,
  0xb4, 0x01, 0xf1, 0x4a, 0x33, 0x81, 0xdf, 0x61, 0x12, 0x68, 0x81, 0x9c, 0x89,
  0x44, 0xaf, 0xe6, 0xf5, 0x00, 0x01, 0x1f, 0x1e, 0x17, 0xe6, 0xfa, 0xdf, 0xff,
  0xff, 0x04, 0x00, 0x00, 0x00, 0x80, 0x00, 0x00, 0x00, 0x00, 0x00, 0x00, 0x00,
  0x00, 0x00, 0x00, 0x00, 0xb3, 0x09, 0x7f, 0xba, 0x00, 0xd9, 0x33, 0x4d, 0x00,
  0x00, 0x00, 0x00, 0x00, 0x00, 0x00, 0x00, 0x99, 0x9d, 0x7a, 0x8a, 0x00, 0xad,
  0x42, 0x7f, 0x00, 0x00, 0x00, 0x00, 0x00, 0x00, 0x00, 0x00, 0xad, 0xe9, 0xcc,
  0x81, 0x00, 0xeb, 0xaf, 0x0b, 0x00, 0x00, 0x00, 0x00, 0x00, 0x00, 0x00, 0x00,
  0x65, 0x7f, 0x02, 0xe6, 0x00, 0x72, 0xd4, 0x0c, 0x00, 0x00, 0x00, 0x00, 0x00,
  0x00, 0x00, 0x00, 0xc4, 0xed, 0x99, 0x11, 0x00, 0x81, 0x11, 0x09, 0x00, 0x00,
  0x00, 0x00, 0x00, 0x00, 0x00, 0x00, 0xb1, 0xc7, 0xeb, 0x1b, 0x00, 0xf7, 0x81,
  0x01, 0x00, 0x00, 0x00, 0x00, 0x00, 0x00, 0x00, 0x00, 0x19, 0x42, 0xc9, 0x81,
  0x00, 0x2b, 0xfe, 0xd6, 0x00, 0x00, 0x00, 0x00, 0x00, 0x00, 0x00, 0x00, 0xbe,
  0xf9, 0x0b, 0x96, 0x00, 0xd9, 0x24, 0x7f, 0x86, 0xe0, 0xff, 0xff, 0x04, 0x00,
  0x00, 0x00, 0x48, 0x00, 0x00, 0x00, 0x17, 0xc5, 0x0c, 0xb7, 0xe7, 0x1a, 0xd6,
  0xff, 0x7a, 0xa5, 0x38, 0xf7, 0xe9, 0x97, 0xfa, 0xd3, 0x83, 0x1a, 0xfd, 0x81,
  0xf8, 0x29, 0x32, 0x81, 0x1f, 0x81, 0x2b, 0xa8, 0xdf, 0xd3, 0x81, 0xcd, 0x57,
  0xcf, 0x7f, 0x7d, 0x3a, 0x81, 0x13, 0xb1, 0x81, 0x38, 0x56, 0x03, 0x81, 0xaa,
  0x69, 0xec, 0xe8, 0x20, 0xd9, 0xc2, 0x0e, 0x36, 0x0d, 0xc1, 0xc7, 0x1f, 0x72,
  0xe6, 0xe9, 0x85, 0x0a, 0x49, 0x1d, 0x36, 0xd2, 0xd9, 0xff, 0xd6, 0xe8, 0xdd,
  0xda, 0xe0, 0xff, 0xff, 0x04, 0x00, 0x00, 0x00, 0x40, 0x00, 0x00, 0x00, 0xd8,
  0x2e, 0xb0, 0xeb, 0x7f, 0xcf, 0xdb, 0xc2, 0xf8, 0xeb, 0x0b, 0xf6, 0x0d, 0x0a,
  0x7f, 0x0a, 0xe2, 0xcf, 0x81, 0xc9, 0xff, 0xad, 0x0b, 0xef, 0x81, 0xf9, 0x5e,
  0xf4, 0xcb, 0x16, 0xb3, 0xd2, 0xfe, 0x81, 0x34, 0xd0, 0x17, 0x08, 0x44, 0xd0,
  0x81, 0xc4, 0x03, 0x9b, 0x34, 0xba, 0x00, 0x22, 0xef, 0x81, 0x55, 0xb6, 0xab,
  0x87, 0x0b, 0x52, 0xb5, 0xd4, 0xc6, 0x46, 0xc1, 0x7f, 0xfe, 0x64, 0x26, 0xe1,
  0xff, 0xff, 0x04, 0x00, 0x00, 0x00, 0x48, 0x00, 0x00, 0x00, 0xc8, 0x14, 0xe0,
  0x54, 0x89, 0x29, 0x0e, 0xf5, 0x3e, 0xf9, 0x07, 0x0b, 0x05, 0x3d, 0xed, 0xeb,
  0x9c, 0x33, 0xed, 0x4b, 0x81, 0x1b, 0x87, 0xf8, 0x7e, 0xfb, 0x7f, 0x26, 0x27,
  0x36, 0xfd, 0xdd, 0x54, 0x2b, 0x72, 0x0c, 0x42, 0xac, 0x06, 0x43, 0x7f, 0x7f,
  0x4c, 0x7e, 0x36, 0x1e, 0x0d, 0xf3, 0x04, 0x01, 0xe8, 0x49, 0x9d, 0x7f, 0x7f,
  0x81, 0xd4, 0x02, 0xde, 0x20, 0x10, 0xe6, 0x7e, 0x2c, 0x40, 0x44, 0xc7, 0x7f,
  0x9c, 0x6b, 0xd6, 0xd8, 0x7a, 0xe1, 0xff, 0xff, 0x04, 0x00, 0x00, 0x00, 0x40,
  0x00, 0x00, 0x00, 0x28, 0xf1, 0x8e, 0xd1, 0x5f, 0x12, 0x7f, 0x06, 0x33, 0x46,
  0x55, 0x31, 0x5f, 0x0d, 0x81, 0x14, 0x2f, 0x0c, 0x81, 0xf6, 0x3b, 0xed, 0x12,
  0x08, 0x10, 0xfd, 0xaa, 0xf9, 0x01, 0x12, 0x81, 0x26, 0x6b, 0x2a, 0x1d, 0x7f,
  0xae, 0xa0, 0xd4, 0x3d, 0xe2, 0x5c, 0xac, 0x2f, 0x27, 0x09, 0x0e, 0x7f, 0xef,
  0x6f, 0x7f, 0x19, 0x3d, 0xf5, 0x06, 0x42, 0x81, 0xe1, 0x22, 0x25, 0xc8, 0x49,
  0xd4, 0x92, 0xc6, 0xe1, 0xff, 0xff, 0x04, 0x00, 0x00, 0x00, 0x90, 0x00, 0x00,
  0x00, 0x00, 0x01, 0x4c, 0xf9, 0xe5, 0x03, 0xf8, 0xfa, 0xff, 0x2b, 0x2a, 0x12,
  0x2d, 0x42, 0xde, 0x12, 0x13, 0x1f, 0xb0, 0xcc, 0xe7, 0x07, 0x0c, 0xe0, 0xe3,
  0xb4, 0xc6, 0x7f, 0xec, 0xa9, 0x81, 0x2c, 0x09, 0x17, 0x0b, 0x66, 0xc5, 0xbc,
  0x8e, 0x81, 0x0f, 0xde, 0x06, 0x16, 0xe8, 0x6b, 0x16, 0x05, 0xfd, 0xdb, 0xd2,
  0x39, 0x81, 0x8f, 0xbb, 0xfa, 0xf8, 0xb4, 0xe4, 0x6a, 0xc3, 0x01, 0x14, 0xf1,
  0x0d, 0x0a, 0x9c, 0x0c, 0xe2, 0x81, 0x81, 0xba, 0x7d, 0x7f, 0x81, 0x02, 0x81,
  0x7f, 0xb6, 0x28, 0x17, 0x7f, 0xb6, 0x7f, 0xc7, 0x81, 0xb3, 0x84, 0x0c, 0x94,
  0xde, 0x05, 0x6d, 0xca, 0x13, 0xf8, 0x81, 0x2c, 0xe3, 0xc3, 0xa9, 0x33, 0x0f,
  0xe6, 0xf2, 0x6e, 0x2c, 0xff, 0x00, 0xd2, 0x03, 0xfc, 0x06, 0x04, 0x81, 0xa2,
  0xbe, 0xfa, 0x2d, 0xf4, 0x7f, 0x61, 0x2d, 0xf5, 0xd3, 0x08, 0x44, 0x81, 0xf9,
  0x04, 0x27, 0xa5, 0x95, 0xe1, 0x90, 0xb8, 0x3f, 0xf2, 0x0e, 0xef, 0x6d, 0x0b,
  0xf1, 0x23, 0x62, 0xe2, 0xff, 0xff, 0x04, 0x00, 0x00, 0x00, 0x80, 0x00, 0x00,
  0x00, 0x52, 0x93, 0x81, 0xef, 0xc3, 0xd4, 0x19, 0x0e, 0x3e, 0xc6, 0x5f, 0x1e,
  0x0e, 0xf9, 0x1f, 0x24, 0x1e, 0x0d, 0xf4, 0x81, 0xf5, 0xfe, 0x07, 0x11, 0xe5,
  0xe7, 0x02, 0xf1, 0xf6, 0xe7, 0xf8, 0xee, 0x7f, 0xbf, 0x4c, 0x94, 0x1a, 0xc5,
  0x29, 0xd5, 0xf1, 0xe5, 0x11, 0xce, 0xde, 0xd3, 0xab, 0x85, 0xdf, 0x1e, 0x7f,
  0xf1, 0x23, 0x08, 0x03, 0xff, 0x9e, 0x23, 0xd0, 0xfd, 0x4e, 0x08, 0x05, 0x14,
  0xbe, 0x81, 0xab, 0x31, 0xbf, 0xc1, 0x2d, 0xf9, 0x34, 0x1e, 0x14, 0xb3, 0xe4,
  0xb2, 0x87, 0xaf, 0x72, 0xe0, 0xf0, 0x29, 0xd8, 0xdb, 0x0b, 0xfa, 0x1c, 0x88,
  0x47, 0x32, 0x81, 0xff, 0x08, 0xba, 0xfd, 0xfb, 0x50, 0xd8, 0x02, 0x2a, 0xbd,
  0xc0, 0xc2, 0x0a, 0xbf, 0x24, 0xf2, 0xcf, 0xf7, 0x81, 0xbf, 0xd2, 0xcb, 0x00,
  0xac, 0x2d, 0xd2, 0x21, 0x2c, 0xf8, 0x28, 0x39, 0xec, 0xff, 0x81, 0xf0, 0xee,
  0xe2, 0xff, 0xff, 0x04, 0x00, 0x00, 0x00, 0x48, 0x00, 0x00, 0x00, 0xf5, 0xc6,
  0xcf, 0xfd, 0xe3, 0x05, 0xec, 0x05, 0xe4, 0x81, 0xd1, 0xde, 0xeb, 0x31, 0xfa,
  0xbb, 0xee, 0xc8, 0xe8, 0xf2, 0xff, 0xd8, 0xed, 0x03, 0xec, 0x14, 0xed, 0x7f,
  0x1e, 0x24, 0xe1, 0xe3, 0x7f, 0xa9, 0xde, 0x06, 0x81, 0x7f, 0x7f, 0x7f, 0x06,
  0x03, 0x9d, 0xd4, 0xd9, 0xd6, 0x0f, 0xd7, 0xe1, 0x02, 0x26, 0xe3, 0x10, 0xe1,
  0xc3, 0xe3, 0x18, 0xf2, 0x81, 0xdb, 0xf1, 0xdc, 0x50, 0x28, 0x06, 0x11, 0xf9,
  0xf8, 0xfd, 0xf0, 0xf8, 0xeb, 0x42, 0xe3, 0xff, 0xff, 0x04, 0x00, 0x00, 0x00,
  0x40, 0x00, 0x00, 0x00, 0x5e, 0x13, 0xec, 0xe3, 0xed, 0xf3, 0x50, 0x81, 0x0d,
  0xd9, 0x33, 0xe2, 0xc6, 0x2d, 0xed, 0x7f, 0x0c, 0x81, 0x52, 0xfc, 0x09, 0xa3,
  0x13, 0x4e, 0x81, 0x09, 0x21, 0xd0, 0xf9, 0x68, 0xd6, 0x20, 0x81, 0x09, 0xe1,
  0x21, 0xf3, 0xc6, 0xed, 0x37, 0xe6, 0xae, 0x07, 0xae, 0x3f, 0x81, 0x3e, 0xbb,
  0x0f, 0x81, 0xa8, 0xf2, 0x36, 0x2c, 0xe2, 0x2d, 0x81, 0x25, 0xb8, 0x9a, 0xd7,
  0xb4, 0xc2, 0xda, 0x8e, 0xe3, 0xff, 0xff, 0x04, 0x00, 0x00, 0x00, 0x48, 0x00,
  0x00, 0x00, 0xe8, 0x81, 0x28, 0x81, 0xae, 0xf5, 0xe6, 0xc9, 0x29, 0xcb, 0xd4,
  0xd9, 0x23, 0xe8, 0x2f, 0xf8, 0xe3, 0xc0, 0x2f, 0x2f, 0x7f, 0x5d, 0xf0, 0x81,
  0x56, 0x02, 0xbb, 0xb5, 0xc6, 0x36, 0x42, 0xe2, 0x7f, 0xe9, 0x81, 0x64, 0xb3,
  0x81, 0x7f, 0xe2, 0xf6, 0xb2, 0xfe, 0x5f, 0x9a, 0xf1, 0x32, 0xec, 0xd3, 0xd5,
  0x22, 0x27, 0x45, 0xfb, 0xf7, 0x08, 0x28, 0xda, 0xee, 0x0a, 0xb1, 0x2c, 0xfb,
  0xe1, 0x35, 0xea, 0xf1, 0x02, 0x79, 0xd7, 0xe5, 0xca, 0xe2, 0xe3, 0xff, 0xff,
  0x04, 0x00, 0x00, 0x00, 0x20, 0x00, 0x00, 0x00, 0x81, 0xd4, 0x1d, 0xa4, 0xd0,
  0xb3, 0xfd, 0xc5, 0x81, 0xfa, 0xfa, 0xf1, 0x01, 0xfe, 0x01, 0x04, 0x0d, 0xce,
  0x43, 0xad, 0x81, 0x9a, 0x20, 0x9f, 0x1d, 0xe0, 0xcf, 0x2b, 0x10, 0x12, 0x81,
  0x1a, 0x0e, 0xe4, 0xff, 0xff, 0x04, 0x00, 0x00, 0x00, 0x48, 0x00, 0x00, 0x00,
  0x3b, 0x7f, 0x56, 0xec, 0x22, 0xc2, 0x15, 0x6b, 0x55, 0x0b, 0x6b, 0xff, 0x1b,
  0x12, 0x43, 0x16, 0x2c, 0x03, 0x2b, 0xfd, 0xfd, 0xf2, 0xd0, 0x0e, 0x78, 0xfe,
  0x2c, 0x81, 0x91, 0xf1, 0xbb, 0x96, 0x7f, 0xff, 0x5f, 0xa6, 0xec, 0x4d, 0x9e,
  0x81, 0x52, 0xfe, 0x60, 0xb4, 0x24, 0xf3, 0x4b, 0x28, 0x44, 0x00, 0x5a, 0x92,
  0x7f, 0x7f, 0x81, 0x93, 0x70, 0x02, 0x7f, 0xc8, 0x8c, 0xce, 0xa1, 0x33, 0x7d,
  0x00, 0x32, 0xdc, 0x1c, 0x09, 0x32, 0x29, 0x62, 0xe4, 0xff, 0xff, 0x04, 0x00,
  0x00, 0x00, 0x20, 0x00, 0x00, 0x00, 0x10, 0xf3, 0x00, 0x81, 0x0c, 0xfe, 0x3b,
  0xf8, 0x30, 0x81, 0x2e, 0xee, 0x69, 0xf8, 0x27, 0xdd, 0xf6, 0x81, 0x00, 0x32,
  0x02, 0xff, 0xeb, 0x00, 0x81, 0xc4, 0x29, 0xe4, 0x3a, 0x19, 0x10, 0xfc, 0x8e,
  0xe4, 0xff, 0xff, 0x04, 0x00, 0x00, 0x00, 0x24, 0x00, 0x00, 0x00, 0xe8, 0x02,
  0x05, 0x04, 0x7f, 0x04, 0x97, 0x8d, 0x53, 0x08, 0x81, 0xb8, 0x12, 0x01, 0x18,
  0xa7, 0x59, 0x03, 0x9c, 0xaa, 0x78, 0x1b, 0xac, 0xb4, 0x0f, 0xf7, 0xf0, 0xcf,
  0x1a, 0x06, 0x1f, 0xb9, 0xf0, 0x7f, 0x04, 0x7f, 0xbe, 0xe4, 0xff, 0xff, 0x04,
  0x00, 0x00, 0x00, 0x10, 0x00, 0x00, 0x00, 0x7f, 0x11, 0x06, 0x29, 0x04, 0x7f,
  0x08, 0x1b, 0xca, 0x0a, 0x7f, 0xd0, 0x96, 0x1a, 0x15, 0x81, 0xda, 0xe4, 0xff,
  0xff, 0x04, 0x00, 0x00, 0x00, 0x24, 0x00, 0x00, 0x00, 0x88, 0x81, 0x0f, 0xef,
  0xe6, 0xf6, 0x07, 0xec, 0xcd, 0x00, 0x18, 0xfd, 0x44, 0x09, 0x12, 0xfd, 0x7f,
  0x0d, 0x81, 0x81, 0x58, 0x0b, 0x0f, 0xe4, 0xa2, 0x0a, 0x14, 0x08, 0xfc, 0x09,
  0x11, 0xf2, 0x25, 0x01, 0x0e, 0x4c, 0x0a, 0xe5, 0xff, 0xff, 0x04, 0x00, 0x00,
  0x00, 0x08, 0x00, 0x00, 0x00, 0xf7, 0x12, 0x7f, 0xee, 0xdf, 0x7f, 0x88, 0x81,
  0x1e, 0xe5, 0xff, 0xff, 0x04, 0x00, 0x00, 0x00, 0x10, 0x00, 0x00, 0x00, 0xa6,
  0xf2, 0xff, 0xff, 0xff, 0xff, 0xff, 0xff, 0xb5, 0xfb, 0xff, 0xff, 0xff, 0xff,
  0xff, 0xff, 0x3a, 0xe5, 0xff, 0xff, 0x04, 0x00, 0x00, 0x00, 0x20, 0x00, 0x00,
  0x00, 0x19, 0xe0, 0x22, 0x00, 0x00, 0x00, 0x00, 0x00, 0xee, 0xbf, 0xff, 0xff,
  0xff, 0xff, 0xff, 0xff, 0x71, 0x2e, 0x00, 0x00, 0x00, 0x00, 0x00, 0x00, 0x6e,
  0xaf, 0x0c, 0x00, 0x00, 0x00, 0x00, 0x00, 0x66, 0xe5, 0xff, 0xff, 0x04, 0x00,
  0x00, 0x00, 0x20, 0x00, 0x00, 0x00, 0x1f, 0xea, 0xff, 0xff, 0xff, 0xff, 0xff,
  0xff, 0x36, 0x00, 0x00, 0x00, 0x00, 0x00, 0x00, 0x00, 0x3a, 0x01, 0x00, 0x00,
  0x00, 0x00, 0x00, 0x00, 0xdc, 0x1d, 0x00, 0x00, 0x00, 0x00, 0x00, 0x00, 0x92,
  0xe5, 0xff, 0xff, 0x04, 0x00, 0x00, 0x00, 0x40, 0x00, 0x00, 0x00, 0x30, 0xe4,
  0x02, 0x00, 0x00, 0x00, 0x00, 0x00, 0x52, 0x9e, 0xfd, 0xff, 0xff, 0xff, 0xff,
  0xff, 0xeb, 0x04, 0x07, 0x00, 0x00, 0x00, 0x00, 0x00, 0x15, 0x5c, 0xff, 0xff,
  0xff, 0xff, 0xff, 0xff, 0x12, 0x82, 0xff, 0xff, 0xff, 0xff, 0xff, 0xff, 0xc6,
  0x63, 0x01, 0x00, 0x00, 0x00, 0x00, 0x00, 0x61, 0x66, 0xff, 0xff, 0xff, 0xff,
  0xff, 0xff, 0xdd, 0x0b, 0xff, 0xff, 0xff, 0xff, 0xff, 0xff, 0xde, 0xe5, 0xff,
  0xff, 0x04, 0x00, 0x00, 0x00, 0x40, 0x00, 0x00, 0x00, 0xaf, 0x0a, 0x00, 0x00,
  0x00, 0x00, 0x00, 0x00, 0x71, 0x62, 0xfc, 0xff, 0xff, 0xff, 0xff, 0xff, 0xfb,
  0x93, 0xf6, 0xff, 0xff, 0xff, 0xff, 0xff, 0x2d, 0x3a, 0x03, 0x00, 0x00, 0x00,
  0x00, 0x00, 0x33, 0x97, 0xf7, 0xff, 0xff, 0xff, 0xff, 0xff, 0x5b, 0x30, 0x01,
  0x00, 0x00, 0x00, 0x00, 0x00, 0x0e, 0x11, 0x09, 0x00, 0x00, 0x00, 0x00, 0x00,
  0x97, 0xc8, 0xff, 0xff, 0xff, 0xff, 0xff, 0xff, 0x2a, 0xe6, 0xff, 0xff, 0x04,
  0x00, 0x00, 0x00, 0x40, 0x00, 0x00, 0x00, 0x9d, 0x7b, 0xff, 0xff, 0xff, 0xff,
  0xff, 0xff, 0x97, 0xca, 0x03, 0x00, 0x00, 0x00, 0x00, 0x00, 0xef, 0x2f, 0xfd,
  0xff, 0xff, 0xff, 0xff, 0xff, 0x99, 0x11, 0xfd, 0xff, 0xff, 0xff, 0xff, 0xff,
  0xe9, 0x62, 0x00, 0x00, 0x00, 0x00, 0x00, 0x00, 0xa6, 0xe6, 0xfa, 0xff, 0xff,
  0xff, 0xff, 0xff, 0x18, 0x01, 0xff, 0xff, 0xff, 0xff, 0xff, 0xff, 0xf8, 0x0d,
  0x04, 0x00, 0x00, 0x00, 0x00, 0x00, 0x76, 0xe6, 0xff, 0xff, 0x04, 0x00, 0x00,
  0x00, 0x40, 0x00, 0x00, 0x00, 0xfb, 0x37, 0x04, 0x00, 0x00, 0x00, 0x00, 0x00,
  0xad, 0x36, 0xff, 0xff, 0xff, 0xff, 0xff, 0xff, 0xf8, 0xe4, 0x02, 0x00, 0x00,
  0x00, 0x00, 0x00, 0x92, 0x27, 0xfe, 0xff, 0xff, 0xff, 0xff, 0xff, 0x00, 0x00,
  0x00, 0xc0, 0xff, 0xff, 0xff, 0xff, 0xec, 0xd3, 0x00, 0x00, 0x00, 0x00, 0x00,
  0x00, 0x57, 0x95, 0x02, 0x00, 0x00, 0x00, 0x00, 0x00, 0xb6, 0xcd, 0xf7, 0xff,
  0xff, 0xff, 0xff, 0xff, 0xc2, 0xe6, 0xff, 0xff, 0x04, 0x00, 0x00, 0x00, 0x30,
  0x00, 0x00, 0x00, 0x00, 0x00, 0x00, 0xc0, 0xff, 0xff, 0xff, 0xff, 0x00, 0x00,
  0x00, 0xc0, 0xff, 0xff, 0xff, 0xff, 0x00, 0x00, 0x00, 0xc0, 0xff, 0xff, 0xff,
  0xff, 0x00, 0x00, 0x00, 0xc0, 0xff, 0xff, 0xff, 0xff, 0x00, 0x00, 0x00, 0xc0,
  0xff, 0xff, 0xff, 0xff, 0x00, 0x00, 0x00, 0x40, 0x00, 0x00, 0x00, 0x00, 0xfe,
  0xe6, 0xff, 0xff, 0x04, 0x00, 0x00, 0x00, 0x30, 0x00, 0x00, 0x00, 0x00, 0x00,
  0x00, 0xc0, 0xff, 0xff, 0xff, 0xff, 0x00, 0x00, 0x00, 0xc0, 0xff, 0xff, 0xff,
  0xff, 0x00, 0x00, 0x00, 0xc0, 0xff, 0xff, 0xff, 0xff, 0x00, 0x00, 0x00, 0xc0,
  0xff, 0xff, 0xff, 0xff, 0x00, 0x00, 0x00, 0xc0, 0xff, 0xff, 0xff, 0xff, 0x40,
  0x00, 0x00, 0xc0, 0xff, 0xff, 0xff, 0xff, 0x3a, 0xe7, 0xff, 0xff, 0x04, 0x00,
  0x00, 0x00, 0x30, 0x00, 0x00, 0x00, 0x00, 0x00, 0x00, 0x00, 0x00, 0x00, 0x00,
  0x00, 0x00, 0x00, 0x00, 0x00, 0x00, 0x00, 0x00, 0x00, 0x00, 0x00, 0x00, 0x00,
  0x00, 0x00, 0x00, 0x00, 0x00, 0x00, 0x00, 0x00, 0x00, 0x00, 0x00, 0x00, 0x00,
  0x00, 0x00, 0x00, 0x00, 0x00, 0x00, 0x00, 0x00, 0x00, 0x00, 0x00, 0x00, 0x00,
  0x00, 0x00, 0x76, 0xe7, 0xff, 0xff, 0x04, 0x00, 0x00, 0x00, 0x30, 0x00, 0x00,
  0x00, 0x00, 0x00, 0x00, 0x40, 0x00, 0x00, 0x00, 0x00, 0x80, 0xff, 0xff, 0xbf,
  0xff, 0xff, 0xff, 0xff, 0x80, 0xff, 0xff, 0xbf, 0xff, 0xff, 0xff, 0xff, 0x00,
  0x00, 0x00, 0xc0, 0xff, 0xff, 0xff, 0xff, 0x00, 0x00, 0x00, 0xc0, 0xff, 0xff,
  0xff, 0xff, 0x00, 0x00, 0x00, 0xc0, 0xff, 0xff, 0xff, 0xff, 0xb2, 0xe7, 0xff,
  0xff, 0x04, 0x00, 0x00, 0x00, 0x30, 0x00, 0x00, 0x00, 0x40, 0x00, 0x00, 0xc0,
  0xff, 0xff, 0xff, 0xff, 0x40, 0x00, 0x00, 0xc0, 0xff, 0xff, 0xff, 0xff, 0x40,
  0x00, 0x00, 0xc0, 0xff, 0xff, 0xff, 0xff, 0x40, 0x00, 0x00, 0xc0, 0xff, 0xff,
  0xff, 0xff, 0x80, 0xff, 0xff, 0x3f, 0x00, 0x00, 0x00, 0x00, 0x00, 0x00, 0x00,
  0xc0, 0xff, 0xff, 0xff, 0xff, 0xee, 0xe7, 0xff, 0xff, 0x04, 0x00, 0x00, 0x00,
  0x40, 0x00, 0x00, 0x00, 0x00, 0x00, 0x00, 0xc0, 0xff, 0xff, 0xff, 0xff, 0x00,
  0x00, 0x00, 0xc0, 0xff, 0xff, 0xff, 0xff, 0x00, 0x00, 0x00, 0xc0, 0xff, 0xff,
  0xff, 0xff, 0x40, 0x00, 0x00, 0xc0, 0xff, 0xff, 0xff, 0xff, 0x00, 0x00, 0x00,
  0xc0, 0xff, 0xff, 0xff, 0xff, 0x80, 0xff, 0xff, 0xbf, 0xff, 0xff, 0xff, 0xff,
  0x80, 0xff, 0xff, 0xbf, 0xff, 0xff, 0xff, 0xff, 0x40, 0x00, 0x00, 0xc0, 0xff,
  0xff, 0xff, 0xff, 0x3a, 0xe8, 0xff, 0xff, 0x04, 0x00, 0x00, 0x00, 0x40, 0x00,
  0x00, 0x00, 0x3b, 0xa4, 0xf9, 0xff, 0xff, 0xff, 0xff, 0xff, 0x7b, 0x23, 0xfc,
  0xff, 0xff, 0xff, 0xff, 0xff, 0xd6, 0xac, 0xfb, 0xff, 0xff, 0xff, 0xff, 0xff,
  0x9d, 0x1d, 0x01, 0x00, 0x00, 0x00, 0x00, 0x00, 0xda, 0x2e, 0x08, 0x00, 0x00,
  0x00, 0x00, 0x00, 0x4e, 0x40, 0x03, 0x00, 0x00, 0x00, 0x00, 0x00, 0xcc, 0x11,
  0x05, 0x00, 0x00, 0x00, 0x00, 0x00, 0x78, 0xe9, 0x02, 0x00, 0x00, 0x00, 0x00,
  0x00, 0x86, 0xe8, 0xff, 0xff, 0x04, 0x00, 0x00, 0x00, 0x40, 0x00, 0x00, 0x00,
  0xab, 0x21, 0xfc, 0xff, 0xff, 0xff, 0xff, 0xff, 0x4e, 0xc1, 0x00, 0x00, 0x00,
  0x00, 0x00, 0x00, 0x54, 0x22, 0x11, 0x00, 0x00, 0x00, 0x00, 0x00, 0xad, 0x17,
  0x07, 0x00, 0x00, 0x00, 0x00, 0x00, 0xcd, 0x4c, 0x00, 0x00, 0x00, 0x00, 0x00,
  0x00, 0x73, 0xf9, 0x01, 0x00, 0x00, 0x00, 0x00, 0x00, 0x99, 0xc1, 0x23, 0x00,
  0x00, 0x00, 0x00, 0x00, 0x98, 0x2c, 0x10, 0x00, 0x00, 0x00, 0x00, 0x00, 0xd2,
  0xe8, 0xff, 0xff, 0x04, 0x00, 0x00, 0x00, 0x40, 0x00, 0x00, 0x00, 0xc0, 0xcf,
  0x01, 0x00, 0x00, 0x00, 0x00, 0x00, 0x94, 0xce, 0xfc, 0xff, 0xff, 0xff, 0xff,
  0xff, 0xd7, 0x30, 0x06, 0x00, 0x00, 0x00, 0x00, 0x00, 0xf7, 0x06, 0x06, 0x00,
  0x00, 0x00, 0x00, 0x00, 0x67, 0x92, 0x04, 0x00, 0x00, 0x00, 0x00, 0x00, 0xb6,
  0xc8, 0x01, 0x00, 0x00, 0x00, 0x00, 0x00, 0x48, 0x05, 0xfb, 0xff, 0xff, 0xff,
  0xff, 0xff, 0x52, 0x4a, 0xfd, 0xff, 0xff, 0xff, 0xff, 0xff, 0x1e, 0xe9, 0xff,
  0xff, 0x04, 0x00, 0x00, 0x00, 0x40, 0x00, 0x00, 0x00, 0xae, 0x8a, 0x01, 0x00,
  0x00, 0x00, 0x00, 0x00, 0xec, 0x98, 0xfe, 0xff, 0xff, 0xff, 0xff, 0xff, 0xcd,
  0x42, 0x01, 0x00, 0x00, 0x00, 0x00, 0x00, 0xcb, 0x4f, 0xff, 0xff, 0xff, 0xff,
  0xff, 0xff, 0xa2, 0x59, 0xfd, 0xff, 0xff, 0xff, 0xff, 0xff, 0xe6, 0x89, 0x05,
  0x00, 0x00, 0x00, 0x00, 0x00, 0x94, 0x52, 0x00, 0x00, 0x00, 0x00, 0x00, 0x00,
  0x01, 0xb0, 0xfb, 0xff, 0xff, 0xff, 0xff, 0xff, 0x6a, 0xe9, 0xff, 0xff, 0x04,
  0x00, 0x00, 0x00, 0x40, 0x00, 0x00, 0x00, 0x11, 0x9b, 0xfe, 0xff, 0xff, 0xff,
  0xff, 0xff, 0xf2, 0xa8, 0x00, 0x00, 0x00, 0x00, 0x00, 0x00, 0xea, 0x99, 0x02,
  0x00, 0x00, 0x00, 0x00, 0x00, 0x50, 0xed, 0xfe, 0xff, 0xff, 0xff, 0xff, 0xff,
  0x33, 0xa9, 0xff, 0xff, 0xff, 0xff, 0xff, 0xff, 0xe9, 0x1c, 0x00, 0x00, 0x00,
  0x00, 0x00, 0x00, 0x04, 0x9c, 0x03, 0x00, 0x00, 0x00, 0x00, 0x00, 0xb4, 0xc0,
  0x00, 0x00, 0x00, 0x00, 0x00, 0x00, 0xb6, 0xe9, 0xff, 0xff, 0x04, 0x00, 0x00,
  0x00, 0x20, 0x00, 0x00, 0x00, 0x4d, 0xe9, 0x02, 0x00, 0x00, 0x00, 0x00, 0x00,
  0x2a, 0xed, 0xff, 0xff, 0xff, 0xff, 0xff, 0xff, 0xdf, 0x7a, 0x01, 0x00, 0x00,
  0x00, 0x00, 0x00, 0x67, 0x03, 0x06, 0x00, 0x00, 0x00, 0x00, 0x00, 0xe2, 0xe9,
  0xff, 0xff, 0x04, 0x00, 0x00, 0x00, 0x20, 0x00, 0x00, 0x00, 0x2d, 0xf1, 0xff,
  0xff, 0xff, 0xff, 0xff, 0xff, 0x03, 0xfb, 0xff, 0xff, 0xff, 0xff, 0xff, 0xff,
  0xc9, 0xf1, 0xff, 0xff, 0xff, 0xff, 0xff, 0xff, 0x0c, 0x16, 0x00, 0x00, 0x00,
  0x00, 0x00, 0x00, 0x0e, 0xea, 0xff, 0xff, 0x04, 0x00, 0x00, 0x00, 0x20, 0x00,
  0x00, 0x00, 0xfe, 0xff, 0xff, 0xff, 0xff, 0xff, 0xff, 0xff, 0x50, 0xf7, 0xff,
  0xff, 0xff, 0xff, 0xff, 0xff, 0xbe, 0x32, 0x00, 0x00, 0x00, 0x00, 0x00, 0x00,
  0xf0, 0xe2, 0xff, 0xff, 0xff, 0xff, 0xff, 0xff, 0x30, 0xa5, 0xff, 0xff, 0x34,
  0xa5, 0xff, 0xff, 0x0f, 0x00, 0x00, 0x00, 0x4d, 0x4c, 0x49, 0x52, 0x20, 0x43,
  0x6f, 0x6e, 0x76, 0x65, 0x72, 0x74, 0x65, 0x64, 0x2e, 0x00, 0x01, 0x00, 0x00,
  0x00, 0x14, 0x00, 0x00, 0x00, 0x00, 0x00, 0x0e, 0x00, 0x18, 0x00, 0x14, 0x00,
  0x10, 0x00, 0x0c, 0x00, 0x08, 0x00, 0x04, 0x00, 0x0e, 0x00, 0x00, 0x00, 0x14,
  0x00, 0x00, 0x00, 0x1c, 0x00, 0x00, 0x00, 0x24, 0x16, 0x00, 0x00, 0x28, 0x16,
  0x00, 0x00, 0x2c, 0x16, 0x00, 0x00, 0x04, 0x00, 0x00, 0x00, 0x6d, 0x61, 0x69,
  0x6e, 0x00, 0x00, 0x00, 0x00, 0x59, 0x00, 0x00, 0x00, 0xe8, 0x15, 0x00, 0x00,
  0xa4, 0x15, 0x00, 0x00, 0x48, 0x15, 0x00, 0x00, 0x04, 0x15, 0x00, 0x00, 0xb0,
  0x14, 0x00, 0x00, 0x54, 0x14, 0x00, 0x00, 0x20, 0x14, 0x00, 0x00, 0xd8, 0x13,
  0x00, 0x00, 0x90, 0x13, 0x00, 0x00, 0x40, 0x13, 0x00, 0x00, 0x0c, 0x13, 0x00,
  0x00, 0xdc, 0x12, 0x00, 0x00, 0x98, 0x12, 0x00, 0x00, 0x50, 0x12, 0x00, 0x00,
  0x08, 0x12, 0x00, 0x00, 0xd4, 0x11, 0x00, 0x00, 0x8c, 0x11, 0x00, 0x00, 0x44,
  0x11, 0x00, 0x00, 0x04, 0x11, 0x00, 0x00, 0xd0, 0x10, 0x00, 0x00, 0xa0, 0x10,
  0x00, 0x00, 0x5c, 0x10, 0x00, 0x00, 0x14, 0x10, 0x00, 0x00, 0xcc, 0x0f, 0x00,
  0x00, 0x98, 0x0f, 0x00, 0x00, 0x50, 0x0f, 0x00, 0x00, 0x08, 0x0f, 0x00, 0x00,
  0xc8, 0x0e, 0x00, 0x00, 0x94, 0x0e, 0x00, 0x00, 0x64, 0x0e, 0x00, 0x00, 0x20,
  0x0e, 0x00, 0x00, 0xd8, 0x0d, 0x00, 0x00, 0x90, 0x0d, 0x00, 0x00, 0x5c, 0x0d,
  0x00, 0x00, 0x14, 0x0d, 0x00, 0x00, 0xcc, 0x0c, 0x00, 0x00, 0x8c, 0x0c, 0x00,
  0x00, 0x48, 0x0c, 0x00, 0x00, 0x14, 0x0c, 0x00, 0x00, 0xcc, 0x0b, 0x00, 0x00,
  0x84, 0x0b, 0x00, 0x00, 0x60, 0x0b, 0x00, 0x00, 0x28, 0x0b, 0x00, 0x00, 0xf4,
  0x0a, 0x00, 0x00, 0xac, 0x0a, 0x00, 0x00, 0x64, 0x0a, 0x00, 0x00, 0x30, 0x0a,
  0x00, 0x00, 0xe8, 0x09, 0x00, 0x00, 0xa0, 0x09, 0x00, 0x00, 0x68, 0x09, 0x00,
  0x00, 0x34, 0x09, 0x00, 0x00, 0xec, 0x08, 0x00, 0x00, 0xa4, 0x08, 0x00, 0x00,
  0x80, 0x08, 0x00, 0x00, 0x48, 0x08, 0x00, 0x00, 0x14, 0x08, 0x00, 0x00, 0xcc,
  0x07, 0x00, 0x00, 0x84, 0x07, 0x00, 0x00, 0x50, 0x07, 0x00, 0x00, 0x08, 0x07,
  0x00, 0x00, 0xc0, 0x06, 0x00, 0x00, 0x88, 0x06, 0x00, 0x00, 0x54, 0x06, 0x00,
  0x00, 0x0c, 0x06, 0x00, 0x00, 0xc4, 0x05, 0x00, 0x00, 0xa0, 0x05, 0x00, 0x00,
  0x68, 0x05, 0x00, 0x00, 0x34, 0x05, 0x00, 0x00, 0xec, 0x04, 0x00, 0x00, 0xa4,
  0x04, 0x00, 0x00, 0x70, 0x04, 0x00, 0x00, 0x28, 0x04, 0x00, 0x00, 0xe0, 0x03,
  0x00, 0x00, 0xa8, 0x03, 0x00, 0x00, 0x74, 0x03, 0x00, 0x00, 0x2c, 0x03, 0x00,
  0x00, 0xe4, 0x02, 0x00, 0x00, 0xc0, 0x02, 0x00, 0x00, 0x88, 0x02, 0x00, 0x00,
  0x54, 0x02, 0x00, 0x00, 0x0c, 0x02, 0x00, 0x00, 0xc4, 0x01, 0x00, 0x00, 0x90,
  0x01, 0x00, 0x00, 0x48, 0x01, 0x00, 0x00, 0x00, 0x01, 0x00, 0x00, 0xcc, 0x00,
  0x00, 0x00, 0x84, 0x00, 0x00, 0x00, 0x28, 0x00, 0x00, 0x00, 0x04, 0x00, 0x00,
  0x00, 0x86, 0xeb, 0xff, 0xff, 0x0c, 0x00, 0x00, 0x00, 0x10, 0x00, 0x00, 0x00,
  0x09, 0x00, 0x00, 0x00, 0x01, 0x00, 0x00, 0x00, 0xa9, 0x00, 0x00, 0x00, 0x01,
  0x00, 0x00, 0x00, 0xa3, 0x00, 0x00, 0x00, 0x42, 0xec, 0xff, 0xff, 0x28, 0x00,
  0x00, 0x00, 0x00, 0x00, 0x00, 0x01, 0x34, 0x00, 0x00, 0x00, 0x38, 0x00, 0x00,
  0x00, 0x04, 0x00, 0x00, 0x00, 0x00, 0x00, 0x12, 0x00, 0x14, 0x00, 0x13, 0x00,
  0x0c, 0x00, 0x08, 0x00, 0x00, 0x00, 0x00, 0x00, 0x00, 0x00, 0x07, 0x00, 0x12,
  0x00, 0x00, 0x00, 0x00, 0x00, 0x00, 0x04, 0x01, 0x00, 0x00, 0x00, 0x01, 0x00,
  0x00, 0x00, 0x00, 0x00, 0x00, 0x01, 0x01, 0x00, 0x00, 0x00, 0xa3, 0x00, 0x00,
  0x00, 0x03, 0x00, 0x00, 0x00, 0xa2, 0x00, 0x00, 0x00, 0x16, 0x00, 0x00, 0x00,
  0x15, 0x00, 0x00, 0x00, 0x9a, 0xec, 0xff, 0xff, 0x14, 0x00, 0x00, 0x00, 0x00,
  0x00, 0x00, 0x02, 0x20, 0x00, 0x00, 0x00, 0x24, 0x00, 0x00, 0x00, 0x03, 0x00,
  0x00, 0x00, 0x1c, 0xed, 0xff, 0xff, 0x01, 0x00, 0x00, 0x00, 0x01, 0x00, 0x00,
  0x00, 0x01, 0x00, 0x00, 0x00, 0x00, 0x00, 0x00, 0x01, 0x01, 0x00, 0x00, 0x00,
  0xa2, 0x00, 0x00, 0x00, 0x03, 0x00, 0x00, 0x00, 0xa1, 0x00, 0x00, 0x00, 0x17,
  0x00, 0x00, 0x00, 0x43, 0x00, 0x00, 0x00, 0xde, 0xec, 0xff, 0xff, 0x14, 0x00,
  0x00, 0x00, 0x00, 0x00, 0x00, 0x16, 0x10, 0x00, 0x00, 0x00, 0x14, 0x00, 0x00,
  0x00, 0x02, 0x00, 0x00, 0x00, 0xc4, 0xa7, 0xff, 0xff, 0x01, 0x00, 0x00, 0x00,
  0xa1, 0x00, 0x00, 0x00, 0x02, 0x00, 0x00, 0x00, 0xa0, 0x00, 0x00, 0x00, 0x47,
  0x00, 0x00, 0x00, 0x0e, 0xed, 0xff, 0xff, 0x14, 0x00, 0x00, 0x00, 0x00, 0x00,
  0x00, 0x01, 0x20, 0x00, 0x00, 0x00, 0x24, 0x00, 0x00, 0x00, 0x04, 0x00, 0x00,
  0x00, 0xe6, 0xed, 0xff, 0xff, 0x00, 0x00, 0x04, 0x01, 0x01, 0x00, 0x00, 0x00,
  0x01, 0x00, 0x00, 0x00, 0x00, 0x00, 0x00, 0x01, 0x01, 0x00, 0x00, 0x00, 0xa0,
  0x00, 0x00, 0x00, 0x03, 0x00, 0x00, 0x00, 0x9f, 0x00, 0x00, 0x00, 0x18, 0x00,
  0x00, 0x00, 0x01, 0x00, 0x00, 0x00, 0x52, 0xed, 0xff, 0xff, 0x14, 0x00, 0x00,
  0x00, 0x00, 0x00, 0x00, 0x02, 0x20, 0x00, 0x00, 0x00, 0x24, 0x00, 0x00, 0x00,
  0x03, 0x00, 0x00, 0x00, 0xd4, 0xed, 0xff, 0xff, 0x01, 0x00, 0x00, 0x00, 0x01,
  0x00, 0x00, 0x00, 0x01, 0x00, 0x00, 0x00, 0x00, 0x00, 0x00, 0x01, 0x01, 0x00,
  0x00, 0x00, 0x9f, 0x00, 0x00, 0x00, 0x03, 0x00, 0x00, 0x00, 0x9e, 0x00, 0x00,
  0x00, 0x19, 0x00, 0x00, 0x00, 0x43, 0x00, 0x00, 0x00, 0x96, 0xed, 0xff, 0xff,
  0x14, 0x00, 0x00, 0x00, 0x00, 0x00, 0x00, 0x16, 0x10, 0x00, 0x00, 0x00, 0x14,
  0x00, 0x00, 0x00, 0x02, 0x00, 0x00, 0x00, 0x7c, 0xa8, 0xff, 0xff, 0x01, 0x00,
  0x00, 0x00, 0x9e, 0x00, 0x00, 0x00, 0x02, 0x00, 0x00, 0x00, 0x9d, 0x00, 0x00,
  0x00, 0x47, 0x00, 0x00, 0x00, 0xc6, 0xed, 0xff, 0xff, 0x14, 0x00, 0x00, 0x00,
  0x00, 0x00, 0x00, 0x01, 0x20, 0x00, 0x00, 0x00, 0x24, 0x00, 0x00, 0x00, 0x04,
  0x00, 0x00, 0x00, 0x9e, 0xee, 0xff, 0xff, 0x00, 0x00, 0x04, 0x01, 0x01, 0x00,
  0x00, 0x00, 0x01, 0x00, 0x00, 0x00, 0x00, 0x00, 0x00, 0x01, 0x01, 0x00, 0x00,
  0x00, 0x9d, 0x00, 0x00, 0x00, 0x03, 0x00, 0x00, 0x00, 0x9c, 0x00, 0x00, 0x00,
  0x1a, 0x00, 0x00, 0x00, 0x02, 0x00, 0x00, 0x00, 0x0a, 0xee, 0xff, 0xff, 0x14,
  0x00, 0x00, 0x00, 0x00, 0x00, 0x00, 0x02, 0x20, 0x00, 0x00, 0x00, 0x24, 0x00,
  0x00, 0x00, 0x03, 0x00, 0x00, 0x00, 0x8c, 0xee, 0xff, 0xff, 0x01, 0x00, 0x00,
  0x00, 0x01, 0x00, 0x00, 0x00, 0x01, 0x00, 0x00, 0x00, 0x00, 0x00, 0x00, 0x01,
  0x01, 0x00, 0x00, 0x00, 0x9c, 0x00, 0x00, 0x00, 0x03, 0x00, 0x00, 0x00, 0x9b,
  0x00, 0x00, 0x00, 0x1b, 0x00, 0x00, 0x00, 0x3e, 0x00, 0x00, 0x00, 0x4e, 0xee,
  0xff, 0xff, 0x14, 0x00, 0x00, 0x00, 0x00, 0x00, 0x00, 0x16, 0x10, 0x00, 0x00,
  0x00, 0x14, 0x00, 0x00, 0x00, 0x02, 0x00, 0x00, 0x00, 0x34, 0xa9, 0xff, 0xff,
  0x01, 0x00, 0x00, 0x00, 0x9b, 0x00, 0x00, 0x00, 0x02, 0x00, 0x00, 0x00, 0x9a,
  0x00, 0x00, 0x00, 0x47, 0x00, 0x00, 0x00, 0x7e, 0xee, 0xff, 0xff, 0x14, 0x00,
  0x00, 0x00, 0x00, 0x00, 0x00, 0x0a, 0x14, 0x00, 0x00, 0x00, 0x18, 0x00, 0x00,
  0x00, 0x07, 0x00, 0x00, 0x00, 0x6e, 0xee, 0xff, 0xff, 0x03, 0x00, 0x00, 0x00,
  0x01, 0x00, 0x00, 0x00, 0x9a, 0x00, 0x00, 0x00, 0x02, 0x00, 0x00, 0x00, 0xa4,
  0x00, 0x00, 0x00, 0x52, 0x00, 0x00, 0x00, 0x16, 0xee, 0xff, 0xff, 0x0c, 0x00,
  0x00, 0x00, 0x10, 0x00, 0x00, 0x00, 0x08, 0x00, 0x00, 0x00, 0x01, 0x00, 0x00,
  0x00, 0xa4, 0x00, 0x00, 0x00, 0x01, 0x00, 0x00, 0x00, 0x99, 0x00, 0x00, 0x00,
  0xd2, 0xee, 0xff, 0xff, 0x14, 0x00, 0x00, 0x00, 0x00, 0x00, 0x00, 0x01, 0x20,
  0x00, 0x00, 0x00, 0x24, 0x00, 0x00, 0x00, 0x04, 0x00, 0x00, 0x00, 0xaa, 0xef,
  0xff, 0xff, 0x00, 0x00, 0x04, 0x01, 0x01, 0x00, 0x00, 0x00, 0x01, 0x00, 0x00,
  0x00, 0x00, 0x00, 0x00, 0x01, 0x01, 0x00, 0x00, 0x00, 0x99, 0x00, 0x00, 0x00,
  0x03, 0x00, 0x00, 0x00, 0x98, 0x00, 0x00, 0x00, 0x1c, 0x00, 0x00, 0x00, 0x03,
  0x00, 0x00, 0x00, 0x16, 0xef, 0xff, 0xff, 0x14, 0x00, 0x00, 0x00, 0x00, 0x00,
  0x00, 0x02, 0x20, 0x00, 0x00, 0x00, 0x24, 0x00, 0x00, 0x00, 0x03, 0x00, 0x00,
  0x00, 0x98, 0xef, 0xff, 0xff, 0x01, 0x00, 0x00, 0x00, 0x01, 0x00, 0x00, 0x00,
  0x01, 0x00, 0x00, 0x00, 0x00, 0x00, 0x00, 0x01, 0x01, 0x00, 0x00, 0x00, 0x98,
  0x00, 0x00, 0x00, 0x03, 0x00, 0x00, 0x00, 0x97, 0x00, 0x00, 0x00, 0x1d, 0x00,
  0x00, 0x00, 0x3e, 0x00, 0x00, 0x00, 0x5a, 0xef, 0xff, 0xff, 0x14, 0x00, 0x00,
  0x00, 0x00, 0x00, 0x00, 0x16, 0x10, 0x00, 0x00, 0x00, 0x14, 0x00, 0x00, 0x00,
  0x02, 0x00, 0x00, 0x00, 0x40, 0xaa, 0xff, 0xff, 0x01, 0x00, 0x00, 0x00, 0x97,
  0x00, 0x00, 0x00, 0x02, 0x00, 0x00, 0x00, 0x96, 0x00, 0x00, 0x00, 0x47, 0x00,
  0x00, 0x00, 0x8a, 0xef, 0xff, 0xff, 0x14, 0x00, 0x00, 0x00, 0x00, 0x00, 0x00,
  0x0f, 0x14, 0x00, 0x00, 0x00, 0x18, 0x00, 0x00, 0x00, 0x06, 0x00, 0x00, 0x00,
  0xf0, 0xf7, 0xff, 0xff, 0x00, 0x00, 0x00, 0x01, 0x01, 0x00, 0x00, 0x00, 0x96,
  0x00, 0x00, 0x00, 0x02, 0x00, 0x00, 0x00, 0x95, 0x00, 0x00, 0x00, 0x4b, 0x00,
  0x00, 0x00, 0xbe, 0xef, 0xff, 0xff, 0x14, 0x00, 0x00, 0x00, 0x00, 0x00, 0x00,
  0x01, 0x20, 0x00, 0x00, 0x00, 0x24, 0x00, 0x00, 0x00, 0x04, 0x00, 0x00, 0x00,
  0x96, 0xf0, 0xff, 0xff, 0x00, 0x00, 0x04, 0x01, 0x01, 0x00, 0x00, 0x00, 0x01,
  0x00, 0x00, 0x00, 0x00, 0x00, 0x00, 0x01, 0x01, 0x00, 0x00, 0x00, 0x95, 0x00,
  0x00, 0x00, 0x03, 0x00, 0x00, 0x00, 0x94, 0x00, 0x00, 0x00, 0x1e, 0x00, 0x00,
  0x00, 0x04, 0x00, 0x00, 0x00, 0x02, 0xf0, 0xff, 0xff, 0x14, 0x00, 0x00, 0x00,
  0x00, 0x00, 0x00, 0x02, 0x20, 0x00, 0x00, 0x00, 0x24, 0x00, 0x00, 0x00, 0x03,
  0x00, 0x00, 0x00, 0x84, 0xf0, 0xff, 0xff, 0x01, 0x00, 0x00, 0x00, 0x01, 0x00,
  0x00, 0x00, 0x01, 0x00, 0x00, 0x00, 0x00, 0x00, 0x00, 0x01, 0x01, 0x00, 0x00,
  0x00, 0x94, 0x00, 0x00, 0x00, 0x03, 0x00, 0x00, 0x00, 0x93, 0x00, 0x00, 0x00,
  0x1f, 0x00, 0x00, 0x00, 0x3e, 0x00, 0x00, 0x00, 0x46, 0xf0, 0xff, 0xff, 0x14,
  0x00, 0x00, 0x00, 0x00, 0x00, 0x00, 0x16, 0x10, 0x00, 0x00, 0x00, 0x14, 0x00,
  0x00, 0x00, 0x02, 0x00, 0x00, 0x00, 0x2c, 0xab, 0xff, 0xff, 0x01, 0x00, 0x00,
  0x00, 0x93, 0x00, 0x00, 0x00, 0x02, 0x00, 0x00, 0x00, 0x92, 0x00, 0x00, 0x00,
  0x47, 0x00, 0x00, 0x00, 0x76, 0xf0, 0xff, 0xff, 0x14, 0x00, 0x00, 0x00, 0x00,
  0x00, 0x00, 0x01, 0x20, 0x00, 0x00, 0x00, 0x24, 0x00, 0x00, 0x00, 0x04, 0x00,
  0x00, 0x00, 0x4e, 0xf1, 0xff, 0xff, 0x00, 0x00, 0x04, 0x01, 0x01, 0x00, 0x00,
  0x00, 0x01, 0x00, 0x00, 0x00, 0x00, 0x00, 0x00, 0x01, 0x01, 0x00, 0x00, 0x00,
  0x92, 0x00, 0x00, 0x00, 0x03, 0x00, 0x00, 0x00, 0x91, 0x00, 0x00, 0x00, 0x20,
  0x00, 0x00, 0x00, 0x05, 0x00, 0x00, 0x00, 0xba, 0xf0, 0xff, 0xff, 0x14, 0x00,
  0x00, 0x00, 0x00, 0x00, 0x00, 0x02, 0x20, 0x00, 0x00, 0x00, 0x24, 0x00, 0x00,
  0x00, 0x03, 0x00, 0x00, 0x00, 0x3c, 0xf1, 0xff, 0xff, 0x01, 0x00, 0x00, 0x00,
  0x01, 0x00, 0x00, 0x00, 0x01, 0x00, 0x00, 0x00, 0x00, 0x00, 0x00, 0x01, 0x01,
  0x00, 0x00, 0x00, 0x91, 0x00, 0x00, 0x00, 0x03, 0x00, 0x00, 0x00, 0x90, 0x00,
  0x00, 0x00, 0x21, 0x00, 0x00, 0x00, 0x28, 0x00, 0x00, 0x00, 0xfe, 0xf0, 0xff,
  0xff, 0x14, 0x00, 0x00, 0x00, 0x00, 0x00, 0x00, 0x16, 0x10, 0x00, 0x00, 0x00,
  0x14, 0x00, 0x00, 0x00, 0x02, 0x00, 0x00, 0x00, 0xe4, 0xab, 0xff, 0xff, 0x01,
  0x00, 0x00, 0x00, 0x90, 0x00, 0x00, 0x00, 0x02, 0x00, 0x00, 0x00, 0x8f, 0x00,
  0x00, 0x00, 0x47, 0x00, 0x00, 0x00, 0x2e, 0xf1, 0xff, 0xff, 0x14, 0x00, 0x00,
  0x00, 0x00, 0x00, 0x00, 0x0a, 0x14, 0x00, 0x00, 0x00, 0x18, 0x00, 0x00, 0x00,
  0x07, 0x00, 0x00, 0x00, 0x1e, 0xf1, 0xff, 0xff, 0x03, 0x00, 0x00, 0x00, 0x01,
  0x00, 0x00, 0x00, 0x8f, 0x00, 0x00, 0x00, 0x02, 0x00, 0x00, 0x00, 0xa5, 0x00,
  0x00, 0x00, 0x5d, 0x00, 0x00, 0x00, 0xc6, 0xf0, 0xff, 0xff, 0x0c, 0x00, 0x00,
  0x00, 0x10, 0x00, 0x00, 0x00, 0x08, 0x00, 0x00, 0x00, 0x01, 0x00, 0x00, 0x00,
  0xa5, 0x00, 0x00, 0x00, 0x01, 0x00, 0x00, 0x00, 0x8e, 0x00, 0x00, 0x00, 0x82,
  0xf1, 0xff, 0xff, 0x14, 0x00, 0x00, 0x00, 0x00, 0x00, 0x00, 0x01, 0x20, 0x00,
  0x00, 0x00, 0x24, 0x00, 0x00, 0x00, 0x04, 0x00, 0x00, 0x00, 0x5a, 0xf2, 0xff,
  0xff, 0x00, 0x00, 0x04, 0x01, 0x01, 0x00, 0x00, 0x00, 0x01, 0x00, 0x00, 0x00,
  0x00, 0x00, 0x00, 0x01, 0x01, 0x00, 0x00, 0x00, 0x8e, 0x00, 0x00, 0x00, 0x03,
  0x00, 0x00, 0x00, 0x8d, 0x00, 0x00, 0x00, 0x22, 0x00, 0x00, 0x00, 0x06, 0x00,
  0x00, 0x00, 0xc6, 0xf1, 0xff, 0xff, 0x14, 0x00, 0x00, 0x00, 0x00, 0x00, 0x00,
  0x02, 0x20, 0x00, 0x00, 0x00, 0x24, 0x00, 0x00, 0x00, 0x03, 0x00, 0x00, 0x00,
  0x48, 0xf2, 0xff, 0xff, 0x01, 0x00, 0x00, 0x00, 0x01, 0x00, 0x00, 0x00, 0x01,
  0x00, 0x00, 0x00, 0x00, 0x00, 0x00, 0x01, 0x01, 0x00, 0x00, 0x00, 0x8d, 0x00,
  0x00, 0x00, 0x03, 0x00, 0x00, 0x00, 0x8c, 0x00, 0x00, 0x00, 0x23, 0x00, 0x00,
  0x00, 0x3e, 0x00, 0x00, 0x00, 0x0a, 0xf2, 0xff, 0xff, 0x14, 0x00, 0x00, 0x00,
  0x00, 0x00, 0x00, 0x16, 0x10, 0x00, 0x00, 0x00, 0x14, 0x00, 0x00, 0x00, 0x02,
  0x00, 0x00, 0x00, 0xf0, 0xac, 0xff, 0xff, 0x01, 0x00, 0x00, 0x00, 0x8c, 0x00,
  0x00, 0x00, 0x02, 0x00, 0x00, 0x00, 0x8b, 0x00, 0x00, 0x00, 0x47, 0x00, 0x00,
  0x00, 0x3a, 0xf2, 0xff, 0xff, 0x14, 0x00, 0x00, 0x00, 0x00, 0x00, 0x00, 0x0f,
  0x14, 0x00, 0x00, 0x00, 0x18, 0x00, 0x00, 0x00, 0x06, 0x00, 0x00, 0x00, 0xa0,
  0xfa, 0xff, 0xff, 0x00, 0x00, 0x00, 0x01, 0x01, 0x00, 0x00, 0x00, 0x8b, 0x00,
  0x00, 0x00, 0x02, 0x00, 0x00, 0x00, 0x8a, 0x00, 0x00, 0x00, 0x57, 0x00, 0x00,
  0x00, 0x6e, 0xf2, 0xff, 0xff, 0x14, 0x00, 0x00, 0x00, 0x00, 0x00, 0x00, 0x01,
  0x20, 0x00, 0x00, 0x00, 0x24, 0x00, 0x00, 0x00, 0x04, 0x00, 0x00, 0x00, 0x46,
  0xf3, 0xff, 0xff, 0x00, 0x00, 0x04, 0x01, 0x01, 0x00, 0x00, 0x00, 0x01, 0x00,
  0x00, 0x00, 0x00, 0x00, 0x00, 0x01, 0x01, 0x00, 0x00, 0x00, 0x8a, 0x00, 0x00,
  0x00, 0x03, 0x00, 0x00, 0x00, 0x89, 0x00, 0x00, 0x00, 0x24, 0x00, 0x00, 0x00,
  0x07, 0x00, 0x00, 0x00, 0xb2, 0xf2, 0xff, 0xff, 0x14, 0x00, 0x00, 0x00, 0x00,
  0x00, 0x00, 0x02, 0x20, 0x00, 0x00, 0x00, 0x24, 0x00, 0x00, 0x00, 0x03, 0x00,
  0x00, 0x00, 0x34, 0xf3, 0xff, 0xff, 0x01, 0x00, 0x00, 0x00, 0x01, 0x00, 0x00,
  0x00, 0x01, 0x00, 0x00, 0x00, 0x00, 0x00, 0x00, 0x01, 0x01, 0x00, 0x00, 0x00,
  0x89, 0x00, 0x00, 0x00, 0x03, 0x00, 0x00, 0x00, 0x88, 0x00, 0x00, 0x00, 0x25,
  0x00, 0x00, 0x00, 0x3e, 0x00, 0x00, 0x00, 0xf6, 0xf2, 0xff, 0xff, 0x14, 0x00,
  0x00, 0x00, 0x00, 0x00, 0x00, 0x16, 0x10, 0x00, 0x00, 0x00, 0x14, 0x00, 0x00,
  0x00, 0x02, 0x00, 0x00, 0x00, 0xdc, 0xad, 0xff, 0xff, 0x01, 0x00, 0x00, 0x00,
  0x88, 0x00, 0x00, 0x00, 0x02, 0x00, 0x00, 0x00, 0x87, 0x00, 0x00, 0x00, 0x47,
  0x00, 0x00, 0x00, 0x26, 0xf3, 0xff, 0xff, 0x14, 0x00, 0x00, 0x00, 0x00, 0x00,
  0x00, 0x01, 0x20, 0x00, 0x00, 0x00, 0x24, 0x00, 0x00, 0x00, 0x04, 0x00, 0x00,
  0x00, 0xfe, 0xf3, 0xff, 0xff, 0x00, 0x00, 0x04, 0x01, 0x01, 0x00, 0x00, 0x00,
  0x01, 0x00, 0x00, 0x00, 0x00, 0x00, 0x00, 0x01, 0x01, 0x00, 0x00, 0x00, 0x87,
  0x00, 0x00, 0x00, 0x03, 0x00, 0x00, 0x00, 0x86, 0x00, 0x00, 0x00, 0x26, 0x00,
  0x00, 0x00, 0x08, 0x00, 0x00, 0x00, 0x6a, 0xf3, 0xff, 0xff, 0x14, 0x00, 0x00,
  0x00, 0x00, 0x00, 0x00, 0x02, 0x20, 0x00, 0x00, 0x00, 0x24, 0x00, 0x00, 0x00,
  0x03, 0x00, 0x00, 0x00, 0xec, 0xf3, 0xff, 0xff, 0x01, 0x00, 0x00, 0x00, 0x01,
  0x00, 0x00, 0x00, 0x01, 0x00, 0x00, 0x00, 0x00, 0x00, 0x00, 0x01, 0x01, 0x00,
  0x00, 0x00, 0x86, 0x00, 0x00, 0x00, 0x03, 0x00, 0x00, 0x00, 0x85, 0x00, 0x00,
  0x00, 0x27, 0x00, 0x00, 0x00, 0x28, 0x00, 0x00, 0x00, 0xae, 0xf3, 0xff, 0xff,
  0x14, 0x00, 0x00, 0x00, 0x00, 0x00, 0x00, 0x16, 0x10, 0x00, 0x00, 0x00, 0x14,
  0x00, 0x00, 0x00, 0x02, 0x00, 0x00, 0x00, 0x94, 0xae, 0xff, 0xff, 0x01, 0x00,
  0x00, 0x00, 0x85, 0x00, 0x00, 0x00, 0x02, 0x00, 0x00, 0x00, 0x84, 0x00, 0x00,
  0x00, 0x47, 0x00, 0x00, 0x00, 0xde, 0xf3, 0xff, 0xff, 0x14, 0x00, 0x00, 0x00,
  0x00, 0x00, 0x00, 0x0a, 0x14, 0x00, 0x00, 0x00, 0x18, 0x00, 0x00, 0x00, 0x07,
  0x00, 0x00, 0x00, 0xce, 0xf3, 0xff, 0xff, 0x03, 0x00, 0x00, 0x00, 0x01, 0x00,
  0x00, 0x00, 0x84, 0x00, 0x00, 0x00, 0x02, 0x00, 0x00, 0x00, 0xa6, 0x00, 0x00,
  0x00, 0x68, 0x00, 0x00, 0x00, 0x76, 0xf3, 0xff, 0xff, 0x0c, 0x00, 0x00, 0x00,
  0x10, 0x00, 0x00, 0x00, 0x08, 0x00, 0x00, 0x00, 0x01, 0x00, 0x00, 0x00, 0xa6,
  0x00, 0x00, 0x00, 0x01, 0x00, 0x00, 0x00, 0x83, 0x00, 0x00, 0x00, 0x32, 0xf4,
  0xff, 0xff, 0x14, 0x00, 0x00, 0x00, 0x00, 0x00, 0x00, 0x01, 0x20, 0x00, 0x00,
  0x00, 0x24, 0x00, 0x00, 0x00, 0x04, 0x00, 0x00, 0x00, 0x0a, 0xf5, 0xff, 0xff,
  0x00, 0x00, 0x04, 0x01, 0x01, 0x00, 0x00, 0x00, 0x01, 0x00, 0x00, 0x00, 0x00,
  0x00, 0x00, 0x01, 0x01, 0x00, 0x00, 0x00, 0x83, 0x00, 0x00, 0x00, 0x03, 0x00,
  0x00, 0x00, 0x82, 0x00, 0x00, 0x00, 0x29, 0x00, 0x00, 0x00, 0x09, 0x00, 0x00,
  0x00, 0x76, 0xf4, 0xff, 0xff, 0x14, 0x00, 0x00, 0x00, 0x00, 0x00, 0x00, 0x02,
  0x20, 0x00, 0x00, 0x00, 0x24, 0x00, 0x00, 0x00, 0x03, 0x00, 0x00, 0x00, 0xf8,
  0xf4, 0xff, 0xff, 0x01, 0x00, 0x00, 0x00, 0x01, 0x00, 0x00, 0x00, 0x01, 0x00,
  0x00, 0x00, 0x00, 0x00, 0x00, 0x01, 0x01, 0x00, 0x00, 0x00, 0x82, 0x00, 0x00,
  0x00, 0x03, 0x00, 0x00, 0x00, 0x81, 0x00, 0x00, 0x00, 0x2a, 0x00, 0x00, 0x00,
  0x35, 0x00, 0x00, 0x00, 0xba, 0xf4, 0xff, 0xff, 0x14, 0x00, 0x00, 0x00, 0x00,
  0x00, 0x00, 0x16, 0x10, 0x00, 0x00, 0x00, 0x14, 0x00, 0x00, 0x00, 0x02, 0x00,
  0x00, 0x00, 0xa0, 0xaf, 0xff, 0xff, 0x01, 0x00, 0x00, 0x00, 0x81, 0x00, 0x00,
  0x00, 0x02, 0x00, 0x00, 0x00, 0x80, 0x00, 0x00, 0x00, 0x47, 0x00, 0x00, 0x00,
  0xea, 0xf4, 0xff, 0xff, 0x14, 0x00, 0x00, 0x00, 0x00, 0x00, 0x00, 0x0f, 0x14,
  0x00, 0x00, 0x00, 0x18, 0x00, 0x00, 0x00, 0x06, 0x00, 0x00, 0x00, 0x50, 0xfd,
  0xff, 0xff, 0x00, 0x00, 0x00, 0x01, 0x01, 0x00, 0x00, 0x00, 0x80, 0x00, 0x00,
  0x00, 0x02, 0x00, 0x00, 0x00, 0x7f, 0x00, 0x00, 0x00, 0x62, 0x00, 0x00, 0x00,
  0x1e, 0xf5, 0xff, 0xff, 0x14, 0x00, 0x00, 0x00, 0x00, 0x00, 0x00, 0x01, 0x20,
  0x00, 0x00, 0x00, 0x24, 0x00, 0x00, 0x00, 0x04, 0x00, 0x00, 0x00, 0xf6, 0xf5,
  0xff, 0xff, 0x00, 0x00, 0x04, 0x01, 0x01, 0x00, 0x00, 0x00, 0x01, 0x00, 0x00,
  0x00, 0x00, 0x00, 0x00, 0x01, 0x01, 0x00, 0x00, 0x00, 0x7f, 0x00, 0x00, 0x00,
  0x03, 0x00, 0x00, 0x00, 0x7e, 0x00, 0x00, 0x00, 0x2b, 0x00, 0x00, 0x00, 0x0a,
  0x00, 0x00, 0x00, 0x62, 0xf5, 0xff, 0xff, 0x14, 0x00, 0x00, 0x00, 0x00, 0x00,
  0x00, 0x02, 0x20, 0x00, 0x00, 0x00, 0x24, 0x00, 0x00, 0x00, 0x03, 0x00, 0x00,
  0x00, 0xe4, 0xf5, 0xff, 0xff, 0x01, 0x00, 0x00, 0x00, 0x01, 0x00, 0x00, 0x00,
  0x01, 0x00, 0x00, 0x00, 0x00, 0x00, 0x00, 0x01, 0x01, 0x00, 0x00, 0x00, 0x7e,
  0x00, 0x00, 0x00, 0x03, 0x00, 0x00, 0x00, 0x7d, 0x00, 0x00, 0x00, 0x2c, 0x00,
  0x00, 0x00, 0x35, 0x00, 0x00, 0x00, 0xa6, 0xf5, 0xff, 0xff, 0x14, 0x00, 0x00,
  0x00, 0x00, 0x00, 0x00, 0x16, 0x10, 0x00, 0x00, 0x00, 0x14, 0x00, 0x00, 0x00,
  0x02, 0x00, 0x00, 0x00, 0x8c, 0xb0, 0xff, 0xff, 0x01, 0x00, 0x00, 0x00, 0x7d,
  0x00, 0x00, 0x00, 0x02, 0x00, 0x00, 0x00, 0x7c, 0x00, 0x00, 0x00, 0x47, 0x00,
  0x00, 0x00, 0xd6, 0xf5, 0xff, 0xff, 0x14, 0x00, 0x00, 0x00, 0x00, 0x00, 0x00,
  0x01, 0x20, 0x00, 0x00, 0x00, 0x24, 0x00, 0x00, 0x00, 0x04, 0x00, 0x00, 0x00,
  0xae, 0xf6, 0xff, 0xff, 0x00, 0x00, 0x04, 0x01, 0x01, 0x00, 0x00, 0x00, 0x01,
  0x00, 0x00, 0x00, 0x00, 0x00, 0x00, 0x01, 0x01, 0x00, 0x00, 0x00, 0x7c, 0x00,
  0x00, 0x00, 0x03, 0x00, 0x00, 0x00, 0x7b, 0x00, 0x00, 0x00, 0x2d, 0x00, 0x00,
  0x00, 0x0b, 0x00, 0x00, 0x00, 0x1a, 0xf6, 0xff, 0xff, 0x14, 0x00, 0x00, 0x00,
  0x00, 0x00, 0x00, 0x02, 0x20, 0x00, 0x00, 0x00, 0x24, 0x00, 0x00, 0x00, 0x03,
  0x00, 0x00, 0x00, 0x9c, 0xf6, 0xff, 0xff, 0x01, 0x00, 0x00, 0x00, 0x01, 0x00,
  0x00, 0x00, 0x01, 0x00, 0x00, 0x00, 0x00, 0x00, 0x00, 0x01, 0x01, 0x00, 0x00,
  0x00, 0x7b, 0x00, 0x00, 0x00, 0x03, 0x00, 0x00, 0x00, 0x7a, 0x00, 0x00, 0x00,
  0x2e, 0x00, 0x00, 0x00, 0x2f, 0x00, 0x00, 0x00, 0x5e, 0xf6, 0xff, 0xff, 0x14,
  0x00, 0x00, 0x00, 0x00, 0x00, 0x00, 0x16, 0x10, 0x00, 0x00, 0x00, 0x14, 0x00,
  0x00, 0x00, 0x02, 0x00, 0x00, 0x00, 0x44, 0xb1, 0xff, 0xff, 0x01, 0x00, 0x00,
  0x00, 0x7a, 0x00, 0x00, 0x00, 0x02, 0x00, 0x00, 0x00, 0x79, 0x00, 0x00, 0x00,
  0x47, 0x00, 0x00, 0x00, 0x8e, 0xf6, 0xff, 0xff, 0x14, 0x00, 0x00, 0x00, 0x00,
  0x00, 0x00, 0x0a, 0x14, 0x00, 0x00, 0x00, 0x18, 0x00, 0x00, 0x00, 0x07, 0x00,
  0x00, 0x00, 0x7e, 0xf6, 0xff, 0xff, 0x03, 0x00, 0x00, 0x00, 0x01, 0x00, 0x00,
  0x00, 0x79, 0x00, 0x00, 0x00, 0x02, 0x00, 0x00, 0x00, 0x78, 0x00, 0x00, 0x00,
  0xa7, 0x00, 0x00, 0x00, 0x26, 0xf6, 0xff, 0xff, 0x0c, 0x00, 0x00, 0x00, 0x10,
  0x00, 0x00, 0x00, 0x08, 0x00, 0x00, 0x00, 0x01, 0x00, 0x00, 0x00, 0xa7, 0x00,
  0x00, 0x00, 0x01, 0x00, 0x00, 0x00, 0x73, 0x00, 0x00, 0x00, 0xe2, 0xf6, 0xff,
  0xff, 0x14, 0x00, 0x00, 0x00, 0x00, 0x00, 0x00, 0x01, 0x20, 0x00, 0x00, 0x00,
  0x24, 0x00, 0x00, 0x00, 0x04, 0x00, 0x00, 0x00, 0xba, 0xf7, 0xff, 0xff, 0x00,
  0x00, 0x04, 0x01, 0x01, 0x00, 0x00, 0x00, 0x01, 0x00, 0x00, 0x00, 0x00, 0x00,
  0x00, 0x01, 0x01, 0x00, 0x00, 0x00, 0x78, 0x00, 0x00, 0x00, 0x03, 0x00, 0x00,
  0x00, 0x77, 0x00, 0x00, 0x00, 0x30, 0x00, 0x00, 0x00, 0x0c, 0x00, 0x00, 0x00,
  0x26, 0xf7, 0xff, 0xff, 0x14, 0x00, 0x00, 0x00, 0x00, 0x00, 0x00, 0x02, 0x20,
  0x00, 0x00, 0x00, 0x24, 0x00, 0x00, 0x00, 0x03, 0x00, 0x00, 0x00, 0xa8, 0xf7,
  0xff, 0xff, 0x01, 0x00, 0x00, 0x00, 0x01, 0x00, 0x00, 0x00, 0x01, 0x00, 0x00,
  0x00, 0x00, 0x00, 0x00, 0x01, 0x01, 0x00, 0x00, 0x00, 0x77, 0x00, 0x00, 0x00,
  0x03, 0x00, 0x00, 0x00, 0x76, 0x00, 0x00, 0x00, 0x31, 0x00, 0x00, 0x00, 0x35,
  0x00, 0x00, 0x00, 0x6a, 0xf7, 0xff, 0xff, 0x14, 0x00, 0x00, 0x00, 0x00, 0x00,
  0x00, 0x16, 0x10, 0x00, 0x00, 0x00, 0x14, 0x00, 0x00, 0x00, 0x02, 0x00, 0x00,
  0x00, 0x50, 0xb2, 0xff, 0xff, 0x01, 0x00, 0x00, 0x00, 0x76, 0x00, 0x00, 0x00,
  0x02, 0x00, 0x00, 0x00, 0x75, 0x00, 0x00, 0x00, 0x47, 0x00, 0x00, 0x00, 0x9a,
  0xf7, 0xff, 0xff, 0x20, 0x00, 0x00, 0x00, 0x00, 0x00, 0x00, 0x0f, 0x20, 0x00,
  0x00, 0x00, 0x24, 0x00, 0x00, 0x00, 0x06, 0x00, 0x00, 0x00, 0x0c, 0x00, 0x08,
  0x00, 0x00, 0x00, 0x00, 0x00, 0x00, 0x00, 0x07, 0x00, 0x0c, 0x00, 0x00, 0x00,
  0x00, 0x00, 0x00, 0x01, 0x01, 0x00, 0x00, 0x00, 0x75, 0x00, 0x00, 0x00, 0x02,
  0x00, 0x00, 0x00, 0x74, 0x00, 0x00, 0x00, 0x6d, 0x00, 0x00, 0x00, 0xda, 0xf7,
  0xff, 0xff, 0x14, 0x00, 0x00, 0x00, 0x00, 0x00, 0x00, 0x05, 0x20, 0x00, 0x00,
  0x00, 0x24, 0x00, 0x00, 0x00, 0x05, 0x00, 0x00, 0x00, 0xb6, 0xf9, 0xff, 0xff,
  0x02, 0x00, 0x00, 0x00, 0x02, 0x00, 0x00, 0x00, 0x02, 0x00, 0x00, 0x00, 0x02,
  0x00, 0x00, 0x00, 0x01, 0x00, 0x00, 0x00, 0x74, 0x00, 0x00, 0x00, 0x01, 0x00,
  0x00, 0x00, 0x73, 0x00, 0x00, 0x00, 0x16, 0xf8, 0xff, 0xff, 0x14, 0x00, 0x00,
  0x00, 0x00, 0x00, 0x00, 0x01, 0x20, 0x00, 0x00, 0x00, 0x24, 0x00, 0x00, 0x00,
  0x04, 0x00, 0x00, 0x00, 0xee, 0xf8, 0xff, 0xff, 0x00, 0x00, 0x04, 0x01, 0x01,
  0x00, 0x00, 0x00, 0x01, 0x00, 0x00, 0x00, 0x00, 0x00, 0x00, 0x01, 0x01, 0x00,
  0x00, 0x00, 0x73, 0x00, 0x00, 0x00, 0x03, 0x00, 0x00, 0x00, 0x72, 0x00, 0x00,
  0x00, 0x32, 0x00, 0x00, 0x00, 0x0d, 0x00, 0x00, 0x00, 0x5a, 0xf8, 0xff, 0xff,
  0x14, 0x00, 0x00, 0x00, 0x00, 0x00, 0x00, 0x02, 0x20, 0x00, 0x00, 0x00, 0x24,
  0x00, 0x00, 0x00, 0x03, 0x00, 0x00, 0x00, 0xdc, 0xf8, 0xff, 0xff, 0x01, 0x00,
  0x00, 0x00, 0x01, 0x00, 0x00, 0x00, 0x01, 0x00, 0x00, 0x00, 0x00, 0x00, 0x00,
  0x01, 0x01, 0x00, 0x00, 0x00, 0x72, 0x00, 0x00, 0x00, 0x03, 0x00, 0x00, 0x00,
  0x71, 0x00, 0x00, 0x00, 0x33, 0x00, 0x00, 0x00, 0x35, 0x00, 0x00, 0x00, 0x9e,
  0xf8, 0xff, 0xff, 0x14, 0x00, 0x00, 0x00, 0x00, 0x00, 0x00, 0x16, 0x10, 0x00,
  0x00, 0x00, 0x14, 0x00, 0x00, 0x00, 0x02, 0x00, 0x00, 0x00, 0x84, 0xb3, 0xff,
  0xff, 0x01, 0x00, 0x00, 0x00, 0x71, 0x00, 0x00, 0x00, 0x02, 0x00, 0x00, 0x00,
  0x70, 0x00, 0x00, 0x00, 0x47, 0x00, 0x00, 0x00, 0xce, 0xf8, 0xff, 0xff, 0x14,
  0x00, 0x00, 0x00, 0x00, 0x00, 0x00, 0x01, 0x20, 0x00, 0x00, 0x00, 0x24, 0x00,
  0x00, 0x00, 0x04, 0x00, 0x00, 0x00, 0xa6, 0xf9, 0xff, 0xff, 0x00, 0x00, 0x04,
  0x01, 0x01, 0x00, 0x00, 0x00, 0x01, 0x00, 0x00, 0x00, 0x00, 0x00, 0x00, 0x01,
  0x01, 0x00, 0x00, 0x00, 0x70, 0x00, 0x00, 0x00, 0x03, 0x00, 0x00, 0x00, 0x6f,
  0x00, 0x00, 0x00, 0x34, 0x00, 0x00, 0x00, 0x0e, 0x00, 0x00, 0x00, 0x12, 0xf9,
  0xff, 0xff, 0x14, 0x00, 0x00, 0x00, 0x00, 0x00, 0x00, 0x02, 0x20, 0x00, 0x00,
  0x00, 0x24, 0x00, 0x00, 0x00, 0x03, 0x00, 0x00, 0x00, 0x94, 0xf9, 0xff, 0xff,
  0x01, 0x00, 0x00, 0x00, 0x01, 0x00, 0x00, 0x00, 0x01, 0x00, 0x00, 0x00, 0x00,
  0x00, 0x00, 0x01, 0x01, 0x00, 0x00, 0x00, 0x6f, 0x00, 0x00, 0x00, 0x03, 0x00,
  0x00, 0x00, 0x6a, 0x00, 0x00, 0x00, 0x36, 0x00, 0x00, 0x00, 0x3e, 0x00, 0x00,
  0x00, 0x56, 0xf9, 0xff, 0xff, 0x14, 0x00, 0x00, 0x00, 0x00, 0x00, 0x00, 0x4f,
  0x14, 0x00, 0x00, 0x00, 0x20, 0x00, 0x00, 0x00, 0x01, 0x00, 0x00, 0x00, 0x46,
  0xf9, 0xff, 0xff, 0x03, 0x00, 0x00, 0x00, 0x03, 0x00, 0x00, 0x00, 0x6c, 0x00,
  0x00, 0x00, 0x6d, 0x00, 0x00, 0x00, 0x6e, 0x00, 0x00, 0x00, 0x03, 0x00, 0x00,
  0x00, 0x6b, 0x00, 0x00, 0x00, 0x48, 0x00, 0x00, 0x00, 0x46, 0x00, 0x00, 0x00,
  0x3e, 0xf9, 0xff, 0xff, 0x10, 0x00, 0x00, 0x00, 0x00, 0x00, 0x00, 0x37, 0x10,
  0x00, 0x00, 0x00, 0x14, 0x00, 0x00, 0x00, 0x2e, 0xf9, 0xff, 0xff, 0x00, 0x00,
  0x00, 0x02, 0x01, 0x00, 0x00, 0x00, 0x6b, 0x00, 0x00, 0x00, 0x01, 0x00, 0x00,
  0x00, 0x69, 0x00, 0x00, 0x00, 0xc2, 0xf9, 0xff, 0xff, 0x14, 0x00, 0x00, 0x00,
  0x00, 0x00, 0x00, 0x16, 0x10, 0x00, 0x00, 0x00, 0x14, 0x00, 0x00, 0x00, 0x02,
  0x00, 0x00, 0x00, 0xa8, 0xb4, 0xff, 0xff, 0x01, 0x00, 0x00, 0x00, 0x6a, 0x00,
  0x00, 0x00, 0x02, 0x00, 0x00, 0x00, 0x69, 0x00, 0x00, 0x00, 0x47, 0x00, 0x00,
  0x00, 0xf2, 0xf9, 0xff, 0xff, 0x14, 0x00, 0x00, 0x00, 0x00, 0x00, 0x00, 0x05,
  0x20, 0x00, 0x00, 0x00, 0x24, 0x00, 0x00, 0x00, 0x05, 0x00, 0x00, 0x00, 0xce,
  0xfb, 0xff, 0xff, 0x02, 0x00, 0x00, 0x00, 0x02, 0x00, 0x00, 0x00, 0x02, 0x00,
  0x00, 0x00, 0x02, 0x00, 0x00, 0x00, 0x01, 0x00, 0x00, 0x00, 0x69, 0x00, 0x00,
  0x00, 0x01, 0x00, 0x00, 0x00, 0x68, 0x00, 0x00, 0x00, 0x2e, 0xfa, 0xff, 0xff,
  0x14, 0x00, 0x00, 0x00, 0x00, 0x00, 0x00, 0x01, 0x20, 0x00, 0x00, 0x00, 0x24,
  0x00, 0x00, 0x00, 0x04, 0x00, 0x00, 0x00, 0x06, 0xfb, 0xff, 0xff, 0x00, 0x00,
  0x04, 0x01, 0x01, 0x00, 0x00, 0x00, 0x01, 0x00, 0x00, 0x00, 0x00, 0x00, 0x00,
  0x01, 0x01, 0x00, 0x00, 0x00, 0x68, 0x00, 0x00, 0x00, 0x03, 0x00, 0x00, 0x00,
  0x67, 0x00, 0x00, 0x00, 0x37, 0x00, 0x00, 0x00, 0x0f, 0x00, 0x00, 0x00, 0x72,
  0xfa, 0xff, 0xff, 0x14, 0x00, 0x00, 0x00, 0x00, 0x00, 0x00, 0x02, 0x20, 0x00,
  0x00, 0x00, 0x24, 0x00, 0x00, 0x00, 0x03, 0x00, 0x00, 0x00, 0xf4, 0xfa, 0xff,
  0xff, 0x01, 0x00, 0x00, 0x00, 0x01, 0x00, 0x00, 0x00, 0x01, 0x00, 0x00, 0x00,
  0x00, 0x00, 0x00, 0x01, 0x01, 0x00, 0x00, 0x00, 0x67, 0x00, 0x00, 0x00, 0x03,
  0x00, 0x00, 0x00, 0x66, 0x00, 0x00, 0x00, 0x38, 0x00, 0x00, 0x00, 0x3e, 0x00,
  0x00, 0x00, 0xb6, 0xfa, 0xff, 0xff, 0x14, 0x00, 0x00, 0x00, 0x00, 0x00, 0x00,
  0x16, 0x10, 0x00, 0x00, 0x00, 0x14, 0x00, 0x00, 0x00, 0x02, 0x00, 0x00, 0x00,
  0x9c, 0xb5, 0xff, 0xff, 0x01, 0x00, 0x00, 0x00, 0x66, 0x00, 0x00, 0x00, 0x02,
  0x00, 0x00, 0x00, 0x65, 0x00, 0x00, 0x00, 0x47, 0x00, 0x00, 0x00, 0xe6, 0xfa,
  0xff, 0xff, 0x14, 0x00, 0x00, 0x00, 0x00, 0x00, 0x00, 0x01, 0x20, 0x00, 0x00,
  0x00, 0x24, 0x00, 0x00, 0x00, 0x04, 0x00, 0x00, 0x00, 0xbe, 0xfb, 0xff, 0xff,
  0x00, 0x00, 0x04, 0x01, 0x01, 0x00, 0x00, 0x00, 0x01, 0x00, 0x00, 0x00, 0x00,
  0x00, 0x00, 0x01, 0x01, 0x00, 0x00, 0x00, 0x65, 0x00, 0x00, 0x00, 0x03, 0x00,
  0x00, 0x00, 0x64, 0x00, 0x00, 0x00, 0x39, 0x00, 0x00, 0x00, 0x10, 0x00, 0x00,
  0x00, 0x2a, 0xfb, 0xff, 0xff, 0x14, 0x00, 0x00, 0x00, 0x00, 0x00, 0x00, 0x02,
  0x20, 0x00, 0x00, 0x00, 0x24, 0x00, 0x00, 0x00, 0x03, 0x00, 0x00, 0x00, 0xac,
  0xfb, 0xff, 0xff, 0x01, 0x00, 0x00, 0x00, 0x01, 0x00, 0x00, 0x00, 0x01, 0x00,
  0x00, 0x00, 0x00, 0x00, 0x00, 0x01, 0x01, 0x00, 0x00, 0x00, 0x64, 0x00, 0x00,
  0x00, 0x03, 0x00, 0x00, 0x00, 0x5f, 0x00, 0x00, 0x00, 0x3a, 0x00, 0x00, 0x00,
  0x3e, 0x00, 0x00, 0x00, 0x6e, 0xfb, 0xff, 0xff, 0x14, 0x00, 0x00, 0x00, 0x00,
  0x00, 0x00, 0x4f, 0x14, 0x00, 0x00, 0x00, 0x20, 0x00, 0x00, 0x00, 0x01, 0x00,
  0x00, 0x00, 0x5e, 0xfb, 0xff, 0xff, 0x03, 0x00, 0x00, 0x00, 0x03, 0x00, 0x00,
  0x00, 0x61, 0x00, 0x00, 0x00, 0x62, 0x00, 0x00, 0x00, 0x63, 0x00, 0x00, 0x00,
  0x03, 0x00, 0x00, 0x00, 0x60, 0x00, 0x00, 0x00, 0x48, 0x00, 0x00, 0x00, 0x46,
  0x00, 0x00, 0x00, 0x56, 0xfb, 0xff, 0xff, 0x10, 0x00, 0x00, 0x00, 0x00, 0x00,
  0x00, 0x37, 0x10, 0x00, 0x00, 0x00, 0x14, 0x00, 0x00, 0x00, 0x46, 0xfb, 0xff,
  0xff, 0x00, 0x00, 0x00, 0x02, 0x01, 0x00, 0x00, 0x00, 0x60, 0x00, 0x00, 0x00,
  0x01, 0x00, 0x00, 0x00, 0x5e, 0x00, 0x00, 0x00, 0xda, 0xfb, 0xff, 0xff, 0x14,
  0x00, 0x00, 0x00, 0x00, 0x00, 0x00, 0x16, 0x10, 0x00, 0x00, 0x00, 0x14, 0x00,
  0x00, 0x00, 0x02, 0x00, 0x00, 0x00, 0xc0, 0xb6, 0xff, 0xff, 0x01, 0x00, 0x00,
  0x00, 0x5f, 0x00, 0x00, 0x00, 0x02, 0x00, 0x00, 0x00, 0x5e, 0x00, 0x00, 0x00,
  0x47, 0x00, 0x00, 0x00, 0x0a, 0xfc, 0xff, 0xff, 0x14, 0x00, 0x00, 0x00, 0x00,
  0x00, 0x00, 0x05, 0x20, 0x00, 0x00, 0x00, 0x24, 0x00, 0x00, 0x00, 0x05, 0x00,
  0x00, 0x00, 0xe6, 0xfd, 0xff, 0xff, 0x02, 0x00, 0x00, 0x00, 0x02, 0x00, 0x00,
  0x00, 0x02, 0x00, 0x00, 0x00, 0x02, 0x00, 0x00, 0x00, 0x01, 0x00, 0x00, 0x00,
  0x5e, 0x00, 0x00, 0x00, 0x01, 0x00, 0x00, 0x00, 0x5d, 0x00, 0x00, 0x00, 0x46,
  0xfc, 0xff, 0xff, 0x14, 0x00, 0x00, 0x00, 0x00, 0x00, 0x00, 0x01, 0x20, 0x00,
  0x00, 0x00, 0x24, 0x00, 0x00, 0x00, 0x04, 0x00, 0x00, 0x00, 0x1e, 0xfd, 0xff,
  0xff, 0x00, 0x00, 0x04, 0x01, 0x01, 0x00, 0x00, 0x00, 0x01, 0x00, 0x00, 0x00,
  0x00, 0x00, 0x00, 0x01, 0x01, 0x00, 0x00, 0x00, 0x5d, 0x00, 0x00, 0x00, 0x03,
  0x00, 0x00, 0x00, 0x5c, 0x00, 0x00, 0x00, 0x3b, 0x00, 0x00, 0x00, 0x11, 0x00,
  0x00, 0x00, 0x8a, 0xfc, 0xff, 0xff, 0x14, 0x00, 0x00, 0x00, 0x00, 0x00, 0x00,
  0x02, 0x20, 0x00, 0x00, 0x00, 0x24, 0x00, 0x00, 0x00, 0x03, 0x00, 0x00, 0x00,
  0x0c, 0xfd, 0xff, 0xff, 0x01, 0x00, 0x00, 0x00, 0x01, 0x00, 0x00, 0x00, 0x01,
  0x00, 0x00, 0x00, 0x00, 0x00, 0x00, 0x01, 0x01, 0x00, 0x00, 0x00, 0x5c, 0x00,
  0x00, 0x00, 0x03, 0x00, 0x00, 0x00, 0x5b, 0x00, 0x00, 0x00, 0x3c, 0x00, 0x00,
  0x00, 0x3e, 0x00, 0x00, 0x00, 0xce, 0xfc, 0xff, 0xff, 0x14, 0x00, 0x00, 0x00,
  0x00, 0x00, 0x00, 0x16, 0x10, 0x00, 0x00, 0x00, 0x14, 0x00, 0x00, 0x00, 0x02,
  0x00, 0x00, 0x00, 0xb4, 0xb7, 0xff, 0xff, 0x01, 0x00, 0x00, 0x00, 0x5b, 0x00,
  0x00, 0x00, 0x02, 0x00, 0x00, 0x00, 0x5a, 0x00, 0x00, 0x00, 0x47, 0x00, 0x00,
  0x00, 0xfe, 0xfc, 0xff, 0xff, 0x14, 0x00, 0x00, 0x00, 0x00, 0x00, 0x00, 0x01,
  0x20, 0x00, 0x00, 0x00, 0x24, 0x00, 0x00, 0x00, 0x04, 0x00, 0x00, 0x00, 0xd6,
  0xfd, 0xff, 0xff, 0x00, 0x00, 0x04, 0x01, 0x01, 0x00, 0x00, 0x00, 0x01, 0x00,
  0x00, 0x00, 0x00, 0x00, 0x00, 0x01, 0x01, 0x00, 0x00, 0x00, 0x5a, 0x00, 0x00,
  0x00, 0x03, 0x00, 0x00, 0x00, 0x59, 0x00, 0x00, 0x00, 0x3d, 0x00, 0x00, 0x00,
  0x12, 0x00, 0x00, 0x00, 0x42, 0xfd, 0xff, 0xff, 0x14, 0x00, 0x00, 0x00, 0x00,
  0x00, 0x00, 0x02, 0x20, 0x00, 0x00, 0x00, 0x24, 0x00, 0x00, 0x00, 0x03, 0x00,
  0x00, 0x00, 0xc4, 0xfd, 0xff, 0xff, 0x01, 0x00, 0x00, 0x00, 0x01, 0x00, 0x00,
  0x00, 0x01, 0x00, 0x00, 0x00, 0x00, 0x00, 0x00, 0x01, 0x01, 0x00, 0x00, 0x00,
  0x59, 0x00, 0x00, 0x00, 0x03, 0x00, 0x00, 0x00, 0x54, 0x00, 0x00, 0x00, 0x3f,
  0x00, 0x00, 0x00, 0x43, 0x00, 0x00, 0x00, 0x86, 0xfd, 0xff, 0xff, 0x14, 0x00,
  0x00, 0x00, 0x00, 0x00, 0x00, 0x4f, 0x14, 0x00, 0x00, 0x00, 0x20, 0x00, 0x00,
  0x00, 0x01, 0x00, 0x00, 0x00, 0x76, 0xfd, 0xff, 0xff, 0x03, 0x00, 0x00, 0x00,
  0x03, 0x00, 0x00, 0x00, 0x56, 0x00, 0x00, 0x00, 0x57, 0x00, 0x00, 0x00, 0x58,
  0x00, 0x00, 0x00, 0x03, 0x00, 0x00, 0x00, 0x55, 0x00, 0x00, 0x00, 0x48, 0x00,
  0x00, 0x00, 0x46, 0x00, 0x00, 0x00, 0x6e, 0xfd, 0xff, 0xff, 0x10, 0x00, 0x00,
  0x00, 0x00, 0x00, 0x00, 0x37, 0x10, 0x00, 0x00, 0x00, 0x14, 0x00, 0x00, 0x00,
  0x5e, 0xfd, 0xff, 0xff, 0x00, 0x00, 0x00, 0x02, 0x01, 0x00, 0x00, 0x00, 0x55,
  0x00, 0x00, 0x00, 0x01, 0x00, 0x00, 0x00, 0x53, 0x00, 0x00, 0x00, 0xf2, 0xfd,
  0xff, 0xff, 0x14, 0x00, 0x00, 0x00, 0x00, 0x00, 0x00, 0x16, 0x10, 0x00, 0x00,
  0x00, 0x14, 0x00, 0x00, 0x00, 0x02, 0x00, 0x00, 0x00, 0xd8, 0xb8, 0xff, 0xff,
  0x01, 0x00, 0x00, 0x00, 0x54, 0x00, 0x00, 0x00, 0x02, 0x00, 0x00, 0x00, 0x53,
  0x00, 0x00, 0x00, 0x47, 0x00, 0x00, 0x00, 0x22, 0xfe, 0xff, 0xff, 0x24, 0x00,
  0x00, 0x00, 0x00, 0x00, 0x00, 0x05, 0x30, 0x00, 0x00, 0x00, 0x34, 0x00, 0x00,
  0x00, 0x05, 0x00, 0x00, 0x00, 0x00, 0x00, 0x0e, 0x00, 0x14, 0x00, 0x00, 0x00,
  0x10, 0x00, 0x0c, 0x00, 0x08, 0x00, 0x04, 0x00, 0x0e, 0x00, 0x00, 0x00, 0x02,
  0x00, 0x00, 0x00, 0x02, 0x00, 0x00, 0x00, 0x02, 0x00, 0x00, 0x00, 0x02, 0x00,
  0x00, 0x00, 0x01, 0x00, 0x00, 0x00, 0x53, 0x00, 0x00, 0x00, 0x01, 0x00, 0x00,
  0x00, 0x52, 0x00, 0x00, 0x00, 0x6e, 0xfe, 0xff, 0xff, 0x14, 0x00, 0x00, 0x00,
  0x00, 0x00, 0x00, 0x01, 0x20, 0x00, 0x00, 0x00, 0x24, 0x00, 0x00, 0x00, 0x04,
  0x00, 0x00, 0x00, 0x46, 0xff, 0xff, 0xff, 0x00, 0x00, 0x04, 0x01, 0x01, 0x00,
  0x00, 0x00, 0x01, 0x00, 0x00, 0x00, 0x00, 0x00, 0x00, 0x01, 0x01, 0x00, 0x00,
  0x00, 0x52, 0x00, 0x00, 0x00, 0x03, 0x00, 0x00, 0x00, 0x51, 0x00, 0x00, 0x00,
  0x40, 0x00, 0x00, 0x00, 0x13, 0x00, 0x00, 0x00, 0xb2, 0xfe, 0xff, 0xff, 0x14,
  0x00, 0x00, 0x00, 0x00, 0x00, 0x00, 0x02, 0x20, 0x00, 0x00, 0x00, 0x24, 0x00,
  0x00, 0x00, 0x03, 0x00, 0x00, 0x00, 0x34, 0xff, 0xff, 0xff, 0x01, 0x00, 0x00,
  0x00, 0x01, 0x00, 0x00, 0x00, 0x01, 0x00, 0x00, 0x00, 0x00, 0x00, 0x00, 0x01,
  0x01, 0x00, 0x00, 0x00, 0x51, 0x00, 0x00, 0x00, 0x03, 0x00, 0x00, 0x00, 0x50,
  0x00, 0x00, 0x00, 0x41, 0x00, 0x00, 0x00, 0x43, 0x00, 0x00, 0x00, 0xf6, 0xfe,
  0xff, 0xff, 0x14, 0x00, 0x00, 0x00, 0x00, 0x00, 0x00, 0x16, 0x10, 0x00, 0x00,
  0x00, 0x14, 0x00, 0x00, 0x00, 0x02, 0x00, 0x00, 0x00, 0xdc, 0xb9, 0xff, 0xff,
  0x01, 0x00, 0x00, 0x00, 0x50, 0x00, 0x00, 0x00, 0x02, 0x00, 0x00, 0x00, 0x4f,
  0x00, 0x00, 0x00, 0x47, 0x00, 0x00, 0x00, 0x26, 0xff, 0xff, 0xff, 0x28, 0x00,
  0x00, 0x00, 0x00, 0x00, 0x00, 0x01, 0x34, 0x00, 0x00, 0x00, 0x38, 0x00, 0x00,
  0x00, 0x04, 0x00, 0x00, 0x00, 0x00, 0x00, 0x12, 0x00, 0x14, 0x00, 0x13, 0x00,
  0x0c, 0x00, 0x08, 0x00, 0x07, 0x00, 0x00, 0x00, 0x00, 0x00, 0x06, 0x00, 0x12,
  0x00, 0x00, 0x00, 0x00, 0x00, 0x04, 0x01, 0x01, 0x00, 0x00, 0x00, 0x01, 0x00,
  0x00, 0x00, 0x00, 0x00, 0x00, 0x01, 0x01, 0x00, 0x00, 0x00, 0x4f, 0x00, 0x00,
  0x00, 0x03, 0x00, 0x00, 0x00, 0x4e, 0x00, 0x00, 0x00, 0x42, 0x00, 0x00, 0x00,
  0x14, 0x00, 0x00, 0x00, 0x7e, 0xff, 0xff, 0xff, 0x20, 0x00, 0x00, 0x00, 0x00,
  0x00, 0x00, 0x02, 0x2c, 0x00, 0x00, 0x00, 0x30, 0x00, 0x00, 0x00, 0x03, 0x00,
  0x00, 0x00, 0x0c, 0x00, 0x14, 0x00, 0x13, 0x00, 0x0c, 0x00, 0x08, 0x00, 0x04,
  0x00, 0x0c, 0x00, 0x00, 0x00, 0x01, 0x00, 0x00, 0x00, 0x01, 0x00, 0x00, 0x00,
  0x01, 0x00, 0x00, 0x00, 0x00, 0x00, 0x00, 0x01, 0x01, 0x00, 0x00, 0x00, 0x4e,
  0x00, 0x00, 0x00, 0x03, 0x00, 0x00, 0x00, 0x4d, 0x00, 0x00, 0x00, 0x44, 0x00,
  0x00, 0x00, 0x45, 0x00, 0x00, 0x00, 0xce, 0xff, 0xff, 0xff, 0x14, 0x00, 0x00,
  0x00, 0x00, 0x00, 0x00, 0x16, 0x10, 0x00, 0x00, 0x00, 0x14, 0x00, 0x00, 0x00,
  0x02, 0x00, 0x00, 0x00, 0xb4, 0xba, 0xff, 0xff, 0x01, 0x00, 0x00, 0x00, 0x4d,
  0x00, 0x00, 0x00, 0x02, 0x00, 0x00, 0x00, 0x00, 0x00, 0x00, 0x00, 0x47, 0x00,
  0x00, 0x00, 0x00, 0x00, 0x0e, 0x00, 0x1a, 0x00, 0x14, 0x00, 0x10, 0x00, 0x0c,
  0x00, 0x0b, 0x00, 0x04, 0x00, 0x0e, 0x00, 0x00, 0x00, 0x1c, 0x00, 0x00, 0x00,
  0x00, 0x00, 0x00, 0x4f, 0x1c, 0x00, 0x00, 0x00, 0x28, 0x00, 0x00, 0x00, 0x01,
  0x00, 0x00, 0x00, 0x00, 0x00, 0x06, 0x00, 0x08, 0x00, 0x04, 0x00, 0x06, 0x00,
  0x00, 0x00, 0x03, 0x00, 0x00, 0x00, 0x03, 0x00, 0x00, 0x00, 0x4a, 0x00, 0x00,
  0x00, 0x4b, 0x00, 0x00, 0x00, 0x4c, 0x00, 0x00, 0x00, 0x03, 0x00, 0x00, 0x00,
  0x49, 0x00, 0x00, 0x00, 0x48, 0x00, 0x00, 0x00, 0x46, 0x00, 0x00, 0x00, 0x00,
  0x00, 0x0e, 0x00, 0x16, 0x00, 0x00, 0x00, 0x10, 0x00, 0x0c, 0x00, 0x0b, 0x00,
  0x04, 0x00, 0x0e, 0x00, 0x00, 0x00, 0x18, 0x00, 0x00, 0x00, 0x00, 0x00, 0x00,
  0x37, 0x18, 0x00, 0x00, 0x00, 0x1c, 0x00, 0x00, 0x00, 0x00, 0x00, 0x06, 0x00,
  0x08, 0x00, 0x07, 0x00, 0x06, 0x00, 0x00, 0x00, 0x00, 0x00, 0x00, 0x02, 0x01,
  0x00, 0x00, 0x00, 0x49, 0x00, 0x00, 0x00, 0x01, 0x00, 0x00, 0x00, 0x00, 0x00,
  0x00, 0x00, 0x00, 0x00, 0x0a, 0x00, 0x10, 0x00, 0x0c, 0x00, 0x08, 0x00, 0x04,
  0x00, 0x0a, 0x00, 0x00, 0x00, 0x0c, 0x00, 0x00, 0x00, 0x10, 0x00, 0x00, 0x00,
  0x08, 0x00, 0x00, 0x00, 0x01, 0x00, 0x00, 0x00, 0x00, 0x00, 0x00, 0x00, 0x01,
  0x00, 0x00, 0x00, 0xa8, 0x00, 0x00, 0x00, 0x01, 0x00, 0x00, 0x00, 0xa9, 0x00,
  0x00, 0x00, 0x01, 0x00, 0x00, 0x00, 0xa8, 0x00, 0x00, 0x00, 0xaa, 0x00, 0x00,
  0x00, 0x9c, 0x7e, 0x00, 0x00, 0xf8, 0x7d, 0x00, 0x00, 0x60, 0x7d, 0x00, 0x00,
  0xdc, 0x7c, 0x00, 0x00, 0x28, 0x7c, 0x00, 0x00, 0x74, 0x7b, 0x00, 0x00, 0xc0,
  0x7a, 0x00, 0x00, 0x0c, 0x7a, 0x00, 0x00, 0x58, 0x79, 0x00, 0x00, 0xa4, 0x78,
  0x00, 0x00, 0x08, 0x78, 0x00, 0x00, 0x6c, 0x77, 0x00, 0x00, 0xd0, 0x76, 0x00,
  0x00, 0x34, 0x76, 0x00, 0x00, 0x98, 0x75, 0x00, 0x00, 0xe4, 0x74, 0x00, 0x00,
  0x30, 0x74, 0x00, 0x00, 0x7c, 0x73, 0x00, 0x00, 0xc8, 0x72, 0x00, 0x00, 0x44,
  0x72, 0x00, 0x00, 0xc0, 0x71, 0x00, 0x00, 0x54, 0x71, 0x00, 0x00, 0xb8, 0x70,
  0x00, 0x00, 0xdc, 0x6f, 0x00, 0x00, 0x18, 0x6f, 0x00, 0x00, 0x50, 0x6e, 0x00,
  0x00, 0x90, 0x6d, 0x00, 0x00, 0x78, 0x6c, 0x00, 0x00, 0xb8, 0x6b, 0x00, 0x00,
  0xa0, 0x6a, 0x00, 0x00, 0x90, 0x69, 0x00, 0x00, 0x78, 0x68, 0x00, 0x00, 0x68,
  0x67, 0x00, 0x00, 0xb0, 0x65, 0x00, 0x00, 0xa0, 0x64, 0x00, 0x00, 0x88, 0x63,
  0x00, 0x00, 0x78, 0x62, 0x00, 0x00, 0x60, 0x61, 0x00, 0x00, 0x50, 0x60, 0x00,
  0x00, 0x98, 0x5e, 0x00, 0x00, 0x80, 0x5d, 0x00, 0x00, 0x6c, 0x5c, 0x00, 0x00,
  0x7c, 0x5b, 0x00, 0x00, 0x94, 0x5a, 0x00, 0x00, 0xa4, 0x59, 0x00, 0x00, 0xbc,
  0x58, 0x00, 0x00, 0x54, 0x57, 0x00, 0x00, 0x6c, 0x56, 0x00, 0x00, 0x80, 0x55,
  0x00, 0x00, 0x90, 0x54, 0x00, 0x00, 0xa8, 0x53, 0x00, 0x00, 0xb8, 0x52, 0x00,
  0x00, 0xd0, 0x51, 0x00, 0x00, 0x34, 0x51, 0x00, 0x00, 0x1c, 0x50, 0x00, 0x00,
  0x0c, 0x4f, 0x00, 0x00, 0xf4, 0x4d, 0x00, 0x00, 0xe4, 0x4c, 0x00, 0x00, 0xcc,
  0x4b, 0x00, 0x00, 0xbc, 0x4a, 0x00, 0x00, 0xa4, 0x49, 0x00, 0x00, 0x94, 0x48,
  0x00, 0x00, 0xe0, 0x47, 0x00, 0x00, 0x18, 0x47, 0x00, 0x00, 0x58, 0x46, 0x00,
  0x00, 0x90, 0x45, 0x00, 0x00, 0xd0, 0x44, 0x00, 0x00, 0x4c, 0x44, 0x00, 0x00,
  0xc4, 0x43, 0x00, 0x00, 0x64, 0x43, 0x00, 0x00, 0x28, 0x43, 0x00, 0x00, 0xc8,
  0x42, 0x00, 0x00, 0x84, 0x42, 0x00, 0x00, 0x40, 0x42, 0x00, 0x00, 0xf0, 0x41,
  0x00, 0x00, 0xa0, 0x41, 0x00, 0x00, 0x50, 0x41, 0x00, 0x00, 0xac, 0x40, 0x00,
  0x00, 0xf0, 0x3f, 0x00, 0x00, 0x04, 0x3f, 0x00, 0x00, 0x60, 0x3e, 0x00, 0x00,
  0xa4, 0x3d, 0x00, 0x00, 0xb0, 0x3c, 0x00, 0x00, 0x04, 0x3c, 0x00, 0x00, 0x60,
  0x3b, 0x00, 0x00, 0x14, 0x3b, 0x00, 0x00, 0xc4, 0x3a, 0x00, 0x00, 0x74, 0x3a,
  0x00, 0x00, 0x24, 0x3a, 0x00, 0x00, 0x64, 0x39, 0x00, 0x00, 0x70, 0x38, 0x00,
  0x00, 0xcc, 0x37, 0x00, 0x00, 0x10, 0x37, 0x00, 0x00, 0x1c, 0x36, 0x00, 0x00,
  0x70, 0x35, 0x00, 0x00, 0xcc, 0x34, 0x00, 0x00, 0x7c, 0x34, 0x00, 0x00, 0x2c,
  0x34, 0x00, 0x00, 0xdc, 0x33, 0x00, 0x00, 0x8c, 0x33, 0x00, 0x00, 0xd0, 0x32,
  0x00, 0x00, 0xdc, 0x31, 0x00, 0x00, 0x38, 0x31, 0x00, 0x00, 0x7c, 0x30, 0x00,
  0x00, 0x88, 0x2f, 0x00, 0x00, 0xdc, 0x2e, 0x00, 0x00, 0x38, 0x2e, 0x00, 0x00,
  0xe8, 0x2d, 0x00, 0x00, 0x9c, 0x2d, 0x00, 0x00, 0x4c, 0x2d, 0x00, 0x00, 0xfc,
  0x2c, 0x00, 0x00, 0x3c, 0x2c, 0x00, 0x00, 0x48, 0x2b, 0x00, 0x00, 0xa4, 0x2a,
  0x00, 0x00, 0xe8, 0x29, 0x00, 0x00, 0xf4, 0x28, 0x00, 0x00, 0x48, 0x28, 0x00,
  0x00, 0x84, 0x27, 0x00, 0x00, 0xe0, 0x26, 0x00, 0x00, 0x24, 0x26, 0x00, 0x00,
  0x38, 0x25, 0x00, 0x00, 0x84, 0x24, 0x00, 0x00, 0xe0, 0x23, 0x00, 0x00, 0x24,
  0x23, 0x00, 0x00, 0x30, 0x22, 0x00, 0x00, 0x8c, 0x21, 0x00, 0x00, 0xd0, 0x20,
  0x00, 0x00, 0xdc, 0x1f, 0x00, 0x00, 0x18, 0x1f, 0x00, 0x00, 0x74, 0x1e, 0x00,
  0x00, 0xb8, 0x1d, 0x00, 0x00, 0xc4, 0x1c, 0x00, 0x00, 0x10, 0x1c, 0x00, 0x00,
  0x6c, 0x1b, 0x00, 0x00, 0xb0, 0x1a, 0x00, 0x00, 0xbc, 0x19, 0x00, 0x00, 0x18,
  0x19, 0x00, 0x00, 0x5c, 0x18, 0x00, 0x00, 0x68, 0x17, 0x00, 0x00, 0xa4, 0x16,
  0x00, 0x00, 0x00, 0x16, 0x00, 0x00, 0x44, 0x15, 0x00, 0x00, 0x50, 0x14, 0x00,
  0x00, 0x9c, 0x13, 0x00, 0x00, 0xf8, 0x12, 0x00, 0x00, 0x3c, 0x12, 0x00, 0x00,
  0x48, 0x11, 0x00, 0x00, 0xa4, 0x10, 0x00, 0x00, 0xe8, 0x0f, 0x00, 0x00, 0xf4,
  0x0e, 0x00, 0x00, 0x30, 0x0e, 0x00, 0x00, 0x8c, 0x0d, 0x00, 0x00, 0xd0, 0x0c,
  0x00, 0x00, 0xdc, 0x0b, 0x00, 0x00, 0x28, 0x0b, 0x00, 0x00, 0x7c, 0x0a, 0x00,
  0x00, 0xc0, 0x09, 0x00, 0x00, 0xcc, 0x08, 0x00, 0x00, 0x20, 0x08, 0x00, 0x00,
  0x64, 0x07, 0x00, 0x00, 0x70, 0x06, 0x00, 0x00, 0xc4, 0x05, 0x00, 0x00, 0x08,
  0x05, 0x00, 0x00, 0x54, 0x04, 0x00, 0x00, 0x78, 0x03, 0x00, 0x00, 0x84, 0x02,
  0x00, 0x00, 0xa8, 0x01, 0x00, 0x00, 0xcc, 0x00, 0x00, 0x00, 0x7c, 0x00, 0x00,
  0x00, 0x04, 0x00, 0x00, 0x00, 0xa0, 0xff, 0xff, 0xff, 0x0c, 0x00, 0x00, 0x00,
  0x1c, 0x00, 0x00, 0x00, 0x40, 0x00, 0x00, 0x00, 0x04, 0x00, 0x00, 0x00, 0x01,
  0x00, 0x00, 0x00, 0xff, 0xff, 0xff, 0xff, 0xff, 0xff, 0xff, 0xff, 0x02, 0x00,
  0x00, 0x00, 0x22, 0x00, 0x00, 0x00, 0x72, 0x65, 0x73, 0x74, 0x6f, 0x72, 0x61,
  0x74, 0x69, 0x6f, 0x6e, 0x5f, 0x30, 0x2f, 0x64, 0x65, 0x63, 0x6f, 0x64, 0x65,
  0x72, 0x2f, 0x42, 0x69, 0x61, 0x73, 0x41, 0x64, 0x64, 0x5f, 0x31, 0x32, 0x3a,
  0x30, 0x00, 0x00, 0x04, 0x00, 0x00, 0x00, 0x01, 0x00, 0x00, 0x00, 0x01, 0x00,
  0x00, 0x00, 0x01, 0x00, 0x00, 0x00, 0x02, 0x00, 0x00, 0x00, 0x14, 0x00, 0x10,
  0x00, 0x0c, 0x00, 0x00, 0x00, 0x00, 0x00, 0x08, 0x00, 0x00, 0x00, 0x00, 0x00,
  0x00, 0x00, 0x04, 0x00, 0x14, 0x00, 0x00, 0x00, 0x0c, 0x00, 0x00, 0x00, 0x1c,
  0x00, 0x00, 0x00, 0x2c, 0x00, 0x00, 0x00, 0x04, 0x00, 0x00, 0x00, 0x01, 0x00,
  0x00, 0x00, 0xff, 0xff, 0xff, 0xff, 0xff, 0xff, 0xff, 0xff, 0x01, 0x00, 0x00,
  0x00, 0x0d, 0x00, 0x00, 0x00, 0x50, 0x6c, 0x61, 0x63, 0x65, 0x68, 0x6f, 0x6c,
  0x64, 0x65, 0x72, 0x3a, 0x30, 0x00, 0x00, 0x00, 0x04, 0x00, 0x00, 0x00, 0x01,
  0x00, 0x00, 0x00, 0x01, 0x00, 0x00, 0x00, 0x01, 0x00, 0x00, 0x00, 0x01, 0x00,
  0x00, 0x00, 0x74, 0xfd, 0xff, 0xff, 0x14, 0x00, 0x00, 0x00, 0x24, 0x00, 0x00,
  0x00, 0x40, 0x00, 0x00, 0x00, 0x00, 0x00, 0x00, 0x07, 0xb0, 0x00, 0x00, 0x00,
  0x04, 0x00, 0x00, 0x00, 0x01, 0x00, 0x00, 0x00, 0xff, 0xff, 0xff, 0xff, 0xff,
  0xff, 0xff, 0xff, 0x06, 0x00, 0x00, 0x00, 0x7c, 0x85, 0xff, 0xff, 0x08, 0x00,
  0x00, 0x00, 0x10, 0x00, 0x00, 0x00, 0x01, 0x00, 0x00, 0x00, 0x00, 0x00, 0x00,
  0x00, 0x00, 0x00, 0x00, 0x00, 0x01, 0x00, 0x00, 0x00, 0x20, 0x8b, 0x39, 0x35,
  0x71, 0x00, 0x00, 0x00, 0x72, 0x65, 0x73, 0x74, 0x6f, 0x72, 0x61, 0x74, 0x69,
  0x6f, 0x6e, 0x5f, 0x30, 0x2f, 0x65, 0x6e, 0x63, 0x6f, 0x64, 0x65, 0x72, 0x2f,
  0x52, 0x65, 0x6c, 0x75, 0x5f, 0x37, 0x3b, 0x72, 0x65, 0x73, 0x74, 0x6f, 0x72,
  0x61, 0x74, 0x69, 0x6f, 0x6e, 0x5f, 0x30, 0x2f, 0x65, 0x6e, 0x63, 0x6f, 0x64,
  0x65, 0x72, 0x2f, 0x42, 0x69, 0x61, 0x73, 0x41, 0x64, 0x64, 0x5f, 0x37, 0x3b,
  0x72, 0x65, 0x73, 0x74, 0x6f, 0x72, 0x61, 0x74, 0x69, 0x6f, 0x6e, 0x5f, 0x30,
  0x2f, 0x65, 0x6e, 0x63, 0x6f, 0x64, 0x65, 0x72, 0x2f, 0x73, 0x65, 0x70, 0x61,
  0x72, 0x61, 0x62, 0x6c, 0x65, 0x5f, 0x63, 0x6f, 0x6e, 0x76, 0x32, 0x64, 0x5f,
  0x37, 0x5f, 0x72, 0x65, 0x71, 0x75, 0x61, 0x6e, 0x74, 0x69, 0x7a, 0x65, 0x64,
  0x00, 0x00, 0x00, 0x04, 0x00, 0x00, 0x00, 0x01, 0x00, 0x00, 0x00, 0x01, 0x00,
  0x00, 0x00, 0x01, 0x00, 0x00, 0x00, 0x06, 0x00, 0x00, 0x00, 0x4c, 0xfe, 0xff,
  0xff, 0x14, 0x00, 0x00, 0x00, 0x24, 0x00, 0x00, 0x00, 0x40, 0x00, 0x00, 0x00,
  0x00, 0x00, 0x00, 0x07, 0xb0, 0x00, 0x00, 0x00, 0x04, 0x00, 0x00, 0x00, 0x01,
  0x00, 0x00, 0x00, 0xff, 0xff, 0xff, 0xff, 0xff, 0xff, 0xff, 0xff, 0x08, 0x00,
  0x00, 0x00, 0x54, 0x86, 0xff, 0xff, 0x08, 0x00, 0x00, 0x00, 0x10, 0x00, 0x00,
  0x00, 0x01, 0x00, 0x00, 0x00, 0x00, 0x00, 0x00, 0x00, 0x00, 0x00, 0x00, 0x00,
  0x01, 0x00, 0x00, 0x00, 0x53, 0x45, 0xb4, 0x39, 0x71, 0x00, 0x00, 0x00, 0x72,
  0x65, 0x73, 0x74, 0x6f, 0x72, 0x61, 0x74, 0x69, 0x6f, 0x6e, 0x5f, 0x30, 0x2f,
  0x64, 0x65, 0x63, 0x6f, 0x64, 0x65, 0x72, 0x2f, 0x52, 0x65, 0x6c, 0x75, 0x5f,
  0x33, 0x3b, 0x72, 0x65, 0x73, 0x74, 0x6f, 0x72, 0x61, 0x74, 0x69, 0x6f, 0x6e,
  0x5f, 0x30, 0x2f, 0x64, 0x65, 0x63, 0x6f, 0x64, 0x65, 0x72, 0x2f, 0x42, 0x69,
  0x61, 0x73, 0x41, 0x64, 0x64, 0x5f, 0x33, 0x3b, 0x72, 0x65, 0x73, 0x74, 0x6f,
  0x72, 0x61, 0x74, 0x69, 0x6f, 0x6e, 0x5f, 0x30, 0x2f, 0x64, 0x65, 0x63, 0x6f,
  0x64, 0x65, 0x72, 0x2f, 0x73, 0x65, 0x70, 0x61, 0x72, 0x61, 0x62, 0x6c, 0x65,
  0x5f, 0x63, 0x6f, 0x6e, 0x76, 0x32, 0x64, 0x5f, 0x33, 0x5f, 0x72, 0x65, 0x71,
  0x75, 0x61, 0x6e, 0x74, 0x69, 0x7a, 0x65, 0x64, 0x00, 0x00, 0x00, 0x04, 0x00,
  0x00, 0x00, 0x01, 0x00, 0x00, 0x00, 0x01, 0x00, 0x00, 0x00, 0x01, 0x00, 0x00,
  0x00, 0x08, 0x00, 0x00, 0x00, 0x24, 0xff, 0xff, 0xff, 0x14, 0x00, 0x00, 0x00,
  0x24, 0x00, 0x00, 0x00, 0x44, 0x00, 0x00, 0x00, 0x00, 0x00, 0x00, 0x07, 0xb4,
  0x00, 0x00, 0x00, 0x04, 0x00, 0x00, 0x00, 0x01, 0x00, 0x00, 0x00, 0xff, 0xff,
  0xff, 0xff, 0xff, 0xff, 0xff, 0xff, 0x08, 0x00, 0x00, 0x00, 0x2c, 0x87, 0xff,
  0xff, 0x08, 0x00, 0x00, 0x00, 0x14, 0x00, 0x00, 0x00, 0x01, 0x00, 0x00, 0x00,
  0x00, 0x00, 0x00, 0x00, 0x00, 0x00, 0x00, 0x00, 0x00, 0x00, 0x00, 0x00, 0x01,
  0x00, 0x00, 0x00, 0x7b, 0x88, 0xcf, 0x39, 0x71, 0x00, 0x00, 0x00, 0x72, 0x65,
  0x73, 0x74, 0x6f, 0x72, 0x61, 0x74, 0x69, 0x6f, 0x6e, 0x5f, 0x30, 0x2f, 0x64,
  0x65, 0x63, 0x6f, 0x64, 0x65, 0x72, 0x2f, 0x52, 0x65, 0x6c, 0x75, 0x5f, 0x36,
  0x3b, 0x72, 0x65, 0x73, 0x74, 0x6f, 0x72, 0x61, 0x74, 0x69, 0x6f, 0x6e, 0x5f,
  0x30, 0x2f, 0x64, 0x65, 0x63, 0x6f, 0x64, 0x65, 0x72, 0x2f, 0x42, 0x69, 0x61,
  0x73, 0x41, 0x64, 0x64, 0x5f, 0x36, 0x3b, 0x72, 0x65, 0x73, 0x74, 0x6f, 0x72,
  0x61, 0x74, 0x69, 0x6f, 0x6e, 0x5f, 0x30, 0x2f, 0x64, 0x65, 0x63, 0x6f, 0x64,
  0x65, 0x72, 0x2f, 0x73, 0x65, 0x70, 0x61, 0x72, 0x61, 0x62, 0x6c, 0x65, 0x5f,
  0x63, 0x6f, 0x6e, 0x76, 0x32, 0x64, 0x5f, 0x36, 0x5f, 0x72, 0x65, 0x71, 0x75,
  0x61, 0x6e, 0x74, 0x69, 0x7a, 0x65, 0x64, 0x00, 0x00, 0x00, 0x04, 0x00, 0x00,
  0x00, 0x01, 0x00, 0x00, 0x00, 0x01, 0x00, 0x00, 0x00, 0x01, 0x00, 0x00, 0x00,
  0x08, 0x00, 0x00, 0x00, 0x14, 0x00, 0x18, 0x00, 0x14, 0x00, 0x13, 0x00, 0x00,
  0x00, 0x0c, 0x00, 0x08, 0x00, 0x00, 0x00, 0x00, 0x00, 0x04, 0x00, 0x14, 0x00,
  0x00, 0x00, 0x14, 0x00, 0x00, 0x00, 0x24, 0x00, 0x00, 0x00, 0x40, 0x00, 0x00,
  0x00, 0x00, 0x00, 0x00, 0x07, 0xb0, 0x00, 0x00, 0x00, 0x04, 0x00, 0x00, 0x00,
  0x01, 0x00, 0x00, 0x00, 0xff, 0xff, 0xff, 0xff, 0xff, 0xff, 0xff, 0xff, 0x04,
  0x00, 0x00, 0x00, 0x1c, 0x88, 0xff, 0xff, 0x08, 0x00, 0x00, 0x00, 0x10, 0x00,
  0x00, 0x00, 0x01, 0x00, 0x00, 0x00, 0x00, 0x00, 0x00, 0x00, 0x00, 0x00, 0x00,
  0x00, 0x01, 0x00, 0x00, 0x00, 0x5f, 0x43, 0x36, 0x3c, 0x71, 0x00, 0x00, 0x00,
  0x72, 0x65, 0x73, 0x74, 0x6f, 0x72, 0x61, 0x74, 0x69, 0x6f, 0x6e, 0x5f, 0x30,
  0x2f, 0x64, 0x65, 0x63, 0x6f, 0x64, 0x65, 0x72, 0x2f, 0x52, 0x65, 0x6c, 0x75,
  0x5f, 0x39, 0x3b, 0x72, 0x65, 0x73, 0x74, 0x6f, 0x72, 0x61, 0x74, 0x69, 0x6f,
  0x6e, 0x5f, 0x30, 0x2f, 0x64, 0x65, 0x63, 0x6f, 0x64, 0x65, 0x72, 0x2f, 0x42,
  0x69, 0x61, 0x73, 0x41, 0x64, 0x64, 0x5f, 0x39, 0x3b, 0x72, 0x65, 0x73, 0x74,
  0x6f, 0x72, 0x61, 0x74, 0x69, 0x6f, 0x6e, 0x5f, 0x30, 0x2f, 0x64, 0x65, 0x63,
  0x6f, 0x64, 0x65, 0x72, 0x2f, 0x73, 0x65, 0x70, 0x61, 0x72, 0x61, 0x62, 0x6c,
  0x65, 0x5f, 0x63, 0x6f, 0x6e, 0x76, 0x32, 0x64, 0x5f, 0x39, 0x5f, 0x72, 0x65,
  0x71, 0x75, 0x61, 0x6e, 0x74, 0x69, 0x7a, 0x65, 0x64, 0x00, 0x00, 0x00, 0x04,
  0x00, 0x00, 0x00, 0x01, 0x00, 0x00, 0x00, 0x01, 0x00, 0x00, 0x00, 0x01, 0x00,
  0x00, 0x00, 0x04, 0x00, 0x00, 0x00, 0x5a, 0x88, 0xff, 0xff, 0x00, 0x00, 0x00,
  0x01, 0x18, 0x00, 0x00, 0x00, 0x28, 0x00, 0x00, 0x00, 0x5c, 0x00, 0x00, 0x00,
  0xa4, 0x00, 0x00, 0x00, 0x00, 0x00, 0x00, 0x07, 0x80, 0x00, 0x00, 0x00, 0x04,
  0x00, 0x00, 0x00, 0x01, 0x00, 0x00, 0x00, 0xff, 0xff, 0xff, 0xff, 0xff, 0xff,
  0xff, 0xff, 0x02, 0x00, 0x00, 0x00, 0x44, 0x88, 0xff, 0xff, 0x10, 0x00, 0x00,
  0x00, 0x18, 0x00, 0x00, 0x00, 0x1c, 0x00, 0x00, 0x00, 0x20, 0x00, 0x00, 0x00,
  0x01, 0x00, 0x00, 0x00, 0x00, 0x00, 0x00, 0x00, 0x00, 0x00, 0x00, 0x00, 0x01,
  0x00, 0x00, 0x00, 0x41, 0x04, 0x1e, 0x3d, 0x01, 0x00, 0x00, 0x00, 0xfb, 0x37,
  0x8a, 0x44, 0x01, 0x00, 0x00, 0x00, 0x05, 0x03, 0x9e, 0xc4, 0x28, 0x00, 0x00,
  0x00, 0x72, 0x65, 0x73, 0x74, 0x6f, 0x72, 0x61, 0x74, 0x69, 0x6f, 0x6e, 0x5f,
  0x30, 0x2f, 0x64, 0x65, 0x63, 0x6f, 0x64, 0x65, 0x72, 0x2f, 0x42, 0x69, 0x61,
  0x73, 0x41, 0x64, 0x64, 0x5f, 0x31, 0x32, 0x3a, 0x30, 0x5f, 0x69, 0x6e, 0x74,
  0x31, 0x36, 0x00, 0x00, 0x00, 0x00, 0x04, 0x00, 0x00, 0x00, 0x01, 0x00, 0x00,
  0x00, 0x01, 0x00, 0x00, 0x00, 0x01, 0x00, 0x00, 0x00, 0x02, 0x00, 0x00, 0x00,
  0x0a, 0x89, 0xff, 0xff, 0x00, 0x00, 0x00, 0x01, 0x18, 0x00, 0x00, 0x00, 0x28,
  0x00, 0x00, 0x00, 0x5c, 0x00, 0x00, 0x00, 0xa3, 0x00, 0x00, 0x00, 0x00, 0x00,
  0x00, 0x07, 0x88, 0x00, 0x00, 0x00, 0x04, 0x00, 0x00, 0x00, 0x01, 0x00, 0x00,
  0x00, 0xff, 0xff, 0xff, 0xff, 0xff, 0xff, 0xff, 0xff, 0x04, 0x00, 0x00, 0x00,
  0xf4, 0x88, 0xff, 0xff, 0x10, 0x00, 0x00, 0x00, 0x18, 0x00, 0x00, 0x00, 0x1c,
  0x00, 0x00, 0x00, 0x20, 0x00, 0x00, 0x00, 0x01, 0x00, 0x00, 0x00, 0x00, 0x00,
  0x00, 0x00, 0x00, 0x00, 0x00, 0x00, 0x01, 0x00, 0x00, 0x00, 0x99, 0xe1, 0xf5,
  0x3c, 0x01, 0x00, 0x00, 0x00, 0xa2, 0x3e, 0xa6, 0x43, 0x01, 0x00, 0x00, 0x00,
  0xad, 0xdf, 0x75, 0xc4, 0x33, 0x00, 0x00, 0x00, 0x72, 0x65, 0x73, 0x74, 0x6f,
  0x72, 0x61, 0x74, 0x69, 0x6f, 0x6e, 0x5f, 0x30, 0x2f, 0x64, 0x65, 0x63, 0x6f,
  0x64, 0x65, 0x72, 0x2f, 0x73, 0x65, 0x70, 0x61, 0x72, 0x61, 0x62, 0x6c, 0x65,
  0x5f, 0x63, 0x6f, 0x6e, 0x76, 0x32, 0x64, 0x5f, 0x31, 0x32, 0x2f, 0x64, 0x65,
  0x70, 0x74, 0x68, 0x77, 0x69, 0x73, 0x65, 0x00, 0x04, 0x00, 0x00, 0x00, 0x01,
  0x00, 0x00, 0x00, 0x01, 0x00, 0x00, 0x00, 0x01, 0x00, 0x00, 0x00, 0x04, 0x00,
  0x00, 0x00, 0xc2, 0x89, 0xff, 0xff, 0x00, 0x00, 0x00, 0x01, 0x18, 0x00, 0x00,
  0x00, 0x28, 0x00, 0x00, 0x00, 0x60, 0x00, 0x00, 0x00, 0xa2, 0x00, 0x00, 0x00,
  0x00, 0x00, 0x00, 0x07, 0x78, 0x00, 0x00, 0x00, 0x04, 0x00, 0x00, 0x00, 0x01,
  0x00, 0x00, 0x00, 0xff, 0xff, 0xff, 0xff, 0xff, 0xff, 0xff, 0xff, 0x04, 0x00,
  0x00, 0x00, 0xac, 0x89, 0xff, 0xff, 0x10, 0x00, 0x00, 0x00, 0x1c, 0x00, 0x00,
  0x00, 0x20, 0x00, 0x00, 0x00, 0x24, 0x00, 0x00, 0x00, 0x01, 0x00, 0x00, 0x00,
  0x00, 0x00, 0x00, 0x00, 0x00, 0x00, 0x00, 0x00, 0x00, 0x00, 0x00, 0x00, 0x01,
  0x00, 0x00, 0x00, 0x9b, 0xbe, 0xd8, 0x3c, 0x01, 0x00, 0x00, 0x00, 0xea, 0xbc,
  0x58, 0x44, 0x01, 0x00, 0x00, 0x00, 0x00, 0x00, 0x00, 0x00, 0x1c, 0x00, 0x00,
  0x00, 0x72, 0x65, 0x73, 0x74, 0x6f, 0x72, 0x61, 0x74, 0x69, 0x6f, 0x6e, 0x5f,
  0x30, 0x2f, 0x64, 0x65, 0x63, 0x6f, 0x64, 0x65, 0x72, 0x2f, 0x50, 0x61, 0x64,
  0x5f, 0x31, 0x32, 0x00, 0x00, 0x00, 0x00, 0x04, 0x00, 0x00, 0x00, 0x01, 0x00,
  0x00, 0x00, 0x01, 0x00, 0x00, 0x00, 0x01, 0x00, 0x00, 0x00, 0x04, 0x00, 0x00,
  0x00, 0x6a, 0x8a, 0xff, 0xff, 0x00, 0x00, 0x00, 0x01, 0x18, 0x00, 0x00, 0x00,
  0x28, 0x00, 0x00, 0x00, 0x5c, 0x00, 0x00, 0x00, 0xa1, 0x00, 0x00, 0x00, 0x00,
  0x00, 0x00, 0x07, 0xc0, 0x00, 0x00, 0x00, 0x04, 0x00, 0x00, 0x00, 0x01, 0x00,
  0x00, 0x00, 0xff, 0xff, 0xff, 0xff, 0xff, 0xff, 0xff, 0xff, 0x04, 0x00, 0x00,
  0x00, 0x54, 0x8a, 0xff, 0xff, 0x10, 0x00, 0x00, 0x00, 0x18, 0x00, 0x00, 0x00,
  0x1c, 0x00, 0x00, 0x00, 0x20, 0x00, 0x00, 0x00, 0x01, 0x00, 0x00, 0x00, 0x00,
  0x00, 0x00, 0x00, 0x00, 0x00, 0x00, 0x00, 0x01, 0x00, 0x00, 0x00, 0x9b, 0xbe,
  0xd8, 0x3c, 0x01, 0x00, 0x00, 0x00, 0xea, 0xbc, 0x58, 0x44, 0x01, 0x00, 0x00,
  0x00, 0x00, 0x00, 0x00, 0x00, 0x68, 0x00, 0x00, 0x00, 0x72, 0x65, 0x73, 0x74,
  0x6f, 0x72, 0x61, 0x74, 0x69, 0x6f, 0x6e, 0x5f, 0x30, 0x2f, 0x64, 0x65, 0x63,
  0x6f, 0x64, 0x65, 0x72, 0x2f, 0x52, 0x65, 0x6c, 0x75, 0x5f, 0x31, 0x31, 0x3b,
  0x72, 0x65, 0x73, 0x74, 0x6f, 0x72, 0x61, 0x74, 0x69, 0x6f, 0x6e, 0x5f, 0x30,
  0x2f, 0x64, 0x65, 0x63, 0x6f, 0x64, 0x65, 0x72, 0x2f, 0x42, 0x69, 0x61, 0x73,
  0x41, 0x64, 0x64, 0x5f, 0x31, 0x31, 0x3b, 0x72, 0x65, 0x73, 0x74, 0x6f, 0x72,
  0x61, 0x74, 0x69, 0x6f, 0x6e, 0x5f, 0x30, 0x2f, 0x64, 0x65, 0x63, 0x6f, 0x64,
  0x65, 0x72, 0x2f, 0x73, 0x65, 0x70, 0x61, 0x72, 0x61, 0x62, 0x6c, 0x65, 0x5f,
  0x63, 0x6f, 0x6e, 0x76, 0x32, 0x64, 0x5f, 0x31, 0x31, 0x00, 0x00, 0x00, 0x00,
  0x04, 0x00, 0x00, 0x00, 0x01, 0x00, 0x00, 0x00, 0x01, 0x00, 0x00, 0x00, 0x01,
  0x00, 0x00, 0x00, 0x04, 0x00, 0x00, 0x00, 0x5a, 0x8b, 0xff, 0xff, 0x00, 0x00,
  0x00, 0x01, 0x18, 0x00, 0x00, 0x00, 0x28, 0x00, 0x00, 0x00, 0x5c, 0x00, 0x00,
  0x00, 0xa0, 0x00, 0x00, 0x00, 0x00, 0x00, 0x00, 0x07, 0x88, 0x00, 0x00, 0x00,
  0x04, 0x00, 0x00, 0x00, 0x01, 0x00, 0x00, 0x00, 0xff, 0xff, 0xff, 0xff, 0xff,
  0xff, 0xff, 0xff, 0x04, 0x00, 0x00, 0x00, 0x44, 0x8b, 0xff, 0xff, 0x10, 0x00,
  0x00, 0x00, 0x18, 0x00, 0x00, 0x00, 0x1c, 0x00, 0x00, 0x00, 0x20, 0x00, 0x00,
  0x00, 0x01, 0x00, 0x00, 0x00, 0x00, 0x00, 0x00, 0x00, 0x00, 0x00, 0x00, 0x00,
  0x01, 0x00, 0x00, 0x00, 0xf4, 0xc7, 0xee, 0x3c, 0x01, 0x00, 0x00, 0x00, 0x16,
  0xc6, 0x6e, 0x44, 0x01, 0x00, 0x00, 0x00, 0x02, 0x14, 0x03, 0xc4, 0x33, 0x00,
  0x00, 0x00, 0x72, 0x65, 0x73, 0x74, 0x6f, 0x72, 0x61, 0x74, 0x69, 0x6f, 0x6e,
  0x5f, 0x30, 0x2f, 0x64, 0x65, 0x63, 0x6f, 0x64, 0x65, 0x72, 0x2f, 0x73, 0x65,
  0x70, 0x61, 0x72, 0x61, 0x62, 0x6c, 0x65, 0x5f, 0x63, 0x6f, 0x6e, 0x76, 0x32,
  0x64, 0x5f, 0x31, 0x31, 0x2f, 0x64, 0x65, 0x70, 0x74, 0x68, 0x77, 0x69, 0x73,
  0x65, 0x00, 0x04, 0x00, 0x00, 0x00, 0x01, 0x00, 0x00, 0x00, 0x01, 0x00, 0x00,
  0x00, 0x01, 0x00, 0x00, 0x00, 0x04, 0x00, 0x00, 0x00, 0x12, 0x8c, 0xff, 0xff,
  0x00, 0x00, 0x00, 0x01, 0x18, 0x00, 0x00, 0x00, 0x28, 0x00, 0x00, 0x00, 0x60,
  0x00, 0x00, 0x00, 0x9f, 0x00, 0x00, 0x00, 0x00, 0x00, 0x00, 0x07, 0x78, 0x00,
  0x00, 0x00, 0x04, 0x00, 0x00, 0x00, 0x01, 0x00, 0x00, 0x00, 0xff, 0xff, 0xff,
  0xff, 0xff, 0xff, 0xff, 0xff, 0x04, 0x00, 0x00, 0x00, 0xfc, 0x8b, 0xff, 0xff,
  0x10, 0x00, 0x00, 0x00, 0x1c, 0x00, 0x00, 0x00, 0x20, 0x00, 0x00, 0x00, 0x24,
  0x00, 0x00, 0x00, 0x01, 0x00, 0x00, 0x00, 0x00, 0x00, 0x00, 0x00, 0x00, 0x00,
  0x00, 0x00, 0x00, 0x00, 0x00, 0x00, 0x01, 0x00, 0x00, 0x00, 0x7e, 0xf0, 0x71,
  0x3c, 0x01, 0x00, 0x00, 0x00, 0x9a, 0xee, 0xf1, 0x43, 0x01, 0x00, 0x00, 0x00,
  0x00, 0x00, 0x00, 0x00, 0x1c, 0x00, 0x00, 0x00, 0x72, 0x65, 0x73, 0x74, 0x6f,
  0x72, 0x61, 0x74, 0x69, 0x6f, 0x6e, 0x5f, 0x30, 0x2f, 0x64, 0x65, 0x63, 0x6f,
  0x64, 0x65, 0x72, 0x2f, 0x50, 0x61, 0x64, 0x5f, 0x31, 0x31, 0x00, 0x00, 0x00,
  0x00, 0x04, 0x00, 0x00, 0x00, 0x01, 0x00, 0x00, 0x00, 0x01, 0x00, 0x00, 0x00,
  0x01, 0x00, 0x00, 0x00, 0x04, 0x00, 0x00, 0x00, 0xba, 0x8c, 0xff, 0xff, 0x00,
  0x00, 0x00, 0x01, 0x18, 0x00, 0x00, 0x00, 0x28, 0x00, 0x00, 0x00, 0x5c, 0x00,
  0x00, 0x00, 0x9e, 0x00, 0x00, 0x00, 0x00, 0x00, 0x00, 0x07, 0xc0, 0x00, 0x00,
  0x00, 0x04, 0x00, 0x00, 0x00, 0x01, 0x00, 0x00, 0x00, 0xff, 0xff, 0xff, 0xff,
  0xff, 0xff, 0xff, 0xff, 0x04, 0x00, 0x00, 0x00, 0xa4, 0x8c, 0xff, 0xff, 0x10,
  0x00, 0x00, 0x00, 0x18, 0x00, 0x00, 0x00, 0x1c, 0x00, 0x00, 0x00, 0x20, 0x00,
  0x00, 0x00, 0x01, 0x00, 0x00, 0x00, 0x00, 0x00, 0x00, 0x00, 0x00, 0x00, 0x00,
  0x00, 0x01, 0x00, 0x00, 0x00, 0x7e, 0xf0, 0x71, 0x3c, 0x01, 0x00, 0x00, 0x00,
  0x9a, 0xee, 0xf1, 0x43, 0x01, 0x00, 0x00, 0x00, 0x00, 0x00, 0x00, 0x00, 0x68,
  0x00, 0x00, 0x00, 0x72, 0x65, 0x73, 0x74, 0x6f, 0x72, 0x61, 0x74, 0x69, 0x6f,
  0x6e, 0x5f, 0x30, 0x2f, 0x64, 0x65, 0x63, 0x6f, 0x64, 0x65, 0x72, 0x2f, 0x52,
  0x65, 0x6c, 0x75, 0x5f, 0x31, 0x30, 0x3b, 0x72, 0x65, 0x73, 0x74, 0x6f, 0x72,
  0x61, 0x74, 0x69, 0x6f, 0x6e, 0x5f, 0x30, 0x2f, 0x64, 0x65, 0x63, 0x6f, 0x64,
  0x65, 0x72, 0x2f, 0x42, 0x69, 0x61, 0x73, 0x41, 0x64, 0x64, 0x5f, 0x31, 0x30,
  0x3b, 0x72, 0x65, 0x73, 0x74, 0x6f, 0x72, 0x61, 0x74, 0x69, 0x6f, 0x6e, 0x5f,
  0x30, 0x2f, 0x64, 0x65, 0x63, 0x6f, 0x64, 0x65, 0x72, 0x2f, 0x73, 0x65, 0x70,
  0x61, 0x72, 0x61, 0x62, 0x6c, 0x65, 0x5f, 0x63, 0x6f, 0x6e, 0x76, 0x32, 0x64,
  0x5f, 0x31, 0x30, 0x00, 0x00, 0x00, 0x00, 0x04, 0x00, 0x00, 0x00, 0x01, 0x00,
  0x00, 0x00, 0x01, 0x00, 0x00, 0x00, 0x01, 0x00, 0x00, 0x00, 0x04, 0x00, 0x00,
  0x00, 0xaa, 0x8d, 0xff, 0xff, 0x00, 0x00, 0x00, 0x01, 0x18, 0x00, 0x00, 0x00,
  0x28, 0x00, 0x00, 0x00, 0x5c, 0x00, 0x00, 0x00, 0x9d, 0x00, 0x00, 0x00, 0x00,
  0x00, 0x00, 0x07, 0x88, 0x00, 0x00, 0x00, 0x04, 0x00, 0x00, 0x00, 0x01, 0x00,
  0x00, 0x00, 0xff, 0xff, 0xff, 0xff, 0xff, 0xff, 0xff, 0xff, 0x08, 0x00, 0x00,
  0x00, 0x94, 0x8d, 0xff, 0xff, 0x10, 0x00, 0x00, 0x00, 0x18, 0x00, 0x00, 0x00,
  0x1c, 0x00, 0x00, 0x00, 0x20, 0x00, 0x00, 0x00, 0x01, 0x00, 0x00, 0x00, 0x00,
  0x00, 0x00, 0x00, 0x00, 0x00, 0x00, 0x00, 0x01, 0x00, 0x00, 0x00, 0xf7, 0x88,
  0x5a, 0x3c, 0x01, 0x00, 0x00, 0x00, 0x42, 0x87, 0xda, 0x43, 0x01, 0x00, 0x00,
  0x00, 0xd3, 0x67, 0x94, 0xc3, 0x33, 0x00, 0x00, 0x00, 0x72, 0x65, 0x73, 0x74,
  0x6f, 0x72, 0x61, 0x74, 0x69, 0x6f, 0x6e, 0x5f, 0x30, 0x2f, 0x64, 0x65, 0x63,
  0x6f, 0x64, 0x65, 0x72, 0x2f, 0x73, 0x65, 0x70, 0x61, 0x72, 0x61, 0x62, 0x6c,
  0x65, 0x5f, 0x63, 0x6f, 0x6e, 0x76, 0x32, 0x64, 0x5f, 0x31, 0x30, 0x2f, 0x64,
  0x65, 0x70, 0x74, 0x68, 0x77, 0x69, 0x73, 0x65, 0x00, 0x04, 0x00, 0x00, 0x00,
  0x01, 0x00, 0x00, 0x00, 0x01, 0x00, 0x00, 0x00, 0x01, 0x00, 0x00, 0x00, 0x08,
  0x00, 0x00, 0x00, 0x62, 0x8e, 0xff, 0xff, 0x00, 0x00, 0x00, 0x01, 0x18, 0x00,
  0x00, 0x00, 0x28, 0x00, 0x00, 0x00, 0x60, 0x00, 0x00, 0x00, 0x9c, 0x00, 0x00,
  0x00, 0x00, 0x00, 0x00, 0x07, 0x78, 0x00, 0x00, 0x00, 0x04, 0x00, 0x00, 0x00,
  0x01, 0x00, 0x00, 0x00, 0xff, 0xff, 0xff, 0xff, 0xff, 0xff, 0xff, 0xff, 0x08,
  0x00, 0x00, 0x00, 0x4c, 0x8e, 0xff, 0xff, 0x10, 0x00, 0x00, 0x00, 0x1c, 0x00,
  0x00, 0x00, 0x20, 0x00, 0x00, 0x00, 0x24, 0x00, 0x00, 0x00, 0x01, 0x00, 0x00,
  0x00, 0x00, 0x00, 0x00, 0x00, 0x00, 0x00, 0x00, 0x00, 0x00, 0x00, 0x00, 0x00,
  0x01, 0x00, 0x00, 0x00, 0x5f, 0x43, 0x36, 0x3c, 0x01, 0x00, 0x00, 0x00, 0xf2,
  0x41, 0xb6, 0x43, 0x01, 0x00, 0x00, 0x00, 0x00, 0x00, 0x00, 0x00, 0x1c, 0x00,
  0x00, 0x00, 0x72, 0x65, 0x73, 0x74, 0x6f, 0x72, 0x61, 0x74, 0x69, 0x6f, 0x6e,
  0x5f, 0x30, 0x2f, 0x64, 0x65, 0x63, 0x6f, 0x64, 0x65, 0x72, 0x2f, 0x50, 0x61,
  0x64, 0x5f, 0x31, 0x30, 0x00, 0x00, 0x00, 0x00, 0x04, 0x00, 0x00, 0x00, 0x01,
  0x00, 0x00, 0x00, 0x01, 0x00, 0x00, 0x00, 0x01, 0x00, 0x00, 0x00, 0x08, 0x00,
  0x00, 0x00, 0x0a, 0x8f, 0xff, 0xff, 0x00, 0x00, 0x00, 0x01, 0x18, 0x00, 0x00,
  0x00, 0x28, 0x00, 0x00, 0x00, 0x60, 0x00, 0x00, 0x00, 0x9b, 0x00, 0x00, 0x00,
  0x00, 0x00, 0x00, 0x07, 0x80, 0x00, 0x00, 0x00, 0x04, 0x00, 0x00, 0x00, 0x01,
  0x00, 0x00, 0x00, 0xff, 0xff, 0xff, 0xff, 0xff, 0xff, 0xff, 0xff, 0x08, 0x00,
  0x00, 0x00, 0xf4, 0x8e, 0xff, 0xff, 0x10, 0x00, 0x00, 0x00, 0x1c, 0x00, 0x00,
  0x00, 0x20, 0x00, 0x00, 0x00, 0x24, 0x00, 0x00, 0x00, 0x01, 0x00, 0x00, 0x00,
  0x00, 0x00, 0x00, 0x00, 0x00, 0x00, 0x00, 0x00, 0x00, 0x00, 0x00, 0x00, 0x01,
  0x00, 0x00, 0x00, 0x5f, 0x43, 0x36, 0x3c, 0x01, 0x00, 0x00, 0x00, 0xf2, 0x41,
  0xb6, 0x43, 0x01, 0x00, 0x00, 0x00, 0x00, 0x00, 0x00, 0x00, 0x26, 0x00, 0x00,
  0x00, 0x72, 0x65, 0x73, 0x74, 0x6f, 0x72, 0x61, 0x74, 0x69, 0x6f, 0x6e, 0x5f,
  0x30, 0x2f, 0x64, 0x65, 0x63, 0x6f, 0x64, 0x65, 0x72, 0x2f, 0x64, 0x65, 0x63,
  0x6f, 0x64, 0x65, 0x72, 0x5f, 0x30, 0x5f, 0x63, 0x6f, 0x6e, 0x63, 0x61, 0x74,
  0x00, 0x00, 0x04, 0x00, 0x00, 0x00, 0x01, 0x00, 0x00, 0x00, 0x01, 0x00, 0x00,
  0x00, 0x01, 0x00, 0x00, 0x00, 0x08, 0x00, 0x00, 0x00, 0xba, 0x8f, 0xff, 0xff,
  0x00, 0x00, 0x00, 0x01, 0x18, 0x00, 0x00, 0x00, 0x28, 0x00, 0x00, 0x00, 0x60,
  0x00, 0x00, 0x00, 0x9a, 0x00, 0x00, 0x00, 0x00, 0x00, 0x00, 0x07, 0xc0, 0x00,
  0x00, 0x00, 0x04, 0x00, 0x00, 0x00, 0x01, 0x00, 0x00, 0x00, 0xff, 0xff, 0xff,
  0xff, 0xff, 0xff, 0xff, 0xff, 0x04, 0x00, 0x00, 0x00, 0xa4, 0x8f, 0xff, 0xff,
  0x10, 0x00, 0x00, 0x00, 0x1c, 0x00, 0x00, 0x00, 0x20, 0x00, 0x00, 0x00, 0x24,
  0x00, 0x00, 0x00, 0x01, 0x00, 0x00, 0x00, 0x00, 0x00, 0x00, 0x00, 0x00, 0x00,
  0x00, 0x00, 0x00, 0x00, 0x00, 0x00, 0x01, 0x00, 0x00, 0x00, 0x1e, 0x7a, 0xb1,
  0x3a, 0x01, 0x00, 0x00, 0x00, 0xbb, 0x78, 0x31, 0x42, 0x01, 0x00, 0x00, 0x00,
  0x00, 0x00, 0x00, 0x00, 0x65, 0x00, 0x00, 0x00, 0x72, 0x65, 0x73, 0x74, 0x6f,
  0x72, 0x61, 0x74, 0x69, 0x6f, 0x6e, 0x5f, 0x30, 0x2f, 0x64, 0x65, 0x63, 0x6f,
  0x64, 0x65, 0x72, 0x2f, 0x52, 0x65, 0x6c, 0x75, 0x5f, 0x39, 0x3b, 0x72, 0x65,
  0x73, 0x74, 0x6f, 0x72, 0x61, 0x74, 0x69, 0x6f, 0x6e, 0x5f, 0x30, 0x2f, 0x64,
  0x65, 0x63, 0x6f, 0x64, 0x65, 0x72, 0x2f, 0x42, 0x69, 0x61, 0x73, 0x41, 0x64,
  0x64, 0x5f, 0x39, 0x3b, 0x72, 0x65, 0x73, 0x74, 0x6f, 0x72, 0x61, 0x74, 0x69,
  0x6f, 0x6e, 0x5f, 0x30, 0x2f, 0x64, 0x65, 0x63, 0x6f, 0x64, 0x65, 0x72, 0x2f,
  0x73, 0x65, 0x70, 0x61, 0x72, 0x61, 0x62, 0x6c, 0x65, 0x5f, 0x63, 0x6f, 0x6e,
  0x76, 0x32, 0x64, 0x5f, 0x39, 0x00, 0x00, 0x00, 0x04, 0x00, 0x00, 0x00, 0x01,
  0x00, 0x00, 0x00, 0x01, 0x00, 0x00, 0x00, 0x01, 0x00, 0x00, 0x00, 0x04, 0x00,
  0x00, 0x00, 0xaa, 0x90, 0xff, 0xff, 0x00, 0x00, 0x00, 0x01, 0x18, 0x00, 0x00,
  0x00, 0x28, 0x00, 0x00, 0x00, 0x5c, 0x00, 0x00, 0x00, 0x99, 0x00, 0x00, 0x00,
  0x00, 0x00, 0x00, 0x07, 0x88, 0x00, 0x00, 0x00, 0x04, 0x00, 0x00, 0x00, 0x01,
  0x00, 0x00, 0x00, 0xff, 0xff, 0xff, 0xff, 0xff, 0xff, 0xff, 0xff, 0x08, 0x00,
  0x00, 0x00, 0x94, 0x90, 0xff, 0xff, 0x10, 0x00, 0x00, 0x00, 0x18, 0x00, 0x00,
  0x00, 0x1c, 0x00, 0x00, 0x00, 0x20, 0x00, 0x00, 0x00, 0x01, 0x00, 0x00, 0x00,
  0x00, 0x00, 0x00, 0x00, 0x00, 0x00, 0x00, 0x00, 0x01, 0x00, 0x00, 0x00, 0x92,
  0x0a, 0x6b, 0x3a, 0x01, 0x00, 0x00, 0x00, 0xde, 0x09, 0xba, 0x41, 0x01, 0x00,
  0x00, 0x00, 0xbc, 0x08, 0xeb, 0xc1, 0x32, 0x00, 0x00, 0x00, 0x72, 0x65, 0x73,
  0x74, 0x6f, 0x72, 0x61, 0x74, 0x69, 0x6f, 0x6e, 0x5f, 0x30, 0x2f, 0x64, 0x65,
  0x63, 0x6f, 0x64, 0x65, 0x72, 0x2f, 0x73, 0x65, 0x70, 0x61, 0x72, 0x61, 0x62,
  0x6c, 0x65, 0x5f, 0x63, 0x6f, 0x6e, 0x76, 0x32, 0x64, 0x5f, 0x39, 0x2f, 0x64,
  0x65, 0x70, 0x74, 0x68, 0x77, 0x69, 0x73, 0x65, 0x00, 0x00, 0x04, 0x00, 0x00,
  0x00, 0x01, 0x00, 0x00, 0x00, 0x01, 0x00, 0x00, 0x00, 0x01, 0x00, 0x00, 0x00,
  0x08, 0x00, 0x00, 0x00, 0x62, 0x91, 0xff, 0xff, 0x00, 0x00, 0x00, 0x01, 0x18,
  0x00, 0x00, 0x00, 0x28, 0x00, 0x00, 0x00, 0x5c, 0x00, 0x00, 0x00, 0x98, 0x00,
  0x00, 0x00, 0x00, 0x00, 0x00, 0x07, 0x70, 0x00, 0x00, 0x00, 0x04, 0x00, 0x00,
  0x00, 0x01, 0x00, 0x00, 0x00, 0xff, 0xff, 0xff, 0xff, 0xff, 0xff, 0xff, 0xff,
  0x08, 0x00, 0x00, 0x00, 0x4c, 0x91, 0xff, 0xff, 0x10, 0x00, 0x00, 0x00, 0x18,
  0x00, 0x00, 0x00, 0x1c, 0x00, 0x00, 0x00, 0x20, 0x00, 0x00, 0x00, 0x01, 0x00,
  0x00, 0x00, 0x00, 0x00, 0x00, 0x00, 0x00, 0x00, 0x00, 0x00, 0x01, 0x00, 0x00,
  0x00, 0x08, 0x8e, 0x42, 0x3a, 0x01, 0x00, 0x00, 0x00, 0x83, 0x8c, 0xc2, 0x41,
  0x01, 0x00, 0x00, 0x00, 0x00, 0x00, 0x00, 0x00, 0x1b, 0x00, 0x00, 0x00, 0x72,
  0x65, 0x73, 0x74, 0x6f, 0x72, 0x61, 0x74, 0x69, 0x6f, 0x6e, 0x5f, 0x30, 0x2f,
  0x64, 0x65, 0x63, 0x6f, 0x64, 0x65, 0x72, 0x2f, 0x50, 0x61, 0x64, 0x5f, 0x39,
  0x00, 0x04, 0x00, 0x00, 0x00, 0x01, 0x00, 0x00, 0x00, 0x01, 0x00, 0x00, 0x00,
  0x01, 0x00, 0x00, 0x00, 0x08, 0x00, 0x00, 0x00, 0x02, 0x92, 0xff, 0xff, 0x00,
  0x00, 0x00, 0x01, 0x18, 0x00, 0x00, 0x00, 0x28, 0x00, 0x00, 0x00, 0x60, 0x00,
  0x00, 0x00, 0x97, 0x00, 0x00, 0x00, 0x00, 0x00, 0x00, 0x07, 0x90, 0x00, 0x00,
  0x00, 0x04, 0x00, 0x00, 0x00, 0x01, 0x00, 0x00, 0x00, 0xff, 0xff, 0xff, 0xff,
  0xff, 0xff, 0xff, 0xff, 0x08, 0x00, 0x00, 0x00, 0xec, 0x91, 0xff, 0xff, 0x10,
  0x00, 0x00, 0x00, 0x1c, 0x00, 0x00, 0x00, 0x20, 0x00, 0x00, 0x00, 0x24, 0x00,
  0x00, 0x00, 0x01, 0x00, 0x00, 0x00, 0x00, 0x00, 0x00, 0x00, 0x00, 0x00, 0x00,
  0x00, 0x00, 0x00, 0x00, 0x00, 0x01, 0x00, 0x00, 0x00, 0x08, 0x8e, 0x42, 0x3a,
  0x01, 0x00, 0x00, 0x00, 0x83, 0x8c, 0xc2, 0x41, 0x01, 0x00, 0x00, 0x00, 0x00,
  0x00, 0x00, 0x00, 0x37, 0x00, 0x00, 0x00, 0x72, 0x65, 0x73, 0x74, 0x6f, 0x72,
  0x61, 0x74, 0x69, 0x6f, 0x6e, 0x5f, 0x30, 0x2f, 0x64, 0x65, 0x63, 0x6f, 0x64,
  0x65, 0x72, 0x2f, 0x64, 0x65, 0x63, 0x6f, 0x64, 0x65, 0x72, 0x5f, 0x75, 0x70,
  0x73, 0x61, 0x6d, 0x70, 0x6c, 0x65, 0x5f, 0x30, 0x2f, 0x52, 0x65, 0x73, 0x69,
