/*
 * Copyright (c) 2020, Alliance for Open Media. All rights reserved
 *
 * This source code is subject to the terms of the BSD 2 Clause License and
 * the Alliance for Open Media Patent License 1.0. If the BSD 2 Clause License
 * was not distributed with this source code in the LICENSE file, you can
 * obtain it at www.aomedia.org/license/software. If the Alliance for Open
 * Media Patent License 1.0 was not distributed with this source code in the
 * PATENTS file, you can obtain it at www.aomedia.org/license/patent.
 */

#include "av1/tflite_models/intra_frame_model/qp91_120_quadtree.h"

const unsigned char qp91_120_quadtree_model_tflite_data[] = {
  0x1c, 0x00, 0x00, 0x00, 0x54, 0x46, 0x4c, 0x33, 0x14, 0x00, 0x20, 0x00, 0x1c,
  0x00, 0x18, 0x00, 0x14, 0x00, 0x10, 0x00, 0x0c, 0x00, 0x00, 0x00, 0x08, 0x00,
  0x04, 0x00, 0x14, 0x00, 0x00, 0x00, 0x1c, 0x00, 0x00, 0x00, 0x80, 0x00, 0x00,
  0x00, 0xd8, 0x00, 0x00, 0x00, 0x40, 0x18, 0x00, 0x00, 0x50, 0x18, 0x00, 0x00,
  0xe4, 0xad, 0x00, 0x00, 0x03, 0x00, 0x00, 0x00, 0x01, 0x00, 0x00, 0x00, 0x04,
  0x00, 0x00, 0x00, 0xa6, 0xd1, 0xff, 0xff, 0x0c, 0x00, 0x00, 0x00, 0x1c, 0x00,
  0x00, 0x00, 0x38, 0x00, 0x00, 0x00, 0x0f, 0x00, 0x00, 0x00, 0x73, 0x65, 0x72,
  0x76, 0x69, 0x6e, 0x67, 0x5f, 0x64, 0x65, 0x66, 0x61, 0x75, 0x6c, 0x74, 0x00,
  0x01, 0x00, 0x00, 0x00, 0x04, 0x00, 0x00, 0x00, 0x9c, 0xff, 0xff, 0xff, 0xa9,
  0x00, 0x00, 0x00, 0x04, 0x00, 0x00, 0x00, 0x06, 0x00, 0x00, 0x00, 0x6f, 0x75,
  0x74, 0x70, 0x75, 0x74, 0x00, 0x00, 0x01, 0x00, 0x00, 0x00, 0x04, 0x00, 0x00,
  0x00, 0xbc, 0xff, 0xff, 0xff, 0xa8, 0x00, 0x00, 0x00, 0x04, 0x00, 0x00, 0x00,
  0x03, 0x00, 0x00, 0x00, 0x69, 0x6d, 0x67, 0x00, 0x02, 0x00, 0x00, 0x00, 0x34,
  0x00, 0x00, 0x00, 0x04, 0x00, 0x00, 0x00, 0xdc, 0xff, 0xff, 0xff, 0xa6, 0x00,
  0x00, 0x00, 0x04, 0x00, 0x00, 0x00, 0x13, 0x00, 0x00, 0x00, 0x43, 0x4f, 0x4e,
  0x56, 0x45, 0x52, 0x53, 0x49, 0x4f, 0x4e, 0x5f, 0x4d, 0x45, 0x54, 0x41, 0x44,
  0x41, 0x54, 0x41, 0x00, 0x08, 0x00, 0x0c, 0x00, 0x08, 0x00, 0x04, 0x00, 0x08,
  0x00, 0x00, 0x00, 0xa5, 0x00, 0x00, 0x00, 0x04, 0x00, 0x00, 0x00, 0x13, 0x00,
  0x00, 0x00, 0x6d, 0x69, 0x6e, 0x5f, 0x72, 0x75, 0x6e, 0x74, 0x69, 0x6d, 0x65,
  0x5f, 0x76, 0x65, 0x72, 0x73, 0x69, 0x6f, 0x6e, 0x00, 0xa7, 0x00, 0x00, 0x00,
  0x64, 0x17, 0x00, 0x00, 0x5c, 0x17, 0x00, 0x00, 0x2c, 0x17, 0x00, 0x00, 0xfc,
  0x16, 0x00, 0x00, 0xcc, 0x16, 0x00, 0x00, 0x7c, 0x16, 0x00, 0x00, 0x2c, 0x16,
  0x00, 0x00, 0xdc, 0x15, 0x00, 0x00, 0x8c, 0x15, 0x00, 0x00, 0x3c, 0x15, 0x00,
  0x00, 0xec, 0x14, 0x00, 0x00, 0xac, 0x14, 0x00, 0x00, 0x6c, 0x14, 0x00, 0x00,
  0x2c, 0x14, 0x00, 0x00, 0xec, 0x13, 0x00, 0x00, 0xac, 0x13, 0x00, 0x00, 0x5c,
  0x13, 0x00, 0x00, 0x0c, 0x13, 0x00, 0x00, 0xbc, 0x12, 0x00, 0x00, 0x6c, 0x12,
  0x00, 0x00, 0x3c, 0x12, 0x00, 0x00, 0x0c, 0x12, 0x00, 0x00, 0xec, 0x11, 0x00,
  0x00, 0xd4, 0x11, 0x00, 0x00, 0xa0, 0x11, 0x00, 0x00, 0x80, 0x11, 0x00, 0x00,
  0x4c, 0x11, 0x00, 0x00, 0x1c, 0x11, 0x00, 0x00, 0xc4, 0x10, 0x00, 0x00, 0x94,
  0x10, 0x00, 0x00, 0x3c, 0x10, 0x00, 0x00, 0xec, 0x0f, 0x00, 0x00, 0x94, 0x0f,
  0x00, 0x00, 0x04, 0x0f, 0x00, 0x00, 0x64, 0x0e, 0x00, 0x00, 0x14, 0x0e, 0x00,
  0x00, 0xbc, 0x0d, 0x00, 0x00, 0x6c, 0x0d, 0x00, 0x00, 0x14, 0x0d, 0x00, 0x00,
  0x84, 0x0c, 0x00, 0x00, 0xe4, 0x0b, 0x00, 0x00, 0x54, 0x0b, 0x00, 0x00, 0x14,
  0x0b, 0x00, 0x00, 0xcc, 0x0a, 0x00, 0x00, 0x98, 0x0a, 0x00, 0x00, 0x50, 0x0a,
  0x00, 0x00, 0xf8, 0x09, 0x00, 0x00, 0x7c, 0x09, 0x00, 0x00, 0x0c, 0x09, 0x00,
  0x00, 0xd8, 0x08, 0x00, 0x00, 0x90, 0x08, 0x00, 0x00, 0x5c, 0x08, 0x00, 0x00,
  0x14, 0x08, 0x00, 0x00, 0xd4, 0x07, 0x00, 0x00, 0x94, 0x07, 0x00, 0x00, 0x3c,
  0x07, 0x00, 0x00, 0xec, 0x06, 0x00, 0x00, 0x94, 0x06, 0x00, 0x00, 0x44, 0x06,
  0x00, 0x00, 0xec, 0x05, 0x00, 0x00, 0x9c, 0x05, 0x00, 0x00, 0x44, 0x05, 0x00,
  0x00, 0x14, 0x05, 0x00, 0x00, 0xc4, 0x04, 0x00, 0x00, 0x90, 0x04, 0x00, 0x00,
  0x70, 0x04, 0x00, 0x00, 0x3c, 0x04, 0x00, 0x00, 0x28, 0x04, 0x00, 0x00, 0xf8,
  0x03, 0x00, 0x00, 0xdc, 0x03, 0x00, 0x00, 0xc4, 0x03, 0x00, 0x00, 0xb0, 0x03,
  0x00, 0x00, 0x80, 0x03, 0x00, 0x00, 0x64, 0x03, 0x00, 0x00, 0x5c, 0x03, 0x00,
  0x00, 0x54, 0x03, 0x00, 0x00, 0x4c, 0x03, 0x00, 0x00, 0x44, 0x03, 0x00, 0x00,
  0x3c, 0x03, 0x00, 0x00, 0x34, 0x03, 0x00, 0x00, 0x2c, 0x03, 0x00, 0x00, 0x24,
  0x03, 0x00, 0x00, 0x1c, 0x03, 0x00, 0x00, 0x14, 0x03, 0x00, 0x00, 0x0c, 0x03,
  0x00, 0x00, 0x04, 0x03, 0x00, 0x00, 0xfc, 0x02, 0x00, 0x00, 0xf4, 0x02, 0x00,
  0x00, 0xec, 0x02, 0x00, 0x00, 0xe4, 0x02, 0x00, 0x00, 0xdc, 0x02, 0x00, 0x00,
  0xd4, 0x02, 0x00, 0x00, 0xcc, 0x02, 0x00, 0x00, 0xc4, 0x02, 0x00, 0x00, 0xbc,
  0x02, 0x00, 0x00, 0xb4, 0x02, 0x00, 0x00, 0xac, 0x02, 0x00, 0x00, 0xa4, 0x02,
  0x00, 0x00, 0x9c, 0x02, 0x00, 0x00, 0x94, 0x02, 0x00, 0x00, 0x8c, 0x02, 0x00,
  0x00, 0x84, 0x02, 0x00, 0x00, 0x7c, 0x02, 0x00, 0x00, 0x74, 0x02, 0x00, 0x00,
  0x6c, 0x02, 0x00, 0x00, 0x64, 0x02, 0x00, 0x00, 0x5c, 0x02, 0x00, 0x00, 0x54,
  0x02, 0x00, 0x00, 0x4c, 0x02, 0x00, 0x00, 0x44, 0x02, 0x00, 0x00, 0x3c, 0x02,
  0x00, 0x00, 0x34, 0x02, 0x00, 0x00, 0x2c, 0x02, 0x00, 0x00, 0x24, 0x02, 0x00,
  0x00, 0x1c, 0x02, 0x00, 0x00, 0x14, 0x02, 0x00, 0x00, 0x0c, 0x02, 0x00, 0x00,
  0x04, 0x02, 0x00, 0x00, 0xfc, 0x01, 0x00, 0x00, 0xf4, 0x01, 0x00, 0x00, 0xec,
  0x01, 0x00, 0x00, 0xe4, 0x01, 0x00, 0x00, 0xdc, 0x01, 0x00, 0x00, 0xd4, 0x01,
  0x00, 0x00, 0xcc, 0x01, 0x00, 0x00, 0xc4, 0x01, 0x00, 0x00, 0xbc, 0x01, 0x00,
  0x00, 0xb4, 0x01, 0x00, 0x00, 0xac, 0x01, 0x00, 0x00, 0xa4, 0x01, 0x00, 0x00,
  0x9c, 0x01, 0x00, 0x00, 0x94, 0x01, 0x00, 0x00, 0x8c, 0x01, 0x00, 0x00, 0x84,
  0x01, 0x00, 0x00, 0x7c, 0x01, 0x00, 0x00, 0x74, 0x01, 0x00, 0x00, 0x6c, 0x01,
  0x00, 0x00, 0x64, 0x01, 0x00, 0x00, 0x5c, 0x01, 0x00, 0x00, 0x54, 0x01, 0x00,
  0x00, 0x4c, 0x01, 0x00, 0x00, 0x44, 0x01, 0x00, 0x00, 0x3c, 0x01, 0x00, 0x00,
  0x34, 0x01, 0x00, 0x00, 0x2c, 0x01, 0x00, 0x00, 0x24, 0x01, 0x00, 0x00, 0x1c,
  0x01, 0x00, 0x00, 0x14, 0x01, 0x00, 0x00, 0x0c, 0x01, 0x00, 0x00, 0x04, 0x01,
  0x00, 0x00, 0xfc, 0x00, 0x00, 0x00, 0xf4, 0x00, 0x00, 0x00, 0xec, 0x00, 0x00,
  0x00, 0xe4, 0x00, 0x00, 0x00, 0xdc, 0x00, 0x00, 0x00, 0xd4, 0x00, 0x00, 0x00,
  0xcc, 0x00, 0x00, 0x00, 0xc4, 0x00, 0x00, 0x00, 0xbc, 0x00, 0x00, 0x00, 0xb4,
  0x00, 0x00, 0x00, 0xac, 0x00, 0x00, 0x00, 0xa4, 0x00, 0x00, 0x00, 0x9c, 0x00,
  0x00, 0x00, 0x94, 0x00, 0x00, 0x00, 0x8c, 0x00, 0x00, 0x00, 0x6c, 0x00, 0x00,
  0x00, 0x04, 0x00, 0x00, 0x00, 0x76, 0xd5, 0xff, 0xff, 0x04, 0x00, 0x00, 0x00,
  0x58, 0x00, 0x00, 0x00, 0x0c, 0x00, 0x00, 0x00, 0x08, 0x00, 0x0e, 0x00, 0x08,
  0x00, 0x04, 0x00, 0x08, 0x00, 0x00, 0x00, 0x10, 0x00, 0x00, 0x00, 0x28, 0x00,
  0x00, 0x00, 0x00, 0x00, 0x06, 0x00, 0x08, 0x00, 0x04, 0x00, 0x06, 0x00, 0x00,
  0x00, 0x04, 0x00, 0x00, 0x00, 0x01, 0x00, 0x00, 0x00, 0xec, 0x03, 0x00, 0x00,
  0x00, 0x00, 0x0a, 0x00, 0x10, 0x00, 0x0c, 0x00, 0x08, 0x00, 0x04, 0x00, 0x0a,
  0x00, 0x00, 0x00, 0x01, 0x00, 0x00, 0x00, 0x02, 0x00, 0x00, 0x00, 0x04, 0x00,
  0x00, 0x00, 0x06, 0x00, 0x00, 0x00, 0x32, 0x2e, 0x31, 0x36, 0x2e, 0x30, 0x00,
  0x00, 0xda, 0xd5, 0xff, 0xff, 0x04, 0x00, 0x00, 0x00, 0x10, 0x00, 0x00, 0x00,
  0x32, 0x2e, 0x32, 0x2e, 0x30, 0x00, 0x00, 0x00, 0x00, 0x00, 0x00, 0x00, 0x00,
  0x00, 0x00, 0x00, 0xf4, 0x90, 0xff, 0xff, 0xf8, 0x90, 0xff, 0xff, 0xfc, 0x90,
  0xff, 0xff, 0x00, 0x91, 0xff, 0xff, 0x04, 0x91, 0xff, 0xff, 0x08, 0x91, 0xff,
  0xff, 0x0c, 0x91, 0xff, 0xff, 0x10, 0x91, 0xff, 0xff, 0x14, 0x91, 0xff, 0xff,
  0x18, 0x91, 0xff, 0xff, 0x1c, 0x91, 0xff, 0xff, 0x20, 0x91, 0xff, 0xff, 0x24,
  0x91, 0xff, 0xff, 0x28, 0x91, 0xff, 0xff, 0x2c, 0x91, 0xff, 0xff, 0x30, 0x91,
  0xff, 0xff, 0x34, 0x91, 0xff, 0xff, 0x38, 0x91, 0xff, 0xff, 0x3c, 0x91, 0xff,
  0xff, 0x40, 0x91, 0xff, 0xff, 0x44, 0x91, 0xff, 0xff, 0x48, 0x91, 0xff, 0xff,
  0x4c, 0x91, 0xff, 0xff, 0x50, 0x91, 0xff, 0xff, 0x54, 0x91, 0xff, 0xff, 0x58,
  0x91, 0xff, 0xff, 0x5c, 0x91, 0xff, 0xff, 0x60, 0x91, 0xff, 0xff, 0x64, 0x91,
  0xff, 0xff, 0x68, 0x91, 0xff, 0xff, 0x6c, 0x91, 0xff, 0xff, 0x70, 0x91, 0xff,
  0xff, 0x74, 0x91, 0xff, 0xff, 0x78, 0x91, 0xff, 0xff, 0x7c, 0x91, 0xff, 0xff,
  0x80, 0x91, 0xff, 0xff, 0x84, 0x91, 0xff, 0xff, 0x88, 0x91, 0xff, 0xff, 0x8c,
  0x91, 0xff, 0xff, 0x90, 0x91, 0xff, 0xff, 0x94, 0x91, 0xff, 0xff, 0x98, 0x91,
  0xff, 0xff, 0x9c, 0x91, 0xff, 0xff, 0xa0, 0x91, 0xff, 0xff, 0xa4, 0x91, 0xff,
  0xff, 0xa8, 0x91, 0xff, 0xff, 0xac, 0x91, 0xff, 0xff, 0xb0, 0x91, 0xff, 0xff,
  0xb4, 0x91, 0xff, 0xff, 0xb8, 0x91, 0xff, 0xff, 0xbc, 0x91, 0xff, 0xff, 0xc0,
  0x91, 0xff, 0xff, 0xc4, 0x91, 0xff, 0xff, 0xc8, 0x91, 0xff, 0xff, 0xcc, 0x91,
  0xff, 0xff, 0xd0, 0x91, 0xff, 0xff, 0xd4, 0x91, 0xff, 0xff, 0xd8, 0x91, 0xff,
  0xff, 0xdc, 0x91, 0xff, 0xff, 0xe0, 0x91, 0xff, 0xff, 0xe4, 0x91, 0xff, 0xff,
  0xe8, 0x91, 0xff, 0xff, 0xec, 0x91, 0xff, 0xff, 0xf0, 0x91, 0xff, 0xff, 0xf4,
  0x91, 0xff, 0xff, 0xf8, 0x91, 0xff, 0xff, 0xfc, 0x91, 0xff, 0xff, 0x00, 0x92,
  0xff, 0xff, 0x04, 0x92, 0xff, 0xff, 0x08, 0x92, 0xff, 0xff, 0x0c, 0x92, 0xff,
  0xff, 0x10, 0x92, 0xff, 0xff, 0x14, 0x92, 0xff, 0xff, 0x18, 0x92, 0xff, 0xff,
  0x1c, 0x92, 0xff, 0xff, 0x20, 0x92, 0xff, 0xff, 0x24, 0x92, 0xff, 0xff, 0x28,
  0x92, 0xff, 0xff, 0x2c, 0x92, 0xff, 0xff, 0x30, 0x92, 0xff, 0xff, 0x34, 0x92,
  0xff, 0xff, 0x38, 0x92, 0xff, 0xff, 0x3c, 0x92, 0xff, 0xff, 0x40, 0x92, 0xff,
  0xff, 0x44, 0x92, 0xff, 0xff, 0x48, 0x92, 0xff, 0xff, 0x4c, 0x92, 0xff, 0xff,
  0x50, 0x92, 0xff, 0xff, 0x54, 0x92, 0xff, 0xff, 0x58, 0x92, 0xff, 0xff, 0x5c,
  0x92, 0xff, 0xff, 0x62, 0xd7, 0xff, 0xff, 0x04, 0x00, 0x00, 0x00, 0x0c, 0x00,
  0x00, 0x00, 0x01, 0x00, 0x00, 0x00, 0x02, 0x00, 0x00, 0x00, 0x01, 0x00, 0x00,
  0x00, 0x7a, 0xd7, 0xff, 0xff, 0x04, 0x00, 0x00, 0x00, 0x20, 0x00, 0x00, 0x00,
  0x00, 0x00, 0x00, 0x00, 0x00, 0x00, 0x00, 0x00, 0x01, 0x00, 0x00, 0x00, 0x01,
  0x00, 0x00, 0x00, 0x01, 0x00, 0x00, 0x00, 0x01, 0x00, 0x00, 0x00, 0x00, 0x00,
  0x00, 0x00, 0x00, 0x00, 0x00, 0x00, 0xa6, 0xd7, 0xff, 0xff, 0x04, 0x00, 0x00,
  0x00, 0x04, 0x00, 0x00, 0x00, 0x00, 0x00, 0x00, 0x00, 0xb6, 0xd7, 0xff, 0xff,
  0x04, 0x00, 0x00, 0x00, 0x08, 0x00, 0x00, 0x00, 0x00, 0x00, 0x00, 0x00, 0x00,
  0x00, 0x00, 0x00, 0xca, 0xd7, 0xff, 0xff, 0x04, 0x00, 0x00, 0x00, 0x09, 0x00,
  0x00, 0x00, 0x46, 0x17, 0xe7, 0x81, 0x51, 0xdc, 0x04, 0x1c, 0xed, 0x00, 0x00,
  0x00, 0xe2, 0xd7, 0xff, 0xff, 0x04, 0x00, 0x00, 0x00, 0x20, 0x00, 0x00, 0x00,
  0x00, 0x00, 0x00, 0x00, 0x00, 0x00, 0x00, 0x00, 0x00, 0x00, 0x00, 0x00, 0x00,
  0x00, 0x00, 0x00, 0x00, 0x00, 0x00, 0x00, 0x00, 0x00, 0x00, 0x00, 0x00, 0x00,
  0x00, 0x00, 0x00, 0x00, 0x00, 0x00, 0x0e, 0xd8, 0xff, 0xff, 0x04, 0x00, 0x00,
  0x00, 0x04, 0x00, 0x00, 0x00, 0x7f, 0x7f, 0x7f, 0x7f, 0x1e, 0xd8, 0xff, 0xff,
  0x04, 0x00, 0x00, 0x00, 0x24, 0x00, 0x00, 0x00, 0xa7, 0xa1, 0x21, 0xd8, 0x53,
  0xbf, 0x7a, 0xf2, 0x53, 0xcd, 0x3e, 0x22, 0x81, 0x81, 0xc0, 0xd1, 0x27, 0xb4,
  0x81, 0x7f, 0xdf, 0xc1, 0x90, 0xc5, 0x5b, 0xf8, 0xd5, 0xf5, 0xf7, 0xd8, 0xca,
  0xce, 0xd9, 0x0c, 0x41, 0x21, 0x4e, 0xd8, 0xff, 0xff, 0x04, 0x00, 0x00, 0x00,
  0x10, 0x00, 0x00, 0x00, 0xf2, 0xe5, 0xb7, 0x81, 0x81, 0x03, 0x41, 0xa2, 0x7f,
  0x03, 0x2e, 0x97, 0xb9, 0x7f, 0xea, 0xae, 0x6a, 0xd8, 0xff, 0xff, 0x04, 0x00,
  0x00, 0x00, 0x24, 0x00, 0x00, 0x00, 0x24, 0xf9, 0xfd, 0x11, 0x0e, 0x05, 0x03,
  0xf9, 0xf9, 0xf8, 0xff, 0x04, 0x81, 0x04, 0x07, 0xfa, 0xd7, 0x04, 0x04, 0x25,
  0x11, 0x81, 0xf1, 0xfb, 0xf7, 0xfd, 0xef, 0x81, 0xfe, 0xe4, 0x7f, 0xd6, 0xf0,
  0x1b, 0xf8, 0x0f, 0x9a, 0xd8, 0xff, 0xff, 0x04, 0x00, 0x00, 0x00, 0x40, 0x00,
  0x00, 0x00, 0x00, 0x00, 0x00, 0x00, 0x00, 0x00, 0x00, 0x00, 0x00, 0x00, 0x00,
  0x00, 0x00, 0x00, 0x00, 0x00, 0x00, 0x00, 0x00, 0x00, 0x00, 0x00, 0x00, 0x00,
  0x00, 0x00, 0x00, 0x00, 0x00, 0x00, 0x00, 0x00, 0x00, 0x00, 0x00, 0x00, 0x00,
  0x00, 0x00, 0x00, 0x00, 0x00, 0x00, 0x00, 0x00, 0x00, 0x00, 0x00, 0x00, 0x00,
  0x00, 0x00, 0x00, 0x00, 0x00, 0x00, 0x00, 0x00, 0x00, 0x00, 0x00, 0x00, 0x00,
  0x00, 0xe6, 0xd8, 0xff, 0xff, 0x04, 0x00, 0x00, 0x00, 0x20, 0x00, 0x00, 0x00,
  0xf7, 0x81, 0xed, 0x06, 0x81, 0xaf, 0xce, 0xcf, 0x25, 0xd7, 0xe9, 0x81, 0xe8,
  0x09, 0xcc, 0x7f, 0x03, 0x81, 0x06, 0x00, 0x02, 0x09, 0x7f, 0x07, 0x4b, 0x0d,
  0xcc, 0x7f, 0x69, 0x0f, 0x29, 0x81, 0x12, 0xd9, 0xff, 0xff, 0x04, 0x00, 0x00,
  0x00, 0x48, 0x00, 0x00, 0x00, 0xe1, 0x09, 0x07, 0x05, 0x2f, 0xf5, 0x0f, 0x07,
  0x18, 0xeb, 0xb4, 0xa1, 0x20, 0xb5, 0x03, 0x5b, 0xef, 0xdf, 0x66, 0x3e, 0x02,
  0xce, 0x81, 0x0d, 0x7f, 0xee, 0xde, 0xcf, 0x7f, 0xfd, 0x04, 0x26, 0x05, 0x24,
  0x34, 0x7f, 0x21, 0xeb, 0x37, 0x18, 0x05, 0x81, 0x7f, 0xf6, 0x03, 0x81, 0xcf,
  0x7f, 0xfe, 0x00, 0x00, 0x10, 0x21, 0x03, 0xfc, 0x26, 0x89, 0x01, 0x17, 0x09,
  0x3d, 0xfd, 0x1d, 0x0e, 0x2e, 0x00, 0xd1, 0x2b, 0x0d, 0x05, 0x95, 0x4f, 0x66,
  0xd9, 0xff, 0xff, 0x04, 0x00, 0x00, 0x00, 0x40, 0x00, 0x00, 0x00, 0x3b, 0xc4,
  0xef, 0x2e, 0x5e, 0xc5, 0x7f, 0x13, 0x35, 0xe3, 0xed, 0x37, 0x1c, 0x7f, 0xd1,
  0x07, 0x7f, 0x7a, 0x5e, 0xb1, 0x5c, 0x19, 0xd9, 0xd1, 0xff, 0xeb, 0x17, 0x72,
  0x87, 0x9c, 0x6c, 0x7f, 0x81, 0x99, 0x87, 0x29, 0xf0, 0x27, 0xb6, 0x7d, 0x81,
  0xc0, 0xb6, 0xc3, 0xb9, 0x32, 0x97, 0xd3, 0x7d, 0x7f, 0x75, 0x2d, 0xb3, 0x02,
  0x68, 0xb1, 0x0f, 0x0e, 0xe4, 0xd0, 0xf6, 0xc6, 0x81, 0x85, 0xb2, 0xd9, 0xff,
  0xff, 0x04, 0x00, 0x00, 0x00, 0x48, 0x00, 0x00, 0x00, 0x12, 0x0a, 0xf7, 0xf4,
  0x04, 0x31, 0xd1, 0xdc, 0xff, 0xaf, 0x1d, 0xe4, 0x19, 0xe5, 0x3e, 0xc1, 0x07,
  0x1a, 0xf3, 0x14, 0xe0, 0x02, 0x17, 0xa8, 0xdd, 0x81, 0x0a, 0xcd, 0x09, 0x3d,
  0xe2, 0x81, 0x81, 0xac, 0x7f, 0x81, 0x7f, 0x7f, 0x81, 0xd0, 0x08, 0x12, 0xde,
  0xf3, 0xb2, 0xf8, 0x4a, 0xa5, 0x11, 0x29, 0xfc, 0x21, 0x00, 0x17, 0x0e, 0xa2,
  0x04, 0x01, 0xfc, 0xec, 0xcd, 0xd8, 0x44, 0xde, 0x08, 0xd2, 0xfb, 0x08, 0xa4,
  0x1a, 0x1f, 0xf6, 0x06, 0xda, 0xff, 0xff, 0x04, 0x00, 0x00, 0x00, 0x40, 0x00,
  0x00, 0x00, 0x81, 0xd0, 0x25, 0x5b, 0x02, 0x1a, 0x07, 0x07, 0xfe, 0xe3, 0x90,
  0x2c, 0x7a, 0x12, 0x7f, 0xe6, 0xe9, 0xf6, 0x6b, 0xe5, 0x81, 0xc5, 0xa3, 0x0b,
  0x81, 0x39, 0xfc, 0xcb, 0xfd, 0xee, 0xd8, 0xc4, 0x0a, 0x05, 0xd6, 0xd8, 0x16,
  0x74, 0x7f, 0x52, 0xde, 0x18, 0x56, 0xf1, 0x03, 0x7f, 0x72, 0x2e, 0x81, 0x31,
  0x20, 0xbf, 0xf9, 0x12, 0x1e, 0x0e, 0x00, 0x00, 0x00, 0x00, 0x00, 0x00, 0x00,
  0x00, 0x52, 0xda, 0xff, 0xff, 0x04, 0x00, 0x00, 0x00, 0x48, 0x00, 0x00, 0x00,
  0xf8, 0xa6, 0xd2, 0xf0, 0x41, 0xd9, 0xdf, 0x7f, 0xdd, 0x83, 0xe7, 0xa0, 0x42,
  0x97, 0x93, 0x7f, 0xd5, 0xed, 0x03, 0xfb, 0x1d, 0xe9, 0xd2, 0x7f, 0x0c, 0x81,
  0xd4, 0x0b, 0xe5, 0x16, 0x10, 0x7f, 0xa9, 0xef, 0x81, 0x89, 0x6b, 0x81, 0x81,
  0x7f, 0x81, 0xf1, 0x02, 0x81, 0x7f, 0xb3, 0x89, 0x7f, 0xec, 0x09, 0xff, 0xee,
  0x0a, 0xfc, 0xfa, 0x7f, 0xf6, 0xf1, 0x00, 0x10, 0xfc, 0xf5, 0xca, 0x7f, 0xdd,
  0xdb, 0x02, 0xcd, 0x29, 0x04, 0xe5, 0x7f, 0xa6, 0xda, 0xff, 0xff, 0x04, 0x00,
  0x00, 0x00, 0x40, 0x00, 0x00, 0x00, 0xef, 0x05, 0xfd, 0xa8, 0xf2, 0x0f, 0x7f,
  0x00, 0x05, 0x30, 0x03, 0x0c, 0x2b, 0x7f, 0xf7, 0x00, 0x81, 0x0d, 0xeb, 0xd6,
  0x00, 0x24, 0x41, 0x00, 0x7f, 0x2f, 0x4f, 0x96, 0x3d, 0x05, 0x3f, 0x00, 0xea,
  0x4d, 0x97, 0x2e, 0x7f, 0xaf, 0x02, 0x00, 0x17, 0xe9, 0x7f, 0x32, 0x02, 0x42,
  0xd1, 0x00, 0x81, 0xe6, 0xe2, 0x5b, 0x1c, 0xdf, 0x36, 0x00, 0x39, 0xc4, 0x1e,
  0x9c, 0xb3, 0x81, 0x27, 0x00, 0xf2, 0xda, 0xff, 0xff, 0x04, 0x00, 0x00, 0x00,
  0x48, 0x00, 0x00, 0x00, 0xff, 0xf7, 0x07, 0x3c, 0x04, 0xf9, 0x19, 0x02, 0x0d,
  0x0f, 0x9f, 0xdf, 0xeb, 0x18, 0x3d, 0xea, 0xf9, 0x0a, 0x20, 0xfe, 0x0a, 0x0d,
  0xd4, 0x03, 0x04, 0x0d, 0xe6, 0x3b, 0x14, 0x1d, 0xf9, 0xba, 0x81, 0x81, 0x9f,
  0x5c, 0x81, 0x81, 0x81, 0x81, 0x10, 0xdc, 0xb3, 0x7f, 0x11, 0x07, 0x4a, 0x1e,
  0x35, 0x06, 0x0b, 0xd6, 0xdd, 0x04, 0x0e, 0x27, 0xb6, 0xda, 0x81, 0xe3, 0x27,
  0xfa, 0x29, 0xd5, 0x0c, 0xf9, 0x1f, 0x7d, 0xeb, 0x14, 0x43, 0x08, 0x46, 0xdb,
  0xff, 0xff, 0x04, 0x00, 0x00, 0x00, 0x30, 0x00, 0x00, 0x00, 0x00, 0x00, 0x00,
  0x00, 0x00, 0x00, 0x00, 0x00, 0x00, 0x00, 0x00, 0x00, 0x00, 0x00, 0x00, 0x00,
  0x00, 0x00, 0x00, 0x00, 0x00, 0x00, 0x00, 0x00, 0x00, 0x00, 0x00, 0x00, 0x00,
  0x00, 0x00, 0x00, 0x00, 0x00, 0x00, 0x00, 0x00, 0x00, 0x00, 0x00, 0x00, 0x00,
  0x00, 0x00, 0x00, 0x00, 0x00, 0x00, 0x82, 0xdb, 0xff, 0xff, 0x04, 0x00, 0x00,
  0x00, 0x30, 0x00, 0x00, 0x00, 0xec, 0x7f, 0xe9, 0x7a, 0xe9, 0x49, 0x8c, 0x11,
  0x00, 0x00, 0x00, 0x00, 0x00, 0x00, 0x00, 0x00, 0x2b, 0x1e, 0x04, 0x32, 0x19,
  0x0e, 0x1b, 0x81, 0x81, 0xaf, 0x73, 0x09, 0xcd, 0x3c, 0x0b, 0xe1, 0x1d, 0x57,
  0x01, 0xff, 0xdf, 0x81, 0xdb, 0xf0, 0x00, 0x00, 0x00, 0x00, 0x00, 0x00, 0x00,
  0x00, 0xbe, 0xdb, 0xff, 0xff, 0x04, 0x00, 0x00, 0x00, 0x36, 0x00, 0x00, 0x00,
  0xf6, 0x7f, 0x08, 0x05, 0x19, 0x7f, 0x69, 0x7f, 0xe5, 0x81, 0x9e, 0x7f, 0x14,
  0x7f, 0xdf, 0xe4, 0x9f, 0x7f, 0x06, 0x7f, 0xfb, 0xfc, 0xe2, 0x7f, 0x7f, 0x7f,
  0xe6, 0xa7, 0x81, 0x7f, 0xde, 0x81, 0x81, 0xb4, 0xb3, 0x81, 0x07, 0x81, 0xf8,
  0xf9, 0xff, 0x81, 0xf2, 0x81, 0xe6, 0x1e, 0xf1, 0x81, 0x15, 0x7f, 0x16, 0xdc,
  0xdf, 0x81, 0x00, 0x00, 0x02, 0xdc, 0xff, 0xff, 0x04, 0x00, 0x00, 0x00, 0x24,
  0x00, 0x00, 0x00, 0xd0, 0x00, 0x78, 0x81, 0xd1, 0x00, 0x12, 0x00, 0x81, 0x9d,
  0xac, 0x00, 0xa7, 0x00, 0xef, 0x81, 0xc0, 0x00, 0xe2, 0x00, 0x41, 0x7f, 0x49,
  0x00, 0x81, 0x00, 0x12, 0x6d, 0xd2, 0x00, 0x28, 0x00, 0xc1, 0x09, 0x7f, 0x00,
  0x32, 0xdc, 0xff, 0xff, 0x04, 0x00, 0x00, 0x00, 0x36, 0x00, 0x00, 0x00, 0x71,
  0xd6, 0x7f, 0x28, 0xb8, 0x81, 0xf9, 0x29, 0xe8, 0xe8, 0x09, 0x1e, 0x3d, 0xb3,
  0x10, 0xfd, 0xc8, 0xbb, 0x03, 0x50, 0xcf, 0x90, 0x2e, 0x19, 0xa2, 0x6a, 0x40,
  0xea, 0x7f, 0x7d, 0x05, 0x7f, 0x16, 0xb1, 0x1b, 0xf1, 0x7f, 0xd8, 0x1f, 0x7f,
  0xac, 0x83, 0xe0, 0x21, 0xef, 0x1a, 0x24, 0x19, 0x74, 0x28, 0x4e, 0xe6, 0xbd,
  0xba, 0x00, 0x00, 0x76, 0xdc, 0xff, 0xff, 0x04, 0x00, 0x00, 0x00, 0x24, 0x00,
  0x00, 0x00, 0x90, 0x32, 0x29, 0x7f, 0x0b, 0xb3, 0x9a, 0xf7, 0x19, 0x1a, 0x81,
  0xd2, 0x81, 0xf3, 0xe6, 0xed, 0x25, 0x04, 0x0b, 0x81, 0x2a, 0x14, 0xfd, 0x64,
  0xa0, 0xad, 0x3a, 0x7a, 0x81, 0x4e, 0x31, 0x9d, 0xb3, 0x7f, 0xd6, 0xde, 0xa6,
  0xdc, 0xff, 0xff, 0x04, 0x00, 0x00, 0x00, 0x60, 0x00, 0x00, 0x00, 0x00, 0x00,
  0x00, 0x00, 0x00, 0x00, 0x00, 0x00, 0x00, 0x00, 0x00, 0x00, 0x00, 0x00, 0x00,
  0x00, 0x00, 0x00, 0x00, 0x00, 0x00, 0x00, 0x00, 0x00, 0x00, 0x00, 0x00, 0x00,
  0x00, 0x00, 0x00, 0x00, 0x00, 0x00, 0x00, 0x00, 0x00, 0x00, 0x00, 0x00, 0x00,
  0x00, 0x00, 0x00, 0x00, 0x00, 0x00, 0x00, 0x00, 0x00, 0x00, 0x00, 0x00, 0x00,
  0x00, 0x00, 0x00, 0x00, 0x00, 0x00, 0x00, 0x00, 0x00, 0x00, 0x00, 0x00, 0x00,
  0x00, 0x00, 0x00, 0x00, 0x00, 0x00, 0x00, 0x00, 0x00, 0x00, 0x00, 0x00, 0x00,
  0x00, 0x00, 0x00, 0x00, 0x00, 0x00, 0x00, 0x00, 0x00, 0x00, 0x00, 0x00, 0x00,
  0x00, 0x00, 0x00, 0x12, 0xdd, 0xff, 0xff, 0x04, 0x00, 0x00, 0x00, 0x6c, 0x00,
  0x00, 0x00, 0x66, 0x7a, 0x83, 0x34, 0xb9, 0x60, 0xcc, 0x14, 0xf7, 0x9e, 0x7f,
  0x02, 0xc2, 0x44, 0xd8, 0x10, 0xe1, 0xf4, 0xc8, 0x62, 0xb3, 0xc4, 0x43, 0x4c,
  0x79, 0x6c, 0x97, 0x58, 0x81, 0x61, 0xc2, 0x05, 0x1a, 0xa8, 0x40, 0xf9, 0xf8,
  0xf8, 0xe0, 0xc2, 0x40, 0xb7, 0xe4, 0x7f, 0x81, 0x21, 0x24, 0x7f, 0x81, 0xe4,
  0x54, 0x81, 0x34, 0x9d, 0xfa, 0xba, 0xda, 0xe0, 0xbe, 0xe8, 0xc0, 0x2b, 0xfe,
  0xcb, 0x21, 0xcc, 0xbc, 0x71, 0xae, 0xc9, 0xfc, 0x33, 0x3f, 0x7f, 0x81, 0x77,
  0x90, 0x7c, 0x81, 0x22, 0xec, 0x81, 0x5c, 0xf6, 0xda, 0x31, 0xc0, 0xed, 0xe4,
  0xf2, 0xc6, 0x43, 0xce, 0xc6, 0x20, 0x21, 0x70, 0x3a, 0x98, 0x7f, 0xb3, 0x7f,
  0xdf, 0x26, 0x0e, 0xc3, 0x67, 0xfb, 0x8a, 0xdd, 0xff, 0xff, 0x04, 0x00, 0x00,
  0x00, 0x48, 0x00, 0x00, 0x00, 0xc6, 0x40, 0x3a, 0x7f, 0x7e, 0x23, 0x15, 0xf2,
  0x0c, 0xfc, 0x1d, 0x0e, 0xe5, 0x5e, 0x2c, 0xce, 0x7f, 0x0a, 0x13, 0xc9, 0xf2,
  0xf3, 0x00, 0x51, 0x18, 0x1b, 0xf4, 0x1e, 0x14, 0xec, 0x26, 0x81, 0xd2, 0xd7,
  0xe4, 0xd2, 0xcf, 0xe9, 0x48, 0x39, 0x02, 0xfc, 0xe0, 0xae, 0x28, 0x81, 0xbc,
  0x1a, 0xf4, 0xf0, 0xd8, 0x81, 0xde, 0x4b, 0x33, 0x03, 0x0e, 0xf1, 0xd3, 0x00,
  0x81, 0xe3, 0x40, 0x42, 0x26, 0xaa, 0x07, 0xbc, 0xd7, 0xd4, 0x04, 0xd8, 0xde,
  0xdd, 0xff, 0xff, 0x04, 0x00, 0x00, 0x00, 0x36, 0x00, 0x00, 0x00, 0xfa, 0x11,
  0x13, 0xa1, 0x7f, 0xf1, 0x35, 0x01, 0xf2, 0x78, 0xe4, 0xa8, 0x63, 0x43, 0xf7,
  0xcd, 0x58, 0x1c, 0x60, 0x0d, 0x0e, 0x7f, 0xe5, 0xa7, 0xe9, 0x41, 0x1a, 0x31,
  0xe5, 0x81, 0x5a, 0xc4, 0x76, 0x60, 0x00, 0xb7, 0x7f, 0x63, 0x13, 0xf8, 0x78,
  0xf9, 0x23, 0xa5, 0x7f, 0x58, 0xe4, 0x84, 0x48, 0x81, 0x1d, 0x1a, 0x67, 0xf5,
  0x00, 0x00, 0x22, 0xde, 0xff, 0xff, 0x04, 0x00, 0x00, 0x00, 0x24, 0x00, 0x00,
  0x00, 0x2d, 0x7f, 0x86, 0xf5, 0xdc, 0xb9, 0x7b, 0xdf, 0xb8, 0x15, 0xdd, 0x7f,
  0xf3, 0x06, 0xf2, 0xc5, 0xc0, 0x81, 0x08, 0x19, 0x81, 0xff, 0xfe, 0x20, 0x1b,
  0xd0, 0x7f, 0xdc, 0xda, 0x31, 0x2a, 0xf2, 0x81, 0x7f, 0x2f, 0x60, 0x52, 0xde,
  0xff, 0xff, 0x04, 0x00, 0x00, 0x00, 0x36, 0x00, 0x00, 0x00, 0x86, 0x0a, 0x26,
  0xf7, 0x14, 0x2d, 0x98, 0xde, 0x09, 0xd4, 0x37, 0xa7, 0xfc, 0xe7, 0x52, 0x4d,
  0x15, 0xed, 0x7b, 0xe4, 0xcc, 0x90, 0x41, 0x97, 0xe8, 0x5d, 0xdc, 0x81, 0x00,
  0xc8, 0x7f, 0xe7, 0xb9, 0x0c, 0x64, 0xd5, 0xd6, 0xaa, 0x7f, 0x31, 0x7f, 0xee,
  0xd5, 0xab, 0x43, 0x09, 0xca, 0x81, 0x76, 0x81, 0x76, 0x38, 0xec, 0x72, 0x00,
  0x00, 0x96, 0xde, 0xff, 0xff, 0x04, 0x00, 0x00, 0x00, 0x30, 0x00, 0x00, 0x00,
  0x07, 0xff, 0xcb, 0xee, 0xe7, 0x81, 0x81, 0xe6, 0xdd, 0xd0, 0x0e, 0xf1, 0x00,
  0x00, 0x00, 0x00, 0x00, 0x00, 0x57, 0xd5, 0x51, 0x81, 0x41, 0xfa, 0x78, 0xcf,
  0xb9, 0x81, 0x28, 0xbf, 0x00, 0x00, 0x00, 0x00, 0x00, 0x00, 0x14, 0x6e, 0x81,
  0x01, 0xdf, 0x11, 0x81, 0x7a, 0xdb, 0x40, 0x40, 0xad, 0xd2, 0xde, 0xff, 0xff,
  0x04, 0x00, 0x00, 0x00, 0x80, 0x00, 0x00, 0x00, 0x00, 0x00, 0x00, 0x00, 0x00,
  0x00, 0x00, 0x00, 0x00, 0x00, 0x00, 0x00, 0x00, 0x00, 0x00, 0x00, 0x00, 0x00,
  0x00, 0x00, 0x00, 0x00, 0x00, 0x00, 0x00, 0x00, 0x00, 0x00, 0x00, 0x00, 0x00,
  0x00, 0x00, 0x00, 0x00, 0x00, 0x00, 0x00, 0x00, 0x00, 0x00, 0x00, 0x00, 0x00,
  0x00, 0x00, 0x00, 0x00, 0x00, 0x00, 0x00, 0x00, 0x00, 0x00, 0x00, 0x00, 0x00,
  0x00, 0x00, 0x00, 0x00, 0x00, 0x00, 0x00, 0x00, 0x00, 0x00, 0x00, 0x00, 0x00,
  0x00, 0x00, 0x00, 0x00, 0x00, 0x00, 0x00, 0x00, 0x00, 0x00, 0x00, 0x00, 0x00,
  0x00, 0x00, 0x00, 0x00, 0x00, 0x00, 0x00, 0x00, 0x00, 0x00, 0x00, 0x00, 0x00,
  0x00, 0x00, 0x00, 0x00, 0x00, 0x00, 0x00, 0x00, 0x00, 0x00, 0x00, 0x00, 0x00,
  0x00, 0x00, 0x00, 0x00, 0x00, 0x00, 0x00, 0x00, 0x00, 0x00, 0x00, 0x00, 0x00,
  0x00, 0x00, 0x00, 0x00, 0x00, 0x00, 0x5e, 0xdf, 0xff, 0xff, 0x04, 0x00, 0x00,
  0x00, 0x90, 0x00, 0x00, 0x00, 0xd1, 0x64, 0x81, 0x61, 0x74, 0x7f, 0xd4, 0x39,
  0xc9, 0x07, 0x16, 0xff, 0xcc, 0x0f, 0x15, 0x22, 0xec, 0xec, 0x81, 0x4c, 0x2d,
  0x7f, 0x8f, 0x65, 0xe5, 0xe8, 0xfc, 0x00, 0x23, 0xfa, 0x95, 0xbe, 0xa6, 0xe7,
  0x81, 0x72, 0x7f, 0x81, 0x26, 0x06, 0xf4, 0xf8, 0xf6, 0x02, 0x81, 0xe4, 0xdf,
  0x12, 0xc8, 0x02, 0x81, 0x3e, 0x25, 0x7f, 0x1e, 0xbb, 0x28, 0x11, 0xc1, 0xfe,
  0xe7, 0xeb, 0x4b, 0xea, 0x30, 0x97, 0x81, 0x7f, 0xd0, 0x7f, 0x7f, 0x47, 0x7f,
  0x0e, 0x81, 0x7f, 0x00, 0x7f, 0x0e, 0x7f, 0xc5, 0x09, 0x7f, 0x60, 0xfa, 0x81,
  0xf9, 0xcf, 0x51, 0x29, 0x22, 0x0b, 0x43, 0x5f, 0xda, 0x01, 0x81, 0x4f, 0x7f,
  0xda, 0x4b, 0x7f, 0x19, 0x09, 0xc8, 0xf3, 0x11, 0x02, 0xcd, 0xed, 0x81, 0x11,
  0x07, 0x81, 0x81, 0x27, 0xe4, 0x7f, 0xfd, 0x7f, 0x45, 0x5b, 0xdb, 0xf8, 0x02,
  0x1f, 0xfd, 0xf7, 0xd9, 0x00, 0x7f, 0x63, 0x56, 0x81, 0x01, 0xd9, 0xd2, 0x7f,
  0xf4, 0x3a, 0xc5, 0x3c, 0x22, 0xfc, 0xfa, 0xdf, 0xff, 0xff, 0x04, 0x00, 0x00,
  0x00, 0x80, 0x00, 0x00, 0x00, 0x1e, 0x30, 0x00, 0xf3, 0x29, 0x00, 0x99, 0x12,
  0x65, 0xd9, 0x14, 0x27, 0x10, 0x81, 0x44, 0x07, 0xc1, 0xdc, 0x00, 0x37, 0x15,
  0x00, 0xfe, 0xfb, 0x22, 0x10, 0xa7, 0x0d, 0x54, 0x81, 0xe9, 0x00, 0xca, 0xfd,
  0x00, 0x37, 0x81, 0x00, 0xd7, 0x13, 0x44, 0x14, 0x51, 0xb4, 0xe7, 0xd3, 0x10,
  0x85, 0xcf, 0xf8, 0x00, 0xcc, 0xcc, 0x00, 0x2b, 0x68, 0x07, 0x81, 0x06, 0x44,
  0xde, 0x00, 0x45, 0x37, 0xbf, 0x03, 0x00, 0x37, 0xb9, 0x00, 0xe3, 0xae, 0xaf,
  0x74, 0xf5, 0x7f, 0xea, 0x3d, 0x50, 0x52, 0x3b, 0xbc, 0x00, 0xc6, 0x46, 0x00,
  0x42, 0x4a, 0x07, 0x8a, 0xb5, 0xf1, 0x1c, 0x81, 0xd5, 0xf9, 0x11, 0xcd, 0x00,
  0xeb, 0x0e, 0x00, 0x7f, 0x01, 0xf8, 0xd2, 0x05, 0x12, 0xf7, 0x1c, 0x14, 0x04,
  0x25, 0x45, 0x00, 0x0d, 0xe4, 0x00, 0x30, 0x1b, 0xc1, 0x81, 0xfa, 0x50, 0xef,
  0x6d, 0x0c, 0x1d, 0x86, 0xe0, 0xff, 0xff, 0x04, 0x00, 0x00, 0x00, 0x48, 0x00,
  0x00, 0x00, 0x06, 0x01, 0xe6, 0xcc, 0xf7, 0xeb, 0x18, 0x1d, 0x16, 0xcd, 0xfc,
  0x6b, 0xb8, 0x00, 0x0d, 0x06, 0xfd, 0x16, 0xc0, 0xf2, 0x01, 0xf6, 0x0e, 0x02,
  0x7f, 0xb0, 0xad, 0x7f, 0x81, 0x31, 0x0d, 0x35, 0x23, 0xbb, 0x81, 0x42, 0xb2,
  0x7f, 0x81, 0x7f, 0x14, 0xb4, 0xb0, 0x1f, 0xcb, 0x25, 0x05, 0x0d, 0xf4, 0x13,
  0xeb, 0x11, 0xc2, 0xf5, 0x1b, 0xe8, 0xf4, 0x81, 0x84, 0x2d, 0xe9, 0x29, 0xf6,
  0x1e, 0xff, 0xe6, 0x20, 0xf7, 0x20, 0x1e, 0xfe, 0x0d, 0xda, 0xe0, 0xff, 0xff,
  0x04, 0x00, 0x00, 0x00, 0x40, 0x00, 0x00, 0x00, 0x87, 0xd2, 0xe1, 0x1b, 0x78,
  0xb3, 0x81, 0x20, 0x7f, 0x16, 0xb0, 0xc8, 0x46, 0x9d, 0xfb, 0x59, 0x70, 0xbf,
  0x7d, 0xa7, 0xe5, 0xb9, 0x81, 0xd2, 0x28, 0x1c, 0xee, 0xf6, 0x0b, 0xec, 0x7f,
  0x1e, 0x00, 0x00, 0x00, 0x00, 0x00, 0x00, 0x00, 0x00, 0x1f, 0x1a, 0xac, 0x81,
  0xbd, 0x1c, 0xd7, 0x35, 0x81, 0xb1, 0x1d, 0x02, 0x73, 0x8d, 0xc1, 0xfb, 0x16,
  0x3a, 0x10, 0xca, 0xf7, 0x0e, 0x7f, 0xeb, 0x26, 0xe1, 0xff, 0xff, 0x04, 0x00,
  0x00, 0x00, 0x48, 0x00, 0x00, 0x00, 0x95, 0x7a, 0x11, 0x8d, 0x81, 0x7f, 0x19,
  0x7f, 0x59, 0x41, 0xfc, 0xf7, 0x81, 0xd3, 0x2c, 0xd0, 0xcd, 0xf6, 0x1d, 0x13,
  0x81, 0xd0, 0x8c, 0x3c, 0x5d, 0xed, 0xe7, 0x96, 0x81, 0x7b, 0x0c, 0x3c, 0x81,
  0x35, 0x7f, 0x44, 0x81, 0x34, 0x81, 0x4f, 0x3f, 0x7f, 0x6c, 0x81, 0x81, 0x6a,
  0xd8, 0xf1, 0xcd, 0x0f, 0x1b, 0x1d, 0x81, 0x0e, 0x21, 0x22, 0x4d, 0x29, 0x47,
  0xbc, 0x81, 0xf2, 0x29, 0x1f, 0x00, 0xd0, 0xee, 0xd2, 0x81, 0x5d, 0xce, 0x2f,
  0x7a, 0xe1, 0xff, 0xff, 0x04, 0x00, 0x00, 0x00, 0x40, 0x00, 0x00, 0x00, 0x01,
  0x42, 0x46, 0x25, 0x00, 0xb5, 0x34, 0x7f, 0xbc, 0xdd, 0x0f, 0x5c, 0x00, 0x7f,
  0x5c, 0x79, 0xe1, 0xc3, 0xbc, 0xe5, 0x00, 0x41, 0x23, 0x81, 0x81, 0x29, 0x73,
  0xc8, 0x00, 0xfd, 0x88, 0x4f, 0x3b, 0x5f, 0xe4, 0x61, 0x00, 0x20, 0x78, 0x7f,
  0x81, 0xe3, 0x47, 0x20, 0x00, 0x04, 0xc6, 0x31, 0x00, 0x00, 0x00, 0x00, 0x00,
  0x00, 0x00, 0x00, 0xb9, 0x5b, 0x7f, 0xe6, 0x00, 0xfb, 0x2a, 0x1a, 0xc6, 0xe1,
  0xff, 0xff, 0x04, 0x00, 0x00, 0x00, 0x90, 0x00, 0x00, 0x00, 0x18, 0xd4, 0xd3,
  0x9d, 0x7f, 0x06, 0x81, 0x11, 0xfe, 0x45, 0xf6, 0x23, 0x35, 0x03, 0x00, 0x03,
  0xb9, 0xf9, 0x2b, 0xec, 0xbf, 0xe9, 0x81, 0xed, 0xf9, 0x27, 0xee, 0xe6, 0x31,
  0x4c, 0x38, 0x81, 0xe2, 0x1b, 0x38, 0x09, 0x1d, 0xe5, 0x7f, 0xac, 0x06, 0x51,
  0x05, 0x1f, 0x21, 0xe2, 0x01, 0x38, 0x7f, 0x8e, 0x81, 0xa7, 0x10, 0x7f, 0x7f,
  0x2d, 0x1e, 0xeb, 0x1b, 0x7f, 0xee, 0x81, 0x81, 0xee, 0xe3, 0x81, 0x16, 0x7f,
  0x1a, 0x32, 0x81, 0x7f, 0x7f, 0x7f, 0x56, 0x5e, 0xa1, 0x29, 0xdc, 0xf6, 0xdf,
  0xad, 0xf6, 0x1e, 0xd1, 0x2a, 0x7f, 0x64, 0xee, 0xda, 0x42, 0x05, 0xf2, 0xf8,
  0x0e, 0xff, 0x16, 0xd2, 0x0b, 0xc2, 0x2e, 0x03, 0x7f, 0xbf, 0xed, 0x13, 0x08,
  0x05, 0x08, 0xfc, 0x20, 0xc8, 0xa0, 0x15, 0x0d, 0xfb, 0xe4, 0xfa, 0x81, 0x23,
  0xff, 0x17, 0x24, 0xfd, 0x81, 0x11, 0x2b, 0x49, 0xe6, 0xdc, 0x1d, 0x14, 0x33,
  0x07, 0x7f, 0x02, 0xef, 0xfd, 0x7f, 0x0f, 0x33, 0x09, 0xfb, 0x1e, 0x62, 0xe2,
  0xff, 0xff, 0x04, 0x00, 0x00, 0x00, 0x80, 0x00, 0x00, 0x00, 0xd2, 0x0a, 0x30,
  0x1d, 0xed, 0x7f, 0x00, 0xf5, 0x40, 0xdf, 0xf0, 0x03, 0x00, 0xf8, 0xfc, 0x28,
  0xe7, 0xda, 0x4b, 0x1d, 0xf8, 0x11, 0x00, 0xc6, 0xe5, 0x35, 0x1e, 0xd4, 0xbb,
  0x7f, 0xd6, 0xf3, 0x81, 0x40, 0x60, 0x16, 0x2d, 0xec, 0x00, 0xf0, 0x71, 0x01,
  0x0c, 0x84, 0xb5, 0x2b, 0xc5, 0x6f, 0x15, 0x03, 0xe3, 0xe6, 0x04, 0xea, 0x00,
  0x09, 0xf9, 0x06, 0x0d, 0xfe, 0x10, 0xd4, 0x7f, 0x19, 0x7f, 0x5d, 0x8a, 0x81,
  0xe5, 0xfd, 0x00, 0x53, 0x4a, 0x38, 0xfc, 0xcc, 0xea, 0xf3, 0xe6, 0x7f, 0x3d,
  0xf3, 0xeb, 0x1f, 0x7f, 0xe9, 0x00, 0x1e, 0xc4, 0xf5, 0xfb, 0x35, 0x1a, 0x00,
  0x0d, 0xc2, 0xdc, 0x2c, 0xea, 0xe3, 0x28, 0x02, 0x00, 0x38, 0x7f, 0x84, 0xa3,
  0x37, 0x65, 0xf6, 0x8c, 0xa4, 0xa3, 0xcb, 0x2f, 0x0c, 0xda, 0xfa, 0x00, 0x7f,
  0x36, 0xa6, 0x9b, 0xd6, 0xef, 0x69, 0x03, 0xa1, 0xee, 0xe2, 0xff, 0xff, 0x04,
  0x00, 0x00, 0x00, 0x48, 0x00, 0x00, 0x00, 0xff, 0xe1, 0xf8, 0x04, 0xed, 0xe3,
  0xbf, 0x09, 0xf3, 0xcb, 0xfd, 0x1d, 0x25, 0xcc, 0xe4, 0x1a, 0x12, 0xfa, 0xef,
  0x05, 0xf5, 0x35, 0x33, 0x1d, 0x34, 0x9a, 0xdf, 0x3e, 0x10, 0x9d, 0x82, 0x7f,
  0x81, 0x7f, 0x7f, 0x7f, 0x7f, 0xdf, 0x81, 0xfd, 0xfa, 0xd7, 0xfc, 0x24, 0x2b,
  0x81, 0x8f, 0xc6, 0xf1, 0xde, 0x1a, 0x0e, 0x12, 0xee, 0xbf, 0x4f, 0x08, 0xa9,
  0xf0, 0x22, 0x07, 0xc9, 0xa3, 0x29, 0xf1, 0xf1, 0xf2, 0x15, 0xfc, 0xf5, 0x0e,
  0xf6, 0x42, 0xe3, 0xff, 0xff, 0x04, 0x00, 0x00, 0x00, 0x40, 0x00, 0x00, 0x00,
  0xb5, 0xfa, 0x27, 0x7f, 0x48, 0x19, 0xb2, 0xa4, 0x14, 0xe7, 0x31, 0x7d, 0xde,
  0x3e, 0x81, 0xd6, 0x00, 0x00, 0x00, 0x00, 0x00, 0x00, 0x00, 0x00, 0x04, 0x06,
  0xf3, 0x04, 0x7f, 0x6b, 0xf9, 0x00, 0xad, 0x16, 0x7f, 0x0d, 0x3d, 0x12, 0x05,
  0x17, 0xdb, 0x58, 0x06, 0x27, 0xd3, 0xfc, 0xc2, 0x7f, 0x8c, 0x50, 0xcd, 0x6a,
  0xc5, 0xe6, 0xa4, 0x7f, 0x13, 0x54, 0xaf, 0xa8, 0x81, 0xd5, 0x4f, 0xbe, 0x8e,
  0xe3, 0xff, 0xff, 0x04, 0x00, 0x00, 0x00, 0x48, 0x00, 0x00, 0x00, 0xfc, 0xec,
  0x7f, 0xb3, 0xb9, 0xa5, 0x38, 0xb6, 0x94, 0x96, 0x7f, 0x81, 0x46, 0xd6, 0xff,
  0x62, 0xf0, 0xf1, 0x81, 0x20, 0x48, 0xbe, 0xf2, 0x81, 0xdf, 0xf9, 0x81, 0xd2,
  0x7f, 0x0d, 0x19, 0x3c, 0xc9, 0x81, 0x7f, 0x15, 0x44, 0x7f, 0x7b, 0xe8, 0x81,
  0xc0, 0x7f, 0xe5, 0x59, 0xf2, 0x22, 0x44, 0xbe, 0xc7, 0x7f, 0x2b, 0x03, 0x8d,
  0xe8, 0xff, 0xcd, 0xcc, 0x81, 0xa3, 0x13, 0xc7, 0x7f, 0x3b, 0x20, 0xec, 0x7f,
  0x1f, 0xe9, 0xb9, 0x01, 0xe9, 0xe2, 0xe3, 0xff, 0xff, 0x04, 0x00, 0x00, 0x00,
  0x20, 0x00, 0x00, 0x00, 0x3b, 0xc6, 0x00, 0xf3, 0x23, 0x41, 0xde, 0x81, 0xf0,
  0x01, 0x00, 0x7f, 0x31, 0xed, 0xd7, 0xf1, 0xf1, 0x0b, 0x00, 0x81, 0x21, 0xe2,
  0x02, 0x56, 0x35, 0xe4, 0x00, 0xf0, 0x21, 0x7f, 0x5e, 0x5a, 0x0e, 0xe4, 0xff,
  0xff, 0x04, 0x00, 0x00, 0x00, 0x48, 0x00, 0x00, 0x00, 0x06, 0xee, 0xf4, 0x03,
  0xc0, 0x0b, 0xf3, 0x18, 0x7f, 0xea, 0x1e, 0xc8, 0x7f, 0xb0, 0xf4, 0xa9, 0x4c,
  0x81, 0xed, 0x8c, 0xb6, 0x7f, 0x02, 0xdc, 0xe1, 0xfc, 0xf2, 0x84, 0xfe, 0xfa,
  0xe3, 0x31, 0x64, 0xfe, 0x81, 0x81, 0xfe, 0x4d, 0x0d, 0x27, 0x4b, 0xc0, 0x15,
  0xd9, 0xdb, 0xf2, 0x10, 0x7f, 0xca, 0xe6, 0x39, 0xfb, 0xf7, 0xd6, 0xf8, 0xe7,
  0x0c, 0xf0, 0xe1, 0xbf, 0x14, 0xcd, 0x81, 0xc7, 0x06, 0xf2, 0xe8, 0xd8, 0xfe,
  0x1b, 0xf4, 0x9d, 0x62, 0xe4, 0xff, 0xff, 0x04, 0x00, 0x00, 0x00, 0x20, 0x00,
  0x00, 0x00, 0x15, 0x08, 0x04, 0x13, 0x01, 0x35, 0x7f, 0x2c, 0x0a, 0x94, 0x28,
  0xe7, 0x7f, 0xab, 0xfc, 0x01, 0x0e, 0x1a, 0x10, 0xd1, 0x28, 0x61, 0x7f, 0x5c,
  0xf2, 0x12, 0x4b, 0xf6, 0xc2, 0x7f, 0x02, 0x4f, 0x8e, 0xe4, 0xff, 0xff, 0x04,
  0x00, 0x00, 0x00, 0x24, 0x00, 0x00, 0x00, 0xee, 0x43, 0x26, 0x11, 0x17, 0xfd,
  0xb7, 0xe0, 0xab, 0xb8, 0x0c, 0x14, 0xfc, 0xb1, 0x1d, 0x04, 0xea, 0x7f, 0xe6,
  0xa1, 0x7f, 0xa9, 0x81, 0x68, 0xf6, 0xf2, 0x0c, 0x05, 0x0b, 0x01, 0x17, 0x26,
  0x00, 0x3f, 0x8f, 0x7f, 0xbe, 0xe4, 0xff, 0xff, 0x04, 0x00, 0x00, 0x00, 0x10,
  0x00, 0x00, 0x00, 0x14, 0x99, 0x27, 0x81, 0x02, 0xd1, 0x07, 0x7f, 0x7f, 0xc7,
  0x1f, 0xb0, 0xbd, 0x06, 0x81, 0xf8, 0xda, 0xe4, 0xff, 0xff, 0x04, 0x00, 0x00,
  0x00, 0x24, 0x00, 0x00, 0x00, 0x03, 0x1d, 0x27, 0xe3, 0xfc, 0x1a, 0xf4, 0xea,
  0xef, 0x33, 0xec, 0xcd, 0x08, 0x72, 0xae, 0x14, 0xdf, 0x05, 0x23, 0x7f, 0x41,
  0xc1, 0xfe, 0x29, 0x0c, 0x2c, 0x81, 0xee, 0x68, 0x81, 0x0c, 0xc4, 0x81, 0xa4,
  0x70, 0xf6, 0x0a, 0xe5, 0xff, 0xff, 0x04, 0x00, 0x00, 0x00, 0x08, 0x00, 0x00,
  0x00, 0x81, 0x5c, 0x9d, 0xe8, 0x3c, 0x7f, 0x39, 0xd5, 0x1e, 0xe5, 0xff, 0xff,
  0x04, 0x00, 0x00, 0x00, 0x10, 0x00, 0x00, 0x00, 0x7c, 0x92, 0xff, 0xff, 0xff,
  0xff, 0xff, 0xff, 0x3c, 0x8c, 0x00, 0x00, 0x00, 0x00, 0x00, 0x00, 0x3a, 0xe5,
  0xff, 0xff, 0x04, 0x00, 0x00, 0x00, 0x20, 0x00, 0x00, 0x00, 0xdd, 0x44, 0x13,
  0x00, 0x00, 0x00, 0x00, 0x00, 0x79, 0x9b, 0x00, 0x00, 0x00, 0x00, 0x00, 0x00,
  0xd2, 0x40, 0x04, 0x00, 0x00, 0x00, 0x00, 0x00, 0x04, 0x54, 0x23, 0x00, 0x00,
  0x00, 0x00, 0x00, 0x66, 0xe5, 0xff, 0xff, 0x04, 0x00, 0x00, 0x00, 0x20, 0x00,
  0x00, 0x00, 0x42, 0xd8, 0xff, 0xff, 0xff, 0xff, 0xff, 0xff, 0xc1, 0xe1, 0x01,
  0x00, 0x00, 0x00, 0x00, 0x00, 0xba, 0x1a, 0xff, 0xff, 0xff, 0xff, 0xff, 0xff,
  0x56, 0x81, 0x01, 0x00, 0x00, 0x00, 0x00, 0x00, 0x92, 0xe5, 0xff, 0xff, 0x04,
  0x00, 0x00, 0x00, 0x40, 0x00, 0x00, 0x00, 0xe5, 0xd8, 0xfc, 0xff, 0xff, 0xff,
  0xff, 0xff, 0xf8, 0x1d, 0xfa, 0xff, 0xff, 0xff, 0xff, 0xff, 0xc8, 0x95, 0x01,
  0x00, 0x00, 0x00, 0x00, 0x00, 0x9d, 0x6e, 0x04, 0x00, 0x00, 0x00, 0x00, 0x00,
  0xc8, 0x5a, 0xfc, 0xff, 0xff, 0xff, 0xff, 0xff, 0x9f, 0xfa, 0xfe, 0xff, 0xff,
  0xff, 0xff, 0xff, 0x28, 0x38, 0x0a, 0x00, 0x00, 0x00, 0x00, 0x00, 0xb7, 0xeb,
  0x01, 0x00, 0x00, 0x00, 0x00, 0x00, 0xde, 0xe5, 0xff, 0xff, 0x04, 0x00, 0x00,
  0x00, 0x40, 0x00, 0x00, 0x00, 0x55, 0x4c, 0x00, 0x00, 0x00, 0x00, 0x00, 0x00,
  0x28, 0x5b, 0x01, 0x00, 0x00, 0x00, 0x00, 0x00, 0x3e, 0xbc, 0x01, 0x00, 0x00,
  0x00, 0x00, 0x00, 0xae, 0x09, 0x02, 0x00, 0x00, 0x00, 0x00, 0x00, 0x90, 0xf6,
  0x01, 0x00, 0x00, 0x00, 0x00, 0x00, 0x9e, 0xb0, 0x03, 0x00, 0x00, 0x00, 0x00,
  0x00, 0x0e, 0xc6, 0x02, 0x00, 0x00, 0x00, 0x00, 0x00, 0xff, 0x9a, 0x05, 0x00,
  0x00, 0x00, 0x00, 0x00, 0x2a, 0xe6, 0xff, 0xff, 0x04, 0x00, 0x00, 0x00, 0x40,
  0x00, 0x00, 0x00, 0x2a, 0x98, 0xff, 0xff, 0xff, 0xff, 0xff, 0xff, 0x01, 0x70,
  0x00, 0x00, 0x00, 0x00, 0x00, 0x00, 0x43, 0xa2, 0x00, 0x00, 0x00, 0x00, 0x00,
  0x00, 0x0a, 0x97, 0xfe, 0xff, 0xff, 0xff, 0xff, 0xff, 0x5b, 0x65, 0xfe, 0xff,
  0xff, 0xff, 0xff, 0xff, 0x05, 0x88, 0xfc, 0xff, 0xff, 0xff, 0xff, 0xff, 0x9f,
  0x67, 0xfd, 0xff, 0xff, 0xff, 0xff, 0xff, 0x40, 0x00, 0x00, 0xc0, 0xff, 0xff,
  0xff, 0xff, 0x76, 0xe6, 0xff, 0xff, 0x04, 0x00, 0x00, 0x00, 0x40, 0x00, 0x00,
  0x00, 0xea, 0x6f, 0x00, 0x00, 0x00, 0x00, 0x00, 0x00, 0x03, 0xb4, 0x00, 0x00,
  0x00, 0x00, 0x00, 0x00, 0x13, 0xb5, 0xff, 0xff, 0xff, 0xff, 0xff, 0xff, 0xc5,
  0xb0, 0x00, 0x00, 0x00, 0x00, 0x00, 0x00, 0xce, 0x58, 0x00, 0x00, 0x00, 0x00,
  0x00, 0x00, 0xe0, 0xc6, 0x00, 0x00, 0x00, 0x00, 0x00, 0x00, 0xf5, 0x98, 0x00,
  0x00, 0x00, 0x00, 0x00, 0x00, 0xab, 0x14, 0x00, 0x00, 0x00, 0x00, 0x00, 0x00,
  0xc2, 0xe6, 0xff, 0xff, 0x04, 0x00, 0x00, 0x00, 0x30, 0x00, 0x00, 0x00, 0xe4,
  0x43, 0x01, 0x00, 0x00, 0x00, 0x00, 0x00, 0x80, 0xff, 0xff, 0xbf, 0xff, 0xff,
  0xff, 0xff, 0x9e, 0x34, 0x00, 0x00, 0x00, 0x00, 0x00, 0x00, 0xa8, 0xf9, 0xfe,
  0xff, 0xff, 0xff, 0xff, 0xff, 0x53, 0xb3, 0x00, 0x00, 0x00, 0x00, 0x00, 0x00,
  0x40, 0x00, 0x00, 0xc0, 0xff, 0xff, 0xff, 0xff, 0xfe, 0xe6, 0xff, 0xff, 0x04,
  0x00, 0x00, 0x00, 0x30, 0x00, 0x00, 0x00, 0xea, 0x55, 0xfc, 0xff, 0xff, 0xff,
  0xff, 0xff, 0xb1, 0xc3, 0xf8, 0xff, 0xff, 0xff, 0xff, 0xff, 0x5b, 0x21, 0x00,
  0x00, 0x00, 0x00, 0x00, 0x00, 0xa8, 0x6d, 0x04, 0x00, 0x00, 0x00, 0x00, 0x00,
  0x1d, 0xbd, 0x05, 0x00, 0x00, 0x00, 0x00, 0x00, 0x9a, 0x26, 0x01, 0x00, 0x00,
  0x00, 0x00, 0x00, 0x3a, 0xe7, 0xff, 0xff, 0x04, 0x00, 0x00, 0x00, 0x30, 0x00,
  0x00, 0x00, 0xc3, 0x49, 0x03, 0x00, 0x00, 0x00, 0x00, 0x00, 0xdf, 0x71, 0xff,
  0xff, 0xff, 0xff, 0xff, 0xff, 0x77, 0xc4, 0x02, 0x00, 0x00, 0x00, 0x00, 0x00,
  0x10, 0x93, 0x01, 0x00, 0x00, 0x00, 0x00, 0x00, 0x20, 0xee, 0x07, 0x00, 0x00,
  0x00, 0x00, 0x00, 0x12, 0x2f, 0x0a, 0x00, 0x00, 0x00, 0x00, 0x00, 0x76, 0xe7,
  0xff, 0xff, 0x04, 0x00, 0x00, 0x00, 0x30, 0x00, 0x00, 0x00, 0x8a, 0x41, 0x07,
  0x00, 0x00, 0x00, 0x00, 0x00, 0x66, 0x33, 0x18, 0x00, 0x00, 0x00, 0x00, 0x00,
  0x8f, 0x2f, 0xfe, 0xff, 0xff, 0xff, 0xff, 0xff, 0xb2, 0x3b, 0x08, 0x00, 0x00,
  0x00, 0x00, 0x00, 0x17, 0xb0, 0x02, 0x00, 0x00, 0x00, 0x00, 0x00, 0xcc, 0x1a,
  0x05, 0x00, 0x00, 0x00, 0x00, 0x00, 0xb2, 0xe7, 0xff, 0xff, 0x04, 0x00, 0x00,
  0x00, 0x30, 0x00, 0x00, 0x00, 0x8b, 0xbb, 0xf5, 0xff, 0xff, 0xff, 0xff, 0xff,
  0xb7, 0x63, 0x0a, 0x00, 0x00, 0x00, 0x00, 0x00, 0x70, 0x66, 0x09, 0x00, 0x00,
  0x00, 0x00, 0x00, 0x39, 0x18, 0x01, 0x00, 0x00, 0x00, 0x00, 0x00, 0xbf, 0x21,
  0x05, 0x00, 0x00, 0x00, 0x00, 0x00, 0x71, 0x82, 0xfb, 0xff, 0xff, 0xff, 0xff,
  0xff, 0xee, 0xe7, 0xff, 0xff, 0x04, 0x00, 0x00, 0x00, 0x40, 0x00, 0x00, 0x00,
  0xe4, 0xce, 0x07, 0x00, 0x00, 0x00, 0x00, 0x00, 0x0d, 0xb8, 0xfa, 0xff, 0xff,
  0xff, 0xff, 0xff, 0x00, 0x00, 0x00, 0xc0, 0xff, 0xff, 0xff, 0xff, 0x80, 0xb2,
  0xfc, 0xff, 0xff, 0xff, 0xff, 0xff, 0xb4, 0x91, 0x0e, 0x00, 0x00, 0x00, 0x00,
  0x00, 0x00, 0x00, 0x00, 0xc0, 0xff, 0xff, 0xff, 0xff, 0x71, 0x10, 0x07, 0x00,
  0x00, 0x00, 0x00, 0x00, 0xe3, 0xa1, 0x09, 0x00, 0x00, 0x00, 0x00, 0x00, 0x3a,
  0xe8, 0xff, 0xff, 0x04, 0x00, 0x00, 0x00, 0x40, 0x00, 0x00, 0x00, 0xac, 0x17,
  0x03, 0x00, 0x00, 0x00, 0x00, 0x00, 0x9f, 0x19, 0x00, 0x00, 0x00, 0x00, 0x00,
  0x00, 0x3c, 0xfc, 0x02, 0x00, 0x00, 0x00, 0x00, 0x00, 0x22, 0x0d, 0x00, 0x00,
  0x00, 0x00, 0x00, 0x00, 0x6b, 0x59, 0x00, 0x00, 0x00, 0x00, 0x00, 0x00, 0x11,
  0x11, 0x01, 0x00, 0x00, 0x00, 0x00, 0x00, 0xda, 0x01, 0x02, 0x00, 0x00, 0x00,
  0x00, 0x00, 0x13, 0x4e, 0x00, 0x00, 0x00, 0x00, 0x00, 0x00, 0x86, 0xe8, 0xff,
  0xff, 0x04, 0x00, 0x00, 0x00, 0x40, 0x00, 0x00, 0x00, 0x91, 0xb0, 0x01, 0x00,
  0x00, 0x00, 0x00, 0x00, 0x83, 0x94, 0x01, 0x00, 0x00, 0x00, 0x00, 0x00, 0x97,
  0x9a, 0x01, 0x00, 0x00, 0x00, 0x00, 0x00, 0x86, 0xad, 0x00, 0x00, 0x00, 0x00,
  0x00, 0x00, 0x00, 0x00, 0x00, 0xc0, 0xff, 0xff, 0xff, 0xff, 0xf2, 0xb8, 0x00,
  0x00, 0x00, 0x00, 0x00, 0x00, 0x00, 0x2d, 0x03, 0x00, 0x00, 0x00, 0x00, 0x00,
  0xad, 0xdb, 0x01, 0x00, 0x00, 0x00, 0x00, 0x00, 0xd2, 0xe8, 0xff, 0xff, 0x04,
  0x00, 0x00, 0x00, 0x40, 0x00, 0x00, 0x00, 0xcd, 0x63, 0x0a, 0x00, 0x00, 0x00,
  0x00, 0x00, 0xed, 0x17, 0x00, 0x00, 0x00, 0x00, 0x00, 0x00, 0xeb, 0x0c, 0x0f,
  0x00, 0x00, 0x00, 0x00, 0x00, 0x6d, 0x9f, 0xff, 0xff, 0xff, 0xff, 0xff, 0xff,
  0x7e, 0xda, 0xfb, 0xff, 0xff, 0xff, 0xff, 0xff, 0x00, 0x2a, 0xfa, 0xff, 0xff,
  0xff, 0xff, 0xff, 0x00, 0x00, 0x00, 0xc0, 0xff, 0xff, 0xff, 0xff, 0xfe, 0xa5,
  0xfa, 0xff, 0xff, 0xff, 0xff, 0xff, 0x1e, 0xe9, 0xff, 0xff, 0x04, 0x00, 0x00,
  0x00, 0x40, 0x00, 0x00, 0x00, 0xd0, 0x58, 0x02, 0x00, 0x00, 0x00, 0x00, 0x00,
  0x7c, 0x82, 0x00, 0x00, 0x00, 0x00, 0x00, 0x00, 0x9a, 0x46, 0x04, 0x00, 0x00,
  0x00, 0x00, 0x00, 0x0b, 0x98, 0x00, 0x00, 0x00, 0x00, 0x00, 0x00, 0x7c, 0x62,
  0xff, 0xff, 0xff, 0xff, 0xff, 0xff, 0xc5, 0x04, 0x02, 0x00, 0x00, 0x00, 0x00,
  0x00, 0xfe, 0x1b, 0x04, 0x00, 0x00, 0x00, 0x00, 0x00, 0xb0, 0xc4, 0x00, 0x00,
  0x00, 0x00, 0x00, 0x00, 0x6a, 0xe9, 0xff, 0xff, 0x04, 0x00, 0x00, 0x00, 0x40,
  0x00, 0x00, 0x00, 0x35, 0xf9, 0xfc, 0xff, 0xff, 0xff, 0xff, 0xff, 0x15, 0xb2,
  0x01, 0x00, 0x00, 0x00, 0x00, 0x00, 0x80, 0xff, 0xff, 0xbf, 0xff, 0xff, 0xff,
  0xff, 0x8f, 0x6f, 0x01, 0x00, 0x00, 0x00, 0x00, 0x00, 0x95, 0x02, 0x00, 0x00,
  0x00, 0x00, 0x00, 0x00, 0xd5, 0x3d, 0xf9, 0xff, 0xff, 0xff, 0xff, 0xff, 0x58,
  0x34, 0xfe, 0xff, 0xff, 0xff, 0xff, 0xff, 0x8e, 0x67, 0x04, 0x00, 0x00, 0x00,
  0x00, 0x00, 0xb6, 0xe9, 0xff, 0xff, 0x04, 0x00, 0x00, 0x00, 0x20, 0x00, 0x00,
  0x00, 0x75, 0xbc, 0x00, 0x00, 0x00, 0x00, 0x00, 0x00, 0x42, 0x31, 0xfe, 0xff,
  0xff, 0xff, 0xff, 0xff, 0xe4, 0xa6, 0x00, 0x00, 0x00, 0x00, 0x00, 0x00, 0xd0,
  0xcb, 0xfe, 0xff, 0xff, 0xff, 0xff, 0xff, 0xe2, 0xe9, 0xff, 0xff, 0x04, 0x00,
  0x00, 0x00, 0x20, 0x00, 0x00, 0x00, 0xac, 0x80, 0x00, 0x00, 0x00, 0x00, 0x00,
  0x00, 0x58, 0x9d, 0x00, 0x00, 0x00, 0x00, 0x00, 0x00, 0x78, 0x68, 0xfe, 0xff,
  0xff, 0xff, 0xff, 0xff, 0x91, 0xb1, 0x01, 0x00, 0x00, 0x00, 0x00, 0x00, 0x0e,
  0xea, 0xff, 0xff, 0x04, 0x00, 0x00, 0x00, 0x20, 0x00, 0x00, 0x00, 0xac, 0x13,
  0x07, 0x00, 0x00, 0x00, 0x00, 0x00, 0xc3, 0x37, 0xfd, 0xff, 0xff, 0xff, 0xff,
  0xff, 0x99, 0xdc, 0x04, 0x00, 0x00, 0x00, 0x00, 0x00, 0x59, 0x9d, 0x01, 0x00,
  0x00, 0x00, 0x00, 0x00, 0x38, 0xa5, 0xff, 0xff, 0x3c, 0xa5, 0xff, 0xff, 0x0f,
  0x00, 0x00, 0x00, 0x4d, 0x4c, 0x49, 0x52, 0x20, 0x43, 0x6f, 0x6e, 0x76, 0x65,
  0x72, 0x74, 0x65, 0x64, 0x2e, 0x00, 0x01, 0x00, 0x00, 0x00, 0x14, 0x00, 0x00,
  0x00, 0x00, 0x00, 0x0e, 0x00, 0x18, 0x00, 0x14, 0x00, 0x10, 0x00, 0x0c, 0x00,
  0x08, 0x00, 0x04, 0x00, 0x0e, 0x00, 0x00, 0x00, 0x14, 0x00, 0x00, 0x00, 0x1c,
  0x00, 0x00, 0x00, 0x24, 0x16, 0x00, 0x00, 0x28, 0x16, 0x00, 0x00, 0x2c, 0x16,
  0x00, 0x00, 0x04, 0x00, 0x00, 0x00, 0x6d, 0x61, 0x69, 0x6e, 0x00, 0x00, 0x00,
  0x00, 0x59, 0x00, 0x00, 0x00, 0xe8, 0x15, 0x00, 0x00, 0xa4, 0x15, 0x00, 0x00,
  0x48, 0x15, 0x00, 0x00, 0x04, 0x15, 0x00, 0x00, 0xb0, 0x14, 0x00, 0x00, 0x54,
  0x14, 0x00, 0x00, 0x20, 0x14, 0x00, 0x00, 0xd8, 0x13, 0x00, 0x00, 0x90, 0x13,
  0x00, 0x00, 0x40, 0x13, 0x00, 0x00, 0x0c, 0x13, 0x00, 0x00, 0xdc, 0x12, 0x00,
  0x00, 0x98, 0x12, 0x00, 0x00, 0x50, 0x12, 0x00, 0x00, 0x08, 0x12, 0x00, 0x00,
  0xd4, 0x11, 0x00, 0x00, 0x8c, 0x11, 0x00, 0x00, 0x44, 0x11, 0x00, 0x00, 0x04,
  0x11, 0x00, 0x00, 0xd0, 0x10, 0x00, 0x00, 0xa0, 0x10, 0x00, 0x00, 0x5c, 0x10,
  0x00, 0x00, 0x14, 0x10, 0x00, 0x00, 0xcc, 0x0f, 0x00, 0x00, 0x98, 0x0f, 0x00,
  0x00, 0x50, 0x0f, 0x00, 0x00, 0x08, 0x0f, 0x00, 0x00, 0xc8, 0x0e, 0x00, 0x00,
  0x94, 0x0e, 0x00, 0x00, 0x64, 0x0e, 0x00, 0x00, 0x20, 0x0e, 0x00, 0x00, 0xd8,
  0x0d, 0x00, 0x00, 0x90, 0x0d, 0x00, 0x00, 0x5c, 0x0d, 0x00, 0x00, 0x14, 0x0d,
  0x00, 0x00, 0xcc, 0x0c, 0x00, 0x00, 0x8c, 0x0c, 0x00, 0x00, 0x48, 0x0c, 0x00,
  0x00, 0x14, 0x0c, 0x00, 0x00, 0xcc, 0x0b, 0x00, 0x00, 0x84, 0x0b, 0x00, 0x00,
  0x60, 0x0b, 0x00, 0x00, 0x28, 0x0b, 0x00, 0x00, 0xf4, 0x0a, 0x00, 0x00, 0xac,
  0x0a, 0x00, 0x00, 0x64, 0x0a, 0x00, 0x00, 0x30, 0x0a, 0x00, 0x00, 0xe8, 0x09,
  0x00, 0x00, 0xa0, 0x09, 0x00, 0x00, 0x68, 0x09, 0x00, 0x00, 0x34, 0x09, 0x00,
  0x00, 0xec, 0x08, 0x00, 0x00, 0xa4, 0x08, 0x00, 0x00, 0x80, 0x08, 0x00, 0x00,
  0x48, 0x08, 0x00, 0x00, 0x14, 0x08, 0x00, 0x00, 0xcc, 0x07, 0x00, 0x00, 0x84,
  0x07, 0x00, 0x00, 0x50, 0x07, 0x00, 0x00, 0x08, 0x07, 0x00, 0x00, 0xc0, 0x06,
  0x00, 0x00, 0x88, 0x06, 0x00, 0x00, 0x54, 0x06, 0x00, 0x00, 0x0c, 0x06, 0x00,
  0x00, 0xc4, 0x05, 0x00, 0x00, 0xa0, 0x05, 0x00, 0x00, 0x68, 0x05, 0x00, 0x00,
  0x34, 0x05, 0x00, 0x00, 0xec, 0x04, 0x00, 0x00, 0xa4, 0x04, 0x00, 0x00, 0x70,
  0x04, 0x00, 0x00, 0x28, 0x04, 0x00, 0x00, 0xe0, 0x03, 0x00, 0x00, 0xa8, 0x03,
  0x00, 0x00, 0x74, 0x03, 0x00, 0x00, 0x2c, 0x03, 0x00, 0x00, 0xe4, 0x02, 0x00,
  0x00, 0xc0, 0x02, 0x00, 0x00, 0x88, 0x02, 0x00, 0x00, 0x54, 0x02, 0x00, 0x00,
  0x0c, 0x02, 0x00, 0x00, 0xc4, 0x01, 0x00, 0x00, 0x90, 0x01, 0x00, 0x00, 0x48,
  0x01, 0x00, 0x00, 0x00, 0x01, 0x00, 0x00, 0xcc, 0x00, 0x00, 0x00, 0x84, 0x00,
  0x00, 0x00, 0x28, 0x00, 0x00, 0x00, 0x04, 0x00, 0x00, 0x00, 0x86, 0xeb, 0xff,
  0xff, 0x0c, 0x00, 0x00, 0x00, 0x10, 0x00, 0x00, 0x00, 0x09, 0x00, 0x00, 0x00,
  0x01, 0x00, 0x00, 0x00, 0xa9, 0x00, 0x00, 0x00, 0x01, 0x00, 0x00, 0x00, 0xa3,
  0x00, 0x00, 0x00, 0x42, 0xec, 0xff, 0xff, 0x28, 0x00, 0x00, 0x00, 0x00, 0x00,
  0x00, 0x01, 0x34, 0x00, 0x00, 0x00, 0x38, 0x00, 0x00, 0x00, 0x04, 0x00, 0x00,
  0x00, 0x00, 0x00, 0x12, 0x00, 0x14, 0x00, 0x13, 0x00, 0x0c, 0x00, 0x08, 0x00,
  0x00, 0x00, 0x00, 0x00, 0x00, 0x00, 0x07, 0x00, 0x12, 0x00, 0x00, 0x00, 0x00,
  0x00, 0x00, 0x04, 0x01, 0x00, 0x00, 0x00, 0x01, 0x00, 0x00, 0x00, 0x00, 0x00,
  0x00, 0x01, 0x01, 0x00, 0x00, 0x00, 0xa3, 0x00, 0x00, 0x00, 0x03, 0x00, 0x00,
  0x00, 0xa2, 0x00, 0x00, 0x00, 0x16, 0x00, 0x00, 0x00, 0x15, 0x00, 0x00, 0x00,
  0x9a, 0xec, 0xff, 0xff, 0x14, 0x00, 0x00, 0x00, 0x00, 0x00, 0x00, 0x02, 0x20,
  0x00, 0x00, 0x00, 0x24, 0x00, 0x00, 0x00, 0x03, 0x00, 0x00, 0x00, 0x1c, 0xed,
  0xff, 0xff, 0x01, 0x00, 0x00, 0x00, 0x01, 0x00, 0x00, 0x00, 0x01, 0x00, 0x00,
  0x00, 0x00, 0x00, 0x00, 0x01, 0x01, 0x00, 0x00, 0x00, 0xa2, 0x00, 0x00, 0x00,
  0x03, 0x00, 0x00, 0x00, 0xa1, 0x00, 0x00, 0x00, 0x17, 0x00, 0x00, 0x00, 0x43,
  0x00, 0x00, 0x00, 0xde, 0xec, 0xff, 0xff, 0x14, 0x00, 0x00, 0x00, 0x00, 0x00,
  0x00, 0x16, 0x10, 0x00, 0x00, 0x00, 0x14, 0x00, 0x00, 0x00, 0x02, 0x00, 0x00,
  0x00, 0xcc, 0xa7, 0xff, 0xff, 0x01, 0x00, 0x00, 0x00, 0xa1, 0x00, 0x00, 0x00,
  0x02, 0x00, 0x00, 0x00, 0xa0, 0x00, 0x00, 0x00, 0x47, 0x00, 0x00, 0x00, 0x0e,
  0xed, 0xff, 0xff, 0x14, 0x00, 0x00, 0x00, 0x00, 0x00, 0x00, 0x01, 0x20, 0x00,
  0x00, 0x00, 0x24, 0x00, 0x00, 0x00, 0x04, 0x00, 0x00, 0x00, 0xe6, 0xed, 0xff,
  0xff, 0x00, 0x00, 0x04, 0x01, 0x01, 0x00, 0x00, 0x00, 0x01, 0x00, 0x00, 0x00,
  0x00, 0x00, 0x00, 0x01, 0x01, 0x00, 0x00, 0x00, 0xa0, 0x00, 0x00, 0x00, 0x03,
  0x00, 0x00, 0x00, 0x9f, 0x00, 0x00, 0x00, 0x18, 0x00, 0x00, 0x00, 0x01, 0x00,
  0x00, 0x00, 0x52, 0xed, 0xff, 0xff, 0x14, 0x00, 0x00, 0x00, 0x00, 0x00, 0x00,
  0x02, 0x20, 0x00, 0x00, 0x00, 0x24, 0x00, 0x00, 0x00, 0x03, 0x00, 0x00, 0x00,
  0xd4, 0xed, 0xff, 0xff, 0x01, 0x00, 0x00, 0x00, 0x01, 0x00, 0x00, 0x00, 0x01,
  0x00, 0x00, 0x00, 0x00, 0x00, 0x00, 0x01, 0x01, 0x00, 0x00, 0x00, 0x9f, 0x00,
  0x00, 0x00, 0x03, 0x00, 0x00, 0x00, 0x9e, 0x00, 0x00, 0x00, 0x19, 0x00, 0x00,
  0x00, 0x43, 0x00, 0x00, 0x00, 0x96, 0xed, 0xff, 0xff, 0x14, 0x00, 0x00, 0x00,
  0x00, 0x00, 0x00, 0x16, 0x10, 0x00, 0x00, 0x00, 0x14, 0x00, 0x00, 0x00, 0x02,
  0x00, 0x00, 0x00, 0x84, 0xa8, 0xff, 0xff, 0x01, 0x00, 0x00, 0x00, 0x9e, 0x00,
  0x00, 0x00, 0x02, 0x00, 0x00, 0x00, 0x9d, 0x00, 0x00, 0x00, 0x47, 0x00, 0x00,
  0x00, 0xc6, 0xed, 0xff, 0xff, 0x14, 0x00, 0x00, 0x00, 0x00, 0x00, 0x00, 0x01,
  0x20, 0x00, 0x00, 0x00, 0x24, 0x00, 0x00, 0x00, 0x04, 0x00, 0x00, 0x00, 0x9e,
  0xee, 0xff, 0xff, 0x00, 0x00, 0x04, 0x01, 0x01, 0x00, 0x00, 0x00, 0x01, 0x00,
  0x00, 0x00, 0x00, 0x00, 0x00, 0x01, 0x01, 0x00, 0x00, 0x00, 0x9d, 0x00, 0x00,
  0x00, 0x03, 0x00, 0x00, 0x00, 0x9c, 0x00, 0x00, 0x00, 0x1a, 0x00, 0x00, 0x00,
  0x02, 0x00, 0x00, 0x00, 0x0a, 0xee, 0xff, 0xff, 0x14, 0x00, 0x00, 0x00, 0x00,
  0x00, 0x00, 0x02, 0x20, 0x00, 0x00, 0x00, 0x24, 0x00, 0x00, 0x00, 0x03, 0x00,
  0x00, 0x00, 0x8c, 0xee, 0xff, 0xff, 0x01, 0x00, 0x00, 0x00, 0x01, 0x00, 0x00,
  0x00, 0x01, 0x00, 0x00, 0x00, 0x00, 0x00, 0x00, 0x01, 0x01, 0x00, 0x00, 0x00,
  0x9c, 0x00, 0x00, 0x00, 0x03, 0x00, 0x00, 0x00, 0x9b, 0x00, 0x00, 0x00, 0x1b,
  0x00, 0x00, 0x00, 0x3e, 0x00, 0x00, 0x00, 0x4e, 0xee, 0xff, 0xff, 0x14, 0x00,
  0x00, 0x00, 0x00, 0x00, 0x00, 0x16, 0x10, 0x00, 0x00, 0x00, 0x14, 0x00, 0x00,
  0x00, 0x02, 0x00, 0x00, 0x00, 0x3c, 0xa9, 0xff, 0xff, 0x01, 0x00, 0x00, 0x00,
  0x9b, 0x00, 0x00, 0x00, 0x02, 0x00, 0x00, 0x00, 0x9a, 0x00, 0x00, 0x00, 0x47,
  0x00, 0x00, 0x00, 0x7e, 0xee, 0xff, 0xff, 0x14, 0x00, 0x00, 0x00, 0x00, 0x00,
  0x00, 0x0a, 0x14, 0x00, 0x00, 0x00, 0x18, 0x00, 0x00, 0x00, 0x07, 0x00, 0x00,
  0x00, 0x6e, 0xee, 0xff, 0xff, 0x03, 0x00, 0x00, 0x00, 0x01, 0x00, 0x00, 0x00,
  0x9a, 0x00, 0x00, 0x00, 0x02, 0x00, 0x00, 0x00, 0x99, 0x00, 0x00, 0x00, 0xa4,
  0x00, 0x00, 0x00, 0x16, 0xee, 0xff, 0xff, 0x0c, 0x00, 0x00, 0x00, 0x10, 0x00,
  0x00, 0x00, 0x08, 0x00, 0x00, 0x00, 0x01, 0x00, 0x00, 0x00, 0xa4, 0x00, 0x00,
  0x00, 0x01, 0x00, 0x00, 0x00, 0x52, 0x00, 0x00, 0x00, 0xd2, 0xee, 0xff, 0xff,
  0x14, 0x00, 0x00, 0x00, 0x00, 0x00, 0x00, 0x01, 0x20, 0x00, 0x00, 0x00, 0x24,
  0x00, 0x00, 0x00, 0x04, 0x00, 0x00, 0x00, 0xaa, 0xef, 0xff, 0xff, 0x00, 0x00,
  0x04, 0x01, 0x01, 0x00, 0x00, 0x00, 0x01, 0x00, 0x00, 0x00, 0x00, 0x00, 0x00,
  0x01, 0x01, 0x00, 0x00, 0x00, 0x99, 0x00, 0x00, 0x00, 0x03, 0x00, 0x00, 0x00,
  0x98, 0x00, 0x00, 0x00, 0x1c, 0x00, 0x00, 0x00, 0x03, 0x00, 0x00, 0x00, 0x16,
  0xef, 0xff, 0xff, 0x14, 0x00, 0x00, 0x00, 0x00, 0x00, 0x00, 0x02, 0x20, 0x00,
  0x00, 0x00, 0x24, 0x00, 0x00, 0x00, 0x03, 0x00, 0x00, 0x00, 0x98, 0xef, 0xff,
  0xff, 0x01, 0x00, 0x00, 0x00, 0x01, 0x00, 0x00, 0x00, 0x01, 0x00, 0x00, 0x00,
  0x00, 0x00, 0x00, 0x01, 0x01, 0x00, 0x00, 0x00, 0x98, 0x00, 0x00, 0x00, 0x03,
  0x00, 0x00, 0x00, 0x97, 0x00, 0x00, 0x00, 0x1d, 0x00, 0x00, 0x00, 0x3e, 0x00,
  0x00, 0x00, 0x5a, 0xef, 0xff, 0xff, 0x14, 0x00, 0x00, 0x00, 0x00, 0x00, 0x00,
  0x16, 0x10, 0x00, 0x00, 0x00, 0x14, 0x00, 0x00, 0x00, 0x02, 0x00, 0x00, 0x00,
  0x48, 0xaa, 0xff, 0xff, 0x01, 0x00, 0x00, 0x00, 0x97, 0x00, 0x00, 0x00, 0x02,
  0x00, 0x00, 0x00, 0x96, 0x00, 0x00, 0x00, 0x47, 0x00, 0x00, 0x00, 0x8a, 0xef,
  0xff, 0xff, 0x14, 0x00, 0x00, 0x00, 0x00, 0x00, 0x00, 0x0f, 0x14, 0x00, 0x00,
  0x00, 0x18, 0x00, 0x00, 0x00, 0x06, 0x00, 0x00, 0x00, 0xf0, 0xf7, 0xff, 0xff,
  0x00, 0x00, 0x00, 0x01, 0x01, 0x00, 0x00, 0x00, 0x96, 0x00, 0x00, 0x00, 0x02,
  0x00, 0x00, 0x00, 0x95, 0x00, 0x00, 0x00, 0x4b, 0x00, 0x00, 0x00, 0xbe, 0xef,
  0xff, 0xff, 0x14, 0x00, 0x00, 0x00, 0x00, 0x00, 0x00, 0x01, 0x20, 0x00, 0x00,
  0x00, 0x24, 0x00, 0x00, 0x00, 0x04, 0x00, 0x00, 0x00, 0x96, 0xf0, 0xff, 0xff,
  0x00, 0x00, 0x04, 0x01, 0x01, 0x00, 0x00, 0x00, 0x01, 0x00, 0x00, 0x00, 0x00,
  0x00, 0x00, 0x01, 0x01, 0x00, 0x00, 0x00, 0x95, 0x00, 0x00, 0x00, 0x03, 0x00,
  0x00, 0x00, 0x94, 0x00, 0x00, 0x00, 0x1e, 0x00, 0x00, 0x00, 0x04, 0x00, 0x00,
  0x00, 0x02, 0xf0, 0xff, 0xff, 0x14, 0x00, 0x00, 0x00, 0x00, 0x00, 0x00, 0x02,
  0x20, 0x00, 0x00, 0x00, 0x24, 0x00, 0x00, 0x00, 0x03, 0x00, 0x00, 0x00, 0x84,
  0xf0, 0xff, 0xff, 0x01, 0x00, 0x00, 0x00, 0x01, 0x00, 0x00, 0x00, 0x01, 0x00,
  0x00, 0x00, 0x00, 0x00, 0x00, 0x01, 0x01, 0x00, 0x00, 0x00, 0x94, 0x00, 0x00,
  0x00, 0x03, 0x00, 0x00, 0x00, 0x93, 0x00, 0x00, 0x00, 0x1f, 0x00, 0x00, 0x00,
  0x3e, 0x00, 0x00, 0x00, 0x46, 0xf0, 0xff, 0xff, 0x14, 0x00, 0x00, 0x00, 0x00,
  0x00, 0x00, 0x16, 0x10, 0x00, 0x00, 0x00, 0x14, 0x00, 0x00, 0x00, 0x02, 0x00,
  0x00, 0x00, 0x34, 0xab, 0xff, 0xff, 0x01, 0x00, 0x00, 0x00, 0x93, 0x00, 0x00,
  0x00, 0x02, 0x00, 0x00, 0x00, 0x92, 0x00, 0x00, 0x00, 0x47, 0x00, 0x00, 0x00,
  0x76, 0xf0, 0xff, 0xff, 0x14, 0x00, 0x00, 0x00, 0x00, 0x00, 0x00, 0x01, 0x20,
  0x00, 0x00, 0x00, 0x24, 0x00, 0x00, 0x00, 0x04, 0x00, 0x00, 0x00, 0x4e, 0xf1,
  0xff, 0xff, 0x00, 0x00, 0x04, 0x01, 0x01, 0x00, 0x00, 0x00, 0x01, 0x00, 0x00,
  0x00, 0x00, 0x00, 0x00, 0x01, 0x01, 0x00, 0x00, 0x00, 0x92, 0x00, 0x00, 0x00,
  0x03, 0x00, 0x00, 0x00, 0x91, 0x00, 0x00, 0x00, 0x20, 0x00, 0x00, 0x00, 0x05,
  0x00, 0x00, 0x00, 0xba, 0xf0, 0xff, 0xff, 0x14, 0x00, 0x00, 0x00, 0x00, 0x00,
  0x00, 0x02, 0x20, 0x00, 0x00, 0x00, 0x24, 0x00, 0x00, 0x00, 0x03, 0x00, 0x00,
  0x00, 0x3c, 0xf1, 0xff, 0xff, 0x01, 0x00, 0x00, 0x00, 0x01, 0x00, 0x00, 0x00,
  0x01, 0x00, 0x00, 0x00, 0x00, 0x00, 0x00, 0x01, 0x01, 0x00, 0x00, 0x00, 0x91,
  0x00, 0x00, 0x00, 0x03, 0x00, 0x00, 0x00, 0x90, 0x00, 0x00, 0x00, 0x21, 0x00,
  0x00, 0x00, 0x28, 0x00, 0x00, 0x00, 0xfe, 0xf0, 0xff, 0xff, 0x14, 0x00, 0x00,
  0x00, 0x00, 0x00, 0x00, 0x16, 0x10, 0x00, 0x00, 0x00, 0x14, 0x00, 0x00, 0x00,
  0x02, 0x00, 0x00, 0x00, 0xec, 0xab, 0xff, 0xff, 0x01, 0x00, 0x00, 0x00, 0x90,
  0x00, 0x00, 0x00, 0x02, 0x00, 0x00, 0x00, 0x8f, 0x00, 0x00, 0x00, 0x47, 0x00,
  0x00, 0x00, 0x2e, 0xf1, 0xff, 0xff, 0x14, 0x00, 0x00, 0x00, 0x00, 0x00, 0x00,
  0x0a, 0x14, 0x00, 0x00, 0x00, 0x18, 0x00, 0x00, 0x00, 0x07, 0x00, 0x00, 0x00,
  0x1e, 0xf1, 0xff, 0xff, 0x03, 0x00, 0x00, 0x00, 0x01, 0x00, 0x00, 0x00, 0x8f,
  0x00, 0x00, 0x00, 0x02, 0x00, 0x00, 0x00, 0xa5, 0x00, 0x00, 0x00, 0x5d, 0x00,
  0x00, 0x00, 0xc6, 0xf0, 0xff, 0xff, 0x0c, 0x00, 0x00, 0x00, 0x10, 0x00, 0x00,
  0x00, 0x08, 0x00, 0x00, 0x00, 0x01, 0x00, 0x00, 0x00, 0xa5, 0x00, 0x00, 0x00,
  0x01, 0x00, 0x00, 0x00, 0x8e, 0x00, 0x00, 0x00, 0x82, 0xf1, 0xff, 0xff, 0x14,
  0x00, 0x00, 0x00, 0x00, 0x00, 0x00, 0x01, 0x20, 0x00, 0x00, 0x00, 0x24, 0x00,
  0x00, 0x00, 0x04, 0x00, 0x00, 0x00, 0x5a, 0xf2, 0xff, 0xff, 0x00, 0x00, 0x04,
  0x01, 0x01, 0x00, 0x00, 0x00, 0x01, 0x00, 0x00, 0x00, 0x00, 0x00, 0x00, 0x01,
  0x01, 0x00, 0x00, 0x00, 0x8e, 0x00, 0x00, 0x00, 0x03, 0x00, 0x00, 0x00, 0x8d,
  0x00, 0x00, 0x00, 0x22, 0x00, 0x00, 0x00, 0x06, 0x00, 0x00, 0x00, 0xc6, 0xf1,
  0xff, 0xff, 0x14, 0x00, 0x00, 0x00, 0x00, 0x00, 0x00, 0x02, 0x20, 0x00, 0x00,
  0x00, 0x24, 0x00, 0x00, 0x00, 0x03, 0x00, 0x00, 0x00, 0x48, 0xf2, 0xff, 0xff,
  0x01, 0x00, 0x00, 0x00, 0x01, 0x00, 0x00, 0x00, 0x01, 0x00, 0x00, 0x00, 0x00,
  0x00, 0x00, 0x01, 0x01, 0x00, 0x00, 0x00, 0x8d, 0x00, 0x00, 0x00, 0x03, 0x00,
  0x00, 0x00, 0x8c, 0x00, 0x00, 0x00, 0x23, 0x00, 0x00, 0x00, 0x3e, 0x00, 0x00,
  0x00, 0x0a, 0xf2, 0xff, 0xff, 0x14, 0x00, 0x00, 0x00, 0x00, 0x00, 0x00, 0x16,
  0x10, 0x00, 0x00, 0x00, 0x14, 0x00, 0x00, 0x00, 0x02, 0x00, 0x00, 0x00, 0xf8,
  0xac, 0xff, 0xff, 0x01, 0x00, 0x00, 0x00, 0x8c, 0x00, 0x00, 0x00, 0x02, 0x00,
  0x00, 0x00, 0x8b, 0x00, 0x00, 0x00, 0x47, 0x00, 0x00, 0x00, 0x3a, 0xf2, 0xff,
  0xff, 0x14, 0x00, 0x00, 0x00, 0x00, 0x00, 0x00, 0x0f, 0x14, 0x00, 0x00, 0x00,
  0x18, 0x00, 0x00, 0x00, 0x06, 0x00, 0x00, 0x00, 0xa0, 0xfa, 0xff, 0xff, 0x00,
  0x00, 0x00, 0x01, 0x01, 0x00, 0x00, 0x00, 0x8b, 0x00, 0x00, 0x00, 0x02, 0x00,
  0x00, 0x00, 0x8a, 0x00, 0x00, 0x00, 0x57, 0x00, 0x00, 0x00, 0x6e, 0xf2, 0xff,
  0xff, 0x14, 0x00, 0x00, 0x00, 0x00, 0x00, 0x00, 0x01, 0x20, 0x00, 0x00, 0x00,
  0x24, 0x00, 0x00, 0x00, 0x04, 0x00, 0x00, 0x00, 0x46, 0xf3, 0xff, 0xff, 0x00,
  0x00, 0x04, 0x01, 0x01, 0x00, 0x00, 0x00, 0x01, 0x00, 0x00, 0x00, 0x00, 0x00,
  0x00, 0x01, 0x01, 0x00, 0x00, 0x00, 0x8a, 0x00, 0x00, 0x00, 0x03, 0x00, 0x00,
  0x00, 0x89, 0x00, 0x00, 0x00, 0x24, 0x00, 0x00, 0x00, 0x07, 0x00, 0x00, 0x00,
  0xb2, 0xf2, 0xff, 0xff, 0x14, 0x00, 0x00, 0x00, 0x00, 0x00, 0x00, 0x02, 0x20,
  0x00, 0x00, 0x00, 0x24, 0x00, 0x00, 0x00, 0x03, 0x00, 0x00, 0x00, 0x34, 0xf3,
  0xff, 0xff, 0x01, 0x00, 0x00, 0x00, 0x01, 0x00, 0x00, 0x00, 0x01, 0x00, 0x00,
  0x00, 0x00, 0x00, 0x00, 0x01, 0x01, 0x00, 0x00, 0x00, 0x89, 0x00, 0x00, 0x00,
  0x03, 0x00, 0x00, 0x00, 0x88, 0x00, 0x00, 0x00, 0x25, 0x00, 0x00, 0x00, 0x3e,
  0x00, 0x00, 0x00, 0xf6, 0xf2, 0xff, 0xff, 0x14, 0x00, 0x00, 0x00, 0x00, 0x00,
  0x00, 0x16, 0x10, 0x00, 0x00, 0x00, 0x14, 0x00, 0x00, 0x00, 0x02, 0x00, 0x00,
  0x00, 0xe4, 0xad, 0xff, 0xff, 0x01, 0x00, 0x00, 0x00, 0x88, 0x00, 0x00, 0x00,
  0x02, 0x00, 0x00, 0x00, 0x87, 0x00, 0x00, 0x00, 0x47, 0x00, 0x00, 0x00, 0x26,
  0xf3, 0xff, 0xff, 0x14, 0x00, 0x00, 0x00, 0x00, 0x00, 0x00, 0x01, 0x20, 0x00,
  0x00, 0x00, 0x24, 0x00, 0x00, 0x00, 0x04, 0x00, 0x00, 0x00, 0xfe, 0xf3, 0xff,
  0xff, 0x00, 0x00, 0x04, 0x01, 0x01, 0x00, 0x00, 0x00, 0x01, 0x00, 0x00, 0x00,
  0x00, 0x00, 0x00, 0x01, 0x01, 0x00, 0x00, 0x00, 0x87, 0x00, 0x00, 0x00, 0x03,
  0x00, 0x00, 0x00, 0x86, 0x00, 0x00, 0x00, 0x26, 0x00, 0x00, 0x00, 0x08, 0x00,
  0x00, 0x00, 0x6a, 0xf3, 0xff, 0xff, 0x14, 0x00, 0x00, 0x00, 0x00, 0x00, 0x00,
  0x02, 0x20, 0x00, 0x00, 0x00, 0x24, 0x00, 0x00, 0x00, 0x03, 0x00, 0x00, 0x00,
  0xec, 0xf3, 0xff, 0xff, 0x01, 0x00, 0x00, 0x00, 0x01, 0x00, 0x00, 0x00, 0x01,
  0x00, 0x00, 0x00, 0x00, 0x00, 0x00, 0x01, 0x01, 0x00, 0x00, 0x00, 0x86, 0x00,
  0x00, 0x00, 0x03, 0x00, 0x00, 0x00, 0x85, 0x00, 0x00, 0x00, 0x27, 0x00, 0x00,
  0x00, 0x28, 0x00, 0x00, 0x00, 0xae, 0xf3, 0xff, 0xff, 0x14, 0x00, 0x00, 0x00,
  0x00, 0x00, 0x00, 0x16, 0x10, 0x00, 0x00, 0x00, 0x14, 0x00, 0x00, 0x00, 0x02,
  0x00, 0x00, 0x00, 0x9c, 0xae, 0xff, 0xff, 0x01, 0x00, 0x00, 0x00, 0x85, 0x00,
  0x00, 0x00, 0x02, 0x00, 0x00, 0x00, 0x84, 0x00, 0x00, 0x00, 0x47, 0x00, 0x00,
  0x00, 0xde, 0xf3, 0xff, 0xff, 0x14, 0x00, 0x00, 0x00, 0x00, 0x00, 0x00, 0x0a,
  0x14, 0x00, 0x00, 0x00, 0x18, 0x00, 0x00, 0x00, 0x07, 0x00, 0x00, 0x00, 0xce,
  0xf3, 0xff, 0xff, 0x03, 0x00, 0x00, 0x00, 0x01, 0x00, 0x00, 0x00, 0x84, 0x00,
  0x00, 0x00, 0x02, 0x00, 0x00, 0x00, 0xa6, 0x00, 0x00, 0x00, 0x68, 0x00, 0x00,
  0x00, 0x76, 0xf3, 0xff, 0xff, 0x0c, 0x00, 0x00, 0x00, 0x10, 0x00, 0x00, 0x00,
  0x08, 0x00, 0x00, 0x00, 0x01, 0x00, 0x00, 0x00, 0xa6, 0x00, 0x00, 0x00, 0x01,
  0x00, 0x00, 0x00, 0x83, 0x00, 0x00, 0x00, 0x32, 0xf4, 0xff, 0xff, 0x14, 0x00,
  0x00, 0x00, 0x00, 0x00, 0x00, 0x01, 0x20, 0x00, 0x00, 0x00, 0x24, 0x00, 0x00,
  0x00, 0x04, 0x00, 0x00, 0x00, 0x0a, 0xf5, 0xff, 0xff, 0x00, 0x00, 0x04, 0x01,
  0x01, 0x00, 0x00, 0x00, 0x01, 0x00, 0x00, 0x00, 0x00, 0x00, 0x00, 0x01, 0x01,
  0x00, 0x00, 0x00, 0x83, 0x00, 0x00, 0x00, 0x03, 0x00, 0x00, 0x00, 0x82, 0x00,
  0x00, 0x00, 0x29, 0x00, 0x00, 0x00, 0x09, 0x00, 0x00, 0x00, 0x76, 0xf4, 0xff,
  0xff, 0x14, 0x00, 0x00, 0x00, 0x00, 0x00, 0x00, 0x02, 0x20, 0x00, 0x00, 0x00,
  0x24, 0x00, 0x00, 0x00, 0x03, 0x00, 0x00, 0x00, 0xf8, 0xf4, 0xff, 0xff, 0x01,
  0x00, 0x00, 0x00, 0x01, 0x00, 0x00, 0x00, 0x01, 0x00, 0x00, 0x00, 0x00, 0x00,
  0x00, 0x01, 0x01, 0x00, 0x00, 0x00, 0x82, 0x00, 0x00, 0x00, 0x03, 0x00, 0x00,
  0x00, 0x81, 0x00, 0x00, 0x00, 0x2a, 0x00, 0x00, 0x00, 0x35, 0x00, 0x00, 0x00,
  0xba, 0xf4, 0xff, 0xff, 0x14, 0x00, 0x00, 0x00, 0x00, 0x00, 0x00, 0x16, 0x10,
  0x00, 0x00, 0x00, 0x14, 0x00, 0x00, 0x00, 0x02, 0x00, 0x00, 0x00, 0xa8, 0xaf,
  0xff, 0xff, 0x01, 0x00, 0x00, 0x00, 0x81, 0x00, 0x00, 0x00, 0x02, 0x00, 0x00,
  0x00, 0x80, 0x00, 0x00, 0x00, 0x47, 0x00, 0x00, 0x00, 0xea, 0xf4, 0xff, 0xff,
  0x14, 0x00, 0x00, 0x00, 0x00, 0x00, 0x00, 0x0f, 0x14, 0x00, 0x00, 0x00, 0x18,
  0x00, 0x00, 0x00, 0x06, 0x00, 0x00, 0x00, 0x50, 0xfd, 0xff, 0xff, 0x00, 0x00,
  0x00, 0x01, 0x01, 0x00, 0x00, 0x00, 0x80, 0x00, 0x00, 0x00, 0x02, 0x00, 0x00,
  0x00, 0x7f, 0x00, 0x00, 0x00, 0x62, 0x00, 0x00, 0x00, 0x1e, 0xf5, 0xff, 0xff,
  0x14, 0x00, 0x00, 0x00, 0x00, 0x00, 0x00, 0x01, 0x20, 0x00, 0x00, 0x00, 0x24,
  0x00, 0x00, 0x00, 0x04, 0x00, 0x00, 0x00, 0xf6, 0xf5, 0xff, 0xff, 0x00, 0x00,
  0x04, 0x01, 0x01, 0x00, 0x00, 0x00, 0x01, 0x00, 0x00, 0x00, 0x00, 0x00, 0x00,
  0x01, 0x01, 0x00, 0x00, 0x00, 0x7f, 0x00, 0x00, 0x00, 0x03, 0x00, 0x00, 0x00,
  0x7e, 0x00, 0x00, 0x00, 0x2b, 0x00, 0x00, 0x00, 0x0a, 0x00, 0x00, 0x00, 0x62,
  0xf5, 0xff, 0xff, 0x14, 0x00, 0x00, 0x00, 0x00, 0x00, 0x00, 0x02, 0x20, 0x00,
  0x00, 0x00, 0x24, 0x00, 0x00, 0x00, 0x03, 0x00, 0x00, 0x00, 0xe4, 0xf5, 0xff,
  0xff, 0x01, 0x00, 0x00, 0x00, 0x01, 0x00, 0x00, 0x00, 0x01, 0x00, 0x00, 0x00,
  0x00, 0x00, 0x00, 0x01, 0x01, 0x00, 0x00, 0x00, 0x7e, 0x00, 0x00, 0x00, 0x03,
  0x00, 0x00, 0x00, 0x7d, 0x00, 0x00, 0x00, 0x2c, 0x00, 0x00, 0x00, 0x35, 0x00,
  0x00, 0x00, 0xa6, 0xf5, 0xff, 0xff, 0x14, 0x00, 0x00, 0x00, 0x00, 0x00, 0x00,
  0x16, 0x10, 0x00, 0x00, 0x00, 0x14, 0x00, 0x00, 0x00, 0x02, 0x00, 0x00, 0x00,
  0x94, 0xb0, 0xff, 0xff, 0x01, 0x00, 0x00, 0x00, 0x7d, 0x00, 0x00, 0x00, 0x02,
  0x00, 0x00, 0x00, 0x7c, 0x00, 0x00, 0x00, 0x47, 0x00, 0x00, 0x00, 0xd6, 0xf5,
  0xff, 0xff, 0x14, 0x00, 0x00, 0x00, 0x00, 0x00, 0x00, 0x01, 0x20, 0x00, 0x00,
  0x00, 0x24, 0x00, 0x00, 0x00, 0x04, 0x00, 0x00, 0x00, 0xae, 0xf6, 0xff, 0xff,
  0x00, 0x00, 0x04, 0x01, 0x01, 0x00, 0x00, 0x00, 0x01, 0x00, 0x00, 0x00, 0x00,
  0x00, 0x00, 0x01, 0x01, 0x00, 0x00, 0x00, 0x7c, 0x00, 0x00, 0x00, 0x03, 0x00,
  0x00, 0x00, 0x7b, 0x00, 0x00, 0x00, 0x2d, 0x00, 0x00, 0x00, 0x0b, 0x00, 0x00,
  0x00, 0x1a, 0xf6, 0xff, 0xff, 0x14, 0x00, 0x00, 0x00, 0x00, 0x00, 0x00, 0x02,
  0x20, 0x00, 0x00, 0x00, 0x24, 0x00, 0x00, 0x00, 0x03, 0x00, 0x00, 0x00, 0x9c,
  0xf6, 0xff, 0xff, 0x01, 0x00, 0x00, 0x00, 0x01, 0x00, 0x00, 0x00, 0x01, 0x00,
  0x00, 0x00, 0x00, 0x00, 0x00, 0x01, 0x01, 0x00, 0x00, 0x00, 0x7b, 0x00, 0x00,
  0x00, 0x03, 0x00, 0x00, 0x00, 0x7a, 0x00, 0x00, 0x00, 0x2e, 0x00, 0x00, 0x00,
  0x2f, 0x00, 0x00, 0x00, 0x5e, 0xf6, 0xff, 0xff, 0x14, 0x00, 0x00, 0x00, 0x00,
  0x00, 0x00, 0x16, 0x10, 0x00, 0x00, 0x00, 0x14, 0x00, 0x00, 0x00, 0x02, 0x00,
  0x00, 0x00, 0x4c, 0xb1, 0xff, 0xff, 0x01, 0x00, 0x00, 0x00, 0x7a, 0x00, 0x00,
  0x00, 0x02, 0x00, 0x00, 0x00, 0x79, 0x00, 0x00, 0x00, 0x47, 0x00, 0x00, 0x00,
  0x8e, 0xf6, 0xff, 0xff, 0x14, 0x00, 0x00, 0x00, 0x00, 0x00, 0x00, 0x0a, 0x14,
  0x00, 0x00, 0x00, 0x18, 0x00, 0x00, 0x00, 0x07, 0x00, 0x00, 0x00, 0x7e, 0xf6,
  0xff, 0xff, 0x03, 0x00, 0x00, 0x00, 0x01, 0x00, 0x00, 0x00, 0x79, 0x00, 0x00,
  0x00, 0x02, 0x00, 0x00, 0x00, 0xa7, 0x00, 0x00, 0x00, 0x73, 0x00, 0x00, 0x00,
  0x26, 0xf6, 0xff, 0xff, 0x0c, 0x00, 0x00, 0x00, 0x10, 0x00, 0x00, 0x00, 0x08,
  0x00, 0x00, 0x00, 0x01, 0x00, 0x00, 0x00, 0xa7, 0x00, 0x00, 0x00, 0x01, 0x00,
  0x00, 0x00, 0x78, 0x00, 0x00, 0x00, 0xe2, 0xf6, 0xff, 0xff, 0x14, 0x00, 0x00,
  0x00, 0x00, 0x00, 0x00, 0x01, 0x20, 0x00, 0x00, 0x00, 0x24, 0x00, 0x00, 0x00,
  0x04, 0x00, 0x00, 0x00, 0xba, 0xf7, 0xff, 0xff, 0x00, 0x00, 0x04, 0x01, 0x01,
  0x00, 0x00, 0x00, 0x01, 0x00, 0x00, 0x00, 0x00, 0x00, 0x00, 0x01, 0x01, 0x00,
  0x00, 0x00, 0x78, 0x00, 0x00, 0x00, 0x03, 0x00, 0x00, 0x00, 0x77, 0x00, 0x00,
  0x00, 0x30, 0x00, 0x00, 0x00, 0x0c, 0x00, 0x00, 0x00, 0x26, 0xf7, 0xff, 0xff,
  0x14, 0x00, 0x00, 0x00, 0x00, 0x00, 0x00, 0x02, 0x20, 0x00, 0x00, 0x00, 0x24,
  0x00, 0x00, 0x00, 0x03, 0x00, 0x00, 0x00, 0xa8, 0xf7, 0xff, 0xff, 0x01, 0x00,
  0x00, 0x00, 0x01, 0x00, 0x00, 0x00, 0x01, 0x00, 0x00, 0x00, 0x00, 0x00, 0x00,
  0x01, 0x01, 0x00, 0x00, 0x00, 0x77, 0x00, 0x00, 0x00, 0x03, 0x00, 0x00, 0x00,
  0x76, 0x00, 0x00, 0x00, 0x31, 0x00, 0x00, 0x00, 0x35, 0x00, 0x00, 0x00, 0x6a,
  0xf7, 0xff, 0xff, 0x14, 0x00, 0x00, 0x00, 0x00, 0x00, 0x00, 0x16, 0x10, 0x00,
  0x00, 0x00, 0x14, 0x00, 0x00, 0x00, 0x02, 0x00, 0x00, 0x00, 0x58, 0xb2, 0xff,
  0xff, 0x01, 0x00, 0x00, 0x00, 0x76, 0x00, 0x00, 0x00, 0x02, 0x00, 0x00, 0x00,
  0x75, 0x00, 0x00, 0x00, 0x47, 0x00, 0x00, 0x00, 0x9a, 0xf7, 0xff, 0xff, 0x20,
  0x00, 0x00, 0x00, 0x00, 0x00, 0x00, 0x0f, 0x20, 0x00, 0x00, 0x00, 0x24, 0x00,
  0x00, 0x00, 0x06, 0x00, 0x00, 0x00, 0x0c, 0x00, 0x08, 0x00, 0x00, 0x00, 0x00,
  0x00, 0x00, 0x00, 0x07, 0x00, 0x0c, 0x00, 0x00, 0x00, 0x00, 0x00, 0x00, 0x01,
  0x01, 0x00, 0x00, 0x00, 0x75, 0x00, 0x00, 0x00, 0x02, 0x00, 0x00, 0x00, 0x74,
  0x00, 0x00, 0x00, 0x6d, 0x00, 0x00, 0x00, 0xda, 0xf7, 0xff, 0xff, 0x14, 0x00,
  0x00, 0x00, 0x00, 0x00, 0x00, 0x05, 0x20, 0x00, 0x00, 0x00, 0x24, 0x00, 0x00,
  0x00, 0x05, 0x00, 0x00, 0x00, 0xb6, 0xf9, 0xff, 0xff, 0x02, 0x00, 0x00, 0x00,
  0x02, 0x00, 0x00, 0x00, 0x02, 0x00, 0x00, 0x00, 0x02, 0x00, 0x00, 0x00, 0x01,
  0x00, 0x00, 0x00, 0x74, 0x00, 0x00, 0x00, 0x01, 0x00, 0x00, 0x00, 0x73, 0x00,
  0x00, 0x00, 0x16, 0xf8, 0xff, 0xff, 0x14, 0x00, 0x00, 0x00, 0x00, 0x00, 0x00,
  0x01, 0x20, 0x00, 0x00, 0x00, 0x24, 0x00, 0x00, 0x00, 0x04, 0x00, 0x00, 0x00,
  0xee, 0xf8, 0xff, 0xff, 0x00, 0x00, 0x04, 0x01, 0x01, 0x00, 0x00, 0x00, 0x01,
  0x00, 0x00, 0x00, 0x00, 0x00, 0x00, 0x01, 0x01, 0x00, 0x00, 0x00, 0x73, 0x00,
  0x00, 0x00, 0x03, 0x00, 0x00, 0x00, 0x72, 0x00, 0x00, 0x00, 0x32, 0x00, 0x00,
  0x00, 0x0d, 0x00, 0x00, 0x00, 0x5a, 0xf8, 0xff, 0xff, 0x14, 0x00, 0x00, 0x00,
  0x00, 0x00, 0x00, 0x02, 0x20, 0x00, 0x00, 0x00, 0x24, 0x00, 0x00, 0x00, 0x03,
  0x00, 0x00, 0x00, 0xdc, 0xf8, 0xff, 0xff, 0x01, 0x00, 0x00, 0x00, 0x01, 0x00,
  0x00, 0x00, 0x01, 0x00, 0x00, 0x00, 0x00, 0x00, 0x00, 0x01, 0x01, 0x00, 0x00,
  0x00, 0x72, 0x00, 0x00, 0x00, 0x03, 0x00, 0x00, 0x00, 0x71, 0x00, 0x00, 0x00,
  0x33, 0x00, 0x00, 0x00, 0x35, 0x00, 0x00, 0x00, 0x9e, 0xf8, 0xff, 0xff, 0x14,
  0x00, 0x00, 0x00, 0x00, 0x00, 0x00, 0x16, 0x10, 0x00, 0x00, 0x00, 0x14, 0x00,
  0x00, 0x00, 0x02, 0x00, 0x00, 0x00, 0x8c, 0xb3, 0xff, 0xff, 0x01, 0x00, 0x00,
  0x00, 0x71, 0x00, 0x00, 0x00, 0x02, 0x00, 0x00, 0x00, 0x70, 0x00, 0x00, 0x00,
  0x47, 0x00, 0x00, 0x00, 0xce, 0xf8, 0xff, 0xff, 0x14, 0x00, 0x00, 0x00, 0x00,
  0x00, 0x00, 0x01, 0x20, 0x00, 0x00, 0x00, 0x24, 0x00, 0x00, 0x00, 0x04, 0x00,
  0x00, 0x00, 0xa6, 0xf9, 0xff, 0xff, 0x00, 0x00, 0x04, 0x01, 0x01, 0x00, 0x00,
  0x00, 0x01, 0x00, 0x00, 0x00, 0x00, 0x00, 0x00, 0x01, 0x01, 0x00, 0x00, 0x00,
  0x70, 0x00, 0x00, 0x00, 0x03, 0x00, 0x00, 0x00, 0x6f, 0x00, 0x00, 0x00, 0x34,
  0x00, 0x00, 0x00, 0x0e, 0x00, 0x00, 0x00, 0x12, 0xf9, 0xff, 0xff, 0x14, 0x00,
  0x00, 0x00, 0x00, 0x00, 0x00, 0x02, 0x20, 0x00, 0x00, 0x00, 0x24, 0x00, 0x00,
  0x00, 0x03, 0x00, 0x00, 0x00, 0x94, 0xf9, 0xff, 0xff, 0x01, 0x00, 0x00, 0x00,
  0x01, 0x00, 0x00, 0x00, 0x01, 0x00, 0x00, 0x00, 0x00, 0x00, 0x00, 0x01, 0x01,
  0x00, 0x00, 0x00, 0x6f, 0x00, 0x00, 0x00, 0x03, 0x00, 0x00, 0x00, 0x6a, 0x00,
  0x00, 0x00, 0x36, 0x00, 0x00, 0x00, 0x3e, 0x00, 0x00, 0x00, 0x56, 0xf9, 0xff,
  0xff, 0x14, 0x00, 0x00, 0x00, 0x00, 0x00, 0x00, 0x4f, 0x14, 0x00, 0x00, 0x00,
  0x20, 0x00, 0x00, 0x00, 0x01, 0x00, 0x00, 0x00, 0x46, 0xf9, 0xff, 0xff, 0x03,
  0x00, 0x00, 0x00, 0x03, 0x00, 0x00, 0x00, 0x6c, 0x00, 0x00, 0x00, 0x6d, 0x00,
  0x00, 0x00, 0x6e, 0x00, 0x00, 0x00, 0x03, 0x00, 0x00, 0x00, 0x6b, 0x00, 0x00,
  0x00, 0x48, 0x00, 0x00, 0x00, 0x46, 0x00, 0x00, 0x00, 0x3e, 0xf9, 0xff, 0xff,
  0x10, 0x00, 0x00, 0x00, 0x00, 0x00, 0x00, 0x37, 0x10, 0x00, 0x00, 0x00, 0x14,
  0x00, 0x00, 0x00, 0x2e, 0xf9, 0xff, 0xff, 0x00, 0x00, 0x00, 0x02, 0x01, 0x00,
  0x00, 0x00, 0x6b, 0x00, 0x00, 0x00, 0x01, 0x00, 0x00, 0x00, 0x69, 0x00, 0x00,
  0x00, 0xc2, 0xf9, 0xff, 0xff, 0x14, 0x00, 0x00, 0x00, 0x00, 0x00, 0x00, 0x16,
  0x10, 0x00, 0x00, 0x00, 0x14, 0x00, 0x00, 0x00, 0x02, 0x00, 0x00, 0x00, 0xb0,
  0xb4, 0xff, 0xff, 0x01, 0x00, 0x00, 0x00, 0x6a, 0x00, 0x00, 0x00, 0x02, 0x00,
  0x00, 0x00, 0x69, 0x00, 0x00, 0x00, 0x47, 0x00, 0x00, 0x00, 0xf2, 0xf9, 0xff,
  0xff, 0x14, 0x00, 0x00, 0x00, 0x00, 0x00, 0x00, 0x05, 0x20, 0x00, 0x00, 0x00,
  0x24, 0x00, 0x00, 0x00, 0x05, 0x00, 0x00, 0x00, 0xce, 0xfb, 0xff, 0xff, 0x02,
  0x00, 0x00, 0x00, 0x02, 0x00, 0x00, 0x00, 0x02, 0x00, 0x00, 0x00, 0x02, 0x00,
  0x00, 0x00, 0x01, 0x00, 0x00, 0x00, 0x69, 0x00, 0x00, 0x00, 0x01, 0x00, 0x00,
  0x00, 0x68, 0x00, 0x00, 0x00, 0x2e, 0xfa, 0xff, 0xff, 0x14, 0x00, 0x00, 0x00,
  0x00, 0x00, 0x00, 0x01, 0x20, 0x00, 0x00, 0x00, 0x24, 0x00, 0x00, 0x00, 0x04,
  0x00, 0x00, 0x00, 0x06, 0xfb, 0xff, 0xff, 0x00, 0x00, 0x04, 0x01, 0x01, 0x00,
  0x00, 0x00, 0x01, 0x00, 0x00, 0x00, 0x00, 0x00, 0x00, 0x01, 0x01, 0x00, 0x00,
  0x00, 0x68, 0x00, 0x00, 0x00, 0x03, 0x00, 0x00, 0x00, 0x67, 0x00, 0x00, 0x00,
  0x37, 0x00, 0x00, 0x00, 0x0f, 0x00, 0x00, 0x00, 0x72, 0xfa, 0xff, 0xff, 0x14,
  0x00, 0x00, 0x00, 0x00, 0x00, 0x00, 0x02, 0x20, 0x00, 0x00, 0x00, 0x24, 0x00,
  0x00, 0x00, 0x03, 0x00, 0x00, 0x00, 0xf4, 0xfa, 0xff, 0xff, 0x01, 0x00, 0x00,
  0x00, 0x01, 0x00, 0x00, 0x00, 0x01, 0x00, 0x00, 0x00, 0x00, 0x00, 0x00, 0x01,
  0x01, 0x00, 0x00, 0x00, 0x67, 0x00, 0x00, 0x00, 0x03, 0x00, 0x00, 0x00, 0x66,
  0x00, 0x00, 0x00, 0x38, 0x00, 0x00, 0x00, 0x3e, 0x00, 0x00, 0x00, 0xb6, 0xfa,
  0xff, 0xff, 0x14, 0x00, 0x00, 0x00, 0x00, 0x00, 0x00, 0x16, 0x10, 0x00, 0x00,
  0x00, 0x14, 0x00, 0x00, 0x00, 0x02, 0x00, 0x00, 0x00, 0xa4, 0xb5, 0xff, 0xff,
  0x01, 0x00, 0x00, 0x00, 0x66, 0x00, 0x00, 0x00, 0x02, 0x00, 0x00, 0x00, 0x65,
  0x00, 0x00, 0x00, 0x47, 0x00, 0x00, 0x00, 0xe6, 0xfa, 0xff, 0xff, 0x14, 0x00,
  0x00, 0x00, 0x00, 0x00, 0x00, 0x01, 0x20, 0x00, 0x00, 0x00, 0x24, 0x00, 0x00,
  0x00, 0x04, 0x00, 0x00, 0x00, 0xbe, 0xfb, 0xff, 0xff, 0x00, 0x00, 0x04, 0x01,
  0x01, 0x00, 0x00, 0x00, 0x01, 0x00, 0x00, 0x00, 0x00, 0x00, 0x00, 0x01, 0x01,
  0x00, 0x00, 0x00, 0x65, 0x00, 0x00, 0x00, 0x03, 0x00, 0x00, 0x00, 0x64, 0x00,
  0x00, 0x00, 0x39, 0x00, 0x00, 0x00, 0x10, 0x00, 0x00, 0x00, 0x2a, 0xfb, 0xff,
  0xff, 0x14, 0x00, 0x00, 0x00, 0x00, 0x00, 0x00, 0x02, 0x20, 0x00, 0x00, 0x00,
  0x24, 0x00, 0x00, 0x00, 0x03, 0x00, 0x00, 0x00, 0xac, 0xfb, 0xff, 0xff, 0x01,
  0x00, 0x00, 0x00, 0x01, 0x00, 0x00, 0x00, 0x01, 0x00, 0x00, 0x00, 0x00, 0x00,
  0x00, 0x01, 0x01, 0x00, 0x00, 0x00, 0x64, 0x00, 0x00, 0x00, 0x03, 0x00, 0x00,
  0x00, 0x5f, 0x00, 0x00, 0x00, 0x3a, 0x00, 0x00, 0x00, 0x3e, 0x00, 0x00, 0x00,
  0x6e, 0xfb, 0xff, 0xff, 0x14, 0x00, 0x00, 0x00, 0x00, 0x00, 0x00, 0x4f, 0x14,
  0x00, 0x00, 0x00, 0x20, 0x00, 0x00, 0x00, 0x01, 0x00, 0x00, 0x00, 0x5e, 0xfb,
  0xff, 0xff, 0x03, 0x00, 0x00, 0x00, 0x03, 0x00, 0x00, 0x00, 0x61, 0x00, 0x00,
  0x00, 0x62, 0x00, 0x00, 0x00, 0x63, 0x00, 0x00, 0x00, 0x03, 0x00, 0x00, 0x00,
  0x60, 0x00, 0x00, 0x00, 0x48, 0x00, 0x00, 0x00, 0x46, 0x00, 0x00, 0x00, 0x56,
  0xfb, 0xff, 0xff, 0x10, 0x00, 0x00, 0x00, 0x00, 0x00, 0x00, 0x37, 0x10, 0x00,
  0x00, 0x00, 0x14, 0x00, 0x00, 0x00, 0x46, 0xfb, 0xff, 0xff, 0x00, 0x00, 0x00,
  0x02, 0x01, 0x00, 0x00, 0x00, 0x60, 0x00, 0x00, 0x00, 0x01, 0x00, 0x00, 0x00,
  0x5e, 0x00, 0x00, 0x00, 0xda, 0xfb, 0xff, 0xff, 0x14, 0x00, 0x00, 0x00, 0x00,
  0x00, 0x00, 0x16, 0x10, 0x00, 0x00, 0x00, 0x14, 0x00, 0x00, 0x00, 0x02, 0x00,
  0x00, 0x00, 0xc8, 0xb6, 0xff, 0xff, 0x01, 0x00, 0x00, 0x00, 0x5f, 0x00, 0x00,
  0x00, 0x02, 0x00, 0x00, 0x00, 0x5e, 0x00, 0x00, 0x00, 0x47, 0x00, 0x00, 0x00,
  0x0a, 0xfc, 0xff, 0xff, 0x14, 0x00, 0x00, 0x00, 0x00, 0x00, 0x00, 0x05, 0x20,
  0x00, 0x00, 0x00, 0x24, 0x00, 0x00, 0x00, 0x05, 0x00, 0x00, 0x00, 0xe6, 0xfd,
  0xff, 0xff, 0x02, 0x00, 0x00, 0x00, 0x02, 0x00, 0x00, 0x00, 0x02, 0x00, 0x00,
  0x00, 0x02, 0x00, 0x00, 0x00, 0x01, 0x00, 0x00, 0x00, 0x5e, 0x00, 0x00, 0x00,
  0x01, 0x00, 0x00, 0x00, 0x5d, 0x00, 0x00, 0x00, 0x46, 0xfc, 0xff, 0xff, 0x14,
  0x00, 0x00, 0x00, 0x00, 0x00, 0x00, 0x01, 0x20, 0x00, 0x00, 0x00, 0x24, 0x00,
  0x00, 0x00, 0x04, 0x00, 0x00, 0x00, 0x1e, 0xfd, 0xff, 0xff, 0x00, 0x00, 0x04,
  0x01, 0x01, 0x00, 0x00, 0x00, 0x01, 0x00, 0x00, 0x00, 0x00, 0x00, 0x00, 0x01,
  0x01, 0x00, 0x00, 0x00, 0x5d, 0x00, 0x00, 0x00, 0x03, 0x00, 0x00, 0x00, 0x5c,
  0x00, 0x00, 0x00, 0x3b, 0x00, 0x00, 0x00, 0x11, 0x00, 0x00, 0x00, 0x8a, 0xfc,
  0xff, 0xff, 0x14, 0x00, 0x00, 0x00, 0x00, 0x00, 0x00, 0x02, 0x20, 0x00, 0x00,
  0x00, 0x24, 0x00, 0x00, 0x00, 0x03, 0x00, 0x00, 0x00, 0x0c, 0xfd, 0xff, 0xff,
  0x01, 0x00, 0x00, 0x00, 0x01, 0x00, 0x00, 0x00, 0x01, 0x00, 0x00, 0x00, 0x00,
  0x00, 0x00, 0x01, 0x01, 0x00, 0x00, 0x00, 0x5c, 0x00, 0x00, 0x00, 0x03, 0x00,
  0x00, 0x00, 0x5b, 0x00, 0x00, 0x00, 0x3c, 0x00, 0x00, 0x00, 0x3e, 0x00, 0x00,
  0x00, 0xce, 0xfc, 0xff, 0xff, 0x14, 0x00, 0x00, 0x00, 0x00, 0x00, 0x00, 0x16,
  0x10, 0x00, 0x00, 0x00, 0x14, 0x00, 0x00, 0x00, 0x02, 0x00, 0x00, 0x00, 0xbc,
  0xb7, 0xff, 0xff, 0x01, 0x00, 0x00, 0x00, 0x5b, 0x00, 0x00, 0x00, 0x02, 0x00,
  0x00, 0x00, 0x5a, 0x00, 0x00, 0x00, 0x47, 0x00, 0x00, 0x00, 0xfe, 0xfc, 0xff,
  0xff, 0x14, 0x00, 0x00, 0x00, 0x00, 0x00, 0x00, 0x01, 0x20, 0x00, 0x00, 0x00,
  0x24, 0x00, 0x00, 0x00, 0x04, 0x00, 0x00, 0x00, 0xd6, 0xfd, 0xff, 0xff, 0x00,
  0x00, 0x04, 0x01, 0x01, 0x00, 0x00, 0x00, 0x01, 0x00, 0x00, 0x00, 0x00, 0x00,
  0x00, 0x01, 0x01, 0x00, 0x00, 0x00, 0x5a, 0x00, 0x00, 0x00, 0x03, 0x00, 0x00,
  0x00, 0x59, 0x00, 0x00, 0x00, 0x3d, 0x00, 0x00, 0x00, 0x12, 0x00, 0x00, 0x00,
  0x42, 0xfd, 0xff, 0xff, 0x14, 0x00, 0x00, 0x00, 0x00, 0x00, 0x00, 0x02, 0x20,
  0x00, 0x00, 0x00, 0x24, 0x00, 0x00, 0x00, 0x03, 0x00, 0x00, 0x00, 0xc4, 0xfd,
  0xff, 0xff, 0x01, 0x00, 0x00, 0x00, 0x01, 0x00, 0x00, 0x00, 0x01, 0x00, 0x00,
  0x00, 0x00, 0x00, 0x00, 0x01, 0x01, 0x00, 0x00, 0x00, 0x59, 0x00, 0x00, 0x00,
  0x03, 0x00, 0x00, 0x00, 0x54, 0x00, 0x00, 0x00, 0x3f, 0x00, 0x00, 0x00, 0x43,
  0x00, 0x00, 0x00, 0x86, 0xfd, 0xff, 0xff, 0x14, 0x00, 0x00, 0x00, 0x00, 0x00,
  0x00, 0x4f, 0x14, 0x00, 0x00, 0x00, 0x20, 0x00, 0x00, 0x00, 0x01, 0x00, 0x00,
  0x00, 0x76, 0xfd, 0xff, 0xff, 0x03, 0x00, 0x00, 0x00, 0x03, 0x00, 0x00, 0x00,
  0x56, 0x00, 0x00, 0x00, 0x57, 0x00, 0x00, 0x00, 0x58, 0x00, 0x00, 0x00, 0x03,
  0x00, 0x00, 0x00, 0x55, 0x00, 0x00, 0x00, 0x48, 0x00, 0x00, 0x00, 0x46, 0x00,
  0x00, 0x00, 0x6e, 0xfd, 0xff, 0xff, 0x10, 0x00, 0x00, 0x00, 0x00, 0x00, 0x00,
  0x37, 0x10, 0x00, 0x00, 0x00, 0x14, 0x00, 0x00, 0x00, 0x5e, 0xfd, 0xff, 0xff,
  0x00, 0x00, 0x00, 0x02, 0x01, 0x00, 0x00, 0x00, 0x55, 0x00, 0x00, 0x00, 0x01,
  0x00, 0x00, 0x00, 0x53, 0x00, 0x00, 0x00, 0xf2, 0xfd, 0xff, 0xff, 0x14, 0x00,
  0x00, 0x00, 0x00, 0x00, 0x00, 0x16, 0x10, 0x00, 0x00, 0x00, 0x14, 0x00, 0x00,
  0x00, 0x02, 0x00, 0x00, 0x00, 0xe0, 0xb8, 0xff, 0xff, 0x01, 0x00, 0x00, 0x00,
  0x54, 0x00, 0x00, 0x00, 0x02, 0x00, 0x00, 0x00, 0x53, 0x00, 0x00, 0x00, 0x47,
  0x00, 0x00, 0x00, 0x22, 0xfe, 0xff, 0xff, 0x24, 0x00, 0x00, 0x00, 0x00, 0x00,
  0x00, 0x05, 0x30, 0x00, 0x00, 0x00, 0x34, 0x00, 0x00, 0x00, 0x05, 0x00, 0x00,
  0x00, 0x00, 0x00, 0x0e, 0x00, 0x14, 0x00, 0x00, 0x00, 0x10, 0x00, 0x0c, 0x00,
  0x08, 0x00, 0x04, 0x00, 0x0e, 0x00, 0x00, 0x00, 0x02, 0x00, 0x00, 0x00, 0x02,
  0x00, 0x00, 0x00, 0x02, 0x00, 0x00, 0x00, 0x02, 0x00, 0x00, 0x00, 0x01, 0x00,
  0x00, 0x00, 0x53, 0x00, 0x00, 0x00, 0x01, 0x00, 0x00, 0x00, 0x52, 0x00, 0x00,
  0x00, 0x6e, 0xfe, 0xff, 0xff, 0x14, 0x00, 0x00, 0x00, 0x00, 0x00, 0x00, 0x01,
  0x20, 0x00, 0x00, 0x00, 0x24, 0x00, 0x00, 0x00, 0x04, 0x00, 0x00, 0x00, 0x46,
  0xff, 0xff, 0xff, 0x00, 0x00, 0x04, 0x01, 0x01, 0x00, 0x00, 0x00, 0x01, 0x00,
  0x00, 0x00, 0x00, 0x00, 0x00, 0x01, 0x01, 0x00, 0x00, 0x00, 0x52, 0x00, 0x00,
  0x00, 0x03, 0x00, 0x00, 0x00, 0x51, 0x00, 0x00, 0x00, 0x40, 0x00, 0x00, 0x00,
  0x13, 0x00, 0x00, 0x00, 0xb2, 0xfe, 0xff, 0xff, 0x14, 0x00, 0x00, 0x00, 0x00,
  0x00, 0x00, 0x02, 0x20, 0x00, 0x00, 0x00, 0x24, 0x00, 0x00, 0x00, 0x03, 0x00,
  0x00, 0x00, 0x34, 0xff, 0xff, 0xff, 0x01, 0x00, 0x00, 0x00, 0x01, 0x00, 0x00,
  0x00, 0x01, 0x00, 0x00, 0x00, 0x00, 0x00, 0x00, 0x01, 0x01, 0x00, 0x00, 0x00,
  0x51, 0x00, 0x00, 0x00, 0x03, 0x00, 0x00, 0x00, 0x50, 0x00, 0x00, 0x00, 0x41,
  0x00, 0x00, 0x00, 0x43, 0x00, 0x00, 0x00, 0xf6, 0xfe, 0xff, 0xff, 0x14, 0x00,
  0x00, 0x00, 0x00, 0x00, 0x00, 0x16, 0x10, 0x00, 0x00, 0x00, 0x14, 0x00, 0x00,
  0x00, 0x02, 0x00, 0x00, 0x00, 0xe4, 0xb9, 0xff, 0xff, 0x01, 0x00, 0x00, 0x00,
  0x50, 0x00, 0x00, 0x00, 0x02, 0x00, 0x00, 0x00, 0x4f, 0x00, 0x00, 0x00, 0x47,
  0x00, 0x00, 0x00, 0x26, 0xff, 0xff, 0xff, 0x28, 0x00, 0x00, 0x00, 0x00, 0x00,
  0x00, 0x01, 0x34, 0x00, 0x00, 0x00, 0x38, 0x00, 0x00, 0x00, 0x04, 0x00, 0x00,
  0x00, 0x00, 0x00, 0x12, 0x00, 0x14, 0x00, 0x13, 0x00, 0x0c, 0x00, 0x08, 0x00,
  0x07, 0x00, 0x00, 0x00, 0x00, 0x00, 0x06, 0x00, 0x12, 0x00, 0x00, 0x00, 0x00,
  0x00, 0x04, 0x01, 0x01, 0x00, 0x00, 0x00, 0x01, 0x00, 0x00, 0x00, 0x00, 0x00,
  0x00, 0x01, 0x01, 0x00, 0x00, 0x00, 0x4f, 0x00, 0x00, 0x00, 0x03, 0x00, 0x00,
  0x00, 0x4e, 0x00, 0x00, 0x00, 0x42, 0x00, 0x00, 0x00, 0x14, 0x00, 0x00, 0x00,
  0x7e, 0xff, 0xff, 0xff, 0x20, 0x00, 0x00, 0x00, 0x00, 0x00, 0x00, 0x02, 0x2c,
  0x00, 0x00, 0x00, 0x30, 0x00, 0x00, 0x00, 0x03, 0x00, 0x00, 0x00, 0x0c, 0x00,
  0x14, 0x00, 0x13, 0x00, 0x0c, 0x00, 0x08, 0x00, 0x04, 0x00, 0x0c, 0x00, 0x00,
  0x00, 0x01, 0x00, 0x00, 0x00, 0x01, 0x00, 0x00, 0x00, 0x01, 0x00, 0x00, 0x00,
  0x00, 0x00, 0x00, 0x01, 0x01, 0x00, 0x00, 0x00, 0x4e, 0x00, 0x00, 0x00, 0x03,
  0x00, 0x00, 0x00, 0x4d, 0x00, 0x00, 0x00, 0x44, 0x00, 0x00, 0x00, 0x45, 0x00,
  0x00, 0x00, 0xce, 0xff, 0xff, 0xff, 0x14, 0x00, 0x00, 0x00, 0x00, 0x00, 0x00,
  0x16, 0x10, 0x00, 0x00, 0x00, 0x14, 0x00, 0x00, 0x00, 0x02, 0x00, 0x00, 0x00,
  0xbc, 0xba, 0xff, 0xff, 0x01, 0x00, 0x00, 0x00, 0x4d, 0x00, 0x00, 0x00, 0x02,
  0x00, 0x00, 0x00, 0x00, 0x00, 0x00, 0x00, 0x47, 0x00, 0x00, 0x00, 0x00, 0x00,
  0x0e, 0x00, 0x1a, 0x00, 0x14, 0x00, 0x10, 0x00, 0x0c, 0x00, 0x0b, 0x00, 0x04,
  0x00, 0x0e, 0x00, 0x00, 0x00, 0x1c, 0x00, 0x00, 0x00, 0x00, 0x00, 0x00, 0x4f,
  0x1c, 0x00, 0x00, 0x00, 0x28, 0x00, 0x00, 0x00, 0x01, 0x00, 0x00, 0x00, 0x00,
  0x00, 0x06, 0x00, 0x08, 0x00, 0x04, 0x00, 0x06, 0x00, 0x00, 0x00, 0x03, 0x00,
  0x00, 0x00, 0x03, 0x00, 0x00, 0x00, 0x4a, 0x00, 0x00, 0x00, 0x4b, 0x00, 0x00,
  0x00, 0x4c, 0x00, 0x00, 0x00, 0x03, 0x00, 0x00, 0x00, 0x49, 0x00, 0x00, 0x00,
  0x48, 0x00, 0x00, 0x00, 0x46, 0x00, 0x00, 0x00, 0x00, 0x00, 0x0e, 0x00, 0x16,
  0x00, 0x00, 0x00, 0x10, 0x00, 0x0c, 0x00, 0x0b, 0x00, 0x04, 0x00, 0x0e, 0x00,
  0x00, 0x00, 0x18, 0x00, 0x00, 0x00, 0x00, 0x00, 0x00, 0x37, 0x18, 0x00, 0x00,
  0x00, 0x1c, 0x00, 0x00, 0x00, 0x00, 0x00, 0x06, 0x00, 0x08, 0x00, 0x07, 0x00,
  0x06, 0x00, 0x00, 0x00, 0x00, 0x00, 0x00, 0x02, 0x01, 0x00, 0x00, 0x00, 0x49,
  0x00, 0x00, 0x00, 0x01, 0x00, 0x00, 0x00, 0x00, 0x00, 0x00, 0x00, 0x00, 0x00,
  0x0a, 0x00, 0x10, 0x00, 0x0c, 0x00, 0x08, 0x00, 0x04, 0x00, 0x0a, 0x00, 0x00,
  0x00, 0x0c, 0x00, 0x00, 0x00, 0x10, 0x00, 0x00, 0x00, 0x08, 0x00, 0x00, 0x00,
  0x01, 0x00, 0x00, 0x00, 0x00, 0x00, 0x00, 0x00, 0x01, 0x00, 0x00, 0x00, 0xa8,
  0x00, 0x00, 0x00, 0x01, 0x00, 0x00, 0x00, 0xa9, 0x00, 0x00, 0x00, 0x01, 0x00,
  0x00, 0x00, 0xa8, 0x00, 0x00, 0x00, 0xaa, 0x00, 0x00, 0x00, 0x94, 0x7e, 0x00,
  0x00, 0xf0, 0x7d, 0x00, 0x00, 0x58, 0x7d, 0x00, 0x00, 0xd4, 0x7c, 0x00, 0x00,
  0x20, 0x7c, 0x00, 0x00, 0x6c, 0x7b, 0x00, 0x00, 0xb8, 0x7a, 0x00, 0x00, 0x04,
  0x7a, 0x00, 0x00, 0x50, 0x79, 0x00, 0x00, 0x9c, 0x78, 0x00, 0x00, 0x00, 0x78,
  0x00, 0x00, 0x64, 0x77, 0x00, 0x00, 0xc8, 0x76, 0x00, 0x00, 0x2c, 0x76, 0x00,
  0x00, 0x90, 0x75, 0x00, 0x00, 0xdc, 0x74, 0x00, 0x00, 0x28, 0x74, 0x00, 0x00,
  0x74, 0x73, 0x00, 0x00, 0xc0, 0x72, 0x00, 0x00, 0x3c, 0x72, 0x00, 0x00, 0xb8,
  0x71, 0x00, 0x00, 0x4c, 0x71, 0x00, 0x00, 0xb0, 0x70, 0x00, 0x00, 0xd4, 0x6f,
  0x00, 0x00, 0x10, 0x6f, 0x00, 0x00, 0x48, 0x6e, 0x00, 0x00, 0x88, 0x6d, 0x00,
  0x00, 0x70, 0x6c, 0x00, 0x00, 0xb0, 0x6b, 0x00, 0x00, 0x98, 0x6a, 0x00, 0x00,
  0x88, 0x69, 0x00, 0x00, 0x70, 0x68, 0x00, 0x00, 0x60, 0x67, 0x00, 0x00, 0xa8,
  0x65, 0x00, 0x00, 0x98, 0x64, 0x00, 0x00, 0x80, 0x63, 0x00, 0x00, 0x70, 0x62,
  0x00, 0x00, 0x58, 0x61, 0x00, 0x00, 0x48, 0x60, 0x00, 0x00, 0x90, 0x5e, 0x00,
  0x00, 0x78, 0x5d, 0x00, 0x00, 0x64, 0x5c, 0x00, 0x00, 0x74, 0x5b, 0x00, 0x00,
  0x8c, 0x5a, 0x00, 0x00, 0x9c, 0x59, 0x00, 0x00, 0xb4, 0x58, 0x00, 0x00, 0x4c,
  0x57, 0x00, 0x00, 0x64, 0x56, 0x00, 0x00, 0x78, 0x55, 0x00, 0x00, 0x88, 0x54,
  0x00, 0x00, 0xa0, 0x53, 0x00, 0x00, 0xb0, 0x52, 0x00, 0x00, 0xc8, 0x51, 0x00,
  0x00, 0x2c, 0x51, 0x00, 0x00, 0x14, 0x50, 0x00, 0x00, 0x04, 0x4f, 0x00, 0x00,
  0xec, 0x4d, 0x00, 0x00, 0xdc, 0x4c, 0x00, 0x00, 0xc4, 0x4b, 0x00, 0x00, 0xb4,
  0x4a, 0x00, 0x00, 0x9c, 0x49, 0x00, 0x00, 0x8c, 0x48, 0x00, 0x00, 0xd8, 0x47,
  0x00, 0x00, 0x10, 0x47, 0x00, 0x00, 0x50, 0x46, 0x00, 0x00, 0x88, 0x45, 0x00,
  0x00, 0xc8, 0x44, 0x00, 0x00, 0x44, 0x44, 0x00, 0x00, 0xbc, 0x43, 0x00, 0x00,
  0x5c, 0x43, 0x00, 0x00, 0x20, 0x43, 0x00, 0x00, 0xc0, 0x42, 0x00, 0x00, 0x7c,
  0x42, 0x00, 0x00, 0x38, 0x42, 0x00, 0x00, 0xe8, 0x41, 0x00, 0x00, 0x98, 0x41,
  0x00, 0x00, 0x48, 0x41, 0x00, 0x00, 0xa4, 0x40, 0x00, 0x00, 0xe8, 0x3f, 0x00,
  0x00, 0xfc, 0x3e, 0x00, 0x00, 0x58, 0x3e, 0x00, 0x00, 0x9c, 0x3d, 0x00, 0x00,
  0xa8, 0x3c, 0x00, 0x00, 0xfc, 0x3b, 0x00, 0x00, 0x58, 0x3b, 0x00, 0x00, 0x0c,
  0x3b, 0x00, 0x00, 0xbc, 0x3a, 0x00, 0x00, 0x6c, 0x3a, 0x00, 0x00, 0x1c, 0x3a,
  0x00, 0x00, 0x5c, 0x39, 0x00, 0x00, 0x68, 0x38, 0x00, 0x00, 0xc4, 0x37, 0x00,
  0x00, 0x08, 0x37, 0x00, 0x00, 0x14, 0x36, 0x00, 0x00, 0x68, 0x35, 0x00, 0x00,
  0xc4, 0x34, 0x00, 0x00, 0x74, 0x34, 0x00, 0x00, 0x24, 0x34, 0x00, 0x00, 0xd4,
  0x33, 0x00, 0x00, 0x84, 0x33, 0x00, 0x00, 0xc8, 0x32, 0x00, 0x00, 0xd4, 0x31,
  0x00, 0x00, 0x30, 0x31, 0x00, 0x00, 0x74, 0x30, 0x00, 0x00, 0x80, 0x2f, 0x00,
  0x00, 0xd4, 0x2e, 0x00, 0x00, 0x30, 0x2e, 0x00, 0x00, 0xe0, 0x2d, 0x00, 0x00,
  0x94, 0x2d, 0x00, 0x00, 0x44, 0x2d, 0x00, 0x00, 0xf4, 0x2c, 0x00, 0x00, 0x34,
  0x2c, 0x00, 0x00, 0x40, 0x2b, 0x00, 0x00, 0x9c, 0x2a, 0x00, 0x00, 0xe0, 0x29,
  0x00, 0x00, 0xec, 0x28, 0x00, 0x00, 0x40, 0x28, 0x00, 0x00, 0x7c, 0x27, 0x00,
  0x00, 0xd8, 0x26, 0x00, 0x00, 0x1c, 0x26, 0x00, 0x00, 0x30, 0x25, 0x00, 0x00,
  0x7c, 0x24, 0x00, 0x00, 0xd8, 0x23, 0x00, 0x00, 0x1c, 0x23, 0x00, 0x00, 0x28,
  0x22, 0x00, 0x00, 0x84, 0x21, 0x00, 0x00, 0xc8, 0x20, 0x00, 0x00, 0xd4, 0x1f,
  0x00, 0x00, 0x10, 0x1f, 0x00, 0x00, 0x6c, 0x1e, 0x00, 0x00, 0xb0, 0x1d, 0x00,
  0x00, 0xbc, 0x1c, 0x00, 0x00, 0x08, 0x1c, 0x00, 0x00, 0x64, 0x1b, 0x00, 0x00,
  0xa8, 0x1a, 0x00, 0x00, 0xb4, 0x19, 0x00, 0x00, 0x10, 0x19, 0x00, 0x00, 0x54,
  0x18, 0x00, 0x00, 0x60, 0x17, 0x00, 0x00, 0x9c, 0x16, 0x00, 0x00, 0xf8, 0x15,
  0x00, 0x00, 0x3c, 0x15, 0x00, 0x00, 0x48, 0x14, 0x00, 0x00, 0x94, 0x13, 0x00,
  0x00, 0xf0, 0x12, 0x00, 0x00, 0x34, 0x12, 0x00, 0x00, 0x40, 0x11, 0x00, 0x00,
  0x9c, 0x10, 0x00, 0x00, 0xe0, 0x0f, 0x00, 0x00, 0xec, 0x0e, 0x00, 0x00, 0x28,
  0x0e, 0x00, 0x00, 0x84, 0x0d, 0x00, 0x00, 0xc8, 0x0c, 0x00, 0x00, 0xd4, 0x0b,
  0x00, 0x00, 0x20, 0x0b, 0x00, 0x00, 0x74, 0x0a, 0x00, 0x00, 0xb8, 0x09, 0x00,
  0x00, 0xc4, 0x08, 0x00, 0x00, 0x18, 0x08, 0x00, 0x00, 0x5c, 0x07, 0x00, 0x00,
  0x68, 0x06, 0x00, 0x00, 0xbc, 0x05, 0x00, 0x00, 0x00, 0x05, 0x00, 0x00, 0x4c,
  0x04, 0x00, 0x00, 0x70, 0x03, 0x00, 0x00, 0x7c, 0x02, 0x00, 0x00, 0xa0, 0x01,
  0x00, 0x00, 0xcc, 0x00, 0x00, 0x00, 0x7c, 0x00, 0x00, 0x00, 0x04, 0x00, 0x00,
  0x00, 0xa0, 0xff, 0xff, 0xff, 0x0c, 0x00, 0x00, 0x00, 0x1c, 0x00, 0x00, 0x00,
  0x40, 0x00, 0x00, 0x00, 0x04, 0x00, 0x00, 0x00, 0x01, 0x00, 0x00, 0x00, 0xff,
  0xff, 0xff, 0xff, 0xff, 0xff, 0xff, 0xff, 0x02, 0x00, 0x00, 0x00, 0x22, 0x00,
  0x00, 0x00, 0x72, 0x65, 0x73, 0x74, 0x6f, 0x72, 0x61, 0x74, 0x69, 0x6f, 0x6e,
  0x5f, 0x30, 0x2f, 0x64, 0x65, 0x63, 0x6f, 0x64, 0x65, 0x72, 0x2f, 0x42, 0x69,
  0x61, 0x73, 0x41, 0x64, 0x64, 0x5f, 0x31, 0x32, 0x3a, 0x30, 0x00, 0x00, 0x04,
  0x00, 0x00, 0x00, 0x01, 0x00, 0x00, 0x00, 0x01, 0x00, 0x00, 0x00, 0x01, 0x00,
  0x00, 0x00, 0x02, 0x00, 0x00, 0x00, 0x14, 0x00, 0x10, 0x00, 0x0c, 0x00, 0x00,
  0x00, 0x00, 0x00, 0x08, 0x00, 0x00, 0x00, 0x00, 0x00, 0x00, 0x00, 0x04, 0x00,
  0x14, 0x00, 0x00, 0x00, 0x0c, 0x00, 0x00, 0x00, 0x1c, 0x00, 0x00, 0x00, 0x2c,
  0x00, 0x00, 0x00, 0x04, 0x00, 0x00, 0x00, 0x01, 0x00, 0x00, 0x00, 0xff, 0xff,
  0xff, 0xff, 0xff, 0xff, 0xff, 0xff, 0x01, 0x00, 0x00, 0x00, 0x0d, 0x00, 0x00,
  0x00, 0x50, 0x6c, 0x61, 0x63, 0x65, 0x68, 0x6f, 0x6c, 0x64, 0x65, 0x72, 0x3a,
  0x30, 0x00, 0x00, 0x00, 0x04, 0x00, 0x00, 0x00, 0x01, 0x00, 0x00, 0x00, 0x01,
  0x00, 0x00, 0x00, 0x01, 0x00, 0x00, 0x00, 0x01, 0x00, 0x00, 0x00, 0x7c, 0xfd,
  0xff, 0xff, 0x14, 0x00, 0x00, 0x00, 0x24, 0x00, 0x00, 0x00, 0x40, 0x00, 0x00,
  0x00, 0x00, 0x00, 0x00, 0x07, 0xa8, 0x00, 0x00, 0x00, 0x04, 0x00, 0x00, 0x00,
  0x01, 0x00, 0x00, 0x00, 0xff, 0xff, 0xff, 0xff, 0xff, 0xff, 0xff, 0xff, 0x06,
  0x00, 0x00, 0x00, 0x84, 0x85, 0xff, 0xff, 0x08, 0x00, 0x00, 0x00, 0x10, 0x00,
  0x00, 0x00, 0x01, 0x00, 0x00, 0x00, 0x00, 0x00, 0x00, 0x00, 0x00, 0x00, 0x00,
  0x00, 0x01, 0x00, 0x00, 0x00, 0x76, 0x41, 0x4d, 0x39, 0x6b, 0x00, 0x00, 0x00,
  0x72, 0x65, 0x73, 0x74, 0x6f, 0x72, 0x61, 0x74, 0x69, 0x6f, 0x6e, 0x5f, 0x30,
  0x2f, 0x64, 0x65, 0x63, 0x6f, 0x64, 0x65, 0x72, 0x2f, 0x52, 0x65, 0x6c, 0x75,
  0x3b, 0x72, 0x65, 0x73, 0x74, 0x6f, 0x72, 0x61, 0x74, 0x69, 0x6f, 0x6e, 0x5f,
  0x30, 0x2f, 0x64, 0x65, 0x63, 0x6f, 0x64, 0x65, 0x72, 0x2f, 0x42, 0x69, 0x61,
  0x73, 0x41, 0x64, 0x64, 0x3b, 0x72, 0x65, 0x73, 0x74, 0x6f, 0x72, 0x61, 0x74,
  0x69, 0x6f, 0x6e, 0x5f, 0x30, 0x2f, 0x64, 0x65, 0x63, 0x6f, 0x64, 0x65, 0x72,
  0x2f, 0x73, 0x65, 0x70, 0x61, 0x72, 0x61, 0x62, 0x6c, 0x65, 0x5f, 0x63, 0x6f,
  0x6e, 0x76, 0x32, 0x64, 0x5f, 0x72, 0x65, 0x71, 0x75, 0x61, 0x6e, 0x74, 0x69,
  0x7a, 0x65, 0x64, 0x00, 0x04, 0x00, 0x00, 0x00, 0x01, 0x00, 0x00, 0x00, 0x01,
  0x00, 0x00, 0x00, 0x01, 0x00, 0x00, 0x00, 0x06, 0x00, 0x00, 0x00, 0x4c, 0xfe,
  0xff, 0xff, 0x14, 0x00, 0x00, 0x00, 0x24, 0x00, 0x00, 0x00, 0x40, 0x00, 0x00,
  0x00, 0x00, 0x00, 0x00, 0x07, 0xb0, 0x00, 0x00, 0x00, 0x04, 0x00, 0x00, 0x00,
  0x01, 0x00, 0x00, 0x00, 0xff, 0xff, 0xff, 0xff, 0xff, 0xff, 0xff, 0xff, 0x08,
  0x00, 0x00, 0x00, 0x54, 0x86, 0xff, 0xff, 0x08, 0x00, 0x00, 0x00, 0x10, 0x00,
  0x00, 0x00, 0x01, 0x00, 0x00, 0x00, 0x00, 0x00, 0x00, 0x00, 0x00, 0x00, 0x00,
  0x00, 0x01, 0x00, 0x00, 0x00, 0x87, 0x9d, 0x71, 0x3a, 0x71, 0x00, 0x00, 0x00,
  0x72, 0x65, 0x73, 0x74, 0x6f, 0x72, 0x61, 0x74, 0x69, 0x6f, 0x6e, 0x5f, 0x30,
  0x2f, 0x64, 0x65, 0x63, 0x6f, 0x64, 0x65, 0x72, 0x2f, 0x52, 0x65, 0x6c, 0x75,
  0x5f, 0x33, 0x3b, 0x72, 0x65, 0x73, 0x74, 0x6f, 0x72, 0x61, 0x74, 0x69, 0x6f,
  0x6e, 0x5f, 0x30, 0x2f, 0x64, 0x65, 0x63, 0x6f, 0x64, 0x65, 0x72, 0x2f, 0x42,
  0x69, 0x61, 0x73, 0x41, 0x64, 0x64, 0x5f, 0x33, 0x3b, 0x72, 0x65, 0x73, 0x74,
  0x6f, 0x72, 0x61, 0x74, 0x69, 0x6f, 0x6e, 0x5f, 0x30, 0x2f, 0x64, 0x65, 0x63,
  0x6f, 0x64, 0x65, 0x72, 0x2f, 0x73, 0x65, 0x70, 0x61, 0x72, 0x61, 0x62, 0x6c,
  0x65, 0x5f, 0x63, 0x6f, 0x6e, 0x76, 0x32, 0x64, 0x5f, 0x33, 0x5f, 0x72, 0x65,
  0x71, 0x75, 0x61, 0x6e, 0x74, 0x69, 0x7a, 0x65, 0x64, 0x00, 0x00, 0x00, 0x04,
  0x00, 0x00, 0x00, 0x01, 0x00, 0x00, 0x00, 0x01, 0x00, 0x00, 0x00, 0x01, 0x00,
  0x00, 0x00, 0x08, 0x00, 0x00, 0x00, 0x24, 0xff, 0xff, 0xff, 0x14, 0x00, 0x00,
  0x00, 0x24, 0x00, 0x00, 0x00, 0x44, 0x00, 0x00, 0x00, 0x00, 0x00, 0x00, 0x07,
  0xb4, 0x00, 0x00, 0x00, 0x04, 0x00, 0x00, 0x00, 0x01, 0x00, 0x00, 0x00, 0xff,
  0xff, 0xff, 0xff, 0xff, 0xff, 0xff, 0xff, 0x08, 0x00, 0x00, 0x00, 0x2c, 0x87,
  0xff, 0xff, 0x08, 0x00, 0x00, 0x00, 0x14, 0x00, 0x00, 0x00, 0x01, 0x00, 0x00,
  0x00, 0x00, 0x00, 0x00, 0x00, 0x00, 0x00, 0x00, 0x00, 0x00, 0x00, 0x00, 0x00,
  0x01, 0x00, 0x00, 0x00, 0xbf, 0x75, 0xc1, 0x39, 0x71, 0x00, 0x00, 0x00, 0x72,
  0x65, 0x73, 0x74, 0x6f, 0x72, 0x61, 0x74, 0x69, 0x6f, 0x6e, 0x5f, 0x30, 0x2f,
  0x64, 0x65, 0x63, 0x6f, 0x64, 0x65, 0x72, 0x2f, 0x52, 0x65, 0x6c, 0x75, 0x5f,
  0x36, 0x3b, 0x72, 0x65, 0x73, 0x74, 0x6f, 0x72, 0x61, 0x74, 0x69, 0x6f, 0x6e,
  0x5f, 0x30, 0x2f, 0x64, 0x65, 0x63, 0x6f, 0x64, 0x65, 0x72, 0x2f, 0x42, 0x69,
  0x61, 0x73, 0x41, 0x64, 0x64, 0x5f, 0x36, 0x3b, 0x72, 0x65, 0x73, 0x74, 0x6f,
  0x72, 0x61, 0x74, 0x69, 0x6f, 0x6e, 0x5f, 0x30, 0x2f, 0x64, 0x65, 0x63, 0x6f,
  0x64, 0x65, 0x72, 0x2f, 0x73, 0x65, 0x70, 0x61, 0x72, 0x61, 0x62, 0x6c, 0x65,
  0x5f, 0x63, 0x6f, 0x6e, 0x76, 0x32, 0x64, 0x5f, 0x36, 0x5f, 0x72, 0x65, 0x71,
  0x75, 0x61, 0x6e, 0x74, 0x69, 0x7a, 0x65, 0x64, 0x00, 0x00, 0x00, 0x04, 0x00,
  0x00, 0x00, 0x01, 0x00, 0x00, 0x00, 0x01, 0x00, 0x00, 0x00, 0x01, 0x00, 0x00,
  0x00, 0x08, 0x00, 0x00, 0x00, 0x14, 0x00, 0x18, 0x00, 0x14, 0x00, 0x13, 0x00,
  0x00, 0x00, 0x0c, 0x00, 0x08, 0x00, 0x00, 0x00, 0x00, 0x00, 0x04, 0x00, 0x14,
  0x00, 0x00, 0x00, 0x14, 0x00, 0x00, 0x00, 0x24, 0x00, 0x00, 0x00, 0x40, 0x00,
  0x00, 0x00, 0x00, 0x00, 0x00, 0x07, 0xb0, 0x00, 0x00, 0x00, 0x04, 0x00, 0x00,
  0x00, 0x01, 0x00, 0x00, 0x00, 0xff, 0xff, 0xff, 0xff, 0xff, 0xff, 0xff, 0xff,
  0x04, 0x00, 0x00, 0x00, 0x1c, 0x88, 0xff, 0xff, 0x08, 0x00, 0x00, 0x00, 0x10,
  0x00, 0x00, 0x00, 0x01, 0x00, 0x00, 0x00, 0x00, 0x00, 0x00, 0x00, 0x00, 0x00,
  0x00, 0x00, 0x01, 0x00, 0x00, 0x00, 0xb0, 0x8b, 0x21, 0x3b, 0x71, 0x00, 0x00,
  0x00, 0x72, 0x65, 0x73, 0x74, 0x6f, 0x72, 0x61, 0x74, 0x69, 0x6f, 0x6e, 0x5f,
  0x30, 0x2f, 0x65, 0x6e, 0x63, 0x6f, 0x64, 0x65, 0x72, 0x2f, 0x52, 0x65, 0x6c,
  0x75, 0x5f, 0x31, 0x3b, 0x72, 0x65, 0x73, 0x74, 0x6f, 0x72, 0x61, 0x74, 0x69,
  0x6f, 0x6e, 0x5f, 0x30, 0x2f, 0x65, 0x6e, 0x63, 0x6f, 0x64, 0x65, 0x72, 0x2f,
  0x42, 0x69, 0x61, 0x73, 0x41, 0x64, 0x64, 0x5f, 0x31, 0x3b, 0x72, 0x65, 0x73,
  0x74, 0x6f, 0x72, 0x61, 0x74, 0x69, 0x6f, 0x6e, 0x5f, 0x30, 0x2f, 0x65, 0x6e,
  0x63, 0x6f, 0x64, 0x65, 0x72, 0x2f, 0x73, 0x65, 0x70, 0x61, 0x72, 0x61, 0x62,
  0x6c, 0x65, 0x5f, 0x63, 0x6f, 0x6e, 0x76, 0x32, 0x64, 0x5f, 0x31, 0x5f, 0x72,
  0x65, 0x71, 0x75, 0x61, 0x6e, 0x74, 0x69, 0x7a, 0x65, 0x64, 0x00, 0x00, 0x00,
  0x04, 0x00, 0x00, 0x00, 0x01, 0x00, 0x00, 0x00, 0x01, 0x00, 0x00, 0x00, 0x01,
  0x00, 0x00, 0x00, 0x04, 0x00, 0x00, 0x00, 0x5a, 0x88, 0xff, 0xff, 0x00, 0x00,
  0x00, 0x01, 0x18, 0x00, 0x00, 0x00, 0x28, 0x00, 0x00, 0x00, 0x5c, 0x00, 0x00,
  0x00, 0xa4, 0x00, 0x00, 0x00, 0x00, 0x00, 0x00, 0x07, 0x80, 0x00, 0x00, 0x00,
  0x04, 0x00, 0x00, 0x00, 0x01, 0x00, 0x00, 0x00, 0xff, 0xff, 0xff, 0xff, 0xff,
  0xff, 0xff, 0xff, 0x02, 0x00, 0x00, 0x00, 0x44, 0x88, 0xff, 0xff, 0x10, 0x00,
  0x00, 0x00, 0x18, 0x00, 0x00, 0x00, 0x1c, 0x00, 0x00, 0x00, 0x20, 0x00, 0x00,
  0x00, 0x01, 0x00, 0x00, 0x00, 0x00, 0x00, 0x00, 0x00, 0x00, 0x00, 0x00, 0x00,
  0x01, 0x00, 0x00, 0x00, 0x43, 0x72, 0x8d, 0x3a, 0x01, 0x00, 0x00, 0x00, 0xc6,
  0x15, 0xcb, 0x41, 0x01, 0x00, 0x00, 0x00, 0x28, 0x71, 0x0d, 0xc2, 0x28, 0x00,
  0x00, 0x00, 0x72, 0x65, 0x73, 0x74, 0x6f, 0x72, 0x61, 0x74, 0x69, 0x6f, 0x6e,
  0x5f, 0x30, 0x2f, 0x64, 0x65, 0x63, 0x6f, 0x64, 0x65, 0x72, 0x2f, 0x42, 0x69,
  0x61, 0x73, 0x41, 0x64, 0x64, 0x5f, 0x31, 0x32, 0x3a, 0x30, 0x5f, 0x69, 0x6e,
  0x74, 0x31, 0x36, 0x00, 0x00, 0x00, 0x00, 0x04, 0x00, 0x00, 0x00, 0x01, 0x00,
  0x00, 0x00, 0x01, 0x00, 0x00, 0x00, 0x01, 0x00, 0x00, 0x00, 0x02, 0x00, 0x00,
  0x00, 0x0a, 0x89, 0xff, 0xff, 0x00, 0x00, 0x00, 0x01, 0x18, 0x00, 0x00, 0x00,
  0x28, 0x00, 0x00, 0x00, 0x5c, 0x00, 0x00, 0x00, 0xa3, 0x00, 0x00, 0x00, 0x00,
  0x00, 0x00, 0x07, 0x88, 0x00, 0x00, 0x00, 0x04, 0x00, 0x00, 0x00, 0x01, 0x00,
  0x00, 0x00, 0xff, 0xff, 0xff, 0xff, 0xff, 0xff, 0xff, 0xff, 0x04, 0x00, 0x00,
  0x00, 0xf4, 0x88, 0xff, 0xff, 0x10, 0x00, 0x00, 0x00, 0x18, 0x00, 0x00, 0x00,
  0x1c, 0x00, 0x00, 0x00, 0x20, 0x00, 0x00, 0x00, 0x01, 0x00, 0x00, 0x00, 0x00,
  0x00, 0x00, 0x00, 0x00, 0x00, 0x00, 0x00, 0x01, 0x00, 0x00, 0x00, 0x11, 0xb8,
  0xdd, 0x39, 0x01, 0x00, 0x00, 0x00, 0xc2, 0xce, 0x3e, 0x41, 0x01, 0x00, 0x00,
  0x00, 0x56, 0xb6, 0x5d, 0xc1, 0x33, 0x00, 0x00, 0x00, 0x72, 0x65, 0x73, 0x74,
  0x6f, 0x72, 0x61, 0x74, 0x69, 0x6f, 0x6e, 0x5f, 0x30, 0x2f, 0x64, 0x65, 0x63,
  0x6f, 0x64, 0x65, 0x72, 0x2f, 0x73, 0x65, 0x70, 0x61, 0x72, 0x61, 0x62, 0x6c,
  0x65, 0x5f, 0x63, 0x6f, 0x6e, 0x76, 0x32, 0x64, 0x5f, 0x31, 0x32, 0x2f, 0x64,
  0x65, 0x70, 0x74, 0x68, 0x77, 0x69, 0x73, 0x65, 0x00, 0x04, 0x00, 0x00, 0x00,
  0x01, 0x00, 0x00, 0x00, 0x01, 0x00, 0x00, 0x00, 0x01, 0x00, 0x00, 0x00, 0x04,
  0x00, 0x00, 0x00, 0xc2, 0x89, 0xff, 0xff, 0x00, 0x00, 0x00, 0x01, 0x18, 0x00,
  0x00, 0x00, 0x28, 0x00, 0x00, 0x00, 0x60, 0x00, 0x00, 0x00, 0xa2, 0x00, 0x00,
  0x00, 0x00, 0x00, 0x00, 0x07, 0x78, 0x00, 0x00, 0x00, 0x04, 0x00, 0x00, 0x00,
  0x01, 0x00, 0x00, 0x00, 0xff, 0xff, 0xff, 0xff, 0xff, 0xff, 0xff, 0xff, 0x04,
  0x00, 0x00, 0x00, 0xac, 0x89, 0xff, 0xff, 0x10, 0x00, 0x00, 0x00, 0x1c, 0x00,
  0x00, 0x00, 0x20, 0x00, 0x00, 0x00, 0x24, 0x00, 0x00, 0x00, 0x01, 0x00, 0x00,
  0x00, 0x00, 0x00, 0x00, 0x00, 0x00, 0x00, 0x00, 0x00, 0x00, 0x00, 0x00, 0x00,
  0x01, 0x00, 0x00, 0x00, 0x48, 0x96, 0xf0, 0x39, 0x01, 0x00, 0x00, 0x00, 0x67,
  0x94, 0x70, 0x41, 0x01, 0x00, 0x00, 0x00, 0x00, 0x00, 0x00, 0x00, 0x1c, 0x00,
  0x00, 0x00, 0x72, 0x65, 0x73, 0x74, 0x6f, 0x72, 0x61, 0x74, 0x69, 0x6f, 0x6e,
  0x5f, 0x30, 0x2f, 0x64, 0x65, 0x63, 0x6f, 0x64, 0x65, 0x72, 0x2f, 0x50, 0x61,
  0x64, 0x5f, 0x31, 0x32, 0x00, 0x00, 0x00, 0x00, 0x04, 0x00, 0x00, 0x00, 0x01,
  0x00, 0x00, 0x00, 0x01, 0x00, 0x00, 0x00, 0x01, 0x00, 0x00, 0x00, 0x04, 0x00,
  0x00, 0x00, 0x6a, 0x8a, 0xff, 0xff, 0x00, 0x00, 0x00, 0x01, 0x18, 0x00, 0x00,
  0x00, 0x28, 0x00, 0x00, 0x00, 0x5c, 0x00, 0x00, 0x00, 0xa1, 0x00, 0x00, 0x00,
  0x00, 0x00, 0x00, 0x07, 0xc0, 0x00, 0x00, 0x00, 0x04, 0x00, 0x00, 0x00, 0x01,
  0x00, 0x00, 0x00, 0xff, 0xff, 0xff, 0xff, 0xff, 0xff, 0xff, 0xff, 0x04, 0x00,
  0x00, 0x00, 0x54, 0x8a, 0xff, 0xff, 0x10, 0x00, 0x00, 0x00, 0x18, 0x00, 0x00,
  0x00, 0x1c, 0x00, 0x00, 0x00, 0x20, 0x00, 0x00, 0x00, 0x01, 0x00, 0x00, 0x00,
  0x00, 0x00, 0x00, 0x00, 0x00, 0x00, 0x00, 0x00, 0x01, 0x00, 0x00, 0x00, 0x48,
  0x96, 0xf0, 0x39, 0x01, 0x00, 0x00, 0x00, 0x67, 0x94, 0x70, 0x41, 0x01, 0x00,
  0x00, 0x00, 0x00, 0x00, 0x00, 0x00, 0x68, 0x00, 0x00, 0x00, 0x72, 0x65, 0x73,
  0x74, 0x6f, 0x72, 0x61, 0x74, 0x69, 0x6f, 0x6e, 0x5f, 0x30, 0x2f, 0x64, 0x65,
  0x63, 0x6f, 0x64, 0x65, 0x72, 0x2f, 0x52, 0x65, 0x6c, 0x75, 0x5f, 0x31, 0x31,
  0x3b, 0x72, 0x65, 0x73, 0x74, 0x6f, 0x72, 0x61, 0x74, 0x69, 0x6f, 0x6e, 0x5f,
  0x30, 0x2f, 0x64, 0x65, 0x63, 0x6f, 0x64, 0x65, 0x72, 0x2f, 0x42, 0x69, 0x61,
  0x73, 0x41, 0x64, 0x64, 0x5f, 0x31, 0x31, 0x3b, 0x72, 0x65, 0x73, 0x74, 0x6f,
  0x72, 0x61, 0x74, 0x69, 0x6f, 0x6e, 0x5f, 0x30, 0x2f, 0x64, 0x65, 0x63, 0x6f,
  0x64, 0x65, 0x72, 0x2f, 0x73, 0x65, 0x70, 0x61, 0x72, 0x61, 0x62, 0x6c, 0x65,
  0x5f, 0x63, 0x6f, 0x6e, 0x76, 0x32, 0x64, 0x5f, 0x31, 0x31, 0x00, 0x00, 0x00,
  0x00, 0x04, 0x00, 0x00, 0x00, 0x01, 0x00, 0x00, 0x00, 0x01, 0x00, 0x00, 0x00,
  0x01, 0x00, 0x00, 0x00, 0x04, 0x00, 0x00, 0x00, 0x5a, 0x8b, 0xff, 0xff, 0x00,
  0x00, 0x00, 0x01, 0x18, 0x00, 0x00, 0x00, 0x28, 0x00, 0x00, 0x00, 0x5c, 0x00,
  0x00, 0x00, 0xa0, 0x00, 0x00, 0x00, 0x00, 0x00, 0x00, 0x07, 0x88, 0x00, 0x00,
  0x00, 0x04, 0x00, 0x00, 0x00, 0x01, 0x00, 0x00, 0x00, 0xff, 0xff, 0xff, 0xff,
  0xff, 0xff, 0xff, 0xff, 0x04, 0x00, 0x00, 0x00, 0x44, 0x8b, 0xff, 0xff, 0x10,
  0x00, 0x00, 0x00, 0x18, 0x00, 0x00, 0x00, 0x1c, 0x00, 0x00, 0x00, 0x20, 0x00,
  0x00, 0x00, 0x01, 0x00, 0x00, 0x00, 0x00, 0x00, 0x00, 0x00, 0x00, 0x00, 0x00,
  0x00, 0x01, 0x00, 0x00, 0x00, 0x87, 0xc5, 0xb3, 0x3a, 0x01, 0x00, 0x00, 0x00,
  0x1f, 0xc4, 0x33, 0x42, 0x01, 0x00, 0x00, 0x00, 0xc5, 0x00, 0x80, 0xc1, 0x33,
  0x00, 0x00, 0x00, 0x72, 0x65, 0x73, 0x74, 0x6f, 0x72, 0x61, 0x74, 0x69, 0x6f,
  0x6e, 0x5f, 0x30, 0x2f, 0x64, 0x65, 0x63, 0x6f, 0x64, 0x65, 0x72, 0x2f, 0x73,
  0x65, 0x70, 0x61, 0x72, 0x61, 0x62, 0x6c, 0x65, 0x5f, 0x63, 0x6f, 0x6e, 0x76,
  0x32, 0x64, 0x5f, 0x31, 0x31, 0x2f, 0x64, 0x65, 0x70, 0x74, 0x68, 0x77, 0x69,
  0x73, 0x65, 0x00, 0x04, 0x00, 0x00, 0x00, 0x01, 0x00, 0x00, 0x00, 0x01, 0x00,
  0x00, 0x00, 0x01, 0x00, 0x00, 0x00, 0x04, 0x00, 0x00, 0x00, 0x12, 0x8c, 0xff,
  0xff, 0x00, 0x00, 0x00, 0x01, 0x18, 0x00, 0x00, 0x00, 0x28, 0x00, 0x00, 0x00,
  0x60, 0x00, 0x00, 0x00, 0x9f, 0x00, 0x00, 0x00, 0x00, 0x00, 0x00, 0x07, 0x78,
  0x00, 0x00, 0x00, 0x04, 0x00, 0x00, 0x00, 0x01, 0x00, 0x00, 0x00, 0xff, 0xff,
  0xff, 0xff, 0xff, 0xff, 0xff, 0xff, 0x04, 0x00, 0x00, 0x00, 0xfc, 0x8b, 0xff,
  0xff, 0x10, 0x00, 0x00, 0x00, 0x1c, 0x00, 0x00, 0x00, 0x20, 0x00, 0x00, 0x00,
  0x24, 0x00, 0x00, 0x00, 0x01, 0x00, 0x00, 0x00, 0x00, 0x00, 0x00, 0x00, 0x00,
  0x00, 0x00, 0x00, 0x00, 0x00, 0x00, 0x00, 0x01, 0x00, 0x00, 0x00, 0x82, 0x50,
  0x04, 0x3b, 0x01, 0x00, 0x00, 0x00, 0x79, 0x4f, 0x84, 0x42, 0x01, 0x00, 0x00,
  0x00, 0x00, 0x00, 0x00, 0x00, 0x1c, 0x00, 0x00, 0x00, 0x72, 0x65, 0x73, 0x74,
  0x6f, 0x72, 0x61, 0x74, 0x69, 0x6f, 0x6e, 0x5f, 0x30, 0x2f, 0x64, 0x65, 0x63,
  0x6f, 0x64, 0x65, 0x72, 0x2f, 0x50, 0x61, 0x64, 0x5f, 0x31, 0x31, 0x00, 0x00,
  0x00, 0x00, 0x04, 0x00, 0x00, 0x00, 0x01, 0x00, 0x00, 0x00, 0x01, 0x00, 0x00,
  0x00, 0x01, 0x00, 0x00, 0x00, 0x04, 0x00, 0x00, 0x00, 0xba, 0x8c, 0xff, 0xff,
  0x00, 0x00, 0x00, 0x01, 0x18, 0x00, 0x00, 0x00, 0x28, 0x00, 0x00, 0x00, 0x5c,
  0x00, 0x00, 0x00, 0x9e, 0x00, 0x00, 0x00, 0x00, 0x00, 0x00, 0x07, 0xc0, 0x00,
  0x00, 0x00, 0x04, 0x00, 0x00, 0x00, 0x01, 0x00, 0x00, 0x00, 0xff, 0xff, 0xff,
  0xff, 0xff, 0xff, 0xff, 0xff, 0x04, 0x00, 0x00, 0x00, 0xa4, 0x8c, 0xff, 0xff,
  0x10, 0x00, 0x00, 0x00, 0x18, 0x00, 0x00, 0x00, 0x1c, 0x00, 0x00, 0x00, 0x20,
  0x00, 0x00, 0x00, 0x01, 0x00, 0x00, 0x00, 0x00, 0x00, 0x00, 0x00, 0x00, 0x00,
  0x00, 0x00, 0x01, 0x00, 0x00, 0x00, 0x82, 0x50, 0x04, 0x3b, 0x01, 0x00, 0x00,
  0x00, 0x79, 0x4f, 0x84, 0x42, 0x01, 0x00, 0x00, 0x00, 0x00, 0x00, 0x00, 0x00,
  0x68, 0x00, 0x00, 0x00, 0x72, 0x65, 0x73, 0x74, 0x6f, 0x72, 0x61, 0x74, 0x69,
  0x6f, 0x6e, 0x5f, 0x30, 0x2f, 0x64, 0x65, 0x63, 0x6f, 0x64, 0x65, 0x72, 0x2f,
  0x52, 0x65, 0x6c, 0x75, 0x5f, 0x31, 0x30, 0x3b, 0x72, 0x65, 0x73, 0x74, 0x6f,
  0x72, 0x61, 0x74, 0x69, 0x6f, 0x6e, 0x5f, 0x30, 0x2f, 0x64, 0x65, 0x63, 0x6f,
  0x64, 0x65, 0x72, 0x2f, 0x42, 0x69, 0x61, 0x73, 0x41, 0x64, 0x64, 0x5f, 0x31,
  0x30, 0x3b, 0x72, 0x65, 0x73, 0x74, 0x6f, 0x72, 0x61, 0x74, 0x69, 0x6f, 0x6e,
  0x5f, 0x30, 0x2f, 0x64, 0x65, 0x63, 0x6f, 0x64, 0x65, 0x72, 0x2f, 0x73, 0x65,
  0x70, 0x61, 0x72, 0x61, 0x62, 0x6c, 0x65, 0x5f, 0x63, 0x6f, 0x6e, 0x76, 0x32,
  0x64, 0x5f, 0x31, 0x30, 0x00, 0x00, 0x00, 0x00, 0x04, 0x00, 0x00, 0x00, 0x01,
  0x00, 0x00, 0x00, 0x01, 0x00, 0x00, 0x00, 0x01, 0x00, 0x00, 0x00, 0x04, 0x00,
  0x00, 0x00, 0xaa, 0x8d, 0xff, 0xff, 0x00, 0x00, 0x00, 0x01, 0x18, 0x00, 0x00,
  0x00, 0x28, 0x00, 0x00, 0x00, 0x5c, 0x00, 0x00, 0x00, 0x9d, 0x00, 0x00, 0x00,
  0x00, 0x00, 0x00, 0x07, 0x88, 0x00, 0x00, 0x00, 0x04, 0x00, 0x00, 0x00, 0x01,
  0x00, 0x00, 0x00, 0xff, 0xff, 0xff, 0xff, 0xff, 0xff, 0xff, 0xff, 0x08, 0x00,
  0x00, 0x00, 0x94, 0x8d, 0xff, 0xff, 0x10, 0x00, 0x00, 0x00, 0x18, 0x00, 0x00,
  0x00, 0x1c, 0x00, 0x00, 0x00, 0x20, 0x00, 0x00, 0x00, 0x01, 0x00, 0x00, 0x00,
  0x00, 0x00, 0x00, 0x00, 0x00, 0x00, 0x00, 0x00, 0x01, 0x00, 0x00, 0x00, 0x37,
  0xe8, 0x0c, 0x3b, 0x01, 0x00, 0x00, 0x00, 0x07, 0x87, 0xbd, 0x41, 0x01, 0x00,
  0x00, 0x00, 0x1d, 0xe7, 0x8c, 0xc2, 0x33, 0x00, 0x00, 0x00, 0x72, 0x65, 0x73,
  0x74, 0x6f, 0x72, 0x61, 0x74, 0x69, 0x6f, 0x6e, 0x5f, 0x30, 0x2f, 0x64, 0x65,
  0x63, 0x6f, 0x64, 0x65, 0x72, 0x2f, 0x73, 0x65, 0x70, 0x61, 0x72, 0x61, 0x62,
  0x6c, 0x65, 0x5f, 0x63, 0x6f, 0x6e, 0x76, 0x32, 0x64, 0x5f, 0x31, 0x30, 0x2f,
  0x64, 0x65, 0x70, 0x74, 0x68, 0x77, 0x69, 0x73, 0x65, 0x00, 0x04, 0x00, 0x00,
  0x00, 0x01, 0x00, 0x00, 0x00, 0x01, 0x00, 0x00, 0x00, 0x01, 0x00, 0x00, 0x00,
  0x08, 0x00, 0x00, 0x00, 0x62, 0x8e, 0xff, 0xff, 0x00, 0x00, 0x00, 0x01, 0x18,
  0x00, 0x00, 0x00, 0x28, 0x00, 0x00, 0x00, 0x60, 0x00, 0x00, 0x00, 0x9c, 0x00,
  0x00, 0x00, 0x00, 0x00, 0x00, 0x07, 0x78, 0x00, 0x00, 0x00, 0x04, 0x00, 0x00,
  0x00, 0x01, 0x00, 0x00, 0x00, 0xff, 0xff, 0xff, 0xff, 0xff, 0xff, 0xff, 0xff,
  0x08, 0x00, 0x00, 0x00, 0x4c, 0x8e, 0xff, 0xff, 0x10, 0x00, 0x00, 0x00, 0x1c,
  0x00, 0x00, 0x00, 0x20, 0x00, 0x00, 0x00, 0x24, 0x00, 0x00, 0x00, 0x01, 0x00,
  0x00, 0x00, 0x00, 0x00, 0x00, 0x00, 0x00, 0x00, 0x00, 0x00, 0x00, 0x00, 0x00,
  0x00, 0x01, 0x00, 0x00, 0x00, 0xb0, 0x8b, 0x21, 0x3b, 0x01, 0x00, 0x00, 0x00,
  0x6d, 0x8a, 0xa1, 0x42, 0x01, 0x00, 0x00, 0x00, 0x00, 0x00, 0x00, 0x00, 0x1c,
  0x00, 0x00, 0x00, 0x72, 0x65, 0x73, 0x74, 0x6f, 0x72, 0x61, 0x74, 0x69, 0x6f,
  0x6e, 0x5f, 0x30, 0x2f, 0x64, 0x65, 0x63, 0x6f, 0x64, 0x65, 0x72, 0x2f, 0x50,
  0x61, 0x64, 0x5f, 0x31, 0x30, 0x00, 0x00, 0x00, 0x00, 0x04, 0x00, 0x00, 0x00,
  0x01, 0x00, 0x00, 0x00, 0x01, 0x00, 0x00, 0x00, 0x01, 0x00, 0x00, 0x00, 0x08,
  0x00, 0x00, 0x00, 0x0a, 0x8f, 0xff, 0xff, 0x00, 0x00, 0x00, 0x01, 0x18, 0x00,
  0x00, 0x00, 0x28, 0x00, 0x00, 0x00, 0x60, 0x00, 0x00, 0x00, 0x9b, 0x00, 0x00,
  0x00, 0x00, 0x00, 0x00, 0x07, 0x80, 0x00, 0x00, 0x00, 0x04, 0x00, 0x00, 0x00,
  0x01, 0x00, 0x00, 0x00, 0xff, 0xff, 0xff, 0xff, 0xff, 0xff, 0xff, 0xff, 0x08,
  0x00, 0x00, 0x00, 0xf4, 0x8e, 0xff, 0xff, 0x10, 0x00, 0x00, 0x00, 0x1c, 0x00,
  0x00, 0x00, 0x20, 0x00, 0x00, 0x00, 0x24, 0x00, 0x00, 0x00, 0x01, 0x00, 0x00,
  0x00, 0x00, 0x00, 0x00, 0x00, 0x00, 0x00, 0x00, 0x00, 0x00, 0x00, 0x00, 0x00,
  0x01, 0x00, 0x00, 0x00, 0xb0, 0x8b, 0x21, 0x3b, 0x01, 0x00, 0x00, 0x00, 0x6d,
  0x8a, 0xa1, 0x42, 0x01, 0x00, 0x00, 0x00, 0x00, 0x00, 0x00, 0x00, 0x26, 0x00,
  0x00, 0x00, 0x72, 0x65, 0x73, 0x74, 0x6f, 0x72, 0x61, 0x74, 0x69, 0x6f, 0x6e,
  0x5f, 0x30, 0x2f, 0x64, 0x65, 0x63, 0x6f, 0x64, 0x65, 0x72, 0x2f, 0x64, 0x65,
  0x63, 0x6f, 0x64, 0x65, 0x72, 0x5f, 0x30, 0x5f, 0x63, 0x6f, 0x6e, 0x63, 0x61,
  0x74, 0x00, 0x00, 0x04, 0x00, 0x00, 0x00, 0x01, 0x00, 0x00, 0x00, 0x01, 0x00,
  0x00, 0x00, 0x01, 0x00, 0x00, 0x00, 0x08, 0x00, 0x00, 0x00, 0xba, 0x8f, 0xff,
  0xff, 0x00, 0x00, 0x00, 0x01, 0x18, 0x00, 0x00, 0x00, 0x28, 0x00, 0x00, 0x00,
  0x60, 0x00, 0x00, 0x00, 0x9a, 0x00, 0x00, 0x00, 0x00, 0x00, 0x00, 0x07, 0xc0,
  0x00, 0x00, 0x00, 0x04, 0x00, 0x00, 0x00, 0x01, 0x00, 0x00, 0x00, 0xff, 0xff,
  0xff, 0xff, 0xff, 0xff, 0xff, 0xff, 0x04, 0x00, 0x00, 0x00, 0xa4, 0x8f, 0xff,
  0xff, 0x10, 0x00, 0x00, 0x00, 0x1c, 0x00, 0x00, 0x00, 0x20, 0x00, 0x00, 0x00,
  0x24, 0x00, 0x00, 0x00, 0x01, 0x00, 0x00, 0x00, 0x00, 0x00, 0x00, 0x00, 0x00,
  0x00, 0x00, 0x00, 0x00, 0x00, 0x00, 0x00, 0x01, 0x00, 0x00, 0x00, 0xb0, 0x8b,
  0x21, 0x3b, 0x01, 0x00, 0x00, 0x00, 0x6d, 0x8a, 0xa1, 0x42, 0x01, 0x00, 0x00,
  0x00, 0x00, 0x00, 0x00, 0x00, 0x65, 0x00, 0x00, 0x00, 0x72, 0x65, 0x73, 0x74,
  0x6f, 0x72, 0x61, 0x74, 0x69, 0x6f, 0x6e, 0x5f, 0x30, 0x2f, 0x64, 0x65, 0x63,
  0x6f, 0x64, 0x65, 0x72, 0x2f, 0x52, 0x65, 0x6c, 0x75, 0x5f, 0x39, 0x3b, 0x72,
  0x65, 0x73, 0x74, 0x6f, 0x72, 0x61, 0x74, 0x69, 0x6f, 0x6e, 0x5f, 0x30, 0x2f,
  0x64, 0x65, 0x63, 0x6f, 0x64, 0x65, 0x72, 0x2f, 0x42, 0x69, 0x61, 0x73, 0x41,
  0x64, 0x64, 0x5f, 0x39, 0x3b, 0x72, 0x65, 0x73, 0x74, 0x6f, 0x72, 0x61, 0x74,
  0x69, 0x6f, 0x6e, 0x5f, 0x30, 0x2f, 0x64, 0x65, 0x63, 0x6f, 0x64, 0x65, 0x72,
  0x2f, 0x73, 0x65, 0x70, 0x61, 0x72, 0x61, 0x62, 0x6c, 0x65, 0x5f, 0x63, 0x6f,
  0x6e, 0x76, 0x32, 0x64, 0x5f, 0x39, 0x00, 0x00, 0x00, 0x04, 0x00, 0x00, 0x00,
  0x01, 0x00, 0x00, 0x00, 0x01, 0x00, 0x00, 0x00, 0x01, 0x00, 0x00, 0x00, 0x04,
  0x00, 0x00, 0x00, 0xaa, 0x90, 0xff, 0xff, 0x00, 0x00, 0x00, 0x01, 0x18, 0x00,
  0x00, 0x00, 0x28, 0x00, 0x00, 0x00, 0x5c, 0x00, 0x00, 0x00, 0x99, 0x00, 0x00,
  0x00, 0x00, 0x00, 0x00, 0x07, 0x88, 0x00, 0x00, 0x00, 0x04, 0x00, 0x00, 0x00,
  0x01, 0x00, 0x00, 0x00, 0xff, 0xff, 0xff, 0xff, 0xff, 0xff, 0xff, 0xff, 0x08,
  0x00, 0x00, 0x00, 0x94, 0x90, 0xff, 0xff, 0x10, 0x00, 0x00, 0x00, 0x18, 0x00,
  0x00, 0x00, 0x1c, 0x00, 0x00, 0x00, 0x20, 0x00, 0x00, 0x00, 0x01, 0x00, 0x00,
  0x00, 0x00, 0x00, 0x00, 0x00, 0x00, 0x00, 0x00, 0x00, 0x01, 0x00, 0x00, 0x00,
  0xc6, 0xbe, 0xe3, 0x3a, 0x01, 0x00, 0x00, 0x00, 0x42, 0x88, 0x40, 0x42, 0x01,
  0x00, 0x00, 0x00, 0xff, 0xbc, 0x63, 0xc2, 0x32, 0x00, 0x00, 0x00, 0x72, 0x65,
  0x73, 0x74, 0x6f, 0x72, 0x61, 0x74, 0x69, 0x6f, 0x6e, 0x5f, 0x30, 0x2f, 0x64,
  0x65, 0x63, 0x6f, 0x64, 0x65, 0x72, 0x2f, 0x73, 0x65, 0x70, 0x61, 0x72, 0x61,
  0x62, 0x6c, 0x65, 0x5f, 0x63, 0x6f, 0x6e, 0x76, 0x32, 0x64, 0x5f, 0x39, 0x2f,
  0x64, 0x65, 0x70, 0x74, 0x68, 0x77, 0x69, 0x73, 0x65, 0x00, 0x00, 0x04, 0x00,
  0x00, 0x00, 0x01, 0x00, 0x00, 0x00, 0x01, 0x00, 0x00, 0x00, 0x01, 0x00, 0x00,
  0x00, 0x08, 0x00, 0x00, 0x00, 0x62, 0x91, 0xff, 0xff, 0x00, 0x00, 0x00, 0x01,
  0x18, 0x00, 0x00, 0x00, 0x28, 0x00, 0x00, 0x00, 0x5c, 0x00, 0x00, 0x00, 0x98,
  0x00, 0x00, 0x00, 0x00, 0x00, 0x00, 0x07, 0x70, 0x00, 0x00, 0x00, 0x04, 0x00,
  0x00, 0x00, 0x01, 0x00, 0x00, 0x00, 0xff, 0xff, 0xff, 0xff, 0xff, 0xff, 0xff,
  0xff, 0x08, 0x00, 0x00, 0x00, 0x4c, 0x91, 0xff, 0xff, 0x10, 0x00, 0x00, 0x00,
  0x18, 0x00, 0x00, 0x00, 0x1c, 0x00, 0x00, 0x00, 0x20, 0x00, 0x00, 0x00, 0x01,
