/*
 * Copyright (c) 2020, Alliance for Open Media. All rights reserved
 *
 * This source code is subject to the terms of the BSD 2 Clause License and
 * the Alliance for Open Media Patent License 1.0. If the BSD 2 Clause License
 * was not distributed with this source code in the LICENSE file, you can
 * obtain it at www.aomedia.org/license/software. If the Alliance for Open
 * Media Patent License 1.0 was not distributed with this source code in the
 * PATENTS file, you can obtain it at www.aomedia.org/license/patent.
 */

#include "av1/tflite_models/inter_frame_model/qp146_175_quadtree.h"

const unsigned char qp146_175_quadtree_inter_model_tflite_data[] = {
  0x1c, 0x00, 0x00, 0x00, 0x54, 0x46, 0x4c, 0x33, 0x14, 0x00, 0x20, 0x00, 0x1c,
  0x00, 0x18, 0x00, 0x14, 0x00, 0x10, 0x00, 0x0c, 0x00, 0x00, 0x00, 0x08, 0x00,
  0x04, 0x00, 0x14, 0x00, 0x00, 0x00, 0x1c, 0x00, 0x00, 0x00, 0x88, 0x00, 0x00,
  0x00, 0xe0, 0x00, 0x00, 0x00, 0x50, 0x32, 0x00, 0x00, 0x60, 0x32, 0x00, 0x00,
  0x48, 0x99, 0x00, 0x00, 0x03, 0x00, 0x00, 0x00, 0x01, 0x00, 0x00, 0x00, 0x10,
  0x00, 0x00, 0x00, 0x00, 0x00, 0x0a, 0x00, 0x10, 0x00, 0x0c, 0x00, 0x08, 0x00,
  0x04, 0x00, 0x0a, 0x00, 0x00, 0x00, 0x0c, 0x00, 0x00, 0x00, 0x1c, 0x00, 0x00,
  0x00, 0x38, 0x00, 0x00, 0x00, 0x0f, 0x00, 0x00, 0x00, 0x73, 0x65, 0x72, 0x76,
  0x69, 0x6e, 0x67, 0x5f, 0x64, 0x65, 0x66, 0x61, 0x75, 0x6c, 0x74, 0x00, 0x01,
  0x00, 0x00, 0x00, 0x04, 0x00, 0x00, 0x00, 0xa0, 0xff, 0xff, 0xff, 0xa3, 0x00,
  0x00, 0x00, 0x04, 0x00, 0x00, 0x00, 0x06, 0x00, 0x00, 0x00, 0x6f, 0x75, 0x74,
  0x70, 0x75, 0x74, 0x00, 0x00, 0x01, 0x00, 0x00, 0x00, 0x04, 0x00, 0x00, 0x00,
  0x2e, 0xb9, 0xff, 0xff, 0x04, 0x00, 0x00, 0x00, 0x03, 0x00, 0x00, 0x00, 0x69,
  0x6d, 0x67, 0x00, 0x02, 0x00, 0x00, 0x00, 0x34, 0x00, 0x00, 0x00, 0x04, 0x00,
  0x00, 0x00, 0xdc, 0xff, 0xff, 0xff, 0xa6, 0x00, 0x00, 0x00, 0x04, 0x00, 0x00,
  0x00, 0x13, 0x00, 0x00, 0x00, 0x43, 0x4f, 0x4e, 0x56, 0x45, 0x52, 0x53, 0x49,
  0x4f, 0x4e, 0x5f, 0x4d, 0x45, 0x54, 0x41, 0x44, 0x41, 0x54, 0x41, 0x00, 0x08,
  0x00, 0x0c, 0x00, 0x08, 0x00, 0x04, 0x00, 0x08, 0x00, 0x00, 0x00, 0xa5, 0x00,
  0x00, 0x00, 0x04, 0x00, 0x00, 0x00, 0x13, 0x00, 0x00, 0x00, 0x6d, 0x69, 0x6e,
  0x5f, 0x72, 0x75, 0x6e, 0x74, 0x69, 0x6d, 0x65, 0x5f, 0x76, 0x65, 0x72, 0x73,
  0x69, 0x6f, 0x6e, 0x00, 0xa7, 0x00, 0x00, 0x00, 0x6c, 0x31, 0x00, 0x00, 0x64,
  0x31, 0x00, 0x00, 0x44, 0x31, 0x00, 0x00, 0x24, 0x31, 0x00, 0x00, 0xf4, 0x30,
  0x00, 0x00, 0xc4, 0x30, 0x00, 0x00, 0x94, 0x30, 0x00, 0x00, 0x64, 0x30, 0x00,
  0x00, 0x3c, 0x30, 0x00, 0x00, 0x14, 0x30, 0x00, 0x00, 0xec, 0x2f, 0x00, 0x00,
  0xc4, 0x2f, 0x00, 0x00, 0x9c, 0x2f, 0x00, 0x00, 0x6c, 0x2f, 0x00, 0x00, 0x3c,
  0x2f, 0x00, 0x00, 0x0c, 0x2f, 0x00, 0x00, 0xdc, 0x2e, 0x00, 0x00, 0xac, 0x2e,
  0x00, 0x00, 0x7c, 0x2e, 0x00, 0x00, 0x5c, 0x2e, 0x00, 0x00, 0x3c, 0x2e, 0x00,
  0x00, 0x1c, 0x2e, 0x00, 0x00, 0x04, 0x2e, 0x00, 0x00, 0xf0, 0x2d, 0x00, 0x00,
  0xbc, 0x2d, 0x00, 0x00, 0x9c, 0x2d, 0x00, 0x00, 0x7c, 0x2d, 0x00, 0x00, 0xdc,
  0x2c, 0x00, 0x00, 0x8c, 0x2c, 0x00, 0x00, 0xec, 0x2b, 0x00, 0x00, 0xbc, 0x2b,
  0x00, 0x00, 0x2c, 0x2b, 0x00, 0x00, 0xfc, 0x29, 0x00, 0x00, 0xec, 0x28, 0x00,
  0x00, 0xbc, 0x27, 0x00, 0x00, 0xac, 0x26, 0x00, 0x00, 0x7c, 0x25, 0x00, 0x00,
  0x6c, 0x24, 0x00, 0x00, 0x3c, 0x23, 0x00, 0x00, 0x14, 0x23, 0x00, 0x00, 0x44,
  0x22, 0x00, 0x00, 0x5c, 0x21, 0x00, 0x00, 0xbc, 0x20, 0x00, 0x00, 0xd4, 0x1f,
  0x00, 0x00, 0x34, 0x1f, 0x00, 0x00, 0xf4, 0x1e, 0x00, 0x00, 0x34, 0x1d, 0x00,
  0x00, 0x04, 0x1c, 0x00, 0x00, 0x1c, 0x1b, 0x00, 0x00, 0x7c, 0x1a, 0x00, 0x00,
  0x94, 0x19, 0x00, 0x00, 0xc4, 0x18, 0x00, 0x00, 0x74, 0x18, 0x00, 0x00, 0x24,
  0x16, 0x00, 0x00, 0x14, 0x14, 0x00, 0x00, 0xe4, 0x12, 0x00, 0x00, 0xd4, 0x11,
  0x00, 0x00, 0xa4, 0x10, 0x00, 0x00, 0x94, 0x0f, 0x00, 0x00, 0x44, 0x0d, 0x00,
  0x00, 0x34, 0x0b, 0x00, 0x00, 0x04, 0x0a, 0x00, 0x00, 0xf4, 0x08, 0x00, 0x00,
  0xc4, 0x07, 0x00, 0x00, 0x34, 0x07, 0x00, 0x00, 0x04, 0x06, 0x00, 0x00, 0x74,
  0x05, 0x00, 0x00, 0xd4, 0x04, 0x00, 0x00, 0x84, 0x04, 0x00, 0x00, 0xe4, 0x03,
  0x00, 0x00, 0xb4, 0x03, 0x00, 0x00, 0xac, 0x03, 0x00, 0x00, 0x7c, 0x03, 0x00,
  0x00, 0x60, 0x03, 0x00, 0x00, 0x58, 0x03, 0x00, 0x00, 0x50, 0x03, 0x00, 0x00,
  0x48, 0x03, 0x00, 0x00, 0x40, 0x03, 0x00, 0x00, 0x38, 0x03, 0x00, 0x00, 0x30,
  0x03, 0x00, 0x00, 0x28, 0x03, 0x00, 0x00, 0x20, 0x03, 0x00, 0x00, 0x18, 0x03,
  0x00, 0x00, 0x10, 0x03, 0x00, 0x00, 0x08, 0x03, 0x00, 0x00, 0x00, 0x03, 0x00,
  0x00, 0xf8, 0x02, 0x00, 0x00, 0xf0, 0x02, 0x00, 0x00, 0xe8, 0x02, 0x00, 0x00,
  0xe0, 0x02, 0x00, 0x00, 0xd8, 0x02, 0x00, 0x00, 0xd0, 0x02, 0x00, 0x00, 0xc8,
  0x02, 0x00, 0x00, 0xc0, 0x02, 0x00, 0x00, 0xb8, 0x02, 0x00, 0x00, 0xb0, 0x02,
  0x00, 0x00, 0xa8, 0x02, 0x00, 0x00, 0xa0, 0x02, 0x00, 0x00, 0x98, 0x02, 0x00,
  0x00, 0x90, 0x02, 0x00, 0x00, 0x88, 0x02, 0x00, 0x00, 0x80, 0x02, 0x00, 0x00,
  0x78, 0x02, 0x00, 0x00, 0x70, 0x02, 0x00, 0x00, 0x68, 0x02, 0x00, 0x00, 0x60,
  0x02, 0x00, 0x00, 0x58, 0x02, 0x00, 0x00, 0x50, 0x02, 0x00, 0x00, 0x48, 0x02,
  0x00, 0x00, 0x40, 0x02, 0x00, 0x00, 0x38, 0x02, 0x00, 0x00, 0x30, 0x02, 0x00,
  0x00, 0x28, 0x02, 0x00, 0x00, 0x20, 0x02, 0x00, 0x00, 0x18, 0x02, 0x00, 0x00,
  0x10, 0x02, 0x00, 0x00, 0x08, 0x02, 0x00, 0x00, 0x00, 0x02, 0x00, 0x00, 0xf8,
  0x01, 0x00, 0x00, 0xf0, 0x01, 0x00, 0x00, 0xe8, 0x01, 0x00, 0x00, 0xe0, 0x01,
  0x00, 0x00, 0xd8, 0x01, 0x00, 0x00, 0xd0, 0x01, 0x00, 0x00, 0xc8, 0x01, 0x00,
  0x00, 0xc0, 0x01, 0x00, 0x00, 0xb8, 0x01, 0x00, 0x00, 0xb0, 0x01, 0x00, 0x00,
  0xa8, 0x01, 0x00, 0x00, 0xa0, 0x01, 0x00, 0x00, 0x98, 0x01, 0x00, 0x00, 0x90,
  0x01, 0x00, 0x00, 0x88, 0x01, 0x00, 0x00, 0x80, 0x01, 0x00, 0x00, 0x78, 0x01,
  0x00, 0x00, 0x70, 0x01, 0x00, 0x00, 0x68, 0x01, 0x00, 0x00, 0x60, 0x01, 0x00,
  0x00, 0x58, 0x01, 0x00, 0x00, 0x50, 0x01, 0x00, 0x00, 0x48, 0x01, 0x00, 0x00,
  0x40, 0x01, 0x00, 0x00, 0x38, 0x01, 0x00, 0x00, 0x30, 0x01, 0x00, 0x00, 0x28,
  0x01, 0x00, 0x00, 0x20, 0x01, 0x00, 0x00, 0x18, 0x01, 0x00, 0x00, 0x10, 0x01,
  0x00, 0x00, 0x08, 0x01, 0x00, 0x00, 0x00, 0x01, 0x00, 0x00, 0xf8, 0x00, 0x00,
  0x00, 0xf0, 0x00, 0x00, 0x00, 0xe8, 0x00, 0x00, 0x00, 0xe0, 0x00, 0x00, 0x00,
  0xd8, 0x00, 0x00, 0x00, 0xd0, 0x00, 0x00, 0x00, 0xc8, 0x00, 0x00, 0x00, 0xc0,
  0x00, 0x00, 0x00, 0xb8, 0x00, 0x00, 0x00, 0xb0, 0x00, 0x00, 0x00, 0xa8, 0x00,
  0x00, 0x00, 0xa0, 0x00, 0x00, 0x00, 0x98, 0x00, 0x00, 0x00, 0x90, 0x00, 0x00,
  0x00, 0x88, 0x00, 0x00, 0x00, 0x68, 0x00, 0x00, 0x00, 0x04, 0x00, 0x00, 0x00,
  0x3a, 0xbc, 0xff, 0xff, 0x04, 0x00, 0x00, 0x00, 0x54, 0x00, 0x00, 0x00, 0x0c,
  0x00, 0x00, 0x00, 0x08, 0x00, 0x0e, 0x00, 0x08, 0x00, 0x04, 0x00, 0x08, 0x00,
  0x00, 0x00, 0x10, 0x00, 0x00, 0x00, 0x24, 0x00, 0x00, 0x00, 0x00, 0x00, 0x06,
  0x00, 0x08, 0x00, 0x04, 0x00, 0x06, 0x00, 0x00, 0x00, 0x04, 0x00, 0x00, 0x00,
  0x00, 0x00, 0x00, 0x00, 0x00, 0x00, 0x0a, 0x00, 0x10, 0x00, 0x0c, 0x00, 0x08,
  0x00, 0x04, 0x00, 0x0a, 0x00, 0x00, 0x00, 0x01, 0x00, 0x00, 0x00, 0x02, 0x00,
  0x00, 0x00, 0x04, 0x00, 0x00, 0x00, 0x06, 0x00, 0x00, 0x00, 0x32, 0x2e, 0x31,
  0x35, 0x2e, 0x30, 0x00, 0x00, 0x9a, 0xbc, 0xff, 0xff, 0x04, 0x00, 0x00, 0x00,
  0x10, 0x00, 0x00, 0x00, 0x32, 0x2e, 0x32, 0x2e, 0x30, 0x00, 0x00, 0x00, 0x00,
  0x00, 0x00, 0x00, 0x00, 0x00, 0x00, 0x00, 0xd8, 0x6a, 0xff, 0xff, 0xdc, 0x6a,
  0xff, 0xff, 0xe0, 0x6a, 0xff, 0xff, 0xe4, 0x6a, 0xff, 0xff, 0xe8, 0x6a, 0xff,
  0xff, 0xec, 0x6a, 0xff, 0xff, 0xf0, 0x6a, 0xff, 0xff, 0xf4, 0x6a, 0xff, 0xff,
  0xf8, 0x6a, 0xff, 0xff, 0xfc, 0x6a, 0xff, 0xff, 0x00, 0x6b, 0xff, 0xff, 0x04,
  0x6b, 0xff, 0xff, 0x08, 0x6b, 0xff, 0xff, 0x0c, 0x6b, 0xff, 0xff, 0x10, 0x6b,
  0xff, 0xff, 0x14, 0x6b, 0xff, 0xff, 0x18, 0x6b, 0xff, 0xff, 0x1c, 0x6b, 0xff,
  0xff, 0x20, 0x6b, 0xff, 0xff, 0x24, 0x6b, 0xff, 0xff, 0x28, 0x6b, 0xff, 0xff,
  0x2c, 0x6b, 0xff, 0xff, 0x30, 0x6b, 0xff, 0xff, 0x34, 0x6b, 0xff, 0xff, 0x38,
  0x6b, 0xff, 0xff, 0x3c, 0x6b, 0xff, 0xff, 0x40, 0x6b, 0xff, 0xff, 0x44, 0x6b,
  0xff, 0xff, 0x48, 0x6b, 0xff, 0xff, 0x4c, 0x6b, 0xff, 0xff, 0x50, 0x6b, 0xff,
  0xff, 0x54, 0x6b, 0xff, 0xff, 0x58, 0x6b, 0xff, 0xff, 0x5c, 0x6b, 0xff, 0xff,
  0x60, 0x6b, 0xff, 0xff, 0x64, 0x6b, 0xff, 0xff, 0x68, 0x6b, 0xff, 0xff, 0x6c,
  0x6b, 0xff, 0xff, 0x70, 0x6b, 0xff, 0xff, 0x74, 0x6b, 0xff, 0xff, 0x78, 0x6b,
  0xff, 0xff, 0x7c, 0x6b, 0xff, 0xff, 0x80, 0x6b, 0xff, 0xff, 0x84, 0x6b, 0xff,
  0xff, 0x88, 0x6b, 0xff, 0xff, 0x8c, 0x6b, 0xff, 0xff, 0x90, 0x6b, 0xff, 0xff,
  0x94, 0x6b, 0xff, 0xff, 0x98, 0x6b, 0xff, 0xff, 0x9c, 0x6b, 0xff, 0xff, 0xa0,
  0x6b, 0xff, 0xff, 0xa4, 0x6b, 0xff, 0xff, 0xa8, 0x6b, 0xff, 0xff, 0xac, 0x6b,
  0xff, 0xff, 0xb0, 0x6b, 0xff, 0xff, 0xb4, 0x6b, 0xff, 0xff, 0xb8, 0x6b, 0xff,
  0xff, 0xbc, 0x6b, 0xff, 0xff, 0xc0, 0x6b, 0xff, 0xff, 0xc4, 0x6b, 0xff, 0xff,
  0xc8, 0x6b, 0xff, 0xff, 0xcc, 0x6b, 0xff, 0xff, 0xd0, 0x6b, 0xff, 0xff, 0xd4,
  0x6b, 0xff, 0xff, 0xd8, 0x6b, 0xff, 0xff, 0xdc, 0x6b, 0xff, 0xff, 0xe0, 0x6b,
  0xff, 0xff, 0xe4, 0x6b, 0xff, 0xff, 0xe8, 0x6b, 0xff, 0xff, 0xec, 0x6b, 0xff,
  0xff, 0xf0, 0x6b, 0xff, 0xff, 0xf4, 0x6b, 0xff, 0xff, 0xf8, 0x6b, 0xff, 0xff,
  0xfc, 0x6b, 0xff, 0xff, 0x00, 0x6c, 0xff, 0xff, 0x04, 0x6c, 0xff, 0xff, 0x08,
  0x6c, 0xff, 0xff, 0x0c, 0x6c, 0xff, 0xff, 0x10, 0x6c, 0xff, 0xff, 0x14, 0x6c,
  0xff, 0xff, 0x18, 0x6c, 0xff, 0xff, 0x1c, 0x6c, 0xff, 0xff, 0x20, 0x6c, 0xff,
  0xff, 0x24, 0x6c, 0xff, 0xff, 0x28, 0x6c, 0xff, 0xff, 0x2c, 0x6c, 0xff, 0xff,
  0x30, 0x6c, 0xff, 0xff, 0x34, 0x6c, 0xff, 0xff, 0x38, 0x6c, 0xff, 0xff, 0x3c,
  0x6c, 0xff, 0xff, 0x40, 0x6c, 0xff, 0xff, 0x22, 0xbe, 0xff, 0xff, 0x04, 0x00,
  0x00, 0x00, 0x0c, 0x00, 0x00, 0x00, 0x01, 0x00, 0x00, 0x00, 0x02, 0x00, 0x00,
  0x00, 0x01, 0x00, 0x00, 0x00, 0x3a, 0xbe, 0xff, 0xff, 0x04, 0x00, 0x00, 0x00,
  0x20, 0x00, 0x00, 0x00, 0x00, 0x00, 0x00, 0x00, 0x00, 0x00, 0x00, 0x00, 0x01,
  0x00, 0x00, 0x00, 0x01, 0x00, 0x00, 0x00, 0x01, 0x00, 0x00, 0x00, 0x01, 0x00,
  0x00, 0x00, 0x00, 0x00, 0x00, 0x00, 0x00, 0x00, 0x00, 0x00, 0x88, 0x6c, 0xff,
  0xff, 0x6a, 0xbe, 0xff, 0xff, 0x04, 0x00, 0x00, 0x00, 0x20, 0x00, 0x00, 0x00,
  0xbd, 0x0b, 0x37, 0x3f, 0x6d, 0x17, 0x8b, 0xbf, 0xd2, 0xf8, 0x8e, 0x3f, 0xbe,
  0xa9, 0xb0, 0xbf, 0xdb, 0x49, 0x8a, 0xbd, 0x68, 0xa2, 0x94, 0x3f, 0x21, 0xb0,
  0x77, 0xbd, 0x03, 0xd4, 0xc7, 0x3e, 0x96, 0xbe, 0xff, 0xff, 0x04, 0x00, 0x00,
  0x00, 0x90, 0x00, 0x00, 0x00, 0x32, 0x0d, 0x18, 0x3f, 0xb1, 0x45, 0x9a, 0x40,
  0xfe, 0x51, 0xa3, 0xbd, 0x20, 0xd7, 0x11, 0x3e, 0xf4, 0x15, 0x04, 0x3f, 0x3f,
  0x2f, 0x72, 0xbf, 0x83, 0x5f, 0x6a, 0x3f, 0x89, 0x48, 0x26, 0x3f, 0xb0, 0x51,
  0xd2, 0xbf, 0x0a, 0x8c, 0x8c, 0xbe, 0x98, 0xb3, 0x1e, 0x3b, 0xc2, 0x3c, 0x51,
  0xbc, 0x9b, 0xf3, 0x0f, 0x3f, 0x89, 0xca, 0x44, 0xbf, 0xc1, 0xbd, 0x67, 0x3f,
  0xa8, 0x1f, 0x60, 0x3f, 0xc1, 0x07, 0xa3, 0xbf, 0xf3, 0x1b, 0x96, 0xc0, 0xb0,
  0xcd, 0x2f, 0xc0, 0x64, 0x1f, 0x40, 0xc0, 0xa1, 0xe9, 0xfe, 0xbd, 0x40, 0xd6,
  0x9a, 0xbf, 0x2f, 0xb5, 0x4f, 0x3f, 0x01, 0x1f, 0xfc, 0x3e, 0x3c, 0x45, 0x72,
  0x3e, 0x50, 0xaa, 0x16, 0xbf, 0xc8, 0xa1, 0x1c, 0xbf, 0x39, 0xbd, 0xa6, 0x3d,
  0x53, 0x7a, 0x2b, 0x3e, 0x8c, 0x0b, 0x61, 0xbf, 0x8f, 0x0b, 0x4b, 0x3f, 0x0c,
  0x7e, 0x51, 0x3e, 0x9e, 0xb6, 0x74, 0xbe, 0x0d, 0xa9, 0x97, 0x40, 0x14, 0xb7,
  0x88, 0x3e, 0x6d, 0xbc, 0xcc, 0x3e, 0x32, 0xbf, 0xff, 0xff, 0x04, 0x00, 0x00,
  0x00, 0x40, 0x00, 0x00, 0x00, 0xa4, 0x7b, 0x85, 0xbe, 0x1c, 0x77, 0x1a, 0x3f,
  0xbb, 0xad, 0x7d, 0x3e, 0xa7, 0xd2, 0x4f, 0x3f, 0x75, 0xa4, 0x53, 0x3d, 0x0a,
  0xe2, 0xd3, 0xbb, 0xf9, 0xa9, 0xc6, 0x3b, 0x71, 0x49, 0x2c, 0xbc, 0xba, 0xc8,
  0x33, 0xbd, 0x37, 0xbe, 0x1f, 0xbe, 0x53, 0x68, 0xd9, 0x3e, 0x1b, 0x58, 0xbe,
  0x3f, 0x1b, 0xe7, 0x24, 0xbf, 0x69, 0x05, 0x39, 0xbd, 0x4e, 0xb7, 0xcf, 0x3e,
  0x35, 0xcd, 0x5e, 0x3f, 0x7e, 0xbf, 0xff, 0xff, 0x04, 0x00, 0x00, 0x00, 0x90,
  0x00, 0x00, 0x00, 0xd8, 0xb9, 0xa7, 0xbf, 0xb3, 0xa1, 0x79, 0x3f, 0xb7, 0x11,
  0x4b, 0x3e, 0xb4, 0xd2, 0x89, 0xbd, 0xbf, 0x87, 0xa0, 0x3f, 0x90, 0x55, 0x88,
  0xbf, 0xf8, 0x4d, 0xa3, 0xbe, 0x3b, 0xda, 0x31, 0xbd, 0x5f, 0x98, 0xd6, 0xbe,
  0xdc, 0xeb, 0xea, 0x3d, 0x5d, 0x90, 0x47, 0x3f, 0x35, 0x73, 0x8e, 0x3d, 0x48,
  0x8f, 0xa3, 0xbf, 0x49, 0x62, 0x1c, 0x3f, 0x09, 0xf1, 0x02, 0x3e, 0x21, 0x92,
  0x07, 0xbf, 0x0a, 0x1b, 0x9b, 0x3f, 0x8d, 0x7d, 0x7d, 0x3f, 0x72, 0xeb, 0x7b,
  0x3f, 0x8b, 0x16, 0xe1, 0x3e, 0x54, 0x6f, 0xde, 0x3e, 0x72, 0x6f, 0xf9, 0xbe,
  0x68, 0x78, 0xa2, 0xbf, 0x85, 0x2c, 0x87, 0xbe, 0xb1, 0xb9, 0xac, 0x3f, 0x15,
  0x0d, 0x4e, 0xbf, 0x49, 0xc2, 0xe6, 0xbe, 0xcb, 0xe6, 0x14, 0x3d, 0x4c, 0x74,
  0x54, 0x40, 0xac, 0x63, 0x76, 0xbd, 0x61, 0x24, 0x27, 0x40, 0x4d, 0xc0, 0x0e,
  0x40, 0x3d, 0x18, 0x93, 0x3f, 0xfb, 0xfa, 0x13, 0x3d, 0xc8, 0x2a, 0xdf, 0x3f,
  0x49, 0x4f, 0xc3, 0x3f, 0x1a, 0xc0, 0xff, 0xff, 0x04, 0x00, 0x00, 0x00, 0x80,
  0x00, 0x00, 0x00, 0x24, 0x2d, 0x95, 0xbb, 0xac, 0xfb, 0xd5, 0xbd, 0xcd, 0x2a,
  0x5d, 0xbe, 0xcd, 0xb4, 0x80, 0xbc, 0x33, 0x31, 0x35, 0x40, 0x52, 0xcc, 0x69,
  0xbc, 0x57, 0xbe, 0x86, 0x3d, 0xdd, 0x70, 0x9e, 0xbe, 0x24, 0x9d, 0x4a, 0xbf,
  0x6a, 0x2f, 0xb6, 0x3e, 0x4a, 0x6a, 0xc8, 0x3d, 0xad, 0x26, 0x94, 0x3c, 0xf2,
  0x70, 0xf1, 0xbf, 0x7b, 0xce, 0x79, 0x3d, 0x4c, 0x4b, 0xdd, 0xbd, 0x8d, 0xd9,
  0x8e, 0x3e, 0x6a, 0x9d, 0x1b, 0xbd, 0x38, 0x14, 0xc5, 0x3e, 0x4d, 0x99, 0x30,
  0x3f, 0x6a, 0xde, 0x45, 0xbe, 0x5a, 0xa7, 0x61, 0x3f, 0xd5, 0xc0, 0x30, 0x3e,
  0x8b, 0xf6, 0xdc, 0x3d, 0x1e, 0x9a, 0xc5, 0x3f, 0xc1, 0x36, 0xdd, 0x3b, 0xe1,
  0xbd, 0x30, 0x3e, 0x31, 0x41, 0x13, 0xbf, 0x3c, 0x6e, 0x8d, 0x3d, 0xa5, 0xbf,
  0x57, 0x40, 0x71, 0xda, 0x0b, 0xbb, 0xf4, 0xe5, 0x33, 0xbd, 0xf6, 0x43, 0xb7,
  0xbf, 0xa6, 0xc0, 0xff, 0xff, 0x04, 0x00, 0x00, 0x00, 0x20, 0x01, 0x00, 0x00,
  0x78, 0xd9, 0xe0, 0x3f, 0xfd, 0xe4, 0xf8, 0xbf, 0xd9, 0x92, 0xa8, 0xbf, 0x3a,
  0xfb, 0x18, 0xc0, 0xb5, 0x45, 0x90, 0x3e, 0x93, 0xc1, 0x05, 0x3f, 0x02, 0xe6,
  0x63, 0xbf, 0x9f, 0x26, 0xc9, 0xbf, 0x32, 0xcb, 0x1f, 0x3f, 0x22, 0x34, 0x09,
  0xc0, 0x3f, 0x27, 0xbb, 0xbf, 0x6b, 0x73, 0xa1, 0xbf, 0x81, 0x1d, 0x24, 0x3f,
  0xf8, 0xf0, 0x29, 0x40, 0x68, 0xb3, 0x99, 0xbe, 0xe3, 0x00, 0xfd, 0xbf, 0x64,
  0x81, 0x4a, 0x40, 0xbe, 0xbd, 0x8f, 0x3f, 0x70, 0x42, 0x80, 0x3e, 0x62, 0x9a,
  0x75, 0x3c, 0x72, 0xa3, 0x4d, 0x3e, 0xb3, 0x7f, 0xef, 0x3e, 0x8d, 0x39, 0x41,
  0x3f, 0x37, 0x29, 0x1f, 0x40, 0xec, 0x25, 0x39, 0x3d, 0x47, 0xb3, 0x21, 0x3e,
  0xf6, 0x45, 0xad, 0xbe, 0x84, 0x46, 0x8b, 0xbf, 0xfc, 0x37, 0x83, 0x3f, 0x22,
  0xf3, 0x61, 0x40, 0xdb, 0x57, 0xa3, 0xbd, 0x4f, 0x84, 0x28, 0xc0, 0xa4, 0xf7,
  0x0f, 0xc0, 0xfb, 0x42, 0x31, 0xbf, 0x72, 0xde, 0xd9, 0xbe, 0x5c, 0x1d, 0x00,
  0xbf, 0xaa, 0xa5, 0x6b, 0xbf, 0x63, 0x80, 0x5d, 0xc0, 0xb8, 0xe3, 0xb6, 0x3f,
  0xb5, 0x36, 0x63, 0xc0, 0x1f, 0x9d, 0x30, 0xc0, 0xb9, 0x8e, 0xc8, 0x3e, 0x6b,
  0x3e, 0x5d, 0x3d, 0x29, 0xcd, 0x0c, 0x3e, 0x17, 0xe3, 0x67, 0xc0, 0x73, 0xf2,
  0x0e, 0x40, 0x86, 0x41, 0xbc, 0xbf, 0x52, 0x4a, 0x4c, 0xc0, 0x10, 0xd5, 0x9b,
  0xbf, 0x8c, 0xbb, 0xce, 0x3e, 0xd8, 0x88, 0x4d, 0x3d, 0x12, 0xef, 0x6c, 0xbe,
  0x06, 0xab, 0x75, 0x3f, 0xc9, 0xbe, 0x17, 0x3f, 0x28, 0x29, 0x3e, 0x3f, 0x1a,
  0x6b, 0x06, 0x40, 0xa5, 0x78, 0x22, 0xc0, 0xa9, 0x69, 0x1c, 0x3f, 0x40, 0x2b,
  0xf6, 0x3d, 0x96, 0xd0, 0xc2, 0xbe, 0x80, 0x2c, 0x08, 0xbf, 0xac, 0x67, 0x10,
  0x40, 0x40, 0x1e, 0xc0, 0xbf, 0xb2, 0xc8, 0x30, 0xc0, 0xb1, 0x45, 0xae, 0xbf,
  0x43, 0xbc, 0xa0, 0xbe, 0x21, 0x53, 0xd2, 0xbc, 0x18, 0xd9, 0x1d, 0xbf, 0x0b,
  0x9b, 0xb0, 0x3f, 0x3c, 0x81, 0x00, 0xbe, 0x4a, 0xf6, 0x5b, 0x3f, 0x4a, 0x81,
  0x3c, 0xbf, 0xd2, 0xc1, 0xff, 0xff, 0x04, 0x00, 0x00, 0x00, 0x80, 0x00, 0x00,
  0x00, 0x57, 0xde, 0xab, 0x3f, 0xd7, 0x24, 0xc1, 0x3d, 0x75, 0xf9, 0x0a, 0xbe,
  0x89, 0x47, 0x06, 0xc0, 0xa0, 0x14, 0xa1, 0xbf, 0x11, 0x7a, 0x85, 0x3e, 0x84,
  0x56, 0x05, 0xbe, 0x82, 0x01, 0xd8, 0xbe, 0xbb, 0x08, 0x0a, 0xbc, 0xc0, 0x13,
  0x81, 0x3e, 0x0d, 0x2f, 0xc2, 0xbe, 0xd1, 0x00, 0xa3, 0x3f, 0x8d, 0x88, 0x65,
  0xbe, 0x85, 0x5e, 0x9a, 0xbc, 0xac, 0xe0, 0x0e, 0xbf, 0x09, 0x17, 0xc6, 0x3d,
  0x04, 0xed, 0xa7, 0x3e, 0xe1, 0x2a, 0x95, 0xbe, 0x3a, 0x4f, 0x29, 0x3f, 0x02,
  0xac, 0x95, 0xbf, 0x8b, 0x96, 0x05, 0x3f, 0xdc, 0x4a, 0x43, 0x3f, 0xfc, 0xba,
  0x50, 0x3f, 0x8b, 0x80, 0xb1, 0xbd, 0x8f, 0x13, 0x80, 0xbe, 0x22, 0x0a, 0xab,
  0x3e, 0xe7, 0x68, 0x87, 0xbe, 0x0d, 0xb6, 0xc7, 0x3f, 0xa4, 0x17, 0x2b, 0xc0,
  0xf5, 0x88, 0x2f, 0x40, 0xb0, 0xfd, 0xa9, 0x3f, 0xc9, 0xf4, 0x3e, 0x3e, 0x5e,
  0xc2, 0xff, 0xff, 0x04, 0x00, 0x00, 0x00, 0x20, 0x01, 0x00, 0x00, 0xdd, 0x87,
  0xa5, 0xbf, 0x24, 0x67, 0x48, 0x3f, 0xb9, 0x09, 0x2d, 0x3f, 0xfb, 0x78, 0x65,
  0xbf, 0x9d, 0x85, 0x59, 0xc0, 0x12, 0xbc, 0x8c, 0xbf, 0x07, 0x08, 0x2d, 0x40,
  0x4b, 0x09, 0xed, 0xbf, 0xd6, 0xd2, 0x22, 0xc0, 0x16, 0xfb, 0xbd, 0x3f, 0x4f,
  0xe7, 0xb4, 0xbf, 0xf4, 0x0a, 0x0f, 0xbe, 0x96, 0xd4, 0x48, 0x3f, 0xb2, 0xa3,
  0xe2, 0x3f, 0x16, 0x47, 0x94, 0x3f, 0xfa, 0x1b, 0x06, 0xbf, 0xed, 0x66, 0x23,
  0xc0, 0x65, 0x20, 0x59, 0xbe, 0xb6, 0xcc, 0x80, 0xbf, 0x20, 0xfa, 0x14, 0xbf,
  0xb1, 0x81, 0x11, 0xc0, 0x3d, 0x9c, 0xa6, 0x3f, 0x82, 0xcb, 0xb0, 0x3f, 0x84,
  0x14, 0x17, 0xc0, 0x84, 0xf5, 0x49, 0x3a, 0xef, 0x89, 0x56, 0x3f, 0x81, 0xb5,
  0xcc, 0x3d, 0x8e, 0x50, 0x54, 0x40, 0xe5, 0x5e, 0x01, 0x3f, 0x37, 0xd3, 0xbb,
  0x3f, 0x63, 0x1f, 0x44, 0xbe, 0x16, 0x4e, 0x48, 0xbe, 0x93, 0x95, 0x99, 0x3f,
  0x66, 0xc7, 0x8c, 0x3f, 0xa8, 0x90, 0xf2, 0x3e, 0x42, 0xc3, 0x84, 0x40, 0x50,
  0xee, 0xa2, 0x3f, 0x08, 0x8b, 0x02, 0x3f, 0xbd, 0x3e, 0xe2, 0x3e, 0x59, 0xc4,
  0x48, 0xbf, 0x16, 0x67, 0x39, 0x3f, 0x13, 0x69, 0xd8, 0x3f, 0x8d, 0x93, 0x47,
  0x3f, 0xce, 0x33, 0xdc, 0xbe, 0x5a, 0x3c, 0x4b, 0xbe, 0xe0, 0xfa, 0x1f, 0xc0,
  0x96, 0x53, 0x84, 0xbe, 0x8a, 0x28, 0x3a, 0x3d, 0xcc, 0xca, 0x13, 0xbf, 0xcc,
  0x00, 0x9c, 0x3e, 0x7f, 0xfc, 0x07, 0x3e, 0x52, 0xdb, 0x8c, 0xbf, 0x51, 0xd5,
  0x0f, 0x3d, 0x3b, 0xba, 0x2b, 0x3e, 0x7c, 0x49, 0x25, 0x3f, 0x60, 0xd9, 0x56,
  0xbf, 0x17, 0xf0, 0x5d, 0xbf, 0x7c, 0xd0, 0x10, 0xbd, 0x0d, 0xac, 0x84, 0xbe,
  0x18, 0xbf, 0x8d, 0xbf, 0xbf, 0x37, 0x1f, 0x3f, 0x44, 0x44, 0xb1, 0xbf, 0x7a,
  0x16, 0xa4, 0x3e, 0xd0, 0x20, 0x55, 0xbf, 0x43, 0x76, 0x36, 0xbf, 0x31, 0xd5,
  0x2e, 0xbf, 0x6b, 0x7d, 0x84, 0x3e, 0x84, 0xe9, 0x82, 0xbe, 0x42, 0xb7, 0xd5,
  0xbf, 0x5c, 0x9e, 0xb9, 0x3f, 0xda, 0x91, 0x44, 0xbe, 0x1c, 0x2a, 0x2a, 0x3e,
  0x8a, 0xc3, 0xff, 0xff, 0x04, 0x00, 0x00, 0x00, 0x00, 0x01, 0x00, 0x00, 0x05,
  0xee, 0x2f, 0xbe, 0x62, 0xb8, 0x5d, 0xbe, 0x48, 0x15, 0xc5, 0xba, 0xf0, 0x5b,
  0xa4, 0x3e, 0xa5, 0x76, 0x89, 0x3c, 0x1f, 0x76, 0xb6, 0x3d, 0xe1, 0x44, 0xb2,
  0xbd, 0x90, 0x5f, 0xe9, 0xbd, 0x07, 0x1f, 0x82, 0xbf, 0xd8, 0xb0, 0x21, 0xbf,
  0x79, 0x53, 0x3c, 0x3f, 0x1d, 0xde, 0x98, 0xbc, 0x43, 0x78, 0x97, 0x3d, 0x9a,
  0xf0, 0x73, 0x3e, 0xc0, 0xc2, 0x93, 0xbf, 0x0d, 0xf2, 0xc2, 0x3e, 0x8e, 0xc7,
  0x6a, 0x3f, 0xbe, 0xd2, 0x61, 0xbe, 0x1f, 0xf2, 0xee, 0xbd, 0xb7, 0x7a, 0xe6,
  0x3e, 0xb5, 0x8a, 0x7c, 0x3d, 0x02, 0xf7, 0xbe, 0xbe, 0xb8, 0x76, 0xd6, 0xbe,
  0x74, 0xc5, 0x67, 0x3f, 0x1d, 0x80, 0x38, 0x3d, 0xa1, 0x47, 0x1f, 0x3e, 0x73,
  0xc5, 0xb1, 0xbd, 0x43, 0xc1, 0x20, 0x3d, 0xa3, 0x7f, 0x5c, 0x3d, 0x07, 0xa4,
  0xe4, 0x3b, 0x7b, 0x63, 0x05, 0x3d, 0x22, 0xab, 0xa0, 0x3d, 0x3c, 0x6e, 0x31,
  0x3d, 0x3f, 0x61, 0xd7, 0xbe, 0x60, 0x6e, 0x29, 0xbc, 0xff, 0x71, 0xac, 0x3d,
  0xa4, 0x69, 0xfb, 0x3d, 0x8b, 0x15, 0x56, 0x3d, 0x6e, 0x30, 0x23, 0x3d, 0x55,
  0x24, 0x20, 0x3f, 0x5c, 0xa0, 0x1e, 0xbe, 0xd3, 0x72, 0x86, 0xbf, 0xf3, 0xa2,
  0x25, 0xc0, 0x47, 0x39, 0x3c, 0x3f, 0x91, 0x43, 0x39, 0x3e, 0xb1, 0x68, 0x98,
  0xbf, 0xd3, 0x0e, 0x26, 0xbe, 0xde, 0x73, 0x36, 0x3f, 0xab, 0xc9, 0x48, 0xbd,
  0x0d, 0x7f, 0xc5, 0xbe, 0xf7, 0x0a, 0xa9, 0xbe, 0x06, 0xbd, 0xad, 0x3c, 0xaf,
  0x5c, 0xdc, 0xbd, 0x04, 0x07, 0x30, 0xbf, 0x56, 0xc2, 0x0e, 0xbe, 0xc5, 0x30,
  0xf2, 0x3c, 0xff, 0x66, 0x40, 0xbf, 0x82, 0x09, 0x4b, 0xbf, 0x13, 0xb2, 0x4e,
  0x3f, 0x23, 0x35, 0xa8, 0x3f, 0x7f, 0x65, 0x8a, 0x3f, 0xe8, 0xc7, 0xc0, 0x3c,
  0xef, 0x03, 0x83, 0xbf, 0xff, 0xed, 0x1e, 0x3f, 0x96, 0xc4, 0xff, 0xff, 0x04,
  0x00, 0x00, 0x00, 0x20, 0x01, 0x00, 0x00, 0x51, 0x35, 0x3b, 0x3e, 0x90, 0xfd,
  0x4d, 0xbe, 0x6c, 0x29, 0x82, 0x3e, 0xeb, 0xb5, 0xe3, 0xbd, 0xf8, 0x96, 0x66,
  0x3e, 0x54, 0xfb, 0xf9, 0x3d, 0xd2, 0xc9, 0x45, 0xbe, 0x17, 0xce, 0x40, 0xbe,
  0x14, 0x44, 0x9c, 0x3f, 0xb4, 0x9a, 0x0f, 0xbf, 0x0c, 0xf6, 0x05, 0x3f, 0xa3,
  0x97, 0xb4, 0x3f, 0x80, 0xe1, 0x1b, 0xbd, 0xda, 0xb8, 0xc2, 0xbe, 0x7b, 0x17,
  0xe0, 0xbf, 0xfc, 0xf3, 0x89, 0xbe, 0x5c, 0xdf, 0xa4, 0x3d, 0x50, 0x01, 0xa8,
  0xbe, 0x4a, 0xbc, 0xe4, 0x3e, 0xaf, 0x71, 0xa8, 0xbd, 0x53, 0x42, 0xfc, 0x3e,
  0x4b, 0x03, 0x98, 0xbd, 0x3d, 0x92, 0x18, 0x3e, 0xf6, 0x3b, 0xba, 0xbe, 0xdd,
  0x26, 0xa9, 0xbe, 0x38, 0x46, 0x5e, 0xbb, 0x8f, 0xbf, 0x91, 0x3d, 0xe2, 0xb2,
  0xd6, 0xbe, 0x1b, 0x94, 0x06, 0x3f, 0xbe, 0xa1, 0x3f, 0xbf, 0x25, 0x89, 0xb1,
  0x3d, 0x4e, 0x89, 0x0c, 0xbe, 0xa8, 0xb8, 0xc3, 0x3e, 0x4c, 0x8c, 0x4e, 0xbe,
  0xc1, 0xf0, 0xd0, 0x3e, 0xda, 0x2c, 0xf8, 0x3d, 0x9a, 0x09, 0xab, 0xbf, 0xa3,
  0x30, 0x0b, 0x40, 0x6c, 0x38, 0xbb, 0xbe, 0x48, 0x0b, 0xd9, 0xbd, 0x2e, 0xe9,
  0x4d, 0xbe, 0xd9, 0x4e, 0x22, 0xbd, 0x5c, 0x81, 0x8b, 0x3e, 0xab, 0x2c, 0x8e,
  0xbe, 0x14, 0x4c, 0x04, 0xbf, 0xb5, 0x88, 0xf4, 0xbe, 0x9e, 0xfa, 0x83, 0x3d,
  0xee, 0xd7, 0x72, 0xbd, 0x0b, 0x97, 0x4d, 0xbd, 0x67, 0x38, 0xe8, 0xbd, 0x95,
  0xa5, 0xc3, 0xbd, 0x31, 0xb9, 0xe6, 0xbc, 0xaa, 0x55, 0x90, 0x3e, 0xb1, 0x69,
  0x15, 0xbc, 0xb2, 0xb0, 0x5e, 0x3d, 0xc4, 0x5f, 0x6f, 0xbe, 0x4e, 0x9a, 0x17,
  0x3d, 0x51, 0xf4, 0x95, 0xbc, 0xac, 0x31, 0x8a, 0x3c, 0xe2, 0x15, 0x8f, 0xbd,
  0x31, 0xc3, 0xe8, 0xbd, 0x2f, 0x8e, 0xb3, 0xbe, 0xdd, 0xc7, 0x8d, 0xbd, 0x3d,
  0x35, 0x0e, 0xbe, 0x3e, 0x5f, 0xf9, 0xbb, 0xc4, 0x92, 0x06, 0xbe, 0x46, 0x69,
  0x61, 0x3c, 0xcb, 0x66, 0x0c, 0x3d, 0x99, 0xd7, 0xd3, 0x3c, 0x1a, 0xf4, 0x66,
  0x3d, 0xe7, 0xf2, 0x48, 0x3d, 0xc2, 0x7f, 0xfd, 0xbd, 0xc2, 0xc5, 0xff, 0xff,
  0x04, 0x00, 0x00, 0x00, 0x00, 0x02, 0x00, 0x00, 0xce, 0xf3, 0x80, 0x3f, 0xd7,
  0xe3, 0xa4, 0xbe, 0xcf, 0xb6, 0x54, 0xbf, 0xcc, 0xcd, 0x30, 0xbf, 0x10, 0x8e,
  0xae, 0x3d, 0x77, 0xa9, 0x06, 0xbf, 0x7d, 0x1a, 0x84, 0x3f, 0x31, 0x3b, 0xb3,
  0xbe, 0xee, 0xca, 0x81, 0x3f, 0x84, 0x6d, 0x79, 0xbe, 0x4f, 0xc3, 0xeb, 0xbd,
  0xe4, 0x11, 0x12, 0x3f, 0x6d, 0xf7, 0xac, 0x3e, 0xfe, 0xf2, 0xcb, 0x3e, 0xf7,
  0x86, 0xdf, 0x3e, 0xda, 0x57, 0x8b, 0x3e, 0x70, 0xb8, 0xa0, 0x3e, 0x06, 0x83,
  0x67, 0xbf, 0xc6, 0x88, 0xb7, 0xbe, 0xe1, 0x95, 0xdb, 0x3d, 0xc6, 0x93, 0x60,
  0xbe, 0xc8, 0xb6, 0x66, 0x3f, 0x8d, 0xb8, 0x3a, 0xbf, 0x55, 0x3a, 0xac, 0x3d,
  0xd6, 0xe3, 0x3a, 0xbf, 0x24, 0xee, 0x13, 0x3f, 0xd1, 0x80, 0x31, 0x3f, 0x00,
  0x72, 0xc5, 0x3d, 0x11, 0xa3, 0x02, 0xbf, 0x54, 0x3c, 0x0f, 0xbf, 0xf8, 0x40,
  0x34, 0x3e, 0x15, 0x0c, 0xee, 0xbd, 0x21, 0x95, 0x50, 0xbe, 0x32, 0x7c, 0x05,
  0xbf, 0x91, 0x2f, 0x47, 0x3f, 0x0f, 0xd8, 0xa0, 0xbe, 0x47, 0xa8, 0x9f, 0x3d,
  0x6d, 0xcc, 0x25, 0x3e, 0xee, 0xa0, 0x33, 0xbf, 0x57, 0x97, 0x69, 0x3f, 0x79,
  0x48, 0xd7, 0xbe, 0x6f, 0x84, 0xf3, 0x3e, 0x56, 0xc0, 0x39, 0x3f, 0xb4, 0x7b,
  0x29, 0xbf, 0x8c, 0xe3, 0x29, 0x3e, 0xaa, 0x14, 0x07, 0x3f, 0x66, 0x47, 0xbe,
  0x3c, 0xf6, 0xa0, 0xe1, 0x3d, 0xc9, 0x54, 0xb6, 0x3e, 0x35, 0xc3, 0xb3, 0xbe,
  0xe6, 0x0d, 0xa1, 0x3e, 0x14, 0x99, 0x14, 0xc0, 0xc4, 0x11, 0x9e, 0xbe, 0xa4,
  0xf9, 0x81, 0xbe, 0xa2, 0xeb, 0xda, 0x3d, 0xcf, 0xb1, 0x16, 0x3d, 0x93, 0xc0,
  0xe4, 0xbe, 0x22, 0x43, 0x85, 0x3f, 0x23, 0xa8, 0xa6, 0x3e, 0x8e, 0x6e, 0xc8,
  0x3e, 0xcd, 0x2b, 0xfa, 0x3c, 0x31, 0x40, 0xc6, 0x3e, 0x51, 0xdf, 0x28, 0xbf,
  0xff, 0x8d, 0xdd, 0x3e, 0x34, 0x5b, 0x8c, 0xbe, 0x8d, 0xf4, 0x84, 0x3f, 0xcc,
  0x6f, 0x92, 0x3e, 0x05, 0x90, 0x57, 0x3f, 0xbb, 0x48, 0xa1, 0x3f, 0xf4, 0x92,
  0x04, 0x3f, 0xf8, 0xf4, 0x0c, 0xbf, 0x13, 0x6e, 0x82, 0x3e, 0xcc, 0xe7, 0x94,
  0x3e, 0x06, 0xa3, 0x1a, 0x3c, 0xb0, 0x32, 0x0e, 0x3e, 0xe3, 0x4e, 0x5d, 0xbe,
  0xd2, 0x67, 0x05, 0xc0, 0xd8, 0x32, 0x66, 0x3d, 0x3e, 0x34, 0x77, 0x3c, 0x20,
  0xbb, 0x36, 0xc0, 0x0b, 0xef, 0xcc, 0xbd, 0x26, 0x3b, 0x17, 0xbe, 0x60, 0xcd,
  0x9d, 0xbf, 0x60, 0x7c, 0xa0, 0x3d, 0x63, 0x0f, 0x63, 0xbd, 0xbe, 0x7b, 0x51,
  0xbf, 0x20, 0xbb, 0xae, 0xbe, 0xe4, 0xe7, 0xf7, 0x3d, 0x96, 0xf6, 0x3b, 0xbe,
  0xaa, 0x56, 0x07, 0xbe, 0xfa, 0x89, 0x16, 0xbf, 0x08, 0x81, 0x0d, 0xbe, 0x04,
  0x98, 0x64, 0xbe, 0xfe, 0x67, 0x03, 0xbe, 0x2a, 0x86, 0x6a, 0xbd, 0xb7, 0x5f,
  0x8e, 0x3d, 0x6b, 0x26, 0x0a, 0xbf, 0xee, 0x8e, 0x35, 0xbe, 0x2f, 0x78, 0xd7,
  0xbf, 0x88, 0xed, 0x99, 0xbe, 0xd8, 0x54, 0x4b, 0x3f, 0xf5, 0xe0, 0x67, 0xbf,
  0x9f, 0x03, 0x0a, 0xbf, 0x64, 0x5c, 0x03, 0xbd, 0xbe, 0x0d, 0xb5, 0x3f, 0x79,
  0xfb, 0xcf, 0xbf, 0x37, 0x38, 0x1b, 0xbf, 0x16, 0x0e, 0x92, 0x3f, 0xc2, 0xad,
  0x35, 0x3f, 0x01, 0xa6, 0x26, 0x3f, 0x0e, 0xfb, 0x21, 0x3e, 0xce, 0xc3, 0x1b,
  0xbe, 0x20, 0x22, 0x52, 0x3d, 0x37, 0x44, 0xe6, 0xbe, 0xec, 0x4b, 0x27, 0xbf,
  0x2c, 0xfe, 0xce, 0x3e, 0xed, 0x84, 0x11, 0x3f, 0x7c, 0x37, 0x21, 0x3f, 0xd8,
  0xa2, 0x63, 0xbe, 0x1e, 0x54, 0x31, 0x3e, 0x10, 0x83, 0x01, 0xbf, 0x51, 0x25,
  0x66, 0x3e, 0x59, 0x95, 0x94, 0x3f, 0x6d, 0x5d, 0xd3, 0x3e, 0x01, 0x0c, 0x67,
  0x3f, 0x0f, 0xd2, 0x3e, 0x3f, 0x62, 0xbc, 0xef, 0x3d, 0x4d, 0xba, 0x3c, 0xbe,
  0xce, 0xc7, 0xff, 0xff, 0x04, 0x00, 0x00, 0x00, 0x40, 0x02, 0x00, 0x00, 0x0a,
  0xa8, 0xdc, 0xbd, 0x8f, 0x6c, 0xca, 0xbc, 0xda, 0x0b, 0x08, 0xbe, 0x47, 0x9a,
  0xa1, 0x3e, 0x44, 0xea, 0xc1, 0x3e, 0x77, 0xac, 0xcc, 0x3c, 0x60, 0x0f, 0x61,
  0x3e, 0x13, 0x58, 0x07, 0x3f, 0x81, 0xea, 0x8b, 0x3e, 0x96, 0x75, 0x82, 0x3e,
  0xb2, 0xb2, 0x2e, 0x3e, 0x57, 0xa1, 0x9b, 0xbd, 0x39, 0xdc, 0x33, 0x3e, 0xbe,
  0xce, 0x5b, 0x3d, 0xb2, 0x66, 0x25, 0xbe, 0xe0, 0xef, 0x0f, 0x38, 0xd2, 0x88,
  0x84, 0x3d, 0x8f, 0x7b, 0x47, 0x3f, 0x48, 0x85, 0x7e, 0xbe, 0x05, 0xb4, 0x2a,
  0x3d, 0xcf, 0x50, 0x4c, 0x3e, 0x9a, 0x74, 0xf4, 0x3e, 0x94, 0x2a, 0x8a, 0xbf,
  0xe8, 0x65, 0x49, 0xbe, 0x30, 0x8d, 0x79, 0xbe, 0xc3, 0xb8, 0xdd, 0x3e, 0x00,
  0x6a, 0x0c, 0xbf, 0xf4, 0x5d, 0x08, 0xbe, 0x04, 0x90, 0x2b, 0xbd, 0x24, 0x6b,
  0x5c, 0xbe, 0x0e, 0x7b, 0xaf, 0x3d, 0x6c, 0xf3, 0x89, 0xbe, 0x54, 0xa5, 0xee,
  0xbd, 0x7f, 0x19, 0xfd, 0x3d, 0x9e, 0xdf, 0x36, 0xbe, 0xc0, 0x34, 0x3f, 0xbf,
  0x02, 0x25, 0x85, 0xbe, 0x87, 0x6a, 0x3a, 0x3e, 0x89, 0x29, 0x96, 0x3e, 0x86,
  0x13, 0xc4, 0x3e, 0xfe, 0x5b, 0x61, 0x3d, 0x5a, 0x9e, 0xf7, 0x3e, 0x1c, 0xb5,
  0x41, 0xbe, 0x13, 0x73, 0xd7, 0x3c, 0xfa, 0x1d, 0x87, 0xb9, 0x4e, 0x34, 0x66,
  0xbe, 0xb9, 0x23, 0x91, 0x3d, 0x35, 0x03, 0x38, 0x3d, 0xe2, 0xdb, 0x38, 0x3f,
  0x7a, 0x88, 0x6c, 0x3f, 0xb0, 0x38, 0x45, 0xbe, 0xd6, 0x2f, 0x34, 0x3f, 0x79,
  0x4e, 0x57, 0xbe, 0xf4, 0x6f, 0xfa, 0x3e, 0x8c, 0xc4, 0x4c, 0xbf, 0x38, 0x58,
  0xad, 0x3e, 0x06, 0x0f, 0x61, 0xbd, 0x44, 0x72, 0x01, 0x3f, 0xa2, 0x53, 0x28,
  0xbf, 0x89, 0x80, 0x4b, 0x3e, 0xae, 0xf6, 0x01, 0x3f, 0x93, 0xbc, 0x94, 0xbc,
  0x8d, 0x14, 0x38, 0x3e, 0x57, 0xc2, 0x0b, 0xbd, 0x7b, 0xe6, 0xbb, 0xbf, 0xb3,
  0x2c, 0x1a, 0xbf, 0xe5, 0xc7, 0x0e, 0xbe, 0x7a, 0x20, 0xb4, 0x3f, 0x03, 0x00,
  0x3c, 0x3e, 0x8a, 0x0c, 0x96, 0xbe, 0x10, 0x80, 0x8a, 0x3f, 0x30, 0x60, 0xd4,
  0xbf, 0x03, 0xb5, 0x9d, 0x3f, 0xdc, 0x91, 0x2e, 0xbe, 0xb8, 0x5f, 0x1a, 0x40,
  0xe2, 0x6b, 0x26, 0x3e, 0x15, 0x03, 0x36, 0x3f, 0x61, 0xc5, 0x42, 0xbf, 0x2f,
  0x01, 0xf0, 0xbe, 0xbc, 0x71, 0xc5, 0x3e, 0x43, 0x5d, 0x87, 0xbe, 0xb0, 0x28,
  0x09, 0x3f, 0x1a, 0x7b, 0xa5, 0xbe, 0x36, 0x11, 0xbc, 0x3f, 0x71, 0x22, 0x13,
  0xbf, 0xfc, 0x3b, 0xbc, 0x3e, 0xe1, 0xe5, 0x52, 0xbf, 0xac, 0x0a, 0xde, 0x3e,
  0xcc, 0xb2, 0xa5, 0x3f, 0x3f, 0x86, 0x42, 0x3e, 0xd0, 0xc6, 0x34, 0xbe, 0x9f,
  0x1c, 0xb5, 0xbd, 0x7d, 0xa2, 0x0f, 0x3e, 0xf0, 0xf2, 0x49, 0xbe, 0xd4, 0xc1,
  0xf8, 0xbe, 0xe8, 0xdd, 0xae, 0x3f, 0xe1, 0x4c, 0x27, 0xbe, 0x96, 0xb9, 0x22,
  0xbe, 0x9c, 0xe2, 0xe1, 0x3c, 0x3f, 0x64, 0x93, 0xbf, 0xd1, 0xc5, 0xd1, 0xbe,
  0x31, 0xb6, 0xd1, 0xbc, 0xe2, 0x81, 0x47, 0x3e, 0x81, 0x20, 0x7d, 0x3e, 0xa2,
  0xd3, 0x73, 0xbe, 0x22, 0xca, 0x9c, 0x3e, 0xba, 0xc8, 0x1f, 0xbf, 0x94, 0x43,
  0xd1, 0xbe, 0x43, 0x13, 0x52, 0xbb, 0x34, 0x85, 0x18, 0x39, 0x02, 0xc3, 0xd5,
  0xbe, 0xf0, 0x05, 0x2b, 0x3d, 0x05, 0xca, 0x67, 0x3e, 0x64, 0x7d, 0xbf, 0x3e,
  0x0d, 0x1a, 0x58, 0xbe, 0x2c, 0x5f, 0x68, 0xbf, 0xb4, 0x97, 0x36, 0xbe, 0xa3,
  0x53, 0x08, 0x3f, 0x30, 0x7c, 0xc6, 0xbe, 0xf9, 0x4a, 0x5d, 0x3d, 0x4d, 0x4b,
  0x3a, 0xbf, 0x78, 0x08, 0xf3, 0xbe, 0xed, 0xfa, 0x23, 0x3e, 0xa5, 0xd1, 0x8c,
  0x3f, 0x4f, 0xf2, 0xa7, 0x3e, 0xdd, 0xbc, 0x31, 0xbe, 0xcf, 0x81, 0xdf, 0x3f,
  0xae, 0x46, 0x60, 0xbd, 0x58, 0x63, 0x7b, 0xbd, 0x6b, 0x46, 0x83, 0xbe, 0xca,
  0x1c, 0x17, 0xbe, 0xe4, 0xf3, 0xb4, 0xbf, 0xfb, 0xc1, 0xf2, 0xbe, 0xa4, 0x0d,
  0xe4, 0x3d, 0x88, 0x35, 0xd8, 0xbe, 0xd7, 0x1c, 0xb3, 0x3e, 0xeb, 0xcb, 0x81,
  0xbf, 0xc5, 0x38, 0xd6, 0xbf, 0x90, 0x6a, 0x75, 0xbe, 0x40, 0x05, 0x6f, 0x3e,
  0x11, 0x8e, 0x67, 0x3e, 0xd1, 0x82, 0xc5, 0x3c, 0x67, 0xfa, 0x01, 0xbf, 0xb1,
  0xc5, 0xa7, 0xbc, 0x1a, 0xca, 0xff, 0xff, 0x04, 0x00, 0x00, 0x00, 0x00, 0x01,
  0x00, 0x00, 0xac, 0x67, 0xae, 0x3e, 0x7e, 0x7f, 0x2f, 0xbf, 0xf8, 0xde, 0x94,
  0x3e, 0xdf, 0x45, 0x19, 0xbf, 0x38, 0x0a, 0x3a, 0xbd, 0x41, 0xc3, 0x92, 0xbf,
  0x45, 0xa3, 0x89, 0x3e, 0xa8, 0x4e, 0x1f, 0x3c, 0xa7, 0x20, 0x99, 0x3e, 0x94,
  0x33, 0x0d, 0xbf, 0xdc, 0x1e, 0xdc, 0xbd, 0x85, 0x65, 0x8e, 0xbf, 0x08, 0x58,
  0x49, 0xbd, 0x63, 0x3e, 0x14, 0xbf, 0x9a, 0x15, 0x78, 0xbe, 0x45, 0x02, 0x30,
  0x3d, 0x40, 0xc0, 0x19, 0xbf, 0x72, 0x3f, 0x21, 0xbd, 0xdc, 0x82, 0x01, 0x3f,
  0xa5, 0xd4, 0xec, 0xbd, 0x85, 0xb0, 0x0d, 0xbf, 0x7e, 0x54, 0x14, 0xbf, 0x10,
  0x2e, 0x67, 0xbd, 0xf8, 0x82, 0x1c, 0x3e, 0x96, 0x10, 0x57, 0x3e, 0xd5, 0x69,
  0x3e, 0x3e, 0x1d, 0xee, 0xab, 0x3d, 0xcc, 0x98, 0x72, 0x3c, 0xfd, 0x16, 0xa3,
  0x3d, 0x26, 0x11, 0xc5, 0x3d, 0xa8, 0xf6, 0x96, 0xbd, 0x4a, 0x4c, 0xf6, 0x3d,
  0x66, 0x1e, 0x32, 0xbf, 0x5a, 0xf6, 0x15, 0xbf, 0xbe, 0x82, 0xb6, 0xbe, 0xcf,
  0xda, 0x2e, 0xbd, 0xae, 0x9a, 0xf6, 0x3d, 0x93, 0xe7, 0x25, 0xbe, 0x05, 0x8e,
  0x2d, 0xbf, 0xf9, 0x34, 0x19, 0xbe, 0x47, 0x04, 0x5e, 0xbc, 0x6a, 0xd2, 0x82,
  0xbe, 0x28, 0x4f, 0xd9, 0xbe, 0x77, 0x83, 0x30, 0xbe, 0x8e, 0x35, 0x3b, 0xbf,
  0xd0, 0x78, 0xcf, 0xbe, 0x1c, 0xa0, 0x03, 0x3f, 0x65, 0x45, 0x6f, 0xbf, 0xff,
  0xf1, 0x33, 0x3f, 0x77, 0x98, 0x30, 0x3f, 0xb1, 0x3f, 0xa6, 0x3e, 0xdb, 0x51,
  0xf2, 0x3d, 0x31, 0x34, 0xf9, 0x3e, 0x9c, 0x72, 0x30, 0x3f, 0xa8, 0x6e, 0x06,
  0xbe, 0xdf, 0xd7, 0x10, 0x3f, 0xfc, 0xc2, 0xea, 0xbf, 0x20, 0x0e, 0xb2, 0xbf,
  0x9f, 0x9b, 0x5b, 0xbe, 0x54, 0xea, 0x7a, 0xbe, 0x46, 0xf9, 0xf6, 0xbd, 0x7e,
  0x02, 0xf7, 0xbe, 0x52, 0x4f, 0xab, 0x3f, 0x85, 0x32, 0x63, 0xbe, 0x26, 0xcb,
  0xff, 0xff, 0x04, 0x00, 0x00, 0x00, 0x20, 0x01, 0x00, 0x00, 0x29, 0x5d, 0x92,
  0x3d, 0x98, 0xd6, 0x9b, 0x3e, 0x90, 0x6d, 0x14, 0xbe, 0x8d, 0xe6, 0x9e, 0x3b,
  0x71, 0x95, 0x9a, 0x3c, 0x49, 0xd2, 0x7a, 0x3d, 0xe0, 0x00, 0x30, 0xbc, 0x71,
  0xe1, 0xf2, 0xbe, 0xd7, 0xd5, 0x13, 0x3f, 0xfa, 0x8c, 0x67, 0xbe, 0x3f, 0x1b,
  0x80, 0xbe, 0x24, 0x20, 0xe3, 0x3d, 0x0a, 0xba, 0x26, 0x3e, 0x33, 0x0c, 0x5a,
  0xbd, 0x97, 0x75, 0x3a, 0xbe, 0xf9, 0x68, 0x78, 0x3e, 0xf5, 0x39, 0xa5, 0xbd,
  0xc6, 0xf4, 0xae, 0x3e, 0x3c, 0x4a, 0xff, 0xbe, 0xd8, 0x61, 0x61, 0x3d, 0x64,
  0xce, 0x16, 0xbb, 0x18, 0x48, 0xeb, 0xbd, 0x6a, 0x64, 0xc0, 0xbc, 0xe9, 0xf2,
  0x18, 0xbf, 0xa6, 0x39, 0xbb, 0x3e, 0xa7, 0xa0, 0x96, 0xbe, 0x41, 0x7d, 0x6a,
  0xbe, 0x89, 0xa1, 0xdf, 0xbd, 0xe7, 0xef, 0x65, 0xbd, 0x74, 0xac, 0x0c, 0xbe,
  0xee, 0xe5, 0x5b, 0xbe, 0x7a, 0x16, 0x04, 0x3b, 0xd4, 0x7d, 0xaf, 0xbf, 0x4f,
  0x80, 0x81, 0xbe, 0x05, 0x86, 0x7e, 0x3f, 0x6e, 0x49, 0xb9, 0xbe, 0x9e, 0xd8,
  0x9b, 0xbe, 0x1a, 0xd9, 0xe0, 0x3e, 0x2c, 0x5f, 0x27, 0xbd, 0xe6, 0x2a, 0x11,
  0x3f, 0x2f, 0xf4, 0x2f, 0x3f, 0x5c, 0xde, 0x0d, 0xbf, 0xef, 0xe4, 0xb5, 0xbc,
  0x25, 0x25, 0x73, 0x3d, 0x3c, 0x04, 0xb6, 0xbe, 0x87, 0xc3, 0x16, 0x3e, 0x47,
  0x82, 0x25, 0xbe, 0xef, 0xcb, 0x39, 0x3e, 0xcb, 0x4e, 0x4f, 0x3e, 0x9b, 0x3b,
  0x99, 0xbd, 0x51, 0x41, 0xac, 0xbe, 0xab, 0xb7, 0xdd, 0x3d, 0x0e, 0x26, 0x8a,
  0xbe, 0xfe, 0xd0, 0x9d, 0x3e, 0xf2, 0xd2, 0x4b, 0xbe, 0xbc, 0xa6, 0xf6, 0xbe,
  0xc7, 0x80, 0xc6, 0x3e, 0x88, 0xa6, 0x23, 0xbf, 0xcb, 0x20, 0xd3, 0x3e, 0x3a,
  0xcd, 0x75, 0xbf, 0x4c, 0x2c, 0x95, 0xbd, 0x26, 0x71, 0xce, 0x3e, 0x7e, 0x8f,
  0xfe, 0xbd, 0x39, 0x59, 0xc5, 0x3e, 0xbf, 0xaa, 0x3f, 0x3e, 0x96, 0x48, 0x1c,
  0x3f, 0x28, 0x45, 0x2c, 0x3f, 0x7b, 0x23, 0xe3, 0xbd, 0x69, 0x56, 0xac, 0xbe,
  0xdb, 0xc1, 0x00, 0x3f, 0x8f, 0xa5, 0x01, 0x3d, 0x64, 0x83, 0x21, 0xbf, 0x52,
  0xcc, 0xff, 0xff, 0x04, 0x00, 0x00, 0x00, 0x00, 0x01, 0x00, 0x00, 0x1e, 0xce,
  0x9b, 0x3e, 0x14, 0xc1, 0x05, 0xbf, 0x23, 0x61, 0xbe, 0xbe, 0xc8, 0xb1, 0x67,
  0xbf, 0x83, 0x91, 0x63, 0xbe, 0x56, 0x06, 0x70, 0x3f, 0x6c, 0x8c, 0xa9, 0xbe,
  0xe7, 0x44, 0x4b, 0xbf, 0xa8, 0xe0, 0x42, 0xbe, 0xa4, 0x8a, 0xa2, 0x3d, 0x95,
  0x54, 0xd6, 0xbe, 0xa1, 0x2f, 0x41, 0x3f, 0x81, 0x28, 0x29, 0xbe, 0xf0, 0xee,
  0x04, 0xbf, 0x95, 0x48, 0x29, 0x3f, 0x61, 0x9c, 0x3d, 0xbd, 0x2a, 0x8d, 0x9b,
  0x3f, 0x06, 0x45, 0xce, 0x3c, 0x23, 0xf9, 0x8a, 0xbd, 0x2d, 0xa9, 0xc9, 0x3c,
  0x16, 0x4c, 0x87, 0x3f, 0xd2, 0x98, 0x35, 0x3e, 0xa5, 0x13, 0x08, 0xbf, 0x83,
  0xf4, 0xe0, 0x3e, 0x8a, 0x38, 0x6c, 0x3d, 0x40, 0xb4, 0x45, 0xbf, 0x77, 0xc6,
  0x3a, 0x3f, 0x8b, 0x48, 0xc8, 0x3e, 0x97, 0x27, 0xab, 0xbe, 0xfd, 0x5d, 0x29,
  0x3f, 0xe6, 0xd6, 0xc3, 0xbe, 0xa4, 0xb3, 0xb8, 0xbd, 0x87, 0xb5, 0xe9, 0xbd,
  0x34, 0xcd, 0xd3, 0xbc, 0x1d, 0xee, 0xed, 0x3e, 0x82, 0xfd, 0x36, 0xbe, 0x4c,
  0x6b, 0x31, 0xbe, 0xcd, 0xb5, 0x1a, 0xbf, 0xc6, 0x9c, 0x38, 0x3f, 0x39, 0xbf,
  0x46, 0x3e, 0x19, 0x52, 0x31, 0xbf, 0x76, 0xa9, 0x69, 0xbe, 0x66, 0x31, 0x54,
  0x3e, 0x59, 0x5c, 0x7b, 0x3e, 0xd9, 0xf2, 0x28, 0xbf, 0x41, 0x47, 0xe8, 0xbd,
  0xf5, 0x2b, 0xa9, 0x3d, 0x39, 0xb3, 0xe3, 0xbe, 0xf9, 0xb1, 0x6a, 0xbf, 0x1e,
  0x63, 0x2b, 0xbf, 0x49, 0x73, 0x70, 0xbe, 0x6e, 0x45, 0xd4, 0x3e, 0x62, 0x89,
  0xfd, 0x3c, 0x84, 0x0a, 0x02, 0xbf, 0xd2, 0x1e, 0x83, 0x3f, 0x41, 0x62, 0x84,
  0x3f, 0xa9, 0xf4, 0x8b, 0xbf, 0xa6, 0x45, 0x2a, 0xbd, 0x21, 0x9f, 0x1a, 0xbf,
  0x8e, 0xa1, 0x92, 0xbe, 0x00, 0xea, 0x4c, 0xbe, 0x94, 0x0c, 0x06, 0xbe, 0xc0,
  0x81, 0xcc, 0x3e, 0x26, 0xdf, 0x5c, 0xbf, 0x5e, 0xcd, 0xff, 0xff, 0x04, 0x00,
  0x00, 0x00, 0x20, 0x01, 0x00, 0x00, 0x94, 0x2a, 0x50, 0x3e, 0x2e, 0x1b, 0x23,
  0x3e, 0xbb, 0xd5, 0xf3, 0xbd, 0x86, 0x14, 0x44, 0x3d, 0xbc, 0xe0, 0x03, 0xbc,
  0x74, 0x0a, 0x81, 0x3d, 0xe9, 0xc0, 0xa2, 0x3d, 0x37, 0xa3, 0x87, 0x3d, 0x28,
  0x4d, 0xac, 0x3e, 0xf2, 0x4a, 0xbd, 0xbe, 0xf5, 0x07, 0x92, 0x3d, 0xca, 0x87,
  0x46, 0xbb, 0xcd, 0x1a, 0x33, 0xbd, 0x10, 0xf8, 0x62, 0xbd, 0xea, 0x2a, 0xd4,
  0x3d, 0xf1, 0xb6, 0x8b, 0xbd, 0x0c, 0x4e, 0x0d, 0x3e, 0x1e, 0x88, 0xc0, 0x3e,
  0x12, 0x9f, 0x1c, 0xbe, 0x9b, 0x9e, 0x62, 0x3d, 0xbc, 0x78, 0x2d, 0xbd, 0x61,
  0x32, 0xc2, 0x3d, 0x50, 0xfd, 0x8a, 0x3d, 0x17, 0xe7, 0x1a, 0x3d, 0xd8, 0x11,
  0x35, 0x3e, 0x8f, 0xa2, 0xf7, 0xbe, 0x3d, 0xa6, 0x34, 0xbe, 0xc6, 0xc6, 0x8c,
  0xbd, 0x90, 0x70, 0x19, 0xbe, 0x60, 0x0f, 0xb9, 0xbb, 0x72, 0xee, 0x3f, 0x3e,
  0x8d, 0x19, 0x38, 0x3e, 0x4f, 0x11, 0xe5, 0x3e, 0x28, 0x98, 0xd1, 0xbe, 0xa0,
  0x30, 0xa3, 0x3f, 0x2a, 0x84, 0x5a, 0x3f, 0x2f, 0x42, 0x83, 0xbf, 0x9a, 0x53,
  0xb2, 0xbf, 0xa3, 0xf8, 0xa3, 0xbf, 0x52, 0xd4, 0x95, 0xbf, 0x81, 0xac, 0x0d,
  0x3e, 0x60, 0xcf, 0xdb, 0x3e, 0xca, 0xb2, 0x77, 0x3e, 0x7d, 0x1f, 0xab, 0x3e,
  0x13, 0xbe, 0x08, 0xbe, 0xfe, 0xec, 0xdf, 0xbd, 0xc5, 0xe1, 0x56, 0x3d, 0x7a,
  0x4a, 0xee, 0xbd, 0xde, 0x47, 0x50, 0x3e, 0x58, 0x3c, 0xfd, 0x3e, 0x00, 0x5c,
  0x96, 0xbd, 0xe7, 0xe4, 0x7c, 0x3c, 0x00, 0x85, 0xb7, 0xbc, 0xeb, 0x27, 0x1f,
  0x3e, 0x61, 0x80, 0x61, 0x3d, 0xbd, 0x65, 0x1d, 0xbd, 0xbc, 0x56, 0x8e, 0x3e,
  0xd7, 0xb0, 0x91, 0x3d, 0x9b, 0x3a, 0x4a, 0xbd, 0xb1, 0xa8, 0x2a, 0x3e, 0x60,
  0xd0, 0x8e, 0xbd, 0x41, 0x00, 0x28, 0xbe, 0xcc, 0x89, 0x6a, 0x3d, 0x4d, 0x83,
  0xdf, 0x3b, 0xd0, 0x08, 0x83, 0x3e, 0xe2, 0x63, 0x11, 0x3d, 0xff, 0x24, 0x07,
  0xbe, 0xcf, 0x41, 0x52, 0x3d, 0x2b, 0xdc, 0x1c, 0x3d, 0x3d, 0x2e, 0xab, 0x3c,
  0x60, 0xe0, 0xf9, 0x3c, 0x43, 0xf2, 0x1d, 0x3d, 0x8a, 0xce, 0xff, 0xff, 0x04,
  0x00, 0x00, 0x00, 0x00, 0x02, 0x00, 0x00, 0x7a, 0x05, 0xbb, 0xbe, 0x54, 0xdf,
  0x45, 0xbf, 0x96, 0xac, 0x09, 0x92, 0xa9, 0x3c, 0x35, 0x3f, 0xe9, 0xfd, 0x82,
  0x3f, 0x17, 0x6f, 0xcc, 0xbe, 0x9e, 0xd2, 0x8c, 0xbe, 0xf4, 0x92, 0x59, 0xbe,
  0x81, 0x15, 0x00, 0x3f, 0xee, 0xad, 0x6f, 0xbd, 0x3e, 0xab, 0xb6, 0xbe, 0xe9,
  0xe2, 0x54, 0xbc, 0xf1, 0x31, 0x33, 0x3f, 0xaa, 0xfd, 0x54, 0x3f, 0x65, 0x85,
  0x05, 0x3f, 0xea, 0x9c, 0x0c, 0x3f, 0x4b, 0x91, 0x9d, 0x3e, 0xba, 0xcc, 0xbf,
  0xbe, 0x28, 0xaf, 0x09, 0x12, 0x52, 0x18, 0x48, 0x3f, 0x34, 0x66, 0xd1, 0x3d,
  0x81, 0xbc, 0x69, 0x3f, 0xea, 0xe7, 0xe9, 0xbe, 0x91, 0x22, 0x9e, 0xbf, 0x1f,
  0xfe, 0x1f, 0x3f, 0x08, 0xee, 0xb0, 0x3e, 0x9f, 0xd6, 0xf0, 0x3e, 0xb3, 0x56,
  0x8a, 0x3e, 0x96, 0x18, 0xa9, 0x3e, 0xee, 0x62, 0xaf, 0x3f, 0x4c, 0x75, 0x1d,
  0x3e, 0x99, 0x13, 0x95, 0xbf, 0xd1, 0xe5, 0xcc, 0x3e, 0xb7, 0xdb, 0xb5, 0x3e,
  0x2e, 0x60, 0x09, 0x92, 0x9c, 0x80, 0xac, 0x3f, 0x18, 0xd9, 0xb8, 0xbe, 0x84,
  0x5e, 0x67, 0xbf, 0xf4, 0x8e, 0x01, 0xc0, 0x75, 0x22, 0x64, 0xbe, 0xd3, 0x32,
  0xff, 0x3e, 0x3b, 0x00, 0xc0, 0xbf, 0x26, 0xe5, 0x3a, 0x3f, 0x7d, 0x4d, 0xd0,
  0xbe, 0x6b, 0xc1, 0x7d, 0x3f, 0x64, 0x15, 0x74, 0xbf, 0x45, 0x3b, 0x36, 0xbf,
  0x76, 0xf6, 0xfd, 0xbe, 0x7a, 0xae, 0x55, 0xbe, 0xf2, 0xa1, 0x75, 0x3d, 0x04,
  0x07, 0x0a, 0x92, 0xb4, 0x96, 0x39, 0x3f, 0xed, 0x66, 0xa1, 0xbf, 0x37, 0x36,
  0x97, 0x3e, 0x57, 0xae, 0x9e, 0xbd, 0x97, 0xb9, 0xc3, 0x3f, 0xda, 0x35, 0xa7,
  0xbe, 0xb9, 0xdb, 0x28, 0x3f, 0x98, 0x74, 0x9a, 0xbe, 0x70, 0x1f, 0x44, 0x3f,
  0x67, 0x34, 0xaa, 0xbe, 0x08, 0x17, 0xac, 0x3c, 0xf5, 0x8b, 0x78, 0x3e, 0x81,
  0x57, 0x11, 0x3e, 0x3f, 0x2a, 0x9f, 0xbe, 0x87, 0x2d, 0x48, 0x3e, 0x04, 0x15,
  0x0a, 0x12, 0xf9, 0xc0, 0x01, 0x3f, 0x00, 0x8c, 0x09, 0x3f, 0x89, 0x9b, 0xd8,
  0x3e, 0xb3, 0x71, 0x4e, 0xbf, 0x02, 0x99, 0x64, 0x3f, 0x92, 0xca, 0x94, 0x3d,
  0x49, 0x14, 0x04, 0xbf, 0x90, 0x09, 0x16, 0xbe, 0x05, 0xb1, 0xe1, 0xbe, 0x76,
  0x4d, 0x66, 0x3e, 0x53, 0xcc, 0x77, 0xbf, 0xaf, 0x43, 0x6f, 0xbf, 0xbc, 0xc2,
  0xbc, 0x3e, 0xeb, 0xda, 0xdc, 0x3e, 0xa1, 0x9b, 0x93, 0xbc, 0x76, 0xce, 0x09,
  0x92, 0x58, 0x24, 0xed, 0xbd, 0x38, 0xbe, 0x74, 0xbd, 0xad, 0x46, 0x71, 0x3f,
  0x91, 0x86, 0x02, 0x3f, 0xc1, 0x1e, 0x1e, 0xbf, 0x84, 0x3e, 0x0c, 0xbf, 0xc4,
  0xba, 0x39, 0xbe, 0x5b, 0xf7, 0x46, 0x3f, 0xb9, 0x32, 0x99, 0xbe, 0x0b, 0xb2,
  0x2c, 0xbf, 0xc1, 0xbe, 0x48, 0xbf, 0x54, 0xd7, 0x16, 0xbf, 0x4b, 0x03, 0x4f,
  0xbf, 0x5d, 0x75, 0xe9, 0xbe, 0xa3, 0x0b, 0x36, 0xbd, 0x35, 0xc7, 0x09, 0x12,
  0x21, 0x63, 0x5e, 0x3e, 0x50, 0x5e, 0xd5, 0x3e, 0xde, 0x6d, 0x4a, 0xbf, 0xcf,
  0xa5, 0xd6, 0x3f, 0xba, 0x65, 0x0d, 0xbd, 0xfe, 0xff, 0xd4, 0xbe, 0x67, 0x4b,
  0x4c, 0x3d, 0x97, 0x5f, 0x36, 0x3f, 0x2f, 0x78, 0x44, 0x3e, 0x1a, 0xf6, 0x98,
  0xbf, 0xf0, 0xd7, 0xec, 0x3d, 0xb8, 0x9d, 0xb2, 0x3b, 0x43, 0xfa, 0x40, 0xbf,
  0x94, 0x1b, 0x8c, 0x3f, 0x8e, 0x45, 0x34, 0xbf, 0x85, 0x5d, 0x0a, 0x12, 0x52,
  0x56, 0x82, 0x3f, 0xef, 0x0f, 0x2a, 0xbf, 0x12, 0xbd, 0x74, 0xbf, 0xa1, 0xe9,
  0x20, 0x3f, 0x99, 0x89, 0xb4, 0xbe, 0x57, 0x1d, 0x97, 0x3e, 0xb6, 0x1e, 0x30,
  0xbd, 0x49, 0x2f, 0xa0, 0x3e, 0xdc, 0xa7, 0xdd, 0xbd, 0xd7, 0x64, 0x3f, 0x3f,
  0x7a, 0xad, 0xad, 0xbe, 0xca, 0x74, 0x09, 0xbc, 0xcf, 0x33, 0x35, 0xbf, 0x96,
  0xd0, 0xff, 0xff, 0x04, 0x00, 0x00, 0x00, 0x40, 0x02, 0x00, 0x00, 0x74, 0x18,
  0x16, 0x3f, 0xc9, 0xe1, 0xda, 0x3d, 0x7a, 0x3e, 0x0a, 0x12, 0x0f, 0x1f, 0x62,
  0xbe, 0x75, 0x12, 0xe2, 0x3e, 0xef, 0x99, 0x0d, 0xbf, 0x1c, 0xd0, 0x40, 0xbd,
  0xd8, 0x3b, 0x80, 0x3f, 0x2a, 0xc4, 0x9a, 0xbc, 0x08, 0xab, 0xd4, 0x3c, 0xe1,
  0x0d, 0xce, 0xbd, 0xe3, 0x8d, 0xe2, 0xbd, 0x67, 0x68, 0x37, 0xbd, 0xc5, 0xf6,
  0xc9, 0x3d, 0xb9, 0xcd, 0xb9, 0xbd, 0xe5, 0x57, 0x31, 0xbd, 0xd1, 0x6d, 0x28,
  0x3e, 0xbb, 0xae, 0x6e, 0xbe, 0x3b, 0x66, 0x09, 0x92, 0xbf, 0xcd, 0x94, 0xbe,
  0x45, 0x2c, 0x2b, 0xbe, 0x78, 0xeb, 0x23, 0x3e, 0xaa, 0x9d, 0x07, 0x3f, 0x87,
  0x65, 0x93, 0x3d, 0xab, 0xa0, 0x7b, 0xbe, 0x3b, 0x94, 0x0d, 0xbf, 0xe0, 0xa2,
  0x15, 0xbe, 0x40, 0x37, 0xbf, 0x3d, 0xf9, 0x03, 0xc8, 0x3d, 0x80, 0x16, 0x5a,
  0xbe, 0x04, 0x01, 0xc7, 0x3e, 0x77, 0x4c, 0xe3, 0xbd, 0xb5, 0x98, 0xfd, 0x3e,
  0xee, 0x99, 0x3d, 0x3d, 0x26, 0x25, 0x0a, 0x12, 0xc4, 0x17, 0xa5, 0xbe, 0x78,
  0xbb, 0x19, 0x3f, 0x27, 0x20, 0xcd, 0xbe, 0x7a, 0xd7, 0xfc, 0xbd, 0xd1, 0x99,
  0xe1, 0x3e, 0x24, 0x38, 0x84, 0xbd, 0xe5, 0x08, 0x19, 0x3f, 0xe3, 0x3f, 0x1a,
  0xbe, 0x8b, 0xcc, 0x39, 0x3e, 0x2b, 0xba, 0xe8, 0xbd, 0x0f, 0x6b, 0xc4, 0xbe,
  0x5c, 0x7e, 0x80, 0xbd, 0x39, 0xd6, 0x39, 0x3c, 0x71, 0xa0, 0xe0, 0x3e, 0x6c,
  0x64, 0x27, 0x3e, 0x4f, 0xdc, 0x09, 0x12, 0x95, 0x5d, 0x0f, 0x3e, 0x42, 0xb5,
  0x72, 0x3f, 0x97, 0x10, 0x8e, 0xbe, 0x4e, 0xb0, 0xad, 0x3e, 0x74, 0x1d, 0x24,
  0x3d, 0x0b, 0xc6, 0x51, 0xbe, 0x28, 0xc8, 0x2a, 0xbf, 0x7d, 0xb0, 0x4a, 0xbe,
  0x4c, 0xe4, 0x45, 0x3b, 0x5b, 0x92, 0xa6, 0x3e, 0x23, 0xc0, 0xb9, 0x3e, 0xd3,
  0xa8, 0xf1, 0xbd, 0xe7, 0x9a, 0x69, 0xbe, 0xb0, 0xd3, 0xf2, 0x3d, 0x1c, 0x1e,
  0xaa, 0x3f, 0x32, 0x7f, 0x09, 0x92, 0x22, 0xf9, 0xc1, 0xbe, 0x00, 0xea, 0xc6,
  0xbf, 0xf1, 0x89, 0xbc, 0x3e, 0x35, 0x48, 0xb1, 0xbe, 0xee, 0xfc, 0x8c, 0x3e,
  0xa5, 0x8e, 0x69, 0xbf, 0xf5, 0x5e, 0x89, 0xbf, 0x05, 0x1f, 0xb0, 0x3e, 0xda,
  0xd6, 0xce, 0xbf, 0x5c, 0x06, 0x74, 0x3f, 0xd7, 0x37, 0x7d, 0x3e, 0xa4, 0x95,
  0x55, 0x3f, 0x2a, 0x5f, 0x85, 0xbf, 0x4e, 0xdd, 0xe8, 0xbd, 0xf8, 0x84, 0x3d,
  0xbe, 0x50, 0xa7, 0x09, 0x92, 0xb5, 0xd5, 0xaf, 0xbd, 0x8e, 0xe0, 0xa0, 0x3e,
  0xdb, 0xe7, 0x2b, 0xbe, 0x2d, 0x69, 0xdb, 0x3e, 0x47, 0x5d, 0xa5, 0x3e, 0xa9,
  0x51, 0xce, 0xbc, 0x7c, 0x74, 0x0a, 0x3f, 0x11, 0xcf, 0x0b, 0xbf, 0x8d, 0x6d,
  0x25, 0x3f, 0x67, 0xfd, 0x23, 0x3e, 0x06, 0x8b, 0x6c, 0xbf, 0xf5, 0x42, 0xce,
  0xbe, 0xd1, 0xbf, 0xce, 0xbe, 0x97, 0x26, 0xb1, 0x3e, 0xf5, 0xa3, 0xe3, 0xbe,
  0x4a, 0x11, 0x0a, 0x12, 0xcd, 0x5c, 0x0b, 0xbf, 0x8c, 0xe1, 0xcc, 0x3e, 0x2e,
  0x39, 0x7f, 0xbe, 0x44, 0xfb, 0x11, 0xbd, 0xcb, 0xb7, 0x01, 0x3f, 0x1c, 0x0c,
  0x65, 0xbd, 0xf1, 0x3f, 0x2b, 0x3f, 0x2c, 0x5c, 0xc9, 0xbd, 0x48, 0x71, 0x5f,
  0x3e, 0x58, 0x36, 0x28, 0xbd, 0x25, 0x62, 0x98, 0x3e, 0x96, 0xfd, 0xf2, 0xbe,
  0x23, 0xe3, 0x9f, 0xbc, 0xae, 0xf0, 0xaf, 0x3e, 0xc4, 0x1f, 0xe2, 0x3e, 0x9d,
  0x41, 0x0a, 0x12, 0x88, 0x64, 0xd3, 0x3b, 0x3a, 0xff, 0x8c, 0xbe, 0xbd, 0x9e,
  0xa4, 0x3c, 0xca, 0x70, 0x0e, 0x3f, 0x12, 0xaf, 0x45, 0xbe, 0xe8, 0x71, 0x05,
  0x3d, 0xf4, 0x99, 0xd3, 0x3e, 0x5e, 0x97, 0x00, 0xbf, 0x08, 0x35, 0xdf, 0x3e,
  0x70, 0x68, 0xb7, 0x3e, 0x8d, 0xf0, 0xd2, 0x3e, 0x4e, 0x49, 0xa8, 0xbf, 0xa7,
  0xb7, 0xce, 0xbe, 0xf9, 0xc3, 0x72, 0xbd, 0x03, 0xae, 0xb2, 0xbe, 0xce, 0x2d,
  0x0a, 0x92, 0x20, 0xb9, 0x2e, 0xbd, 0x8e, 0x40, 0x25, 0x3f, 0x21, 0x55, 0x63,
  0xbe, 0x81, 0x9c, 0x50, 0xbe, 0x23, 0x81, 0xa1, 0x3e, 0xb4, 0x52, 0xee, 0x3c,
  0x5b, 0x26, 0xbe, 0x3d, 0x4e, 0x58, 0xe9, 0x3c, 0xe4, 0xa7, 0xab, 0xbe, 0x54,
  0x20, 0x2c, 0x3e, 0x60, 0x29, 0x69, 0xbe, 0x18, 0xeb, 0x89, 0x3e, 0xfe, 0xf2,
  0x8b, 0xbd, 0xe2, 0xd2, 0xff, 0xff, 0x04, 0x00, 0x00, 0x00, 0x40, 0x00, 0x00,
  0x00, 0x00, 0x00, 0x00, 0x00, 0x00, 0x00, 0x00, 0x00, 0x00, 0x00, 0x00, 0x00,
  0x00, 0x00, 0x00, 0x00, 0x00, 0x00, 0x00, 0x00, 0x00, 0x00, 0x00, 0x00, 0x00,
  0x00, 0x00, 0x00, 0x00, 0x00, 0x00, 0x00, 0x00, 0x00, 0x00, 0x00, 0x00, 0x00,
  0x00, 0x00, 0x00, 0x00, 0x00, 0x00, 0x00, 0x00, 0x00, 0x00, 0x00, 0x00, 0x00,
  0x00, 0x00, 0x00, 0x00, 0x00, 0x00, 0x00, 0x00, 0x00, 0x00, 0x00, 0x00, 0x00,
  0x2e, 0xd3, 0xff, 0xff, 0x04, 0x00, 0x00, 0x00, 0xc0, 0x00, 0x00, 0x00, 0xa3,
  0x2e, 0x9c, 0xbd, 0xa8, 0x7c, 0x4c, 0x3f, 0xfe, 0xce, 0xeb, 0xbe, 0xd0, 0x9b,
  0x92, 0x3e, 0x8d, 0xd8, 0xea, 0xbe, 0x75, 0xdb, 0x11, 0x3f, 0x22, 0xa5, 0x00,
  0xbf, 0x3c, 0x93, 0x6f, 0xbf, 0x80, 0xed, 0x2a, 0x3f, 0x66, 0xbb, 0x69, 0xbf,
  0x2b, 0xbb, 0x19, 0x3f, 0x16, 0xbf, 0x82, 0xbf, 0x6e, 0x9b, 0x09, 0x92, 0x42,
  0x31, 0x0a, 0x92, 0xc5, 0xc2, 0x09, 0x12, 0x54, 0xcf, 0x09, 0x12, 0xd2, 0x1b,
  0x0a, 0x92, 0x7b, 0x12, 0x0a, 0x92, 0xa2, 0x67, 0xdd, 0xbe, 0xfc, 0xff, 0x09,
  0xbf, 0xfe, 0xfc, 0x3c, 0xbe, 0xd5, 0x1b, 0xc0, 0x3e, 0xa8, 0x48, 0xb0, 0xbf,
  0xac, 0x92, 0x8a, 0x3e, 0xc2, 0xaa, 0xaf, 0x3c, 0xcd, 0xad, 0x18, 0xbf, 0x12,
  0xf5, 0x27, 0xbf, 0xf1, 0x5d, 0x97, 0x3e, 0x84, 0x09, 0xf6, 0xbe, 0x3c, 0xea,
  0xa0, 0xbe, 0xcb, 0xc5, 0x1c, 0x3f, 0x66, 0x2f, 0xbb, 0x3e, 0x5b, 0x12, 0x38,
  0xbf, 0x51, 0x26, 0xf7, 0x3d, 0xa2, 0x4e, 0x1b, 0x3f, 0x24, 0x6a, 0x52, 0xbf,
  0xf5, 0xfe, 0x3a, 0x3f, 0x59, 0xf5, 0x18, 0xbf, 0xe3, 0x6f, 0x4d, 0xbe, 0x28,
  0x88, 0x87, 0xbf, 0x8f, 0xe4, 0x2c, 0xbf, 0xaf, 0x48, 0x93, 0x3e, 0x6d, 0xf2,
  0xd7, 0x3e, 0x3d, 0xab, 0x96, 0xbd, 0xb2, 0x41, 0x29, 0xbf, 0xa3, 0xcd, 0x00,
  0x3e, 0xc4, 0x56, 0xbe, 0xbe, 0x41, 0x91, 0x29, 0x3e, 0xfa, 0xd3, 0xff, 0xff,
  0x04, 0x00, 0x00, 0x00, 0xd8, 0x00, 0x00, 0x00, 0xdc, 0x47, 0xc6, 0xbe, 0xd9,
  0x36, 0xfb, 0x3d, 0x88, 0xde, 0xb6, 0xbe, 0x47, 0x4f, 0xc8, 0xbd, 0x10, 0x6e,
  0xbd, 0x3e, 0x82, 0x0f, 0xa6, 0x3e, 0x90, 0x8f, 0x18, 0x3e, 0x9a, 0xf2, 0x07,
  0xbe, 0x70, 0x8b, 0x8f, 0x3d, 0x35, 0x99, 0x80, 0xbb, 0x3c, 0xce, 0x9c, 0xbe,
  0xa8, 0xa0, 0x2d, 0x3e, 0xbe, 0x79, 0x98, 0xbe, 0xd9, 0x40, 0x24, 0xbd, 0xd3,
  0x2a, 0x42, 0xbe, 0x5d, 0xd8, 0xc4, 0xbd, 0x25, 0x64, 0xc6, 0x3e, 0xd5, 0x26,
  0xe0, 0x3d, 0x16, 0xfc, 0x8e, 0xbd, 0x4b, 0x8f, 0xe7, 0x3e, 0x8e, 0xac, 0xd9,
  0x3d, 0xe3, 0xca, 0x08, 0xbe, 0x88, 0x1b, 0x86, 0x3e, 0xfd, 0x12, 0x8d, 0x3d,
  0x8d, 0xaa, 0x91, 0x3e, 0xf1, 0x56, 0x81, 0x3d, 0xd5, 0xa5, 0x3e, 0x3e, 0x9f,
  0x20, 0x0e, 0xbf, 0xa7, 0x9b, 0xf3, 0xbe, 0xf2, 0x6e, 0x76, 0x3c, 0x1a, 0x7d,
  0x06, 0xbe, 0xb5, 0x71, 0x06, 0x3f, 0xbb, 0x61, 0xaf, 0x3c, 0x10, 0x90, 0xb7,
  0xbb, 0x22, 0x57, 0x8c, 0x3e, 0x7f, 0xe1, 0x11, 0x3e, 0x7b, 0x78, 0x2a, 0xbe,
  0x64, 0x76, 0x24, 0xbe, 0x98, 0xb3, 0x1f, 0xbe, 0x51, 0x92, 0x96, 0x3a, 0xe7,
  0x24, 0x2f, 0x3e, 0xd1, 0xc8, 0x2c, 0x3e, 0x6c, 0x5b, 0x26, 0xbc, 0x2f, 0xd2,
  0x96, 0x3e, 0x53, 0x05, 0x1e, 0xbe, 0x3a, 0x18, 0x68, 0x3e, 0x17, 0xf0, 0xa0,
  0xbd, 0x74, 0xbe, 0x85, 0x3d, 0x4c, 0xee, 0x01, 0xbf, 0x1b, 0xa0, 0x1f, 0xbd,
  0xd9, 0x22, 0x38, 0xbe, 0x3e, 0xf4, 0x8d, 0xbd, 0x54, 0xa0, 0xa9, 0x3e, 0xfa,
  0x72, 0x3b, 0x3e, 0xde, 0xd4, 0xff, 0xff, 0x04, 0x00, 0x00, 0x00, 0x90, 0x00,
  0x00, 0x00, 0xef, 0xc5, 0xc9, 0x3e, 0xad, 0x03, 0x19, 0xbd, 0x6c, 0xe8, 0x34,
  0xbf, 0xe8, 0x4f, 0xb6, 0x3d, 0xe5, 0x10, 0x8f, 0xbe, 0xb6, 0x51, 0x08, 0x3e,
  0x28, 0x23, 0x7b, 0x3d, 0xb3, 0xcb, 0xea, 0xbe, 0x84, 0x7c, 0x3c, 0x3e, 0xa4,
  0xb3, 0x98, 0xbe, 0xb3, 0xfe, 0x33, 0xbe, 0x25, 0x56, 0x70, 0xbe, 0x50, 0xf1,
  0xf9, 0x3e, 0xae, 0x83, 0x09, 0x3d, 0x03, 0x66, 0x0c, 0x3f, 0x13, 0x43, 0x1c,
  0xbe, 0x01, 0x20, 0xd8, 0x3e, 0x07, 0x6c, 0x05, 0x3f, 0x81, 0x73, 0x0a, 0xbf,
  0xd6, 0xeb, 0x63, 0x3e, 0x64, 0x49, 0xf7, 0x3e, 0x5e, 0x09, 0x6f, 0xbe, 0x8e,
  0x35, 0x40, 0xbf, 0xb0, 0x53, 0x13, 0xbf, 0x05, 0xdc, 0x5a, 0x3e, 0xb9, 0x04,
  0x75, 0xbe, 0xf5, 0x41, 0x64, 0x3e, 0x07, 0x3a, 0x68, 0x3f, 0x30, 0xcb, 0x67,
  0x3f, 0x70, 0x54, 0x21, 0xbd, 0xbd, 0x61, 0x88, 0x3d, 0xfa, 0xe9, 0xbe, 0xbe,
  0x60, 0xf5, 0x67, 0xbc, 0xc9, 0x14, 0x19, 0x3f, 0xc3, 0xfe, 0x10, 0xbf, 0x41,
  0xd2, 0x94, 0x3f, 0x7a, 0xd5, 0xff, 0xff, 0x04, 0x00, 0x00, 0x00, 0xd8, 0x00,
  0x00, 0x00, 0x50, 0x5a, 0xd2, 0xbd, 0x62, 0x1c, 0xf0, 0x3d, 0x8d, 0xf5, 0xd2,
  0x3e, 0x16, 0x85, 0x96, 0x3d, 0x80, 0xa5, 0xb6, 0xbd, 0xb7, 0x1b, 0xb4, 0x3e,
  0xf4, 0x96, 0x01, 0x3f, 0x1b, 0xc6, 0x5c, 0x3e, 0x4d, 0x06, 0xdc, 0xbc, 0xcb,
  0x7a, 0x2f, 0x3d, 0x7a, 0xa4, 0x27, 0xbd, 0x6a, 0x5f, 0x1c, 0xbe, 0xae, 0x65,
  0x1f, 0xbe, 0xae, 0x7f, 0xe2, 0x3c, 0x4f, 0x58, 0xb6, 0x3d, 0xb9, 0x78, 0x57,
  0x3e, 0x11, 0xd7, 0xc1, 0xbd, 0xc2, 0xef, 0x98, 0x3e, 0xef, 0x21, 0x19, 0x3f,
  0xcf, 0x3c, 0x8b, 0x3e, 0x1d, 0x02, 0x57, 0xbd, 0x6e, 0x58, 0x1d, 0x3e, 0xb0,
  0x59, 0x96, 0xbd, 0x68, 0x7c, 0x7f, 0xbe, 0xc9, 0x93, 0xc5, 0xbe, 0x30, 0x29,
  0x81, 0xbe, 0xcc, 0x0c, 0x24, 0xbe, 0x9d, 0xed, 0x01, 0x3f, 0x11, 0xc8, 0x5e,
  0xbe, 0xe3, 0xdf, 0x03, 0xc0, 0x8a, 0x83, 0x7f, 0x3e, 0x39, 0xb1, 0x92, 0x3e,
  0xfc, 0x60, 0x75, 0x3e, 0x26, 0x26, 0x74, 0xbd, 0x75, 0xa6, 0x97, 0xbe, 0xc2,
  0xa8, 0x3d, 0xbe, 0x04, 0xfe, 0x21, 0xbe, 0x5d, 0x2e, 0xe8, 0xbb, 0xc3, 0x4b,
  0x43, 0x3e, 0x36, 0x2c, 0x14, 0x3d, 0x3f, 0x19, 0x54, 0xbd, 0xde, 0xa0, 0x86,
  0x3e, 0xd3, 0x87, 0x61, 0x3e, 0x41, 0x62, 0x89, 0x3e, 0x5a, 0xe2, 0x60, 0x3c,
  0xc4, 0x9e, 0x95, 0x3c, 0x89, 0x1c, 0x86, 0xbe, 0xbf, 0x97, 0x20, 0xbe, 0x52,
  0x23, 0xe9, 0x3d, 0xd9, 0xa2, 0xa4, 0xbc, 0x92, 0x99, 0x24, 0x3e, 0xcd, 0x13,
  0x30, 0x3e, 0x38, 0xc9, 0x69, 0x3d, 0x11, 0x98, 0x9a, 0x3e, 0x5e, 0xd6, 0xff,
  0xff, 0x04, 0x00, 0x00, 0x00, 0x20, 0x01, 0x00, 0x00, 0xcc, 0xfd, 0x2f, 0xbf,
  0x22, 0x3e, 0x9b, 0xbf, 0x78, 0xe6, 0x28, 0x3f, 0x95, 0x51, 0x74, 0xbe, 0x93,
  0x31, 0x00, 0x3f, 0x14, 0x17, 0xa2, 0xbf, 0x12, 0xf2, 0x25, 0x3f, 0x24, 0xd1,
  0x64, 0xbf, 0x60, 0x8d, 0x88, 0xbe, 0xe1, 0xdf, 0x06, 0xbf, 0xb2, 0x4b, 0xa8,
  0x3e, 0x4b, 0xac, 0xac, 0xbe, 0x6d, 0x76, 0x25, 0xbf, 0xa4, 0x56, 0x20, 0x3d,
  0xc5, 0x7c, 0x96, 0x3e, 0x5d, 0xe5, 0x9f, 0xbf, 0x47, 0x53, 0x79, 0xbf, 0xe3,
  0x7e, 0x01, 0xbf, 0x4a, 0x5b, 0x4b, 0xbe, 0xb5, 0x8a, 0x39, 0x3b, 0xe8, 0x08,
  0xab, 0x3d, 0xf1, 0x83, 0xf1, 0x3e, 0x2f, 0xfc, 0xc2, 0xbd, 0x50, 0x00, 0x0c,
  0x3f, 0x66, 0x42, 0x2c, 0xbe, 0x75, 0x30, 0x02, 0x3f, 0x80, 0xbb, 0x08, 0x3f,
  0x2f, 0x25, 0x3f, 0xbe, 0xf8, 0x0f, 0x22, 0x3e, 0x28, 0x55, 0xdc, 0xbf, 0x85,
  0x65, 0xf6, 0x3d, 0x7d, 0x46, 0x18, 0xbe, 0xad, 0x86, 0x79, 0x3f, 0xb1, 0x4f,
  0xe6, 0xbd, 0xad, 0x23, 0x42, 0xbe, 0x2d, 0xb2, 0x29, 0xbe, 0xe7, 0x75, 0x14,
  0xbe, 0xbe, 0x0c, 0xa2, 0x3d, 0x2b, 0x68, 0x7e, 0x3f, 0x82, 0x1d, 0xb0, 0xbd,
  0xfe, 0xa2, 0x05, 0x3e, 0xa7, 0x35, 0x4b, 0x3e, 0x9a, 0xc5, 0x39, 0x3f, 0x50,
  0xef, 0x43, 0xbe, 0x4f, 0x79, 0x88, 0x3c, 0x56, 0xe2, 0x82, 0x3f, 0x60, 0xdb,
  0xfc, 0xbd, 0xd2, 0xb2, 0x0c, 0xbf, 0xb3, 0x98, 0xc5, 0xbe, 0xb4, 0xed, 0x12,
  0x3f, 0x09, 0xae, 0x9c, 0xbb, 0x79, 0xd6, 0x24, 0x3f, 0xbc, 0x64, 0x2d, 0xbd,
  0xed, 0x87, 0x46, 0x3f, 0x99, 0x4c, 0x07, 0xbf, 0xcc, 0xa8, 0x1a, 0xbf, 0x97,
  0x3b, 0xde, 0x3d, 0xf0, 0xf6, 0xb1, 0xbd, 0x71, 0x83, 0xbc, 0x3e, 0xa3, 0xc7,
  0x37, 0xbd, 0x03, 0xfc, 0x4b, 0x3e, 0xeb, 0xaa, 0x42, 0xbf, 0x6a, 0xf0, 0xe4,
  0x3d, 0x5c, 0x43, 0x86, 0xbd, 0x3d, 0xb7, 0xc3, 0x3c, 0xa7, 0x16, 0x0b, 0xbf,
  0xa7, 0x0f, 0xb8, 0x3e, 0x52, 0x2d, 0x60, 0xbf, 0xd2, 0xf9, 0x7e, 0x3e, 0x38,
  0x1b, 0x62, 0xbe, 0xd7, 0x9f, 0x5a, 0x3f, 0x77, 0xca, 0x11, 0xbf, 0x8a, 0xd7,
  0xff, 0xff, 0x04, 0x00, 0x00, 0x00, 0xb0, 0x01, 0x00, 0x00, 0x1b, 0x28, 0x8b,
  0xbe, 0x60, 0x65, 0x84, 0x3e, 0xf8, 0xcd, 0xc6, 0x3e, 0x35, 0x54, 0x66, 0x3f,
  0xff, 0x8a, 0x41, 0xbf, 0x9d, 0x13, 0xdb, 0xbe, 0x14, 0xcb, 0x14, 0xbf, 0x4e,
  0x67, 0x78, 0x3e, 0x9c, 0xcd, 0x49, 0xbd, 0xfd, 0xfd, 0x63, 0x3e, 0xee, 0xf7,
  0x87, 0x3d, 0x8d, 0x01, 0x28, 0xbf, 0xd3, 0xf1, 0x1f, 0xbe, 0xc0, 0xb0, 0x4d,
  0x3e, 0xb8, 0xd7, 0x7e, 0xbd, 0xc4, 0x9f, 0x0a, 0xbf, 0x23, 0x29, 0xb0, 0x3e,
  0x23, 0x52, 0xa9, 0x3e, 0x2a, 0x9f, 0x03, 0x3f, 0xbe, 0x94, 0x71, 0x3e, 0x3a,
  0x2f, 0x64, 0xbc, 0x08, 0x16, 0x81, 0xbe, 0x79, 0x40, 0xab, 0x3d, 0x4d, 0xb7,
  0x0d, 0xbe, 0x63, 0x9f, 0x9a, 0xbd, 0xc8, 0xbe, 0xad, 0x3e, 0xb5, 0xaa, 0xeb,
  0x3e, 0x20, 0xb1, 0x3a, 0x3f, 0xeb, 0xb3, 0x17, 0xbf, 0x56, 0x44, 0x55, 0xbf,
  0xe1, 0xa6, 0x17, 0xbf, 0xe6, 0x33, 0xac, 0x3d, 0x9d, 0x89, 0x55, 0xbe, 0x35,
  0x7f, 0x2b, 0x3e, 0x26, 0x76, 0x63, 0x3c, 0xc1, 0xa3, 0x17, 0xbe, 0xdf, 0x73,
  0x21, 0xbe, 0xf8, 0x49, 0x96, 0x3d, 0x8a, 0x50, 0x0d, 0x3e, 0xa1, 0x59, 0x13,
  0xbf, 0x6b, 0xba, 0x7f, 0x3e, 0x51, 0xb7, 0x11, 0x3e, 0xe7, 0xd3, 0x82, 0x3e,
  0xb8, 0x94, 0xc9, 0x3e, 0xfd, 0x9b, 0xe3, 0x3d, 0x5f, 0x04, 0xaa, 0xbe, 0x15,
  0x05, 0xbf, 0xbb, 0x8f, 0x64, 0xaa, 0xbd, 0xe8, 0x6c, 0xc4, 0x3d, 0x07, 0x64,
  0x17, 0x3d, 0x45, 0xd7, 0x65, 0xbe, 0xa7, 0x27, 0xb1, 0xbe, 0x33, 0x05, 0x85,
  0x3f, 0x59, 0xa4, 0xa7, 0x3e, 0x52, 0xc9, 0xb6, 0x3f, 0x14, 0x81, 0x20, 0xbd,
  0x02, 0x60, 0xfb, 0x3d, 0xf5, 0xf9, 0x65, 0xbf, 0x86, 0x2f, 0xc3, 0xbf, 0xff,
  0xb5, 0x03, 0xbf, 0x62, 0x77, 0x3f, 0xbe, 0xd9, 0x12, 0xbc, 0xbd, 0x51, 0xc9,
  0x50, 0x3d, 0x02, 0x39, 0xba, 0xbe, 0xaa, 0xd2, 0x1d, 0x3e, 0x75, 0xa7, 0x99,
  0x3e, 0x25, 0x3c, 0x86, 0x3e, 0xb0, 0x9e, 0xc6, 0x3d, 0x4e, 0x53, 0xd4, 0xbe,
  0x4b, 0x32, 0x67, 0xbe, 0x74, 0xc5, 0x27, 0x3e, 0xef, 0x08, 0x16, 0xbe, 0xe8,
  0xc4, 0x1f, 0xbe, 0x4f, 0xe1, 0xb6, 0x3e, 0xfa, 0x67, 0xc7, 0x3e, 0x6a, 0x20,
  0x7f, 0x3f, 0x87, 0xb2, 0x32, 0xbf, 0xa9, 0x42, 0x25, 0xbf, 0xf9, 0x48, 0xd2,
  0xbe, 0x8a, 0x48, 0xa6, 0x3d, 0x9b, 0x2c, 0xe8, 0xbe, 0x24, 0xf4, 0x86, 0x3d,
  0xe3, 0x0e, 0x80, 0xbd, 0xf3, 0x17, 0x08, 0xbe, 0x90, 0x96, 0xa8, 0xbe, 0xce,
  0x0d, 0x0d, 0xbd, 0x8e, 0x12, 0x0f, 0xbe, 0x7c, 0xaa, 0x2f, 0xbf, 0x62, 0x55,
  0x00, 0x3f, 0x72, 0x5c, 0xc1, 0x3d, 0x79, 0x95, 0x0c, 0x3e, 0xe7, 0x77, 0x59,
  0x3d, 0x06, 0x72, 0x4f, 0xbe, 0xd2, 0xdb, 0x50, 0xbe, 0xbf, 0x9a, 0xfc, 0x3d,
  0xae, 0x88, 0x2d, 0xbe, 0x55, 0x24, 0x9f, 0x3b, 0xde, 0x31, 0xce, 0x3e, 0x5e,
  0x36, 0xb4, 0x3e, 0x3c, 0xd7, 0x6c, 0x3f, 0xb9, 0x1f, 0x6a, 0xbf, 0xfc, 0xfd,
  0xdd, 0xbe, 0x7a, 0x8b, 0x0c, 0xbf, 0x63, 0x48, 0x91, 0x3e, 0x84, 0x4d, 0x62,
  0x3e, 0xc2, 0x23, 0x1b, 0x3e, 0x02, 0x38, 0x66, 0x3d, 0x85, 0xf8, 0xe6, 0xbd,
  0x46, 0xd9, 0xff, 0xff, 0x04, 0x00, 0x00, 0x00, 0x30, 0x00, 0x00, 0x00, 0x00,
  0x00, 0x00, 0x00, 0x00, 0x00, 0x00, 0x00, 0x00, 0x00, 0x00, 0x00, 0x00, 0x00,
  0x00, 0x00, 0x00, 0x00, 0x00, 0x00, 0x00, 0x00, 0x00, 0x00, 0x00, 0x00, 0x00,
  0x00, 0x00, 0x00, 0x00, 0x00, 0x00, 0x00, 0x00, 0x00, 0x00, 0x00, 0x00, 0x00,
  0x00, 0x00, 0x00, 0x00, 0x00, 0x00, 0x00, 0x00, 0x82, 0xd9, 0xff, 0xff, 0x04,
  0x00, 0x00, 0x00, 0x90, 0x00, 0x00, 0x00, 0x96, 0x2f, 0x57, 0xbf, 0x70, 0xc0,
  0x47, 0x3e, 0xc4, 0x14, 0xc2, 0x3d, 0x3f, 0x87, 0x04, 0xbf, 0xf9, 0xe5, 0xcf,
  0xbe, 0x4b, 0x00, 0xf4, 0x3d, 0xa7, 0x03, 0x6f, 0xbf, 0x09, 0xb4, 0xc9, 0xbe,
  0xba, 0x8a, 0x18, 0xbf, 0xc0, 0x00, 0x53, 0x3e, 0xad, 0x3d, 0x33, 0x3d, 0xc8,
  0x48, 0x71, 0x3e, 0x56, 0xe4, 0x65, 0x3f, 0x72, 0xa4, 0x1d, 0xc0, 0xc6, 0x60,
  0xac, 0xbf, 0xee, 0x3a, 0x7d, 0xc0, 0xbe, 0xa8, 0x21, 0xbe, 0x3e, 0x5a, 0xaa,
  0x3e, 0x2b, 0x39, 0xa7, 0xbe, 0x03, 0x46, 0x84, 0xbe, 0x61, 0xd2, 0x34, 0xbe,
  0x54, 0xdc, 0x98, 0xbe, 0xe0, 0x57, 0xa1, 0xbf, 0xc4, 0x88, 0x45, 0x3d, 0x4f,
  0x6d, 0x0e, 0x3d, 0x91, 0xad, 0x60, 0xbe, 0x6a, 0x46, 0x71, 0xbe, 0x45, 0xa2,
  0xab, 0xbe, 0x56, 0x02, 0x02, 0x3f, 0xc0, 0x65, 0xb6, 0x3f, 0xb8, 0xe4, 0xd3,
  0xbe, 0x0b, 0xd8, 0xbb, 0xbd, 0x99, 0x96, 0x5a, 0xc0, 0x34, 0x02, 0xef, 0x3d,
  0xa1, 0xaf, 0xcf, 0x3e, 0x90, 0x7e, 0x97, 0xbe, 0x1e, 0xda, 0xff, 0xff, 0x04,
  0x00, 0x00, 0x00, 0xd8, 0x00, 0x00, 0x00, 0x83, 0xbb, 0x96, 0x3e, 0x72, 0xeb,
  0xbe, 0xbf, 0xe9, 0x00, 0xe3, 0x3e, 0xbd, 0x67, 0xa6, 0x3e, 0x36, 0x57, 0x0d,
  0x3f, 0x4d, 0x3c, 0x21, 0xbf, 0x87, 0x01, 0x94, 0x3e, 0x70, 0xee, 0x3f, 0x3f,
  0x7c, 0xc6, 0x8e, 0xbe, 0x1b, 0x82, 0x05, 0x3f, 0xfd, 0xbd, 0x27, 0xbe, 0xdc,
  0x08, 0xc3, 0x3e, 0xaf, 0x4b, 0xe9, 0x3e, 0xfb, 0x3e, 0xb1, 0xbf, 0xc0, 0x2b,
  0xd5, 0x3e, 0x3c, 0x84, 0x34, 0x3e, 0xd8, 0xd2, 0x1c, 0x3f, 0xb5, 0xab, 0x21,
  0xbf, 0xdc, 0x80, 0xa4, 0x3d, 0xab, 0x77, 0x56, 0x3f, 0xc8, 0x97, 0x5c, 0xbe,
  0xae, 0xcb, 0xf5, 0x3d, 0xab, 0x6c, 0x0e, 0xbe, 0x85, 0x2a, 0xe0, 0x3e, 0xb3,
  0xde, 0x04, 0xbf, 0x71, 0x56, 0xec, 0x3f, 0x8c, 0x5b, 0xc7, 0x3d, 0x9e, 0x83,
  0x52, 0xbf, 0x17, 0x96, 0x8b, 0xbd, 0x4a, 0x13, 0x38, 0xbe, 0xa4, 0xd1, 0xcb,
  0xbc, 0x87, 0x51, 0x73, 0x3f, 0x81, 0xde, 0x8a, 0xbe, 0x64, 0xa1, 0x6e, 0x3d,
  0x71, 0x07, 0xb3, 0xbe, 0xa4, 0x5a, 0x94, 0x3e, 0x09, 0x19, 0xa3, 0x3e, 0xbc,
  0xe4, 0xb3, 0xbf, 0x68, 0x3d, 0xad, 0x3e, 0x5d, 0x51, 0x29, 0x3e, 0xee, 0xce,
  0xd8, 0x3e, 0x3c, 0x54, 0x4c, 0xbf, 0x17, 0xa9, 0xa8, 0x3e, 0x20, 0x68, 0xac,
  0x3e, 0x8c, 0x66, 0x1a, 0xbe, 0xf9, 0x75, 0xa5, 0x3e, 0x10, 0x6f, 0x05, 0xbe,
  0xfe, 0x9c, 0x00, 0x3f, 0x03, 0x36, 0xa7, 0x3e, 0x8b, 0xa4, 0xb0, 0xbf, 0xc1,
  0x8b, 0xec, 0x3e, 0x9a, 0x2c, 0xd6, 0x3e, 0x00, 0x7d, 0x13, 0x3f, 0xc5, 0xb4,
  0x30, 0xbf, 0x02, 0xdb, 0xff, 0xff, 0x04, 0x00, 0x00, 0x00, 0x90, 0x00, 0x00,
  0x00, 0x95, 0xff, 0xa7, 0x3d, 0x99, 0x2d, 0xf2, 0x3e, 0xdf, 0x3b, 0x24, 0x3f,
  0xd9, 0xe9, 0xa8, 0x3d, 0x0e, 0x15, 0x04, 0xbf, 0x24, 0x62, 0x0b, 0xbe, 0xd3,
  0xd8, 0x26, 0x3e, 0x6c, 0x7e, 0x10, 0xbd, 0xcb, 0xed, 0xa1, 0xbe, 0xae, 0x39,
  0xd7, 0xbe, 0x8b, 0x02, 0x9e, 0xbd, 0xfc, 0x89, 0x97, 0x3e, 0xa2, 0x32, 0xa4,
  0xbe, 0xd7, 0x37, 0x13, 0xbf, 0x3c, 0xb6, 0x54, 0x3e, 0x9a, 0xae, 0x24, 0x3e,
  0x11, 0x05, 0xd9, 0x3d, 0xa1, 0x5d, 0x9f, 0xbc, 0x01, 0xd9, 0x2b, 0xbe, 0xd7,
  0x42, 0xdb, 0xbc, 0x3a, 0xf9, 0x1d, 0x3e, 0x37, 0x63, 0x13, 0xbf, 0x55, 0x47,
  0x40, 0xbe, 0x40, 0x2d, 0x87, 0x3e, 0x53, 0xdd, 0x1b, 0x3f, 0x7f, 0x64, 0x88,
  0x3d, 0x13, 0xfd, 0x5b, 0xbe, 0x71, 0x68, 0x37, 0x3f, 0xbe, 0x02, 0xba, 0x3d,
  0xac, 0x82, 0xe0, 0xbe, 0x72, 0xe7, 0xeb, 0xbc, 0xdd, 0xc7, 0x10, 0x3e, 0x32,
  0xe3, 0x28, 0x3f, 0x9f, 0x27, 0x15, 0xbd, 0xba, 0x67, 0x41, 0xbf, 0xa5, 0xe4,
  0x81, 0x3f, 0x9e, 0xdb, 0xff, 0xff, 0x04, 0x00, 0x00, 0x00, 0xd8, 0x00, 0x00,
  0x00, 0x3c, 0x60, 0x5d, 0x3e, 0xa5, 0x1c, 0xf4, 0xbe, 0x11, 0x9e, 0xc9, 0xbc,
  0x33, 0xb3, 0xe5, 0xbd, 0xab, 0x6d, 0x92, 0xbe, 0x35, 0xd9, 0x0d, 0xbd, 0x5a,
  0xfc, 0xae, 0x3d, 0x44, 0xb7, 0xf3, 0xbe, 0x9f, 0x32, 0xaa, 0x3d, 0x73, 0x58,
  0x73, 0x3c, 0x7d, 0x2d, 0x14, 0xbf, 0x71, 0xbd, 0x07, 0xbe, 0xbd, 0xd1, 0x99,
  0x3d, 0x93, 0x66, 0xe3, 0xbc, 0x6f, 0x34, 0xde, 0x3c, 0x83, 0x7a, 0x6b, 0xbb,
  0xb6, 0xef, 0x21, 0x3e, 0x27, 0xae, 0x1f, 0x3c, 0x72, 0x7a, 0xa4, 0x3e, 0xb4,
  0x21, 0xd2, 0xbd, 0xb7, 0x04, 0x23, 0x3e, 0xbb, 0x9a, 0x8e, 0xbe, 0xd3, 0xb9,
  0x9b, 0xbc, 0xbf, 0x0c, 0x98, 0xbe, 0x2c, 0x02, 0xfa, 0x3d, 0xca, 0x3a, 0x1d,
  0xbe, 0x8c, 0x44, 0x0d, 0x3e, 0xfd, 0x31, 0x88, 0xbf, 0x74, 0xa6, 0xbc, 0xbe,
  0x05, 0xc5, 0xd2, 0xbd, 0x70, 0xcb, 0x3b, 0x3d, 0xfe, 0x95, 0xd8, 0x3d, 0x7e,
  0x75, 0x64, 0x3e, 0xeb, 0x7f, 0x7c, 0xbd, 0x27, 0xe2, 0x23, 0xbe, 0x08, 0x32,
  0xce, 0xbe, 0x49, 0x24, 0x1c, 0xbd, 0xc2, 0x1e, 0xe1, 0xbc, 0x2e, 0xd3, 0x06,
  0x3e, 0xc7, 0xdf, 0xc9, 0xbc, 0x35, 0xd3, 0x4e, 0xbd, 0x48, 0x65, 0x35, 0x3d,
  0xf6, 0x23, 0xbd, 0x3e, 0xdd, 0x2e, 0x24, 0x3d, 0x84, 0x26, 0xbd, 0x3e, 0x97,
  0x4e, 0x75, 0xbd, 0xb0, 0xee, 0xc4, 0x3d, 0x32, 0x63, 0xb6, 0xbe, 0xeb, 0xa3,
  0x50, 0x3e, 0xdb, 0xe7, 0xca, 0xbd, 0x9a, 0xe5, 0xc7, 0x3e, 0xc2, 0xf0, 0xea,
  0xbd, 0x5f, 0xcb, 0x3b, 0xbe, 0xc5, 0x90, 0x68, 0xbe, 0x82, 0xdc, 0xff, 0xff,
  0x04, 0x00, 0x00, 0x00, 0xc0, 0x00, 0x00, 0x00, 0x75, 0x59, 0x0a, 0x3e, 0xbb,
  0x5d, 0xb4, 0x3e, 0xd0, 0x72, 0x8b, 0xbf, 0xc6, 0x19, 0x42, 0x3e, 0xb7, 0x6a,
  0x8c, 0x3e, 0x5d, 0x31, 0xb1, 0xbd, 0x34, 0x50, 0xfa, 0x3e, 0x79, 0xc0, 0x09,
  0x3f, 0x3b, 0xab, 0x75, 0xbf, 0x29, 0xa0, 0x03, 0x3f, 0x3a, 0x6d, 0xbc, 0xbc,
  0xa3, 0x23, 0xa3, 0x3e, 0xc1, 0xd3, 0xf2, 0xbe, 0xa9, 0xbd, 0x58, 0xbd, 0xe8,
  0x7b, 0xb0, 0xbe, 0xba, 0x82, 0x21, 0xbf, 0x60, 0xc8, 0x21, 0xbe, 0x8a, 0xf5,
  0x60, 0x3e, 0xaf, 0xad, 0xbf, 0xbd, 0x10, 0xb3, 0x93, 0x3f, 0x43, 0x3d, 0x52,
  0xbf, 0x9c, 0x60, 0x07, 0xbf, 0x25, 0x52, 0x9c, 0x3e, 0xf7, 0x53, 0xbe, 0x3e,
  0x69, 0x39, 0x64, 0x3d, 0x48, 0xb0, 0xc8, 0x3e, 0xda, 0xe6, 0x28, 0xbd, 0x64,
  0xdc, 0xfb, 0xbe, 0xe5, 0x73, 0x54, 0xbf, 0x94, 0x4a, 0x96, 0xbf, 0x1e, 0xd8,
  0x50, 0x3f, 0x14, 0xed, 0x74, 0x3e, 0x48, 0x4a, 0x59, 0x3f, 0x62, 0x70, 0xe5,
  0x3d, 0x87, 0x8e, 0x72, 0xbd, 0x0e, 0x4a, 0x93, 0xbd, 0x51, 0xc5, 0x1f, 0xbf,
  0x88, 0xb0, 0xa7, 0xbe, 0x6f, 0x8f, 0xc6, 0xbf, 0xa2, 0xb8, 0x97, 0xbe, 0x33,
  0x87, 0x81, 0xbe, 0x42, 0xf3, 0x45, 0xbf, 0x2a, 0x19, 0x9f, 0xbd, 0x00, 0x5f,
  0x66, 0x3f, 0xb4, 0x4e, 0x60, 0xbf, 0x6b, 0x5f, 0x83, 0x3f, 0x40, 0xf7, 0x80,
  0xbf, 0x7f, 0x40, 0xd2, 0x3e, 0x4e, 0xdd, 0xff, 0xff, 0x04, 0x00, 0x00, 0x00,
  0x18, 0x00, 0x00, 0x00, 0x00, 0x00, 0x00, 0x00, 0x00, 0x00, 0x00, 0x00, 0x00,
  0x00, 0x00, 0x00, 0x00, 0x00, 0x00, 0x00, 0x00, 0x00, 0x00, 0x00, 0x00, 0x00,
  0x00, 0x00, 0x72, 0xdd, 0xff, 0xff, 0x04, 0x00, 0x00, 0x00, 0x20, 0x01, 0x00,
  0x00, 0xbd, 0x25, 0x00, 0xbe, 0x4a, 0x7c, 0x8c, 0xbd, 0x2a, 0x44, 0xb5, 0x3e,
  0x4a, 0x46, 0x48, 0x3c, 0x47, 0x7a, 0xb1, 0xbe, 0x2d, 0x1d, 0x29, 0x3e, 0x11,
  0x4a, 0xf9, 0x3d, 0x2d, 0xa7, 0x26, 0x3e, 0xad, 0x1c, 0xb5, 0x3d, 0xb7, 0xc2,
  0xef, 0x3e, 0x06, 0x4b, 0x66, 0x3f, 0xbc, 0xe6, 0x8b, 0xbd, 0x1f, 0x1f, 0x24,
  0x3e, 0xf9, 0x91, 0x6a, 0xbe, 0x3c, 0x84, 0x5e, 0xbe, 0x4a, 0x84, 0x6e, 0xbc,
  0x94, 0x9a, 0xfc, 0xbd, 0x1d, 0x70, 0x07, 0xbf, 0x80, 0x50, 0xa8, 0xbf, 0x73,
  0xb6, 0xd0, 0x3d, 0x24, 0x20, 0x43, 0xbe, 0x26, 0x94, 0x11, 0xbf, 0xe8, 0x65,
  0x1b, 0xbe, 0x33, 0x4e, 0x3e, 0xbe, 0x5d, 0xac, 0xdb, 0x3b, 0xd6, 0x28, 0x8f,
  0x3d, 0x25, 0x7c, 0xd7, 0xbe, 0xf1, 0x85, 0x16, 0x3e, 0xc6, 0x4f, 0x59, 0x3e,
  0x5e, 0xde, 0xed, 0xbd, 0x77, 0xb9, 0x4c, 0xbe, 0x8f, 0x4d, 0x9c, 0xbe, 0x79,
  0x2e, 0xf9, 0x3d, 0xa2, 0x1a, 0xc4, 0x3f, 0xb6, 0x67, 0xfe, 0xbe, 0x09, 0x90,
  0x01, 0xc0, 0x6e, 0xc8, 0x9b, 0xbf, 0xc9, 0x6f, 0xf6, 0x3f, 0x52, 0x31, 0xc6,
  0x3d, 0x34, 0xfa, 0xb2, 0x3d, 0x6d, 0xa6, 0xdd, 0x3d, 0x05, 0x66, 0x89, 0xbf,
  0xd9, 0x77, 0x18, 0x3f, 0xd8, 0x99, 0x1f, 0x3e, 0x1e, 0xeb, 0xde, 0x3d, 0x75,
  0xf9, 0xbd, 0xbf, 0x64, 0x59, 0x1d, 0x3e, 0x29, 0x60, 0x01, 0xbf, 0x11, 0xc1,
  0xbe, 0x3e, 0x21, 0x26, 0xc1, 0xbe, 0x56, 0x3b, 0xb7, 0xbc, 0xb0, 0x1f, 0x74,
  0x3d, 0xdb, 0xed, 0x92, 0xbe, 0xa0, 0x71, 0x0e, 0xbe, 0x4f, 0x8d, 0xae, 0xbd,
  0xfa, 0xe6, 0x72, 0x3e, 0xb9, 0x9b, 0xc5, 0xbf, 0x2b, 0x4f, 0x4c, 0xbf, 0x5a,
  0x49, 0x3b, 0xbf, 0xf1, 0x77, 0xcd, 0x3c, 0xc3, 0xde, 0x4d, 0x3e, 0x3a, 0x6a,
  0xce, 0x3e, 0xbe, 0xac, 0xa6, 0x3f, 0xe2, 0x14, 0x68, 0xbf, 0x07, 0x8b, 0x1a,
  0xbf, 0xb9, 0x96, 0xfd, 0xbd, 0x04, 0xfa, 0xe1, 0x3d, 0xb8, 0x47, 0x12, 0x3e,
  0x79, 0x1d, 0xca, 0xbd, 0x06, 0xa8, 0x86, 0x3d, 0x3a, 0xe9, 0x25, 0x3f, 0xe9,
  0x43, 0xf6, 0xbd, 0x9e, 0xde, 0xff, 0xff, 0x04, 0x00, 0x00, 0x00, 0x00, 0x01,
  0x00, 0x00, 0x75, 0x9d, 0x27, 0x3c, 0x13, 0xc8, 0xd4, 0xbe, 0x98, 0xe0, 0xde,
  0x3d, 0xef, 0x06, 0xd6, 0x3e, 0x7c, 0x76, 0x22, 0xbf, 0x45, 0x2b, 0x87, 0x3e,
  0x2f, 0x34, 0x56, 0x3f, 0x4a, 0x3c, 0x18, 0x3b, 0xff, 0x2f, 0x3e, 0xbd, 0x9b,
  0x56, 0x1c, 0xbe, 0x8e, 0x91, 0xd9, 0x3e, 0x8d, 0x2d, 0x3d, 0x3e, 0xa6, 0xc8,
  0x0d, 0xbf, 0xe0, 0xa7, 0x23, 0xbf, 0x4c, 0x98, 0x2b, 0xbf, 0xd5, 0x8e, 0x74,
  0xbe, 0x77, 0xa3, 0x79, 0x3f, 0xc2, 0xf5, 0xaa, 0xbe, 0x57, 0xe4, 0xb2, 0x3f,
  0xe4, 0x0c, 0xe8, 0x3e, 0x5b, 0x91, 0x89, 0xbf, 0x83, 0x90, 0xa6, 0xbe, 0x63,
  0xad, 0xe0, 0x3c, 0x45, 0xfd, 0x84, 0xbd, 0x52, 0xce, 0x9e, 0x3d, 0x9b, 0x41,
  0x20, 0x3e, 0xf6, 0x08, 0x5f, 0x3f, 0x63, 0x25, 0xd7, 0xbd, 0xe2, 0x6f, 0x13,
  0xbf, 0x2d, 0xfc, 0x2a, 0xbe, 0x21, 0xc9, 0x56, 0xbe, 0x60, 0xd8, 0x65, 0x3c,
  0xa2, 0xaf, 0x8c, 0xbd, 0x5f, 0xc5, 0x9b, 0x3e, 0xcd, 0x8b, 0x98, 0x3d, 0x99,
  0xd5, 0x95, 0xbe, 0xed, 0x5b, 0xdf, 0xbe, 0xb9, 0x5d, 0x0d, 0xbf, 0x9a, 0xe1,
  0x34, 0xbe, 0xbd, 0x0b, 0x04, 0x3e, 0x8e, 0x33, 0x96, 0xbf, 0xfd, 0x90, 0xd5,
  0xbd, 0xb4, 0x7b, 0x6b, 0xbe, 0x4f, 0x0f, 0x59, 0x3d, 0x97, 0x54, 0xc9, 0xbc,
  0x20, 0x1a, 0x57, 0x3e, 0x47, 0xb9, 0x63, 0xbc, 0x39, 0x79, 0x0f, 0xbf, 0x6f,
  0x3b, 0x31, 0x3e, 0xc8, 0x55, 0x5d, 0xbe, 0x13, 0x55, 0xc0, 0xbe, 0x34, 0x3a,
  0x0f, 0x3e, 0x56, 0x30, 0x83, 0xbe, 0xa6, 0x03, 0xe5, 0x3e, 0xf3, 0x80, 0x9f,
  0xbd, 0xa3, 0x61, 0xa7, 0xbe, 0x63, 0x02, 0x82, 0x3e, 0xf7, 0x90, 0x12, 0xbe,
  0x79, 0x71, 0x3e, 0x3f, 0x7c, 0x9f, 0x7f, 0x3e, 0x6d, 0x13, 0x5d, 0xbf, 0x0c,
  0x9d, 0x70, 0xbe, 0xf5, 0x15, 0xc8, 0x3e, 0x14, 0x2d, 0x23, 0x3e, 0xaa, 0xdf,
  0xff, 0xff, 0x04, 0x00, 0x00, 0x00, 0x20, 0x01, 0x00, 0x00, 0xa2, 0x11, 0xc3,
  0xbd, 0x08, 0xaa, 0xaa, 0x3d, 0x63, 0xc0, 0xd3, 0x3c, 0x97, 0xcd, 0x3a, 0x3e,
  0xeb, 0xf5, 0x0f, 0x3d, 0xa6, 0x76, 0x81, 0xbc, 0x45, 0x62, 0x11, 0xbd, 0x0a,
  0x20, 0xe2, 0xbc, 0xef, 0xf6, 0x87, 0xbe, 0x9c, 0xe6, 0xf8, 0x3d, 0x0c, 0x12,
  0x6c, 0x3e, 0x02, 0xd9, 0xd1, 0xbe, 0x20, 0xf6, 0xf3, 0x3d, 0xa3, 0x58, 0xaa,
  0x3d, 0x5f, 0x9e, 0xbd, 0x3d, 0x2f, 0xce, 0xa0, 0x3e, 0xb9, 0x87, 0xb5, 0xbd,
  0x68, 0x72, 0x62, 0xbe, 0x50, 0x83, 0x19, 0x3e, 0x28, 0xf8, 0xe5, 0xbe, 0x52,
  0x6a, 0xc8, 0x3d, 0x00, 0xc1, 0x2e, 0x3d, 0x8c, 0x1b, 0x5a, 0x3e, 0x06, 0x7e,
  0xb6, 0x3e, 0x1c, 0xdd, 0xa1, 0xbd, 0xb8, 0x34, 0x92, 0x3e, 0x0d, 0xe2, 0x80,
  0x3e, 0x61, 0xfa, 0x99, 0x3e, 0x10, 0x0e, 0x99, 0x3e, 0x50, 0x39, 0xe0, 0x3d,
  0xde, 0x7e, 0x3b, 0x3d, 0x87, 0xed, 0x59, 0x3e, 0x78, 0x98, 0x92, 0xbe, 0xf1,
  0x8a, 0xad, 0x3f, 0xd7, 0x70, 0x46, 0x3f, 0x7f, 0x0c, 0x31, 0x3f, 0xda, 0xa5,
  0x79, 0x3e, 0x39, 0x70, 0x8a, 0x3f, 0x75, 0x19, 0xda, 0x3e, 0xaa, 0x57, 0x00,
  0xbd, 0x20, 0x9f, 0xc4, 0xbd, 0x56, 0xf7, 0x02, 0xbf, 0x05, 0xa1, 0x81, 0x3d,
  0x3e, 0x4b, 0xc7, 0xbe, 0x30, 0x8f, 0x41, 0x3e, 0x92, 0x37, 0xb2, 0x3c, 0x4c,
  0xb8, 0x49, 0x3e, 0x4f, 0x8a, 0x90, 0xbd, 0x41, 0x9c, 0x22, 0x3c, 0x2a, 0x93,
  0x1c, 0x3d, 0xbf, 0x1d, 0x2a, 0x3e, 0xc0, 0x09, 0x10, 0xbd, 0xe9, 0x28, 0x17,
  0x3e, 0x36, 0x08, 0xbd, 0x3c, 0xb8, 0x00, 0x29, 0x3e, 0x46, 0x3d, 0x7e, 0xbe,
  0x08, 0x0c, 0x35, 0xbd, 0xb1, 0xd9, 0x99, 0xbe, 0xbb, 0x1b, 0xad, 0x3d, 0x69,
  0x25, 0x26, 0x3f, 0xaa, 0xbe, 0x3c, 0x3e, 0x4c, 0x5a, 0xc1, 0x3d, 0x0a, 0x26,
  0xd9, 0x3d, 0x10, 0xe1, 0xa8, 0x3d, 0xb3, 0x79, 0x06, 0xbe, 0x08, 0x01, 0x2f,
  0xbe, 0xd1, 0xd4, 0x22, 0x3e, 0x18, 0x4f, 0xf5, 0xbd, 0x68, 0x7a, 0x2c, 0x3e,
  0x6e, 0x41, 0x3b, 0x3d, 0xca, 0x8a, 0x61, 0x3d, 0xca, 0x1c, 0xa2, 0xbc, 0xd6,
  0xe0, 0xff, 0xff, 0x04, 0x00, 0x00, 0x00, 0x00, 0x01, 0x00, 0x00, 0x6e, 0x45,
  0x55, 0x3e, 0x66, 0xd2, 0x3e, 0xbf, 0x6a, 0x55, 0x82, 0x3d, 0xe1, 0x81, 0x10,
  0xbe, 0xf2, 0xa1, 0x01, 0xbb, 0x06, 0x7a, 0xc2, 0x3c, 0x2c, 0x18, 0x0c, 0x3c,
  0xa6, 0x89, 0x91, 0xbd, 0xba, 0x6e, 0xba, 0xbe, 0xed, 0x32, 0x9f, 0x3c, 0x9c,
  0x80, 0x45, 0x3e, 0x9b, 0x95, 0x84, 0x3c, 0x50, 0x45, 0x1e, 0xbe, 0xe1, 0x45,
  0xc5, 0x3e, 0x66, 0x05, 0x1f, 0xbe, 0x9f, 0xc0, 0x0e, 0x3f, 0x6b, 0xd6, 0x18,
  0x3e, 0x38, 0xf7, 0x0a, 0xbe, 0x88, 0x9e, 0x17, 0xbe, 0x35, 0xd8, 0xbc, 0xbd,
  0x9e, 0x0c, 0xd8, 0xbc, 0x48, 0x58, 0x51, 0x3d, 0xd9, 0xdb, 0xf3, 0xbd, 0x09,
  0x73, 0x26, 0x3e, 0x1d, 0x7c, 0xa6, 0xbe, 0xad, 0x66, 0xe7, 0xbe, 0x83, 0x72,
  0xf9, 0xbc, 0xb0, 0x9b, 0xcc, 0xbe, 0xa7, 0xa1, 0x06, 0xbf, 0x32, 0xe7, 0x80,
  0x3e, 0x67, 0xbb, 0x6d, 0xbd, 0x35, 0x71, 0x54, 0x3e, 0x10, 0xd7, 0x21, 0x3e,
  0xc4, 0xba, 0xf4, 0xbe, 0xc5, 0x67, 0xe7, 0xbd, 0x16, 0x86, 0x40, 0xbe, 0xd0,
  0x1d, 0xf7, 0xbd, 0x4d, 0xa7, 0x32, 0x3e, 0x41, 0x65, 0x76, 0xbd, 0x2c, 0xdd,
  0xd3, 0x3e, 0x89, 0xd4, 0x74, 0xbe, 0x9d, 0xc7, 0x8a, 0xbd, 0x0d, 0x5e, 0x9b,
  0x3e, 0x93, 0x6d, 0xe1, 0xbc, 0x12, 0x50, 0xb0, 0x3c, 0xd8, 0xef, 0x4a, 0x3d,
  0xb5, 0xec, 0xa3, 0x3d, 0x31, 0x12, 0xaa, 0xbd, 0x64, 0x97, 0x95, 0xbd, 0x6c,
  0x73, 0x98, 0x3e, 0x96, 0x9b, 0xd6, 0x3d, 0x5c, 0x4b, 0x90, 0xbc, 0xca, 0x0f,
  0xc9, 0xbe, 0xdc, 0x25, 0x03, 0x3f, 0x4a, 0x81, 0xcc, 0xbc, 0x12, 0xf0, 0xef,
  0x3e, 0xba, 0xb2, 0x52, 0x3e, 0x51, 0xfb, 0x23, 0xc0, 0x83, 0xe0, 0xa8, 0x3d,
  0x5f, 0xa5, 0x0d, 0xbf, 0xa2, 0x5c, 0x69, 0xba, 0x85, 0xee, 0x84, 0xbe, 0xa3,
  0x59, 0x05, 0x3d, 0xc8, 0x78, 0x0f, 0xbe, 0xe2, 0xe1, 0xff, 0xff, 0x04, 0x00,
  0x00, 0x00, 0x20, 0x01, 0x00, 0x00, 0xee, 0xca, 0xd9, 0xbd, 0xcb, 0x97, 0xe6,
  0x3d, 0x35, 0xec, 0xea, 0x3d, 0x0b, 0x4a, 0x52, 0x3d, 0x0c, 0x8d, 0x55, 0x3d,
  0x43, 0x69, 0xad, 0x3e, 0x05, 0xa3, 0x0e, 0xbd, 0x73, 0x9f, 0x0b, 0xbe, 0x65,
  0x11, 0x8e, 0xbf, 0xe7, 0xcb, 0x86, 0xbe, 0xb4, 0x86, 0x3f, 0x3f, 0xe6, 0xf7,
  0x21, 0x3e, 0xa9, 0x53, 0xf7, 0xbe, 0x41, 0x98, 0xd7, 0x3e, 0x47, 0xab, 0x77,
  0xbf, 0x1e, 0x70, 0x65, 0xbe, 0xed, 0x4f, 0x34, 0xbf, 0x06, 0xfc, 0x8c, 0xbe,
  0x83, 0xfe, 0xab, 0x3e, 0xfb, 0xd9, 0xd9, 0x3c, 0x39, 0x63, 0x0e, 0x3c, 0xf9,
  0x61, 0x20, 0x3d, 0xef, 0x6b, 0xb2, 0xbe, 0x85, 0xf5, 0x66, 0xba, 0x7f, 0x69,
  0x34, 0xbe, 0x8c, 0xa3, 0xf1, 0x3d, 0x06, 0x67, 0x89, 0x3f, 0xee, 0x35, 0xff,
  0x3d, 0x98, 0xe5, 0x51, 0x3e, 0x2a, 0x35, 0x1a, 0xbd, 0x38, 0xcb, 0x76, 0xbf,
  0x67, 0x6d, 0x06, 0x3f, 0x7b, 0xce, 0xb7, 0x3f, 0xec, 0x79, 0x84, 0xbe, 0xdf,
  0x15, 0x2f, 0xc0, 0x0c, 0xed, 0x64, 0xbf, 0x6f, 0x05, 0x4b, 0xbe, 0x86, 0xd6,
  0x03, 0xbe, 0x0a, 0x45, 0x1b, 0x40, 0x7e, 0x5b, 0x1a, 0x3e, 0x77, 0x20, 0x82,
  0xbe, 0xfc, 0x36, 0x84, 0xbe, 0xc0, 0xe8, 0x95, 0xbd, 0xe7, 0x24, 0xaa, 0xbd,
  0xd7, 0x48, 0xf3, 0xbd, 0xf4, 0x18, 0x5c, 0x3a, 0xf8, 0x12, 0x26, 0x3e, 0x6c,
  0x75, 0x6d, 0xbe, 0xf9, 0xb0, 0x36, 0x3e, 0x89, 0x5f, 0x16, 0x3f, 0x0b, 0x07,
  0x0c, 0x3f, 0x69, 0x6e, 0x9c, 0x3e, 0x40, 0xea, 0x6e, 0x3c, 0xd2, 0x00, 0x8a,
  0x3c, 0x04, 0x1d, 0xbe, 0xbe, 0x61, 0xb0, 0xe1, 0x3d, 0x02, 0x87, 0x20, 0x3f,
  0x3d, 0xa0, 0x1b, 0x3e, 0x65, 0x55, 0x7b, 0xbd, 0x23, 0xac, 0xcd, 0x3e, 0xdb,
  0xe6, 0xfe, 0xbd, 0xb5, 0xe6, 0x3b, 0xbd, 0x09, 0x3a, 0x2a, 0x3e, 0x44, 0xe4,
  0x88, 0x3d, 0x2a, 0x70, 0xed, 0x3c, 0x78, 0x1f, 0x31, 0x3d, 0x12, 0xe7, 0xcc,
  0x3c, 0x6d, 0xf1, 0x8c, 0x3e, 0x50, 0x6e, 0x03, 0x3c, 0xba, 0x83, 0xd4, 0x3b,
  0xd2, 0x00, 0x33, 0xbd, 0x1f, 0x0e, 0xb0, 0xbc, 0x0e, 0xe3, 0xff, 0xff, 0x04,
  0x00, 0x00, 0x00, 0x00, 0x01, 0x00, 0x00, 0xb6, 0xf1, 0x2e, 0x3e, 0x94, 0x88,
  0x92, 0xbd, 0xba, 0x4c, 0xb1, 0x3d, 0x9d, 0x27, 0xc9, 0x3d, 0x22, 0x5f, 0xd1,
  0xbd, 0x31, 0x25, 0xb5, 0xbd, 0x69, 0xae, 0x92, 0xbd, 0x55, 0x73, 0xd8, 0x3d,
  0x47, 0x28, 0x28, 0xbe, 0xf0, 0xd1, 0x81, 0xbe, 0x62, 0x5a, 0x45, 0x3c, 0xf8,
  0x85, 0x05, 0x3d, 0x63, 0xce, 0x1b, 0x3e, 0xe1, 0x2e, 0x90, 0x3e, 0x0e, 0x12,
  0x54, 0x3f, 0x3e, 0x1c, 0xb2, 0xbe, 0x3e, 0x15, 0x77, 0x3e, 0xf9, 0xc7, 0x70,
  0x3e, 0xe3, 0x46, 0xb9, 0x3f, 0x68, 0xd0, 0xee, 0xbc, 0x44, 0x32, 0xa1, 0xbe,
  0xc9, 0x67, 0xae, 0xbc, 0x8e, 0x7e, 0x96, 0xbe, 0xcc, 0x30, 0x94, 0xbd, 0xda,
  0x0f, 0x01, 0xbb, 0xaa, 0x6d, 0x1b, 0xbf, 0xcd, 0xca, 0xd7, 0x3c, 0xb0, 0x78,
  0xe9, 0x3d, 0xd6, 0x9f, 0x11, 0x3d, 0x5f, 0x95, 0x99, 0x3f, 0xf2, 0x77, 0x22,
  0x3d, 0x7b, 0x33, 0x16, 0xbf, 0x19, 0x9c, 0xe9, 0xbd, 0xe4, 0x3e, 0xa1, 0xbf,
  0x96, 0x28, 0xad, 0x3d, 0x8d, 0x0a, 0x35, 0xbf, 0xfb, 0x7b, 0xc5, 0x3a, 0xe3,
  0xda, 0x0c, 0xbd, 0xdb, 0x44, 0x22, 0xbd, 0x3a, 0x18, 0xcd, 0x3d, 0x09, 0x34,
  0x21, 0x3e, 0x0f, 0x06, 0xa2, 0x3f, 0x66, 0x43, 0x3c, 0x3f, 0x4a, 0x0d, 0x80,
  0xbf, 0x0f, 0xfc, 0xa2, 0x3d, 0x3e, 0x11, 0x13, 0xbd, 0x0d, 0xb1, 0x9b, 0x3d,
  0x3a, 0x22, 0xe1, 0xbe, 0x12, 0x18, 0xa0, 0xbe, 0xa4, 0x96, 0x0a, 0xbf, 0xb6,
  0xc3, 0x9f, 0x3e, 0x18, 0x57, 0xb9, 0x3d, 0xc5, 0x2c, 0x2b, 0x3f, 0xf2, 0xd7,
  0xfc, 0x3e, 0x31, 0x4a, 0x3c, 0x3f, 0x39, 0x41, 0x33, 0xbe, 0x2d, 0x66, 0xa9,
  0x3d, 0xf7, 0x19, 0x19, 0xbd, 0xd3, 0x4f, 0x98, 0x40, 0x8a, 0x35, 0x48, 0xbb,
  0x8d, 0x14, 0x8a, 0xbc, 0x89, 0xe2, 0x89, 0xbd, 0x4f, 0x0a, 0x2d, 0x3d, 0xfe,
  0xd0, 0x73, 0xbf, 0x1a, 0xe4, 0xff, 0xff, 0x04, 0x00, 0x00, 0x00, 0x20, 0x01,
  0x00, 0x00, 0x88, 0xfe, 0x55, 0xbd, 0x88, 0x54, 0x66, 0x3e, 0x27, 0x6f, 0x14,
  0xbe, 0x05, 0x7d, 0xde, 0x3d, 0x28, 0xe8, 0xd0, 0x3b, 0xe8, 0x22, 0x50, 0x3e,
  0xf1, 0x5e, 0x2c, 0x3d, 0x9f, 0x0c, 0xf9, 0xbe, 0xc5, 0x07, 0xbc, 0x3d, 0x52,
  0x5e, 0x68, 0x3e, 0x63, 0x8e, 0xf6, 0x3d, 0xa3, 0xd1, 0xc4, 0xbd, 0xe7, 0x38,
  0x13, 0x3e, 0x7c, 0x3c, 0x5e, 0x3e, 0x37, 0x2e, 0xe6, 0xbd, 0xdf, 0xf8, 0x29,
  0x3f, 0x41, 0x73, 0x45, 0xbd, 0xcc, 0xed, 0x61, 0xbf, 0xda, 0xe5, 0xf2, 0x3c,
  0x93, 0x92, 0xa6, 0xbe, 0x1b, 0x7a, 0xb3, 0xbb, 0xf4, 0xb0, 0x95, 0x3d, 0x61,
  0x1a, 0xec, 0xbc, 0x41, 0x28, 0x2a, 0xbe, 0x21, 0xf8, 0x53, 0x3e, 0xb0, 0x0d,
  0xa6, 0xbf, 0x12, 0x33, 0xa8, 0xc1, 0x66, 0x87, 0xcb, 0x3f, 0x5f, 0x00, 0x8e,
  0x3e, 0x64, 0x92, 0x8c, 0x3f, 0x76, 0xd5, 0x08, 0xbf, 0xd6, 0x30, 0x16, 0xc0,
  0xf7, 0x8b, 0xb4, 0x3e, 0xdd, 0x7a, 0x01, 0x40, 0x5c, 0x52, 0x3f, 0xbe, 0x89,
  0x16, 0xbc, 0x3d, 0x27, 0x8a, 0x70, 0x3e, 0x59, 0xf5, 0xa8, 0x3c, 0xb8, 0x22,
  0xe1, 0xbe, 0xc1, 0x8e, 0xd0, 0x3f, 0x5c, 0x5e, 0xba, 0x3c, 0xc6, 0x40, 0x74,
  0xbd, 0xc2, 0x60, 0x31, 0xbe, 0x9e, 0x72, 0x52, 0xbd, 0x33, 0x46, 0xcd, 0x3d,
  0xf7, 0xf0, 0xab, 0xbd, 0x2f, 0x17, 0xf1, 0xbd, 0xbb, 0xd8, 0x7f, 0x3e, 0x69,
  0x03, 0xaf, 0x3d, 0xab, 0xb0, 0xb0, 0xbb, 0x39, 0x30, 0xe8, 0x3d, 0x3a, 0xf2,
  0x04, 0xc0, 0xe2, 0xbd, 0x19, 0x3d, 0xd8, 0x39, 0xf2, 0xbd, 0xe6, 0x22, 0x8b,
  0xbd, 0x23, 0x6b, 0x72, 0x3e, 0x73, 0x6b, 0x7f, 0x3d, 0x12, 0xa3, 0x38, 0xbe,
  0x59, 0x23, 0x1e, 0x3e, 0xf5, 0xcf, 0x16, 0x3f, 0x35, 0x87, 0x0d, 0x3e, 0x90,
  0x51, 0x47, 0xbe, 0x80, 0x95, 0x1a, 0xbe, 0xcb, 0x44, 0x84, 0x3e, 0x27, 0xa4,
  0xa6, 0x3d, 0x67, 0xda, 0xa0, 0xbd, 0x19, 0x4b, 0x7e, 0xbd, 0x30, 0xc1, 0xe5,
  0x3d, 0x3c, 0xdd, 0x87, 0x3d, 0xf2, 0x1c, 0x92, 0x3c, 0x07, 0xb5, 0x81, 0xbd,
  0x2d, 0xd2, 0xc6, 0xbc, 0x46, 0xe5, 0xff, 0xff, 0x04, 0x00, 0x00, 0x00, 0x80,
  0x00, 0x00, 0x00, 0xdb, 0x2f, 0xaf, 0x3f, 0x62, 0xd0, 0x28, 0x3d, 0x4e, 0xb8,
  0xb6, 0x3b, 0xdc, 0x43, 0x43, 0xbf, 0x3c, 0xa6, 0x2b, 0x3d, 0xce, 0xba, 0xc2,
  0xbc, 0x52, 0x3b, 0x6a, 0xbc, 0x53, 0xd4, 0xae, 0xbd, 0x26, 0xaf, 0xcc, 0xbf,
  0x8c, 0xe6, 0x71, 0xbd, 0x98, 0x30, 0x36, 0x39, 0x00, 0x51, 0xf4, 0xbf, 0xb5,
  0xd1, 0x89, 0x3e, 0x9f, 0x98, 0xba, 0xbc, 0x6e, 0xa8, 0xb5, 0xbb, 0xf2, 0x54,
  0xb3, 0xbe, 0xb2, 0x3e, 0x8c, 0xbf, 0x0a, 0x08, 0xad, 0x3e, 0x40, 0xa9, 0xc5,
  0x3d, 0xb3, 0x29, 0xdb, 0x3f, 0x7d, 0x23, 0x4d, 0x3e, 0x4b, 0x62, 0x68, 0x3c,
  0xf2, 0xfb, 0xb7, 0x3b, 0xf0, 0x1b, 0xab, 0x3e, 0x5f, 0xda, 0xb7, 0x3e, 0x67,
  0x2e, 0x29, 0xbe, 0xff, 0xc8, 0x4c, 0xbd, 0x88, 0x79, 0x4c, 0xbf, 0xdb, 0x99,
  0x16, 0xbe, 0x6b, 0x98, 0xfc, 0x3c, 0xb1, 0xf2, 0x30, 0x3c, 0x96, 0x78, 0x51,
  0x3e, 0xd2, 0xe5, 0xff, 0xff, 0x04, 0x00, 0x00, 0x00, 0x20, 0x00, 0x00, 0x00,
  0x00, 0x00, 0x00, 0x00, 0x00, 0x00, 0x00, 0x00, 0x00, 0x00, 0x00, 0x00, 0x00,
  0x00, 0x00, 0x00, 0x00, 0x00, 0x00, 0x00, 0x00, 0x00, 0x00, 0x00, 0x00, 0x00,
  0x00, 0x00, 0x00, 0x00, 0x00, 0x00, 0xfe, 0xe5, 0xff, 0xff, 0x04, 0x00, 0x00,
  0x00, 0x90, 0x00, 0x00, 0x00, 0x6f, 0x6f, 0x60, 0xbd, 0x33, 0xdb, 0x22, 0xbc,
  0xdf, 0x05, 0x67, 0xbc, 0x42, 0x9d, 0xc1, 0xbc, 0x5b, 0xc6, 0x43, 0x3e, 0x9a,
  0x9a, 0xf5, 0xbc, 0x6d, 0xe9, 0x7b, 0xbc, 0xf0, 0x0a, 0xab, 0x3c, 0x78, 0xde,
  0x3e, 0xbd, 0x56, 0x42, 0x15, 0xbd, 0x24, 0x1a, 0x90, 0xbc, 0x5e, 0x76, 0xc0,
  0x3d, 0xfa, 0xbd, 0x68, 0xbd, 0xfa, 0x97, 0x08, 0x3c, 0x5a, 0x48, 0x8d, 0xbc,
  0x1d, 0x0b, 0xcc, 0xbc, 0x96, 0x49, 0xb4, 0xbe, 0x72, 0x1d, 0x31, 0x3e, 0x23,
  0x59, 0xff, 0xbc, 0x4f, 0x6e, 0x1b, 0xbe, 0x2c, 0x05, 0x32, 0xbe, 0xd3, 0xc0,
  0xf4, 0x3d, 0x61, 0xfe, 0x35, 0x3d, 0xca, 0xcb, 0xb6, 0xbd, 0x2b, 0x83, 0xc4,
  0xbd, 0xcc, 0xe4, 0xd5, 0xbd, 0x48, 0x84, 0x1e, 0xba, 0x7b, 0x69, 0xf4, 0x3d,
  0x24, 0x6f, 0x81, 0xbe, 0xa9, 0x9b, 0x89, 0xbe, 0x5b, 0x2b, 0x27, 0x3f, 0xac,
  0x82, 0x07, 0x3e, 0x4d, 0x29, 0x95, 0x40, 0xc5, 0x25, 0x05, 0xc0, 0xca, 0x8d,
  0xf7, 0x3b, 0x4c, 0xd1, 0x1a, 0x40, 0x9a, 0xe6, 0xff, 0xff, 0x04, 0x00, 0x00,
  0x00, 0x40, 0x00, 0x00, 0x00, 0x89, 0x17, 0xbc, 0x3c, 0x65, 0x30, 0x00, 0x3f,
  0xf6, 0x45, 0x8d, 0x3d, 0x6e, 0x7f, 0x22, 0x3e, 0xdb, 0xc9, 0x8b, 0xbd, 0x2c,
  0xca, 0x1e, 0xc0, 0xac, 0xde, 0x58, 0xbf, 0x3e, 0xdc, 0x85, 0x40, 0x90, 0x4e,
  0xb0, 0xbf, 0x1c, 0x9c, 0x4f, 0x41, 0x98, 0xf7, 0x17, 0x41, 0x8d, 0x87, 0xb0,
  0x40, 0x9a, 0xb4, 0xb1, 0xbc, 0x5e, 0xa8, 0x45, 0xbe, 0xc2, 0x18, 0xf4, 0xbd,
  0xb1, 0x1b, 0xea, 0x3e, 0xe6, 0xe6, 0xff, 0xff, 0x04, 0x00, 0x00, 0x00, 0x90,
  0x00, 0x00, 0x00, 0x34, 0x64, 0x6c, 0x40, 0x46, 0xaf, 0x4a, 0xc0, 0x8d, 0xb6,
  0xa9, 0x3f, 0x17, 0x78, 0xe5, 0x3e, 0xa4, 0x6a, 0x97, 0xc0, 0xc4, 0x17, 0x02,
  0xc0, 0x76, 0xaa, 0x88, 0xbf, 0x17, 0x41, 0x26, 0xbf, 0xb2, 0xaa, 0x1d, 0x41,
  0x50, 0x03, 0x32, 0xc0, 0x53, 0x6a, 0xfb, 0x3f, 0x7d, 0xa0, 0xfc, 0x3f, 0x19,
  0x31, 0xaa, 0xc0, 0x6f, 0x2b, 0x44, 0xc0, 0xa9, 0xfd, 0x64, 0xbf, 0x32, 0xa6,
  0x3a, 0x3f, 0xd2, 0x6d, 0xab, 0xc1, 0x1b, 0x6c, 0x27, 0x41, 0x75, 0xb5, 0xfd,
  0xc0, 0xad, 0xe7, 0x0c, 0xc0, 0x86, 0xef, 0x3f, 0xc1, 0xec, 0xbc, 0x17, 0xbf,
  0x60, 0x38, 0x7f, 0x40, 0x0d, 0xd1, 0x4c, 0xbf, 0x0b, 0x12, 0x53, 0xc0, 0x07,
  0x08, 0x1d, 0x40, 0x7b, 0x1c, 0x7d, 0xbf, 0xec, 0x9b, 0x37, 0x40, 0x57, 0x72,
  0x38, 0xc1, 0x5c, 0x33, 0x6c, 0xc0, 0xb6, 0x7a, 0xa9, 0x40, 0x3b, 0x2a, 0x00,
  0xbf, 0x20, 0x13, 0xc6, 0xc0, 0xd7, 0x4f, 0xb6, 0x3f, 0x47, 0xdb, 0x4d, 0x40,
  0xea, 0x4d, 0xe5, 0xbe, 0x82, 0xe7, 0xff, 0xff, 0x04, 0x00, 0x00, 0x00, 0x10,
  0x00, 0x00, 0x00, 0x9d, 0x49, 0x0f, 0x40, 0x28, 0xc6, 0xdd, 0xbe, 0x1f, 0x9d,
  0xd7, 0x3f, 0x0c, 0xe3, 0xe7, 0xbf, 0x9e, 0xe7, 0xff, 0xff, 0x04, 0x00, 0x00,
  0x00, 0x10, 0x00, 0x00, 0x00, 0x00, 0x00, 0x00, 0x00, 0x00, 0x00, 0x00, 0x00,
  0x00, 0x00, 0x00, 0x00, 0x00, 0x00, 0x00, 0x00, 0xba, 0xe7, 0xff, 0xff, 0x04,
  0x00, 0x00, 0x00, 0x24, 0x00, 0x00, 0x00, 0xe9, 0xa2, 0x6c, 0xc1, 0x4b, 0x80,
  0x95, 0xc1, 0x19, 0x59, 0x37, 0x41, 0x81, 0x82, 0x80, 0x41, 0xf0, 0x76, 0x09,
  0xc1, 0x1e, 0xe6, 0xd6, 0x40, 0xb5, 0x18, 0x12, 0xc0, 0xe1, 0x61, 0xa8, 0x40,
  0x72, 0xfc, 0xce, 0xbf, 0xea, 0xe7, 0xff, 0xff, 0x04, 0x00, 0x00, 0x00, 0x04,
  0x00, 0x00, 0x00, 0x00, 0x00, 0x00, 0x00, 0xfa, 0xe7, 0xff, 0xff, 0x04, 0x00,
  0x00, 0x00, 0x08, 0x00, 0x00, 0x00, 0xd6, 0x32, 0x02, 0x41, 0x4d, 0x06, 0xaa,
  0xc1, 0x0e, 0xe8, 0xff, 0xff, 0x04, 0x00, 0x00, 0x00, 0x10, 0x00, 0x00, 0x00,
  0xc2, 0xcf, 0x57, 0xc1, 0x16, 0x10, 0xb2, 0xc1, 0xd1, 0xf0, 0xb6, 0x41, 0x17,
  0xe0, 0x25, 0x41, 0x2a, 0xe8, 0xff, 0xff, 0x04, 0x00, 0x00, 0x00, 0x10, 0x00,
  0x00, 0x00, 0x84, 0x79, 0xe7, 0x41, 0x43, 0xd3, 0x2a, 0xc0, 0x31, 0x85, 0x03,
  0xc2, 0x7e, 0x0e, 0x7c, 0x41, 0x46, 0xe8, 0xff, 0xff, 0x04, 0x00, 0x00, 0x00,
  0x10, 0x00, 0x00, 0x00, 0x2a, 0xde, 0xc2, 0x41, 0x9a, 0xd5, 0x8f, 0x41, 0xc7,
  0xe5, 0x0f, 0x41, 0xe3, 0xd1, 0x40, 0x40, 0x62, 0xe8, 0xff, 0xff, 0x04, 0x00,
  0x00, 0x00, 0x20, 0x00, 0x00, 0x00, 0xdf, 0xdf, 0x3d, 0xc1, 0xf0, 0x89, 0xaf,
  0x40, 0x83, 0x08, 0x2a, 0xc0, 0x23, 0xf0, 0x12, 0x41, 0x13, 0x30, 0x0d, 0x41,
  0x06, 0x4a, 0x2c, 0xc1, 0xcf, 0xa5, 0x04, 0x41, 0x03, 0xa1, 0xbb, 0x40, 0x8e,
  0xe8, 0xff, 0xff, 0x04, 0x00, 0x00, 0x00, 0x20, 0x00, 0x00, 0x00, 0x05, 0x89,
  0x6f, 0x40, 0x6d, 0x14, 0x0f, 0x3f, 0x37, 0xea, 0x9a, 0x40, 0xc0, 0x8a, 0xb6,
  0xbf, 0x48, 0xa7, 0x60, 0x40, 0x55, 0xab, 0x61, 0x41, 0x8f, 0x95, 0x61, 0x40,
  0x01, 0x8b, 0x50, 0xc0, 0xba, 0xe8, 0xff, 0xff, 0x04, 0x00, 0x00, 0x00, 0x20,
  0x00, 0x00, 0x00, 0x20, 0x52, 0xcb, 0x3f, 0x36, 0x08, 0xff, 0xbf, 0x02, 0x9f,
  0x39, 0x40, 0xe9, 0x4b, 0x7a, 0x41, 0x7d, 0x7a, 0x68, 0x40, 0x03, 0x79, 0x6c,
  0x3f, 0x22, 0x27, 0x41, 0x40, 0x0f, 0x46, 0xa5, 0x3f, 0xe6, 0xe8, 0xff, 0xff,
  0x04, 0x00, 0x00, 0x00, 0x20, 0x00, 0x00, 0x00, 0x33, 0x21, 0x4c, 0x3f, 0x4a,
  0x31, 0xd3, 0xbf, 0x0b, 0x04, 0x6c, 0x40, 0xe6, 0xce, 0x3d, 0x40, 0x14, 0xbc,
  0x1c, 0x40, 0xe0, 0xd3, 0x42, 0xc0, 0xb7, 0xd2, 0x08, 0x3f, 0x9f, 0xe3, 0x81,
  0xbf, 0x12, 0xe9, 0xff, 0xff, 0x04, 0x00, 0x00, 0x00, 0x20, 0x00, 0x00, 0x00,
  0x96, 0x62, 0x7e, 0x40, 0x94, 0x9c, 0xdb, 0x3f, 0xe7, 0x51, 0x94, 0xc0, 0x95,
  0x13, 0xe4, 0x3f, 0x97, 0xdf, 0x24, 0x40, 0x75, 0x4e, 0xfe, 0xbd, 0x19, 0x0d,
  0x5a, 0xc0, 0x69, 0x19, 0x9e, 0x3f, 0x3e, 0xe9, 0xff, 0xff, 0x04, 0x00, 0x00,
  0x00, 0x20, 0x00, 0x00, 0x00, 0xc7, 0x07, 0x51, 0x3f, 0x95, 0xc3, 0xf6, 0xbd,
  0xa1, 0x15, 0x65, 0xbf, 0x85, 0x39, 0xb4, 0x3f, 0x97, 0x1f, 0x17, 0x40, 0xe9,
  0xa8, 0x04, 0x3f, 0xde, 0xf1, 0x0b, 0x40, 0x5b, 0x6e, 0x13, 0x40, 0x6a, 0xe9,
  0xff, 0xff, 0x04, 0x00, 0x00, 0x00, 0x18, 0x00, 0x00, 0x00, 0x52, 0x27, 0xba,
  0x3f, 0x53, 0x42, 0x07, 0x40, 0xb8, 0xdf, 0xce, 0xbe, 0xbc, 0x45, 0x0b, 0xbf,
  0x6e, 0x7f, 0x2e, 0xbf, 0x55, 0xcd, 0xfb, 0xbf, 0x8e, 0xe9, 0xff, 0xff, 0x04,
  0x00, 0x00, 0x00, 0x18, 0x00, 0x00, 0x00, 0x85, 0x1c, 0x4e, 0x3f, 0x6c, 0x90,
  0x3e, 0x40, 0x49, 0x10, 0xce, 0x3f, 0xd0, 0xbe, 0x02, 0x40, 0x41, 0x90, 0x06,
  0x40, 0xa1, 0x02, 0x3f, 0x3f, 0xb2, 0xe9, 0xff, 0xff, 0x04, 0x00, 0x00, 0x00,
  0x18, 0x00, 0x00, 0x00, 0x1d, 0xa8, 0xad, 0x40, 0x01, 0x22, 0xc0, 0x3f, 0xdb,
  0xef, 0xe4, 0x3e, 0x19, 0x95, 0x8d, 0x40, 0x18, 0xbd, 0x79, 0x40, 0x34, 0x38,
  0x18, 0x40, 0xd6, 0xe9, 0xff, 0xff, 0x04, 0x00, 0x00, 0x00, 0x18, 0x00, 0x00,
  0x00, 0x17, 0x9b, 0xbd, 0xbe, 0xc4, 0xec, 0xc2, 0x3d, 0x84, 0x61, 0xe0, 0xbe,
  0x47, 0xc5, 0xb2, 0xbf, 0xbb, 0xd5, 0xba, 0x3f, 0x11, 0x9f, 0xce, 0xbf, 0xfa,
  0xe9, 0xff, 0xff, 0x04, 0x00, 0x00, 0x00, 0x18, 0x00, 0x00, 0x00, 0x9e, 0x53,
  0x1b, 0x40, 0xa2, 0x1e, 0x24, 0xbf, 0x31, 0x24, 0xf0, 0x3f, 0xe0, 0x3a, 0x00,
  0xc0, 0x8a, 0xd9, 0x83, 0x3f, 0x95, 0xf6, 0x44, 0x3f, 0x1e, 0xea, 0xff, 0xff,
  0x04, 0x00, 0x00, 0x00, 0x20, 0x00, 0x00, 0x00, 0xce, 0x4c, 0xf1, 0xbd, 0xf5,
  0x2e, 0x90, 0x3f, 0x23, 0x87, 0x3a, 0xbe, 0xa4, 0xaf, 0x75, 0x3d, 0xb1, 0x1b,
  0xd9, 0x3f, 0xc9, 0x33, 0x33, 0xc0, 0xe9, 0x7d, 0x91, 0x3f, 0xcc, 0x8a, 0xe4,
  0x3f, 0x4a, 0xea, 0xff, 0xff, 0x04, 0x00, 0x00, 0x00, 0x20, 0x00, 0x00, 0x00,
  0xbe, 0x47, 0x2c, 0x40, 0x47, 0xfc, 0xee, 0x3f, 0x0f, 0xc7, 0xf0, 0x3e, 0x4f,
  0x27, 0xa5, 0x3f, 0xed, 0x4d, 0x02, 0xc0, 0x54, 0x9a, 0xda, 0x3e, 0xe3, 0x0f,
  0xcd, 0xbf, 0xa4, 0x7e, 0x1c, 0xbe, 0x76, 0xea, 0xff, 0xff, 0x04, 0x00, 0x00,
  0x00, 0x20, 0x00, 0x00, 0x00, 0xe5, 0xc4, 0x8a, 0x40, 0x5a, 0xcc, 0xb2, 0xbf,
  0x7b, 0x4b, 0x89, 0x41, 0xd0, 0xf4, 0x9d, 0x3f, 0xfb, 0xd1, 0x08, 0x40, 0xb0,
  0x2f, 0x70, 0xbf, 0x18, 0xbf, 0xa9, 0x42, 0x8d, 0x63, 0x59, 0x3f, 0xa2, 0xea,
  0xff, 0xff, 0x04, 0x00, 0x00, 0x00, 0x20, 0x00, 0x00, 0x00, 0x46, 0x71, 0xc4,
  0xbf, 0x21, 0xae, 0x62, 0x41, 0xd7, 0xcc, 0xbe, 0xbf, 0xc5, 0x9e, 0x6c, 0x40,
  0x45, 0x7c, 0x15, 0xc0, 0xf7, 0x3c, 0x11, 0xc1, 0xd5, 0xda, 0xc1, 0x40, 0x3c,
  0x66, 0x8c, 0x41, 0xce, 0xea, 0xff, 0xff, 0x04, 0x00, 0x00, 0x00, 0x10, 0x00,
  0x00, 0x00, 0xf6, 0x13, 0x4c, 0x41, 0x0c, 0x3a, 0x6a, 0x41, 0x39, 0xe7, 0x21,
  0xc1, 0xc2, 0x29, 0x0a, 0xc1, 0xea, 0xea, 0xff, 0xff, 0x04, 0x00, 0x00, 0x00,
  0x10, 0x00, 0x00, 0x00, 0x91, 0x5c, 0x54, 0x41, 0x45, 0x75, 0x1e, 0xc0, 0x8a,
  0x33, 0x1b, 0x41, 0xcc, 0x4c, 0x8a, 0x40, 0x28, 0x99, 0xff, 0xff, 0x2c, 0x99,
  0xff, 0xff, 0x0f, 0x00, 0x00, 0x00, 0x4d, 0x4c, 0x49, 0x52, 0x20, 0x43, 0x6f,
  0x6e, 0x76, 0x65, 0x72, 0x74, 0x65, 0x64, 0x2e, 0x00, 0x01, 0x00, 0x00, 0x00,
  0x14, 0x00, 0x00, 0x00, 0x00, 0x00, 0x0e, 0x00, 0x18, 0x00, 0x14, 0x00, 0x10,
  0x00, 0x0c, 0x00, 0x08, 0x00, 0x04, 0x00, 0x0e, 0x00, 0x00, 0x00, 0x14, 0x00,
  0x00, 0x00, 0x1c, 0x00, 0x00, 0x00, 0x2c, 0x15, 0x00, 0x00, 0x30, 0x15, 0x00,
  0x00, 0x34, 0x15, 0x00, 0x00, 0x04, 0x00, 0x00, 0x00, 0x6d, 0x61, 0x69, 0x6e,
  0x00, 0x00, 0x00, 0x00, 0x53, 0x00, 0x00, 0x00, 0xdc, 0x14, 0x00, 0x00, 0x80,
  0x14, 0x00, 0x00, 0x3c, 0x14, 0x00, 0x00, 0xe8, 0x13, 0x00, 0x00, 0x94, 0x13,
  0x00, 0x00, 0x60, 0x13, 0x00, 0x00, 0x18, 0x13, 0x00, 0x00, 0xd0, 0x12, 0x00,
  0x00, 0x80, 0x12, 0x00, 0x00, 0x4c, 0x12, 0x00, 0x00, 0x1c, 0x12, 0x00, 0x00,
  0xd8, 0x11, 0x00, 0x00, 0x90, 0x11, 0x00, 0x00, 0x48, 0x11, 0x00, 0x00, 0x14,
  0x11, 0x00, 0x00, 0xcc, 0x10, 0x00, 0x00, 0x84, 0x10, 0x00, 0x00, 0x44, 0x10,
  0x00, 0x00, 0x10, 0x10, 0x00, 0x00, 0xe0, 0x0f, 0x00, 0x00, 0x9c, 0x0f, 0x00,
  0x00, 0x54, 0x0f, 0x00, 0x00, 0x0c, 0x0f, 0x00, 0x00, 0xd8, 0x0e, 0x00, 0x00,
  0x90, 0x0e, 0x00, 0x00, 0x48, 0x0e, 0x00, 0x00, 0x08, 0x0e, 0x00, 0x00, 0xd4,
  0x0d, 0x00, 0x00, 0xa4, 0x0d, 0x00, 0x00, 0x60, 0x0d, 0x00, 0x00, 0x18, 0x0d,
  0x00, 0x00, 0xd0, 0x0c, 0x00, 0x00, 0x9c, 0x0c, 0x00, 0x00, 0x54, 0x0c, 0x00,
  0x00, 0x0c, 0x0c, 0x00, 0x00, 0xcc, 0x0b, 0x00, 0x00, 0x88, 0x0b, 0x00, 0x00,
  0x54, 0x0b, 0x00, 0x00, 0x0c, 0x0b, 0x00, 0x00, 0xc4, 0x0a, 0x00, 0x00, 0x8c,
  0x0a, 0x00, 0x00, 0x58, 0x0a, 0x00, 0x00, 0x10, 0x0a, 0x00, 0x00, 0xc8, 0x09,
  0x00, 0x00, 0x94, 0x09, 0x00, 0x00, 0x4c, 0x09, 0x00, 0x00, 0x04, 0x09, 0x00,
  0x00, 0xcc, 0x08, 0x00, 0x00, 0x98, 0x08, 0x00, 0x00, 0x50, 0x08, 0x00, 0x00,
  0x08, 0x08, 0x00, 0x00, 0xd0, 0x07, 0x00, 0x00, 0x9c, 0x07, 0x00, 0x00, 0x54,
  0x07, 0x00, 0x00, 0x0c, 0x07, 0x00, 0x00, 0xd8, 0x06, 0x00, 0x00, 0x90, 0x06,
  0x00, 0x00, 0x48, 0x06, 0x00, 0x00, 0x10, 0x06, 0x00, 0x00, 0xdc, 0x05, 0x00,
  0x00, 0x94, 0x05, 0x00, 0x00, 0x4c, 0x05, 0x00, 0x00, 0x14, 0x05, 0x00, 0x00,
  0xe0, 0x04, 0x00, 0x00, 0x98, 0x04, 0x00, 0x00, 0x50, 0x04, 0x00, 0x00, 0x1c,
  0x04, 0x00, 0x00, 0xd4, 0x03, 0x00, 0x00, 0x8c, 0x03, 0x00, 0x00, 0x54, 0x03,
  0x00, 0x00, 0x20, 0x03, 0x00, 0x00, 0xd8, 0x02, 0x00, 0x00, 0x90, 0x02, 0x00,
  0x00, 0x58, 0x02, 0x00, 0x00, 0x24, 0x02, 0x00, 0x00, 0xdc, 0x01, 0x00, 0x00,
  0x94, 0x01, 0x00, 0x00, 0x60, 0x01, 0x00, 0x00, 0x18, 0x01, 0x00, 0x00, 0xd0,
  0x00, 0x00, 0x00, 0x9c, 0x00, 0x00, 0x00, 0x54, 0x00, 0x00, 0x00, 0x04, 0x00,
  0x00, 0x00, 0xd6, 0xec, 0xff, 0xff, 0x20, 0x00, 0x00, 0x00, 0x00, 0x00, 0x00,
  0x01, 0x28, 0x00, 0x00, 0x00, 0x2c, 0x00, 0x00, 0x00, 0x04, 0x00, 0x00, 0x00,
  0x00, 0x00, 0x0a, 0x00, 0x10, 0x00, 0x0f, 0x00, 0x08, 0x00, 0x04, 0x00, 0x0a,
  0x00, 0x00, 0x00, 0x01, 0x00, 0x00, 0x00, 0x01, 0x00, 0x00, 0x00, 0x00, 0x00,
  0x00, 0x01, 0x01, 0x00, 0x00, 0x00, 0xa3, 0x00, 0x00, 0x00, 0x03, 0x00, 0x00,
  0x00, 0xa2, 0x00, 0x00, 0x00, 0x45, 0x00, 0x00, 0x00, 0x15, 0x00, 0x00, 0x00,
  0x22, 0xed, 0xff, 0xff, 0x14, 0x00, 0x00, 0x00, 0x00, 0x00, 0x00, 0x02, 0x20,
  0x00, 0x00, 0x00, 0x24, 0x00, 0x00, 0x00, 0x03, 0x00, 0x00, 0x00, 0xa4, 0xed,
  0xff, 0xff, 0x01, 0x00, 0x00, 0x00, 0x01, 0x00, 0x00, 0x00, 0x01, 0x00, 0x00,
  0x00, 0x00, 0x00, 0x00, 0x01, 0x01, 0x00, 0x00, 0x00, 0xa2, 0x00, 0x00, 0x00,
  0x03, 0x00, 0x00, 0x00, 0xa1, 0x00, 0x00, 0x00, 0x44, 0x00, 0x00, 0x00, 0x18,
  0x00, 0x00, 0x00, 0x66, 0xed, 0xff, 0xff, 0x14, 0x00, 0x00, 0x00, 0x00, 0x00,
  0x00, 0x16, 0x10, 0x00, 0x00, 0x00, 0x14, 0x00, 0x00, 0x00, 0x02, 0x00, 0x00,
  0x00, 0x78, 0x9b, 0xff, 0xff, 0x01, 0x00, 0x00, 0x00, 0xa1, 0x00, 0x00, 0x00,
  0x02, 0x00, 0x00, 0x00, 0xa0, 0x00, 0x00, 0x00, 0x47, 0x00, 0x00, 0x00, 0x96,
  0xed, 0xff, 0xff, 0x14, 0x00, 0x00, 0x00, 0x00, 0x00, 0x00, 0x01, 0x20, 0x00,
  0x00, 0x00, 0x24, 0x00, 0x00, 0x00, 0x04, 0x00, 0x00, 0x00, 0x68, 0xee, 0xff,
  0xff, 0x00, 0x00, 0x00, 0x01, 0x01, 0x00, 0x00, 0x00, 0x01, 0x00, 0x00, 0x00,
  0x00, 0x00, 0x00, 0x01, 0x01, 0x00, 0x00, 0x00, 0xa0, 0x00, 0x00, 0x00, 0x03,
  0x00, 0x00, 0x00, 0x9f, 0x00, 0x00, 0x00, 0x43, 0x00, 0x00, 0x00, 0x14, 0x00,
  0x00, 0x00, 0xda, 0xed, 0xff, 0xff, 0x14, 0x00, 0x00, 0x00, 0x00, 0x00, 0x00,
  0x02, 0x20, 0x00, 0x00, 0x00, 0x24, 0x00, 0x00, 0x00, 0x03, 0x00, 0x00, 0x00,
  0x5c, 0xee, 0xff, 0xff, 0x01, 0x00, 0x00, 0x00, 0x01, 0x00, 0x00, 0x00, 0x01,
  0x00, 0x00, 0x00, 0x00, 0x00, 0x00, 0x01, 0x01, 0x00, 0x00, 0x00, 0x9f, 0x00,
  0x00, 0x00, 0x03, 0x00, 0x00, 0x00, 0x9e, 0x00, 0x00, 0x00, 0x42, 0x00, 0x00,
  0x00, 0x18, 0x00, 0x00, 0x00, 0x1e, 0xee, 0xff, 0xff, 0x14, 0x00, 0x00, 0x00,
  0x00, 0x00, 0x00, 0x16, 0x10, 0x00, 0x00, 0x00, 0x14, 0x00, 0x00, 0x00, 0x02,
  0x00, 0x00, 0x00, 0x30, 0x9c, 0xff, 0xff, 0x01, 0x00, 0x00, 0x00, 0x9e, 0x00,
  0x00, 0x00, 0x02, 0x00, 0x00, 0x00, 0x9d, 0x00, 0x00, 0x00, 0x47, 0x00, 0x00,
  0x00, 0x4e, 0xee, 0xff, 0xff, 0x14, 0x00, 0x00, 0x00, 0x00, 0x00, 0x00, 0x01,
  0x20, 0x00, 0x00, 0x00, 0x24, 0x00, 0x00, 0x00, 0x04, 0x00, 0x00, 0x00, 0x20,
  0xef, 0xff, 0xff, 0x00, 0x00, 0x00, 0x01, 0x01, 0x00, 0x00, 0x00, 0x01, 0x00,
  0x00, 0x00, 0x00, 0x00, 0x00, 0x01, 0x01, 0x00, 0x00, 0x00, 0x9d, 0x00, 0x00,
  0x00, 0x03, 0x00, 0x00, 0x00, 0x9c, 0x00, 0x00, 0x00, 0x41, 0x00, 0x00, 0x00,
  0x13, 0x00, 0x00, 0x00, 0x92, 0xee, 0xff, 0xff, 0x14, 0x00, 0x00, 0x00, 0x00,
  0x00, 0x00, 0x02, 0x20, 0x00, 0x00, 0x00, 0x24, 0x00, 0x00, 0x00, 0x03, 0x00,
  0x00, 0x00, 0x14, 0xef, 0xff, 0xff, 0x01, 0x00, 0x00, 0x00, 0x01, 0x00, 0x00,
  0x00, 0x01, 0x00, 0x00, 0x00, 0x00, 0x00, 0x00, 0x01, 0x01, 0x00, 0x00, 0x00,
  0x9c, 0x00, 0x00, 0x00, 0x03, 0x00, 0x00, 0x00, 0x9b, 0x00, 0x00, 0x00, 0x40,
  0x00, 0x00, 0x00, 0x1d, 0x00, 0x00, 0x00, 0xd6, 0xee, 0xff, 0xff, 0x14, 0x00,
  0x00, 0x00, 0x00, 0x00, 0x00, 0x16, 0x10, 0x00, 0x00, 0x00, 0x14, 0x00, 0x00,
  0x00, 0x02, 0x00, 0x00, 0x00, 0xe8, 0x9c, 0xff, 0xff, 0x01, 0x00, 0x00, 0x00,
  0x9b, 0x00, 0x00, 0x00, 0x02, 0x00, 0x00, 0x00, 0x9a, 0x00, 0x00, 0x00, 0x47,
  0x00, 0x00, 0x00, 0x06, 0xef, 0xff, 0xff, 0x14, 0x00, 0x00, 0x00, 0x00, 0x00,
  0x00, 0x0a, 0x14, 0x00, 0x00, 0x00, 0x18, 0x00, 0x00, 0x00, 0x07, 0x00, 0x00,
  0x00, 0xf6, 0xee, 0xff, 0xff, 0x03, 0x00, 0x00, 0x00, 0x01, 0x00, 0x00, 0x00,
  0x9a, 0x00, 0x00, 0x00, 0x02, 0x00, 0x00, 0x00, 0x99, 0x00, 0x00, 0x00, 0x52,
  0x00, 0x00, 0x00, 0x3a, 0xef, 0xff, 0xff, 0x14, 0x00, 0x00, 0x00, 0x00, 0x00,
  0x00, 0x01, 0x20, 0x00, 0x00, 0x00, 0x24, 0x00, 0x00, 0x00, 0x04, 0x00, 0x00,
  0x00, 0x0c, 0xf0, 0xff, 0xff, 0x00, 0x00, 0x00, 0x01, 0x01, 0x00, 0x00, 0x00,
  0x01, 0x00, 0x00, 0x00, 0x00, 0x00, 0x00, 0x01, 0x01, 0x00, 0x00, 0x00, 0x99,
  0x00, 0x00, 0x00, 0x03, 0x00, 0x00, 0x00, 0x98, 0x00, 0x00, 0x00, 0x3f, 0x00,
  0x00, 0x00, 0x12, 0x00, 0x00, 0x00, 0x7e, 0xef, 0xff, 0xff, 0x14, 0x00, 0x00,
  0x00, 0x00, 0x00, 0x00, 0x02, 0x20, 0x00, 0x00, 0x00, 0x24, 0x00, 0x00, 0x00,
  0x03, 0x00, 0x00, 0x00, 0x00, 0xf0, 0xff, 0xff, 0x01, 0x00, 0x00, 0x00, 0x01,
  0x00, 0x00, 0x00, 0x01, 0x00, 0x00, 0x00, 0x00, 0x00, 0x00, 0x01, 0x01, 0x00,
  0x00, 0x00, 0x98, 0x00, 0x00, 0x00, 0x03, 0x00, 0x00, 0x00, 0x97, 0x00, 0x00,
  0x00, 0x3e, 0x00, 0x00, 0x00, 0x1d, 0x00, 0x00, 0x00, 0xc2, 0xef, 0xff, 0xff,
  0x14, 0x00, 0x00, 0x00, 0x00, 0x00, 0x00, 0x16, 0x10, 0x00, 0x00, 0x00, 0x14,
  0x00, 0x00, 0x00, 0x02, 0x00, 0x00, 0x00, 0xd4, 0x9d, 0xff, 0xff, 0x01, 0x00,
  0x00, 0x00, 0x97, 0x00, 0x00, 0x00, 0x02, 0x00, 0x00, 0x00, 0x96, 0x00, 0x00,
  0x00, 0x47, 0x00, 0x00, 0x00, 0xf2, 0xef, 0xff, 0xff, 0x14, 0x00, 0x00, 0x00,
  0x00, 0x00, 0x00, 0x0f, 0x14, 0x00, 0x00, 0x00, 0x18, 0x00, 0x00, 0x00, 0x06,
  0x00, 0x00, 0x00, 0x50, 0xf8, 0xff, 0xff, 0x00, 0x00, 0x00, 0x01, 0x01, 0x00,
  0x00, 0x00, 0x96, 0x00, 0x00, 0x00, 0x02, 0x00, 0x00, 0x00, 0x95, 0x00, 0x00,
  0x00, 0x4b, 0x00, 0x00, 0x00, 0x26, 0xf0, 0xff, 0xff, 0x14, 0x00, 0x00, 0x00,
  0x00, 0x00, 0x00, 0x01, 0x20, 0x00, 0x00, 0x00, 0x24, 0x00, 0x00, 0x00, 0x04,
  0x00, 0x00, 0x00, 0xf8, 0xf0, 0xff, 0xff, 0x00, 0x00, 0x00, 0x01, 0x01, 0x00,
  0x00, 0x00, 0x01, 0x00, 0x00, 0x00, 0x00, 0x00, 0x00, 0x01, 0x01, 0x00, 0x00,
  0x00, 0x95, 0x00, 0x00, 0x00, 0x03, 0x00, 0x00, 0x00, 0x94, 0x00, 0x00, 0x00,
  0x3d, 0x00, 0x00, 0x00, 0x11, 0x00, 0x00, 0x00, 0x6a, 0xf0, 0xff, 0xff, 0x14,
  0x00, 0x00, 0x00, 0x00, 0x00, 0x00, 0x02, 0x20, 0x00, 0x00, 0x00, 0x24, 0x00,
  0x00, 0x00, 0x03, 0x00, 0x00, 0x00, 0xec, 0xf0, 0xff, 0xff, 0x01, 0x00, 0x00,
  0x00, 0x01, 0x00, 0x00, 0x00, 0x01, 0x00, 0x00, 0x00, 0x00, 0x00, 0x00, 0x01,
  0x01, 0x00, 0x00, 0x00, 0x94, 0x00, 0x00, 0x00, 0x03, 0x00, 0x00, 0x00, 0x93,
  0x00, 0x00, 0x00, 0x3c, 0x00, 0x00, 0x00, 0x1d, 0x00, 0x00, 0x00, 0xae, 0xf0,
  0xff, 0xff, 0x14, 0x00, 0x00, 0x00, 0x00, 0x00, 0x00, 0x16, 0x10, 0x00, 0x00,
  0x00, 0x14, 0x00, 0x00, 0x00, 0x02, 0x00, 0x00, 0x00, 0xc0, 0x9e, 0xff, 0xff,
  0x01, 0x00, 0x00, 0x00, 0x93, 0x00, 0x00, 0x00, 0x02, 0x00, 0x00, 0x00, 0x92,
  0x00, 0x00, 0x00, 0x47, 0x00, 0x00, 0x00, 0xde, 0xf0, 0xff, 0xff, 0x14, 0x00,
  0x00, 0x00, 0x00, 0x00, 0x00, 0x01, 0x20, 0x00, 0x00, 0x00, 0x24, 0x00, 0x00,
  0x00, 0x04, 0x00, 0x00, 0x00, 0xb0, 0xf1, 0xff, 0xff, 0x00, 0x00, 0x00, 0x01,
  0x01, 0x00, 0x00, 0x00, 0x01, 0x00, 0x00, 0x00, 0x00, 0x00, 0x00, 0x01, 0x01,
  0x00, 0x00, 0x00, 0x92, 0x00, 0x00, 0x00, 0x03, 0x00, 0x00, 0x00, 0x91, 0x00,
  0x00, 0x00, 0x3b, 0x00, 0x00, 0x00, 0x10, 0x00, 0x00, 0x00, 0x22, 0xf1, 0xff,
  0xff, 0x14, 0x00, 0x00, 0x00, 0x00, 0x00, 0x00, 0x02, 0x20, 0x00, 0x00, 0x00,
  0x24, 0x00, 0x00, 0x00, 0x03, 0x00, 0x00, 0x00, 0xa4, 0xf1, 0xff, 0xff, 0x01,
  0x00, 0x00, 0x00, 0x01, 0x00, 0x00, 0x00, 0x01, 0x00, 0x00, 0x00, 0x00, 0x00,
  0x00, 0x01, 0x01, 0x00, 0x00, 0x00, 0x91, 0x00, 0x00, 0x00, 0x03, 0x00, 0x00,
  0x00, 0x90, 0x00, 0x00, 0x00, 0x3a, 0x00, 0x00, 0x00, 0x33, 0x00, 0x00, 0x00,
  0x66, 0xf1, 0xff, 0xff, 0x14, 0x00, 0x00, 0x00, 0x00, 0x00, 0x00, 0x16, 0x10,
  0x00, 0x00, 0x00, 0x14, 0x00, 0x00, 0x00, 0x02, 0x00, 0x00, 0x00, 0x78, 0x9f,
  0xff, 0xff, 0x01, 0x00, 0x00, 0x00, 0x90, 0x00, 0x00, 0x00, 0x02, 0x00, 0x00,
  0x00, 0x8f, 0x00, 0x00, 0x00, 0x47, 0x00, 0x00, 0x00, 0x96, 0xf1, 0xff, 0xff,
  0x14, 0x00, 0x00, 0x00, 0x00, 0x00, 0x00, 0x0a, 0x14, 0x00, 0x00, 0x00, 0x18,
  0x00, 0x00, 0x00, 0x07, 0x00, 0x00, 0x00, 0x86, 0xf1, 0xff, 0xff, 0x03, 0x00,
  0x00, 0x00, 0x01, 0x00, 0x00, 0x00, 0x8f, 0x00, 0x00, 0x00, 0x02, 0x00, 0x00,
  0x00, 0x8e, 0x00, 0x00, 0x00, 0x5d, 0x00, 0x00, 0x00, 0xca, 0xf1, 0xff, 0xff,
  0x14, 0x00, 0x00, 0x00, 0x00, 0x00, 0x00, 0x01, 0x20, 0x00, 0x00, 0x00, 0x24,
  0x00, 0x00, 0x00, 0x04, 0x00, 0x00, 0x00, 0x9c, 0xf2, 0xff, 0xff, 0x00, 0x00,
  0x00, 0x01, 0x01, 0x00, 0x00, 0x00, 0x01, 0x00, 0x00, 0x00, 0x00, 0x00, 0x00,
  0x01, 0x01, 0x00, 0x00, 0x00, 0x8e, 0x00, 0x00, 0x00, 0x03, 0x00, 0x00, 0x00,
  0x8d, 0x00, 0x00, 0x00, 0x39, 0x00, 0x00, 0x00, 0x0f, 0x00, 0x00, 0x00, 0x0e,
  0xf2, 0xff, 0xff, 0x14, 0x00, 0x00, 0x00, 0x00, 0x00, 0x00, 0x02, 0x20, 0x00,
  0x00, 0x00, 0x24, 0x00, 0x00, 0x00, 0x03, 0x00, 0x00, 0x00, 0x90, 0xf2, 0xff,
  0xff, 0x01, 0x00, 0x00, 0x00, 0x01, 0x00, 0x00, 0x00, 0x01, 0x00, 0x00, 0x00,
  0x00, 0x00, 0x00, 0x01, 0x01, 0x00, 0x00, 0x00, 0x8d, 0x00, 0x00, 0x00, 0x03,
  0x00, 0x00, 0x00, 0x8c, 0x00, 0x00, 0x00, 0x38, 0x00, 0x00, 0x00, 0x1d, 0x00,
  0x00, 0x00, 0x52, 0xf2, 0xff, 0xff, 0x14, 0x00, 0x00, 0x00, 0x00, 0x00, 0x00,
  0x16, 0x10, 0x00, 0x00, 0x00, 0x14, 0x00, 0x00, 0x00, 0x02, 0x00, 0x00, 0x00,
  0x64, 0xa0, 0xff, 0xff, 0x01, 0x00, 0x00, 0x00, 0x8c, 0x00, 0x00, 0x00, 0x02,
  0x00, 0x00, 0x00, 0x8b, 0x00, 0x00, 0x00, 0x47, 0x00, 0x00, 0x00, 0x82, 0xf2,
  0xff, 0xff, 0x14, 0x00, 0x00, 0x00, 0x00, 0x00, 0x00, 0x0f, 0x14, 0x00, 0x00,
  0x00, 0x18, 0x00, 0x00, 0x00, 0x06, 0x00, 0x00, 0x00, 0xe0, 0xfa, 0xff, 0xff,
  0x00, 0x00, 0x00, 0x01, 0x01, 0x00, 0x00, 0x00, 0x8b, 0x00, 0x00, 0x00, 0x02,
  0x00, 0x00, 0x00, 0x8a, 0x00, 0x00, 0x00, 0x57, 0x00, 0x00, 0x00, 0xb6, 0xf2,
  0xff, 0xff, 0x14, 0x00, 0x00, 0x00, 0x00, 0x00, 0x00, 0x01, 0x20, 0x00, 0x00,
  0x00, 0x24, 0x00, 0x00, 0x00, 0x04, 0x00, 0x00, 0x00, 0x88, 0xf3, 0xff, 0xff,
  0x00, 0x00, 0x00, 0x01, 0x01, 0x00, 0x00, 0x00, 0x01, 0x00, 0x00, 0x00, 0x00,
  0x00, 0x00, 0x01, 0x01, 0x00, 0x00, 0x00, 0x8a, 0x00, 0x00, 0x00, 0x03, 0x00,
  0x00, 0x00, 0x89, 0x00, 0x00, 0x00, 0x37, 0x00, 0x00, 0x00, 0x0e, 0x00, 0x00,
  0x00, 0xfa, 0xf2, 0xff, 0xff, 0x14, 0x00, 0x00, 0x00, 0x00, 0x00, 0x00, 0x02,
  0x20, 0x00, 0x00, 0x00, 0x24, 0x00, 0x00, 0x00, 0x03, 0x00, 0x00, 0x00, 0x7c,
  0xf3, 0xff, 0xff, 0x01, 0x00, 0x00, 0x00, 0x01, 0x00, 0x00, 0x00, 0x01, 0x00,
  0x00, 0x00, 0x00, 0x00, 0x00, 0x01, 0x01, 0x00, 0x00, 0x00, 0x89, 0x00, 0x00,
  0x00, 0x03, 0x00, 0x00, 0x00, 0x88, 0x00, 0x00, 0x00, 0x36, 0x00, 0x00, 0x00,
  0x1d, 0x00, 0x00, 0x00, 0x3e, 0xf3, 0xff, 0xff, 0x14, 0x00, 0x00, 0x00, 0x00,
  0x00, 0x00, 0x16, 0x10, 0x00, 0x00, 0x00, 0x14, 0x00, 0x00, 0x00, 0x02, 0x00,
  0x00, 0x00, 0x50, 0xa1, 0xff, 0xff, 0x01, 0x00, 0x00, 0x00, 0x88, 0x00, 0x00,
  0x00, 0x02, 0x00, 0x00, 0x00, 0x87, 0x00, 0x00, 0x00, 0x47, 0x00, 0x00, 0x00,
  0x6e, 0xf3, 0xff, 0xff, 0x14, 0x00, 0x00, 0x00, 0x00, 0x00, 0x00, 0x01, 0x20,
  0x00, 0x00, 0x00, 0x24, 0x00, 0x00, 0x00, 0x04, 0x00, 0x00, 0x00, 0x40, 0xf4,
  0xff, 0xff, 0x00, 0x00, 0x00, 0x01, 0x01, 0x00, 0x00, 0x00, 0x01, 0x00, 0x00,
  0x00, 0x00, 0x00, 0x00, 0x01, 0x01, 0x00, 0x00, 0x00, 0x87, 0x00, 0x00, 0x00,
  0x03, 0x00, 0x00, 0x00, 0x86, 0x00, 0x00, 0x00, 0x35, 0x00, 0x00, 0x00, 0x0d,
  0x00, 0x00, 0x00, 0xb2, 0xf3, 0xff, 0xff, 0x14, 0x00, 0x00, 0x00, 0x00, 0x00,
  0x00, 0x02, 0x20, 0x00, 0x00, 0x00, 0x24, 0x00, 0x00, 0x00, 0x03, 0x00, 0x00,
  0x00, 0x34, 0xf4, 0xff, 0xff, 0x01, 0x00, 0x00, 0x00, 0x01, 0x00, 0x00, 0x00,
  0x01, 0x00, 0x00, 0x00, 0x00, 0x00, 0x00, 0x01, 0x01, 0x00, 0x00, 0x00, 0x86,
  0x00, 0x00, 0x00, 0x03, 0x00, 0x00, 0x00, 0x85, 0x00, 0x00, 0x00, 0x34, 0x00,
  0x00, 0x00, 0x33, 0x00, 0x00, 0x00, 0xf6, 0xf3, 0xff, 0xff, 0x14, 0x00, 0x00,
  0x00, 0x00, 0x00, 0x00, 0x16, 0x10, 0x00, 0x00, 0x00, 0x14, 0x00, 0x00, 0x00,
  0x02, 0x00, 0x00, 0x00, 0x08, 0xa2, 0xff, 0xff, 0x01, 0x00, 0x00, 0x00, 0x85,
  0x00, 0x00, 0x00, 0x02, 0x00, 0x00, 0x00, 0x84, 0x00, 0x00, 0x00, 0x47, 0x00,
  0x00, 0x00, 0x26, 0xf4, 0xff, 0xff, 0x14, 0x00, 0x00, 0x00, 0x00, 0x00, 0x00,
  0x0a, 0x14, 0x00, 0x00, 0x00, 0x18, 0x00, 0x00, 0x00, 0x07, 0x00, 0x00, 0x00,
  0x16, 0xf4, 0xff, 0xff, 0x03, 0x00, 0x00, 0x00, 0x01, 0x00, 0x00, 0x00, 0x84,
  0x00, 0x00, 0x00, 0x02, 0x00, 0x00, 0x00, 0x83, 0x00, 0x00, 0x00, 0x68, 0x00,
  0x00, 0x00, 0x5a, 0xf4, 0xff, 0xff, 0x14, 0x00, 0x00, 0x00, 0x00, 0x00, 0x00,
  0x01, 0x20, 0x00, 0x00, 0x00, 0x24, 0x00, 0x00, 0x00, 0x04, 0x00, 0x00, 0x00,
  0x2c, 0xf5, 0xff, 0xff, 0x00, 0x00, 0x00, 0x01, 0x01, 0x00, 0x00, 0x00, 0x01,
  0x00, 0x00, 0x00, 0x00, 0x00, 0x00, 0x01, 0x01, 0x00, 0x00, 0x00, 0x83, 0x00,
  0x00, 0x00, 0x03, 0x00, 0x00, 0x00, 0x82, 0x00, 0x00, 0x00, 0x32, 0x00, 0x00,
  0x00, 0x0c, 0x00, 0x00, 0x00, 0x9e, 0xf4, 0xff, 0xff, 0x14, 0x00, 0x00, 0x00,
  0x00, 0x00, 0x00, 0x02, 0x20, 0x00, 0x00, 0x00, 0x24, 0x00, 0x00, 0x00, 0x03,
  0x00, 0x00, 0x00, 0x20, 0xf5, 0xff, 0xff, 0x01, 0x00, 0x00, 0x00, 0x01, 0x00,
  0x00, 0x00, 0x01, 0x00, 0x00, 0x00, 0x00, 0x00, 0x00, 0x01, 0x01, 0x00, 0x00,
  0x00, 0x82, 0x00, 0x00, 0x00, 0x03, 0x00, 0x00, 0x00, 0x81, 0x00, 0x00, 0x00,
  0x31, 0x00, 0x00, 0x00, 0x26, 0x00, 0x00, 0x00, 0xe2, 0xf4, 0xff, 0xff, 0x14,
  0x00, 0x00, 0x00, 0x00, 0x00, 0x00, 0x16, 0x10, 0x00, 0x00, 0x00, 0x14, 0x00,
  0x00, 0x00, 0x02, 0x00, 0x00, 0x00, 0xf4, 0xa2, 0xff, 0xff, 0x01, 0x00, 0x00,
  0x00, 0x81, 0x00, 0x00, 0x00, 0x02, 0x00, 0x00, 0x00, 0x80, 0x00, 0x00, 0x00,
  0x47, 0x00, 0x00, 0x00, 0x12, 0xf5, 0xff, 0xff, 0x14, 0x00, 0x00, 0x00, 0x00,
  0x00, 0x00, 0x0f, 0x14, 0x00, 0x00, 0x00, 0x18, 0x00, 0x00, 0x00, 0x06, 0x00,
  0x00, 0x00, 0x70, 0xfd, 0xff, 0xff, 0x00, 0x00, 0x00, 0x01, 0x01, 0x00, 0x00,
  0x00, 0x80, 0x00, 0x00, 0x00, 0x02, 0x00, 0x00, 0x00, 0x7f, 0x00, 0x00, 0x00,
  0x62, 0x00, 0x00, 0x00, 0x46, 0xf5, 0xff, 0xff, 0x14, 0x00, 0x00, 0x00, 0x00,
  0x00, 0x00, 0x01, 0x20, 0x00, 0x00, 0x00, 0x24, 0x00, 0x00, 0x00, 0x04, 0x00,
  0x00, 0x00, 0x18, 0xf6, 0xff, 0xff, 0x00, 0x00, 0x00, 0x01, 0x01, 0x00, 0x00,
  0x00, 0x01, 0x00, 0x00, 0x00, 0x00, 0x00, 0x00, 0x01, 0x01, 0x00, 0x00, 0x00,
  0x7f, 0x00, 0x00, 0x00, 0x03, 0x00, 0x00, 0x00, 0x7e, 0x00, 0x00, 0x00, 0x30,
  0x00, 0x00, 0x00, 0x0b, 0x00, 0x00, 0x00, 0x8a, 0xf5, 0xff, 0xff, 0x14, 0x00,
  0x00, 0x00, 0x00, 0x00, 0x00, 0x02, 0x20, 0x00, 0x00, 0x00, 0x24, 0x00, 0x00,
  0x00, 0x03, 0x00, 0x00, 0x00, 0x0c, 0xf6, 0xff, 0xff, 0x01, 0x00, 0x00, 0x00,
  0x01, 0x00, 0x00, 0x00, 0x01, 0x00, 0x00, 0x00, 0x00, 0x00, 0x00, 0x01, 0x01,
  0x00, 0x00, 0x00, 0x7e, 0x00, 0x00, 0x00, 0x03, 0x00, 0x00, 0x00, 0x7d, 0x00,
  0x00, 0x00, 0x2f, 0x00, 0x00, 0x00, 0x26, 0x00, 0x00, 0x00, 0xce, 0xf5, 0xff,
  0xff, 0x14, 0x00, 0x00, 0x00, 0x00, 0x00, 0x00, 0x16, 0x10, 0x00, 0x00, 0x00,
  0x14, 0x00, 0x00, 0x00, 0x02, 0x00, 0x00, 0x00, 0xe0, 0xa3, 0xff, 0xff, 0x01,
  0x00, 0x00, 0x00, 0x7d, 0x00, 0x00, 0x00, 0x02, 0x00, 0x00, 0x00, 0x7c, 0x00,
  0x00, 0x00, 0x47, 0x00, 0x00, 0x00, 0xfe, 0xf5, 0xff, 0xff, 0x14, 0x00, 0x00,
  0x00, 0x00, 0x00, 0x00, 0x01, 0x20, 0x00, 0x00, 0x00, 0x24, 0x00, 0x00, 0x00,
  0x04, 0x00, 0x00, 0x00, 0xd0, 0xf6, 0xff, 0xff, 0x00, 0x00, 0x00, 0x01, 0x01,
  0x00, 0x00, 0x00, 0x01, 0x00, 0x00, 0x00, 0x00, 0x00, 0x00, 0x01, 0x01, 0x00,
  0x00, 0x00, 0x7c, 0x00, 0x00, 0x00, 0x03, 0x00, 0x00, 0x00, 0x7b, 0x00, 0x00,
  0x00, 0x2e, 0x00, 0x00, 0x00, 0x0a, 0x00, 0x00, 0x00, 0x42, 0xf6, 0xff, 0xff,
  0x14, 0x00, 0x00, 0x00, 0x00, 0x00, 0x00, 0x02, 0x20, 0x00, 0x00, 0x00, 0x24,
  0x00, 0x00, 0x00, 0x03, 0x00, 0x00, 0x00, 0xc4, 0xf6, 0xff, 0xff, 0x01, 0x00,
  0x00, 0x00, 0x01, 0x00, 0x00, 0x00, 0x01, 0x00, 0x00, 0x00, 0x00, 0x00, 0x00,
  0x01, 0x01, 0x00, 0x00, 0x00, 0x7b, 0x00, 0x00, 0x00, 0x03, 0x00, 0x00, 0x00,
  0x7a, 0x00, 0x00, 0x00, 0x2d, 0x00, 0x00, 0x00, 0x2c, 0x00, 0x00, 0x00, 0x86,
  0xf6, 0xff, 0xff, 0x14, 0x00, 0x00, 0x00, 0x00, 0x00, 0x00, 0x16, 0x10, 0x00,
  0x00, 0x00, 0x14, 0x00, 0x00, 0x00, 0x02, 0x00, 0x00, 0x00, 0x98, 0xa4, 0xff,
  0xff, 0x01, 0x00, 0x00, 0x00, 0x7a, 0x00, 0x00, 0x00, 0x02, 0x00, 0x00, 0x00,
  0x79, 0x00, 0x00, 0x00, 0x47, 0x00, 0x00, 0x00, 0xb6, 0xf6, 0xff, 0xff, 0x14,
  0x00, 0x00, 0x00, 0x00, 0x00, 0x00, 0x0a, 0x14, 0x00, 0x00, 0x00, 0x18, 0x00,
  0x00, 0x00, 0x07, 0x00, 0x00, 0x00, 0xa6, 0xf6, 0xff, 0xff, 0x03, 0x00, 0x00,
  0x00, 0x01, 0x00, 0x00, 0x00, 0x79, 0x00, 0x00, 0x00, 0x02, 0x00, 0x00, 0x00,
  0x78, 0x00, 0x00, 0x00, 0x73, 0x00, 0x00, 0x00, 0xea, 0xf6, 0xff, 0xff, 0x14,
  0x00, 0x00, 0x00, 0x00, 0x00, 0x00, 0x01, 0x20, 0x00, 0x00, 0x00, 0x24, 0x00,
  0x00, 0x00, 0x04, 0x00, 0x00, 0x00, 0xbc, 0xf7, 0xff, 0xff, 0x00, 0x00, 0x00,
  0x01, 0x01, 0x00, 0x00, 0x00, 0x01, 0x00, 0x00, 0x00, 0x00, 0x00, 0x00, 0x01,
  0x01, 0x00, 0x00, 0x00, 0x78, 0x00, 0x00, 0x00, 0x03, 0x00, 0x00, 0x00, 0x77,
  0x00, 0x00, 0x00, 0x2b, 0x00, 0x00, 0x00, 0x09, 0x00, 0x00, 0x00, 0x2e, 0xf7,
  0xff, 0xff, 0x14, 0x00, 0x00, 0x00, 0x00, 0x00, 0x00, 0x02, 0x20, 0x00, 0x00,
  0x00, 0x24, 0x00, 0x00, 0x00, 0x03, 0x00, 0x00, 0x00, 0xb0, 0xf7, 0xff, 0xff,
  0x01, 0x00, 0x00, 0x00, 0x01, 0x00, 0x00, 0x00, 0x01, 0x00, 0x00, 0x00, 0x00,
  0x00, 0x00, 0x01, 0x01, 0x00, 0x00, 0x00, 0x77, 0x00, 0x00, 0x00, 0x03, 0x00,
  0x00, 0x00, 0x76, 0x00, 0x00, 0x00, 0x2a, 0x00, 0x00, 0x00, 0x26, 0x00, 0x00,
  0x00, 0x72, 0xf7, 0xff, 0xff, 0x14, 0x00, 0x00, 0x00, 0x00, 0x00, 0x00, 0x16,
  0x10, 0x00, 0x00, 0x00, 0x14, 0x00, 0x00, 0x00, 0x02, 0x00, 0x00, 0x00, 0x84,
  0xa5, 0xff, 0xff, 0x01, 0x00, 0x00, 0x00, 0x76, 0x00, 0x00, 0x00, 0x02, 0x00,
  0x00, 0x00, 0x75, 0x00, 0x00, 0x00, 0x47, 0x00, 0x00, 0x00, 0xa2, 0xf7, 0xff,
  0xff, 0x20, 0x00, 0x00, 0x00, 0x00, 0x00, 0x00, 0x0f, 0x20, 0x00, 0x00, 0x00,
  0x24, 0x00, 0x00, 0x00, 0x06, 0x00, 0x00, 0x00, 0x0c, 0x00, 0x08, 0x00, 0x00,
