/*
 * Copyright (c) 2020, Alliance for Open Media. All rights reserved
 *
 * This source code is subject to the terms of the BSD 2 Clause License and
 * the Alliance for Open Media Patent License 1.0. If the BSD 2 Clause License
 * was not distributed with this source code in the LICENSE file, you can
 * obtain it at www.aomedia.org/license/software. If the Alliance for Open
 * Media Patent License 1.0 was not distributed with this source code in the
 * PATENTS file, you can obtain it at www.aomedia.org/license/patent.
 */

#include "av1/tflite_models/inter_frame_model/qp176_205_quadtree.h"

const unsigned char qp176_205_quadtree_inter_model_tflite_data[] = {
  0x1c, 0x00, 0x00, 0x00, 0x54, 0x46, 0x4c, 0x33, 0x14, 0x00, 0x20, 0x00, 0x1c,
  0x00, 0x18, 0x00, 0x14, 0x00, 0x10, 0x00, 0x0c, 0x00, 0x00, 0x00, 0x08, 0x00,
  0x04, 0x00, 0x14, 0x00, 0x00, 0x00, 0x1c, 0x00, 0x00, 0x00, 0x88, 0x00, 0x00,
  0x00, 0xe0, 0x00, 0x00, 0x00, 0x50, 0x32, 0x00, 0x00, 0x60, 0x32, 0x00, 0x00,
  0x48, 0x99, 0x00, 0x00, 0x03, 0x00, 0x00, 0x00, 0x01, 0x00, 0x00, 0x00, 0x10,
  0x00, 0x00, 0x00, 0x00, 0x00, 0x0a, 0x00, 0x10, 0x00, 0x0c, 0x00, 0x08, 0x00,
  0x04, 0x00, 0x0a, 0x00, 0x00, 0x00, 0x0c, 0x00, 0x00, 0x00, 0x1c, 0x00, 0x00,
  0x00, 0x38, 0x00, 0x00, 0x00, 0x0f, 0x00, 0x00, 0x00, 0x73, 0x65, 0x72, 0x76,
  0x69, 0x6e, 0x67, 0x5f, 0x64, 0x65, 0x66, 0x61, 0x75, 0x6c, 0x74, 0x00, 0x01,
  0x00, 0x00, 0x00, 0x04, 0x00, 0x00, 0x00, 0xa0, 0xff, 0xff, 0xff, 0xa3, 0x00,
  0x00, 0x00, 0x04, 0x00, 0x00, 0x00, 0x06, 0x00, 0x00, 0x00, 0x6f, 0x75, 0x74,
  0x70, 0x75, 0x74, 0x00, 0x00, 0x01, 0x00, 0x00, 0x00, 0x04, 0x00, 0x00, 0x00,
  0x2e, 0xb9, 0xff, 0xff, 0x04, 0x00, 0x00, 0x00, 0x03, 0x00, 0x00, 0x00, 0x69,
  0x6d, 0x67, 0x00, 0x02, 0x00, 0x00, 0x00, 0x34, 0x00, 0x00, 0x00, 0x04, 0x00,
  0x00, 0x00, 0xdc, 0xff, 0xff, 0xff, 0xa6, 0x00, 0x00, 0x00, 0x04, 0x00, 0x00,
  0x00, 0x13, 0x00, 0x00, 0x00, 0x43, 0x4f, 0x4e, 0x56, 0x45, 0x52, 0x53, 0x49,
  0x4f, 0x4e, 0x5f, 0x4d, 0x45, 0x54, 0x41, 0x44, 0x41, 0x54, 0x41, 0x00, 0x08,
  0x00, 0x0c, 0x00, 0x08, 0x00, 0x04, 0x00, 0x08, 0x00, 0x00, 0x00, 0xa5, 0x00,
  0x00, 0x00, 0x04, 0x00, 0x00, 0x00, 0x13, 0x00, 0x00, 0x00, 0x6d, 0x69, 0x6e,
  0x5f, 0x72, 0x75, 0x6e, 0x74, 0x69, 0x6d, 0x65, 0x5f, 0x76, 0x65, 0x72, 0x73,
  0x69, 0x6f, 0x6e, 0x00, 0xa7, 0x00, 0x00, 0x00, 0x6c, 0x31, 0x00, 0x00, 0x64,
  0x31, 0x00, 0x00, 0x44, 0x31, 0x00, 0x00, 0x24, 0x31, 0x00, 0x00, 0xf4, 0x30,
  0x00, 0x00, 0xc4, 0x30, 0x00, 0x00, 0x94, 0x30, 0x00, 0x00, 0x64, 0x30, 0x00,
  0x00, 0x3c, 0x30, 0x00, 0x00, 0x14, 0x30, 0x00, 0x00, 0xec, 0x2f, 0x00, 0x00,
  0xc4, 0x2f, 0x00, 0x00, 0x9c, 0x2f, 0x00, 0x00, 0x6c, 0x2f, 0x00, 0x00, 0x3c,
  0x2f, 0x00, 0x00, 0x0c, 0x2f, 0x00, 0x00, 0xdc, 0x2e, 0x00, 0x00, 0xac, 0x2e,
  0x00, 0x00, 0x7c, 0x2e, 0x00, 0x00, 0x5c, 0x2e, 0x00, 0x00, 0x3c, 0x2e, 0x00,
  0x00, 0x1c, 0x2e, 0x00, 0x00, 0x04, 0x2e, 0x00, 0x00, 0xf0, 0x2d, 0x00, 0x00,
  0xbc, 0x2d, 0x00, 0x00, 0x9c, 0x2d, 0x00, 0x00, 0x7c, 0x2d, 0x00, 0x00, 0xdc,
  0x2c, 0x00, 0x00, 0x8c, 0x2c, 0x00, 0x00, 0xec, 0x2b, 0x00, 0x00, 0xbc, 0x2b,
  0x00, 0x00, 0x2c, 0x2b, 0x00, 0x00, 0xfc, 0x29, 0x00, 0x00, 0xec, 0x28, 0x00,
  0x00, 0xbc, 0x27, 0x00, 0x00, 0xac, 0x26, 0x00, 0x00, 0x7c, 0x25, 0x00, 0x00,
  0x6c, 0x24, 0x00, 0x00, 0x3c, 0x23, 0x00, 0x00, 0x14, 0x23, 0x00, 0x00, 0x44,
  0x22, 0x00, 0x00, 0x5c, 0x21, 0x00, 0x00, 0xbc, 0x20, 0x00, 0x00, 0xd4, 0x1f,
  0x00, 0x00, 0x34, 0x1f, 0x00, 0x00, 0xf4, 0x1e, 0x00, 0x00, 0x34, 0x1d, 0x00,
  0x00, 0x04, 0x1c, 0x00, 0x00, 0x1c, 0x1b, 0x00, 0x00, 0x7c, 0x1a, 0x00, 0x00,
  0x94, 0x19, 0x00, 0x00, 0xc4, 0x18, 0x00, 0x00, 0x74, 0x18, 0x00, 0x00, 0x24,
  0x16, 0x00, 0x00, 0x14, 0x14, 0x00, 0x00, 0xe4, 0x12, 0x00, 0x00, 0xd4, 0x11,
  0x00, 0x00, 0xa4, 0x10, 0x00, 0x00, 0x94, 0x0f, 0x00, 0x00, 0x44, 0x0d, 0x00,
  0x00, 0x34, 0x0b, 0x00, 0x00, 0x04, 0x0a, 0x00, 0x00, 0xf4, 0x08, 0x00, 0x00,
  0xc4, 0x07, 0x00, 0x00, 0x34, 0x07, 0x00, 0x00, 0x04, 0x06, 0x00, 0x00, 0x74,
  0x05, 0x00, 0x00, 0xd4, 0x04, 0x00, 0x00, 0x84, 0x04, 0x00, 0x00, 0xe4, 0x03,
  0x00, 0x00, 0xb4, 0x03, 0x00, 0x00, 0xac, 0x03, 0x00, 0x00, 0x7c, 0x03, 0x00,
  0x00, 0x60, 0x03, 0x00, 0x00, 0x58, 0x03, 0x00, 0x00, 0x50, 0x03, 0x00, 0x00,
  0x48, 0x03, 0x00, 0x00, 0x40, 0x03, 0x00, 0x00, 0x38, 0x03, 0x00, 0x00, 0x30,
  0x03, 0x00, 0x00, 0x28, 0x03, 0x00, 0x00, 0x20, 0x03, 0x00, 0x00, 0x18, 0x03,
  0x00, 0x00, 0x10, 0x03, 0x00, 0x00, 0x08, 0x03, 0x00, 0x00, 0x00, 0x03, 0x00,
  0x00, 0xf8, 0x02, 0x00, 0x00, 0xf0, 0x02, 0x00, 0x00, 0xe8, 0x02, 0x00, 0x00,
  0xe0, 0x02, 0x00, 0x00, 0xd8, 0x02, 0x00, 0x00, 0xd0, 0x02, 0x00, 0x00, 0xc8,
  0x02, 0x00, 0x00, 0xc0, 0x02, 0x00, 0x00, 0xb8, 0x02, 0x00, 0x00, 0xb0, 0x02,
  0x00, 0x00, 0xa8, 0x02, 0x00, 0x00, 0xa0, 0x02, 0x00, 0x00, 0x98, 0x02, 0x00,
  0x00, 0x90, 0x02, 0x00, 0x00, 0x88, 0x02, 0x00, 0x00, 0x80, 0x02, 0x00, 0x00,
  0x78, 0x02, 0x00, 0x00, 0x70, 0x02, 0x00, 0x00, 0x68, 0x02, 0x00, 0x00, 0x60,
  0x02, 0x00, 0x00, 0x58, 0x02, 0x00, 0x00, 0x50, 0x02, 0x00, 0x00, 0x48, 0x02,
  0x00, 0x00, 0x40, 0x02, 0x00, 0x00, 0x38, 0x02, 0x00, 0x00, 0x30, 0x02, 0x00,
  0x00, 0x28, 0x02, 0x00, 0x00, 0x20, 0x02, 0x00, 0x00, 0x18, 0x02, 0x00, 0x00,
  0x10, 0x02, 0x00, 0x00, 0x08, 0x02, 0x00, 0x00, 0x00, 0x02, 0x00, 0x00, 0xf8,
  0x01, 0x00, 0x00, 0xf0, 0x01, 0x00, 0x00, 0xe8, 0x01, 0x00, 0x00, 0xe0, 0x01,
  0x00, 0x00, 0xd8, 0x01, 0x00, 0x00, 0xd0, 0x01, 0x00, 0x00, 0xc8, 0x01, 0x00,
  0x00, 0xc0, 0x01, 0x00, 0x00, 0xb8, 0x01, 0x00, 0x00, 0xb0, 0x01, 0x00, 0x00,
  0xa8, 0x01, 0x00, 0x00, 0xa0, 0x01, 0x00, 0x00, 0x98, 0x01, 0x00, 0x00, 0x90,
  0x01, 0x00, 0x00, 0x88, 0x01, 0x00, 0x00, 0x80, 0x01, 0x00, 0x00, 0x78, 0x01,
  0x00, 0x00, 0x70, 0x01, 0x00, 0x00, 0x68, 0x01, 0x00, 0x00, 0x60, 0x01, 0x00,
  0x00, 0x58, 0x01, 0x00, 0x00, 0x50, 0x01, 0x00, 0x00, 0x48, 0x01, 0x00, 0x00,
  0x40, 0x01, 0x00, 0x00, 0x38, 0x01, 0x00, 0x00, 0x30, 0x01, 0x00, 0x00, 0x28,
  0x01, 0x00, 0x00, 0x20, 0x01, 0x00, 0x00, 0x18, 0x01, 0x00, 0x00, 0x10, 0x01,
  0x00, 0x00, 0x08, 0x01, 0x00, 0x00, 0x00, 0x01, 0x00, 0x00, 0xf8, 0x00, 0x00,
  0x00, 0xf0, 0x00, 0x00, 0x00, 0xe8, 0x00, 0x00, 0x00, 0xe0, 0x00, 0x00, 0x00,
  0xd8, 0x00, 0x00, 0x00, 0xd0, 0x00, 0x00, 0x00, 0xc8, 0x00, 0x00, 0x00, 0xc0,
  0x00, 0x00, 0x00, 0xb8, 0x00, 0x00, 0x00, 0xb0, 0x00, 0x00, 0x00, 0xa8, 0x00,
  0x00, 0x00, 0xa0, 0x00, 0x00, 0x00, 0x98, 0x00, 0x00, 0x00, 0x90, 0x00, 0x00,
  0x00, 0x88, 0x00, 0x00, 0x00, 0x68, 0x00, 0x00, 0x00, 0x04, 0x00, 0x00, 0x00,
  0x3a, 0xbc, 0xff, 0xff, 0x04, 0x00, 0x00, 0x00, 0x54, 0x00, 0x00, 0x00, 0x0c,
  0x00, 0x00, 0x00, 0x08, 0x00, 0x0e, 0x00, 0x08, 0x00, 0x04, 0x00, 0x08, 0x00,
  0x00, 0x00, 0x10, 0x00, 0x00, 0x00, 0x24, 0x00, 0x00, 0x00, 0x00, 0x00, 0x06,
  0x00, 0x08, 0x00, 0x04, 0x00, 0x06, 0x00, 0x00, 0x00, 0x04, 0x00, 0x00, 0x00,
  0x00, 0x00, 0x00, 0x00, 0x00, 0x00, 0x0a, 0x00, 0x10, 0x00, 0x0c, 0x00, 0x08,
  0x00, 0x04, 0x00, 0x0a, 0x00, 0x00, 0x00, 0x01, 0x00, 0x00, 0x00, 0x02, 0x00,
  0x00, 0x00, 0x04, 0x00, 0x00, 0x00, 0x06, 0x00, 0x00, 0x00, 0x32, 0x2e, 0x31,
  0x35, 0x2e, 0x30, 0x00, 0x00, 0x9a, 0xbc, 0xff, 0xff, 0x04, 0x00, 0x00, 0x00,
  0x10, 0x00, 0x00, 0x00, 0x32, 0x2e, 0x32, 0x2e, 0x30, 0x00, 0x00, 0x00, 0x00,
  0x00, 0x00, 0x00, 0x00, 0x00, 0x00, 0x00, 0xd8, 0x6a, 0xff, 0xff, 0xdc, 0x6a,
  0xff, 0xff, 0xe0, 0x6a, 0xff, 0xff, 0xe4, 0x6a, 0xff, 0xff, 0xe8, 0x6a, 0xff,
  0xff, 0xec, 0x6a, 0xff, 0xff, 0xf0, 0x6a, 0xff, 0xff, 0xf4, 0x6a, 0xff, 0xff,
  0xf8, 0x6a, 0xff, 0xff, 0xfc, 0x6a, 0xff, 0xff, 0x00, 0x6b, 0xff, 0xff, 0x04,
  0x6b, 0xff, 0xff, 0x08, 0x6b, 0xff, 0xff, 0x0c, 0x6b, 0xff, 0xff, 0x10, 0x6b,
  0xff, 0xff, 0x14, 0x6b, 0xff, 0xff, 0x18, 0x6b, 0xff, 0xff, 0x1c, 0x6b, 0xff,
  0xff, 0x20, 0x6b, 0xff, 0xff, 0x24, 0x6b, 0xff, 0xff, 0x28, 0x6b, 0xff, 0xff,
  0x2c, 0x6b, 0xff, 0xff, 0x30, 0x6b, 0xff, 0xff, 0x34, 0x6b, 0xff, 0xff, 0x38,
  0x6b, 0xff, 0xff, 0x3c, 0x6b, 0xff, 0xff, 0x40, 0x6b, 0xff, 0xff, 0x44, 0x6b,
  0xff, 0xff, 0x48, 0x6b, 0xff, 0xff, 0x4c, 0x6b, 0xff, 0xff, 0x50, 0x6b, 0xff,
  0xff, 0x54, 0x6b, 0xff, 0xff, 0x58, 0x6b, 0xff, 0xff, 0x5c, 0x6b, 0xff, 0xff,
  0x60, 0x6b, 0xff, 0xff, 0x64, 0x6b, 0xff, 0xff, 0x68, 0x6b, 0xff, 0xff, 0x6c,
  0x6b, 0xff, 0xff, 0x70, 0x6b, 0xff, 0xff, 0x74, 0x6b, 0xff, 0xff, 0x78, 0x6b,
  0xff, 0xff, 0x7c, 0x6b, 0xff, 0xff, 0x80, 0x6b, 0xff, 0xff, 0x84, 0x6b, 0xff,
  0xff, 0x88, 0x6b, 0xff, 0xff, 0x8c, 0x6b, 0xff, 0xff, 0x90, 0x6b, 0xff, 0xff,
  0x94, 0x6b, 0xff, 0xff, 0x98, 0x6b, 0xff, 0xff, 0x9c, 0x6b, 0xff, 0xff, 0xa0,
  0x6b, 0xff, 0xff, 0xa4, 0x6b, 0xff, 0xff, 0xa8, 0x6b, 0xff, 0xff, 0xac, 0x6b,
  0xff, 0xff, 0xb0, 0x6b, 0xff, 0xff, 0xb4, 0x6b, 0xff, 0xff, 0xb8, 0x6b, 0xff,
  0xff, 0xbc, 0x6b, 0xff, 0xff, 0xc0, 0x6b, 0xff, 0xff, 0xc4, 0x6b, 0xff, 0xff,
  0xc8, 0x6b, 0xff, 0xff, 0xcc, 0x6b, 0xff, 0xff, 0xd0, 0x6b, 0xff, 0xff, 0xd4,
  0x6b, 0xff, 0xff, 0xd8, 0x6b, 0xff, 0xff, 0xdc, 0x6b, 0xff, 0xff, 0xe0, 0x6b,
  0xff, 0xff, 0xe4, 0x6b, 0xff, 0xff, 0xe8, 0x6b, 0xff, 0xff, 0xec, 0x6b, 0xff,
  0xff, 0xf0, 0x6b, 0xff, 0xff, 0xf4, 0x6b, 0xff, 0xff, 0xf8, 0x6b, 0xff, 0xff,
  0xfc, 0x6b, 0xff, 0xff, 0x00, 0x6c, 0xff, 0xff, 0x04, 0x6c, 0xff, 0xff, 0x08,
  0x6c, 0xff, 0xff, 0x0c, 0x6c, 0xff, 0xff, 0x10, 0x6c, 0xff, 0xff, 0x14, 0x6c,
  0xff, 0xff, 0x18, 0x6c, 0xff, 0xff, 0x1c, 0x6c, 0xff, 0xff, 0x20, 0x6c, 0xff,
  0xff, 0x24, 0x6c, 0xff, 0xff, 0x28, 0x6c, 0xff, 0xff, 0x2c, 0x6c, 0xff, 0xff,
  0x30, 0x6c, 0xff, 0xff, 0x34, 0x6c, 0xff, 0xff, 0x38, 0x6c, 0xff, 0xff, 0x3c,
  0x6c, 0xff, 0xff, 0x40, 0x6c, 0xff, 0xff, 0x22, 0xbe, 0xff, 0xff, 0x04, 0x00,
  0x00, 0x00, 0x0c, 0x00, 0x00, 0x00, 0x01, 0x00, 0x00, 0x00, 0x02, 0x00, 0x00,
  0x00, 0x01, 0x00, 0x00, 0x00, 0x3a, 0xbe, 0xff, 0xff, 0x04, 0x00, 0x00, 0x00,
  0x20, 0x00, 0x00, 0x00, 0x00, 0x00, 0x00, 0x00, 0x00, 0x00, 0x00, 0x00, 0x01,
  0x00, 0x00, 0x00, 0x01, 0x00, 0x00, 0x00, 0x01, 0x00, 0x00, 0x00, 0x01, 0x00,
  0x00, 0x00, 0x00, 0x00, 0x00, 0x00, 0x00, 0x00, 0x00, 0x00, 0x88, 0x6c, 0xff,
  0xff, 0x6a, 0xbe, 0xff, 0xff, 0x04, 0x00, 0x00, 0x00, 0x20, 0x00, 0x00, 0x00,
  0xc5, 0x87, 0x13, 0xbe, 0xc6, 0xf8, 0x03, 0x3f, 0x1e, 0x32, 0x78, 0x3f, 0x51,
  0x23, 0xd6, 0xbe, 0xf1, 0x3f, 0xa2, 0xbe, 0xdd, 0xb4, 0x7d, 0x3f, 0x2d, 0x96,
  0x44, 0xbf, 0xd1, 0xc9, 0x46, 0xbf, 0x96, 0xbe, 0xff, 0xff, 0x04, 0x00, 0x00,
  0x00, 0x90, 0x00, 0x00, 0x00, 0x83, 0x3e, 0x1a, 0xc0, 0xdf, 0x62, 0xba, 0xbf,
  0x57, 0x19, 0x1a, 0x3f, 0xfa, 0x97, 0xd7, 0xbb, 0x51, 0x4d, 0xce, 0xbe, 0x1a,
  0x4c, 0x2c, 0xbe, 0x45, 0xe0, 0xa3, 0xbe, 0xc8, 0xba, 0x8c, 0xbe, 0xb0, 0x08,
  0x5c, 0x3e, 0x13, 0x0d, 0x50, 0x3d, 0xc4, 0xd1, 0x32, 0x3f, 0x1f, 0xaa, 0x18,
  0xbd, 0x15, 0x64, 0x9c, 0x3e, 0x5b, 0xb2, 0x13, 0xbd, 0x05, 0x5f, 0x32, 0x3e,
  0x4e, 0x45, 0x41, 0xbe, 0xc0, 0x7d, 0xeb, 0x3e, 0xe2, 0x39, 0x64, 0x3d, 0xce,
  0x6b, 0x09, 0xc0, 0x87, 0x89, 0x84, 0xbf, 0xe2, 0x41, 0x0e, 0x3e, 0x89, 0x57,
  0xa3, 0x3d, 0xe6, 0x40, 0x21, 0xbd, 0xc4, 0x27, 0x9e, 0xbe, 0x7f, 0xaf, 0xa9,
  0x3e, 0xda, 0xd2, 0x17, 0x3e, 0xc9, 0xf4, 0xee, 0x3e, 0x54, 0xf8, 0x3f, 0x3d,
  0x1d, 0x48, 0x04, 0x3f, 0xa0, 0xfe, 0x33, 0x3e, 0xf6, 0x95, 0x13, 0xbe, 0x21,
  0x45, 0xc8, 0xbd, 0x22, 0xb7, 0x8b, 0x3c, 0x2c, 0x30, 0x8a, 0xbd, 0xda, 0x1e,
  0x25, 0x3f, 0xa4, 0xad, 0xe7, 0x3e, 0x32, 0xbf, 0xff, 0xff, 0x04, 0x00, 0x00,
  0x00, 0x40, 0x00, 0x00, 0x00, 0xec, 0x23, 0x17, 0x3f, 0xe0, 0x6c, 0x48, 0x3f,
  0x7d, 0xc7, 0xa4, 0x3d, 0xa7, 0xce, 0x80, 0x3f, 0x47, 0xa4, 0x56, 0xbe, 0x3e,
  0x5e, 0x8e, 0x3f, 0x17, 0x68, 0xbd, 0x3d, 0x31, 0xe7, 0xd5, 0x3d, 0xb3, 0x5c,
  0xcb, 0xbe, 0x52, 0x6a, 0x1f, 0x3d, 0x67, 0x98, 0x43, 0x3f, 0xac, 0xbc, 0xaf,
  0xbe, 0xc4, 0x4e, 0x36, 0xbf, 0x18, 0x04, 0xe0, 0x3d, 0x18, 0xec, 0xa5, 0x3e,
  0x74, 0xa0, 0x55, 0xbf, 0x7e, 0xbf, 0xff, 0xff, 0x04, 0x00, 0x00, 0x00, 0x90,
  0x00, 0x00, 0x00, 0x55, 0x07, 0xaf, 0x3e, 0x15, 0x30, 0x38, 0x3e, 0xfc, 0xd5,
  0xbd, 0xbe, 0x7e, 0x5e, 0x97, 0xbd, 0x3a, 0xd7, 0x5c, 0x3f, 0x97, 0xf4, 0x68,
  0xbd, 0xb8, 0xa2, 0x98, 0xbe, 0x25, 0x68, 0x4e, 0xbf, 0x16, 0xa3, 0x1f, 0xbe,
  0x5d, 0xa4, 0x3c, 0xbe, 0x75, 0x39, 0x3c, 0xbd, 0xd5, 0x41, 0xc9, 0xbe, 0xee,
  0xf3, 0x6d, 0x3f, 0x2d, 0x5d, 0xb4, 0x3c, 0x90, 0x93, 0x67, 0xbe, 0x63, 0x4b,
  0x66, 0xbf, 0x95, 0xd8, 0x8a, 0x3f, 0x70, 0x73, 0x64, 0x3d, 0x1b, 0xdf, 0x8d,
  0xbf, 0xb9, 0x32, 0xdc, 0xbe, 0x6c, 0x34, 0xb2, 0x3f, 0xbe, 0x7b, 0x8c, 0x3e,
  0x72, 0xbb, 0x52, 0xbf, 0x7f, 0x12, 0x34, 0xbf, 0x86, 0x57, 0x25, 0xbe, 0xa7,
  0x15, 0xa8, 0xbe, 0x08, 0x79, 0xe6, 0x3d, 0x7f, 0x24, 0xb5, 0xbe, 0xce, 0x6c,
  0xc7, 0x3e, 0x4f, 0xd8, 0xa1, 0x3d, 0xef, 0xc3, 0xf4, 0xbd, 0xf6, 0x32, 0x24,
  0xbf, 0xa5, 0xe6, 0x5b, 0x3e, 0xdf, 0xd2, 0x0c, 0x40, 0x23, 0x14, 0x1a, 0xbd,
  0x17, 0xe5, 0x9d, 0x3e, 0x1a, 0xc0, 0xff, 0xff, 0x04, 0x00, 0x00, 0x00, 0x80,
  0x00, 0x00, 0x00, 0xe1, 0xd3, 0xe4, 0xbd, 0x1a, 0xa9, 0xed, 0xc0, 0x94, 0xb2,
  0xd4, 0xbd, 0xc0, 0x73, 0xc2, 0xbf, 0xd1, 0x0d, 0xa4, 0x3d, 0xaa, 0x69, 0x91,
  0xbd, 0xd0, 0xa9, 0x17, 0x3f, 0x99, 0x16, 0xe2, 0xbe, 0x2c, 0xb1, 0xb5, 0x3f,
  0xad, 0xe3, 0xc9, 0xc0, 0xcd, 0xac, 0x42, 0x3f, 0x75, 0x30, 0xaf, 0xbe, 0xcd,
  0xf2, 0x1e, 0x40, 0x46, 0x84, 0xfa, 0xbd, 0xb5, 0x4d, 0x11, 0x3f, 0x38, 0x80,
  0x32, 0xbf, 0xf9, 0xdc, 0x0e, 0xbf, 0xdf, 0x0f, 0x81, 0xbf, 0xe9, 0x81, 0x12,
  0x3e, 0x12, 0xfb, 0x06, 0x40, 0x10, 0x12, 0xde, 0x3b, 0xbb, 0x03, 0x37, 0x3e,
  0xb8, 0xfb, 0x1f, 0xbf, 0x49, 0xe7, 0x06, 0x3e, 0x65, 0x51, 0xcc, 0xbf, 0x7e,
  0x41, 0x78, 0xc0, 0x3a, 0x54, 0x21, 0x3f, 0x2e, 0x63, 0xb3, 0xbe, 0x74, 0x72,
  0xbf, 0x3f, 0xd6, 0x51, 0xaa, 0x3e, 0x98, 0x9a, 0x8b, 0x3e, 0x7e, 0xc2, 0xea,
  0x3b, 0xa6, 0xc0, 0xff, 0xff, 0x04, 0x00, 0x00, 0x00, 0x20, 0x01, 0x00, 0x00,
  0x38, 0x19, 0x49, 0x3f, 0xb7, 0x67, 0x95, 0x42, 0x63, 0x80, 0x0b, 0x40, 0xca,
  0xeb, 0xa6, 0xbe, 0x6d, 0xeb, 0x9c, 0x3e, 0x69, 0x73, 0xbb, 0xbe, 0xe8, 0x9d,
  0x5e, 0x3e, 0x0b, 0xa2, 0x75, 0x3e, 0x3c, 0xf8, 0x32, 0x3f, 0x76, 0x1e, 0x46,
  0x41, 0x18, 0xa6, 0xbc, 0x3f, 0xe6, 0x2a, 0xb8, 0xbe, 0x73, 0xda, 0x19, 0x3e,
  0xb2, 0x89, 0x0f, 0x3e, 0x77, 0x62, 0x84, 0x3e, 0x1c, 0x4e, 0xde, 0x3c, 0xd0,
  0x8f, 0xb0, 0x3e, 0xd1, 0xa0, 0x09, 0x3e, 0x9b, 0xc0, 0x91, 0x3f, 0x69, 0x4a,
  0x53, 0x3e, 0x0c, 0xce, 0x97, 0xbb, 0xef, 0xf8, 0x29, 0xbe, 0xdd, 0xd3, 0xef,
  0x3d, 0xe8, 0x79, 0xfa, 0x3c, 0xe9, 0x86, 0x98, 0x3f, 0x51, 0x26, 0x37, 0xbe,
  0xdd, 0xb1, 0xf9, 0x3f, 0xab, 0x0a, 0x10, 0xc0, 0x93, 0xba, 0x90, 0xbf, 0x31,
  0x91, 0xa5, 0x3d, 0xa1, 0x9c, 0x47, 0xbe, 0x9c, 0x4f, 0xbc, 0xbe, 0xfe, 0x03,
  0x7d, 0x3f, 0xfa, 0x81, 0x89, 0x3f, 0xfd, 0xad, 0xa5, 0x3f, 0xb2, 0x03, 0x10,
  0xc0, 0x80, 0x07, 0x9f, 0xbd, 0x50, 0xc9, 0x20, 0x3f, 0xfe, 0xa1, 0x47, 0xbf,
  0xd2, 0xe9, 0xbf, 0xbe, 0xa7, 0x67, 0x76, 0x3f, 0x1a, 0x2f, 0x19, 0xbe, 0xf7,
  0xf3, 0xe8, 0x3f, 0x39, 0xe2, 0xd9, 0xbf, 0x91, 0xed, 0xb0, 0x3e, 0xd5, 0x4e,
  0x34, 0xbe, 0x62, 0xf8, 0xf5, 0x3c, 0xb1, 0x97, 0x93, 0x3d, 0x8e, 0xc4, 0x97,
  0x3f, 0x2c, 0xa9, 0xb5, 0x3e, 0x35, 0x9e, 0x30, 0x40, 0x1e, 0xc9, 0xf8, 0xbf,
  0xc3, 0x6d, 0x99, 0x3f, 0xf1, 0x0b, 0x03, 0x3f, 0x81, 0x51, 0xe4, 0xbe, 0x03,
  0x32, 0xe6, 0xbe, 0xb4, 0xad, 0xc3, 0x3f, 0xef, 0x20, 0xeb, 0xbb, 0xe7, 0x02,
  0x13, 0x40, 0xe5, 0x37, 0xd2, 0xbf, 0x79, 0x03, 0x83, 0xbf, 0xad, 0x78, 0x3c,
  0xbe, 0x4c, 0xea, 0xae, 0xbe, 0x92, 0x6b, 0xc8, 0x3e, 0x1f, 0x26, 0x0e, 0x40,
  0x5f, 0xe1, 0x4b, 0x3e, 0x01, 0xcc, 0xc2, 0x3f, 0x59, 0x96, 0xa2, 0xbf, 0x6a,
  0xeb, 0x89, 0x3e, 0xd5, 0x9b, 0xff, 0xbe, 0xed, 0xf7, 0x9b, 0x3e, 0x97, 0xec,
  0xe1, 0x3e, 0xd2, 0xc1, 0xff, 0xff, 0x04, 0x00, 0x00, 0x00, 0x80, 0x00, 0x00,
  0x00, 0x87, 0xc8, 0x23, 0xbf, 0xef, 0x84, 0x8f, 0xbe, 0x8f, 0xb7, 0x2e, 0x3e,
  0x63, 0x03, 0x4d, 0xbf, 0x94, 0xaf, 0xee, 0xbe, 0xeb, 0xa2, 0x55, 0xbe, 0xdb,
  0xaf, 0x02, 0x3e, 0xcb, 0xc0, 0x8e, 0xbe, 0xac, 0x91, 0x7f, 0xc0, 0x5c, 0xfe,
  0x05, 0xbb, 0xac, 0xf3, 0x24, 0x3f, 0x18, 0x51, 0xc2, 0xc0, 0x3a, 0x17, 0xed,
  0xbf, 0x4c, 0xee, 0x41, 0xbf, 0x45, 0x2c, 0x84, 0x3f, 0x34, 0x43, 0x57, 0x41,
  0x3d, 0x0d, 0x41, 0xbd, 0x45, 0xef, 0x85, 0xbf, 0x54, 0x2a, 0xfe, 0x3f, 0xa8,
  0xfc, 0x93, 0x3f, 0xc9, 0x1c, 0x62, 0xc0, 0x59, 0xaa, 0x11, 0xc0, 0x94, 0xa9,
  0xcf, 0x3f, 0x63, 0xf7, 0xd0, 0xbf, 0xb0, 0x3e, 0x53, 0x3e, 0xa9, 0x83, 0xf2,
  0xbe, 0x25, 0xa2, 0x8f, 0x3c, 0x04, 0x47, 0x1c, 0xbc, 0xb7, 0x71, 0x3b, 0x3f,
  0x38, 0x96, 0x78, 0xbe, 0x53, 0x03, 0xdd, 0xbe, 0x2c, 0xca, 0x40, 0x3e, 0x5e,
  0xc2, 0xff, 0xff, 0x04, 0x00, 0x00, 0x00, 0x20, 0x01, 0x00, 0x00, 0xdb, 0x42,
  0x1e, 0x3e, 0x7f, 0xe6, 0xd0, 0xbe, 0xf6, 0x42, 0xe2, 0xbf, 0xef, 0x61, 0xcd,
  0x3e, 0x13, 0xb8, 0x7a, 0x3e, 0xc3, 0xf7, 0x29, 0xbf, 0x4a, 0x5b, 0x38, 0x3f,
  0x65, 0xa0, 0x96, 0xbf, 0xc8, 0x19, 0x9d, 0x3d, 0x27, 0x6c, 0xcb, 0xbd, 0x18,
  0x19, 0x9b, 0xbf, 0x67, 0x83, 0x41, 0x3f, 0xb9, 0x34, 0x72, 0xbf, 0xee, 0x97,
  0xee, 0xbe, 0x3f, 0x0d, 0x59, 0xbd, 0xa3, 0x38, 0x63, 0xbe, 0x21, 0xfa, 0x88,
  0xbe, 0x93, 0xc3, 0xaa, 0xbe, 0xe6, 0xf0, 0x2c, 0x3f, 0x46, 0x5d, 0xba, 0xbe,
  0x82, 0xd1, 0xe6, 0x3f, 0x4d, 0x57, 0x66, 0x3e, 0x2e, 0xf4, 0xc9, 0x3e, 0xd9,
  0x24, 0x17, 0xbf, 0xe9, 0x8e, 0x32, 0x3f, 0xba, 0x10, 0x0c, 0xbf, 0xd0, 0x4c,
  0x81, 0xbf, 0x29, 0xf2, 0x3f, 0xbf, 0x75, 0x7b, 0xb2, 0xbe, 0x75, 0x05, 0x52,
  0xbf, 0x48, 0x6f, 0xa3, 0x3f, 0xdb, 0x75, 0xd8, 0xbc, 0x40, 0x1a, 0x0f, 0x3f,
  0x75, 0x40, 0xf5, 0xbe, 0x36, 0xd0, 0xec, 0xbf, 0xdc, 0xbe, 0x30, 0xbf, 0x7d,
  0x27, 0x06, 0xc0, 0x26, 0x70, 0x91, 0xbf, 0xcb, 0x34, 0x09, 0x3f, 0x2b, 0xf1,
  0xce, 0x3e, 0xec, 0x5d, 0x17, 0xbd, 0x8e, 0x41, 0x55, 0xbf, 0xc3, 0xb2, 0x5d,
  0xbe, 0x0c, 0x8a, 0x90, 0xbe, 0xd1, 0xa4, 0xb2, 0xbe, 0x9c, 0x84, 0x3f, 0x3e,
  0xbc, 0xc9, 0x1d, 0x3f, 0x27, 0xd2, 0x04, 0xbe, 0xa8, 0x55, 0x1a, 0x3e, 0xa9,
  0x37, 0x0d, 0xbf, 0x3b, 0x8a, 0x09, 0xbe, 0xdb, 0x3b, 0x55, 0x3f, 0x5e, 0xe9,
  0xf3, 0x3f, 0x84, 0xf2, 0x57, 0xbe, 0xc7, 0x7c, 0x87, 0x3e, 0xbb, 0xcd, 0x53,
  0xbf, 0xce, 0x52, 0xbc, 0x3e, 0x4b, 0x6e, 0xae, 0xbe, 0x39, 0x4a, 0x27, 0xbf,
  0xff, 0xa2, 0x89, 0xbf, 0x14, 0x92, 0x61, 0xbf, 0x54, 0x72, 0xcd, 0xbe, 0xe3,
  0x92, 0x12, 0xbf, 0x7d, 0x3d, 0xc7, 0xbe, 0x0f, 0x6b, 0x2f, 0x3f, 0xae, 0xd6,
  0xcc, 0xbe, 0xc9, 0xba, 0x3c, 0xbf, 0xf4, 0x2f, 0xa6, 0x3f, 0x89, 0x15, 0xc6,
  0x3e, 0xf5, 0x63, 0xe1, 0xbe, 0xaf, 0xd4, 0xde, 0xbd, 0x64, 0x70, 0x0e, 0xbf,
  0x8a, 0xc3, 0xff, 0xff, 0x04, 0x00, 0x00, 0x00, 0x00, 0x01, 0x00, 0x00, 0x93,
  0x51, 0x5c, 0x3f, 0xcf, 0x45, 0x39, 0x3e, 0x6b, 0xf9, 0x54, 0xbe, 0x56, 0x03,
  0x57, 0x3d, 0x45, 0xab, 0x28, 0xbe, 0x20, 0xdc, 0xda, 0x3d, 0x52, 0xe5, 0x23,
  0x3f, 0xbc, 0x02, 0x71, 0xbf, 0x58, 0x17, 0x2e, 0x3f, 0x12, 0xc5, 0x08, 0x3d,
  0x51, 0xd2, 0xec, 0xbd, 0x30, 0xcf, 0x93, 0xbe, 0x5b, 0xba, 0x53, 0xbf, 0xd5,
  0xcc, 0x73, 0xbe, 0xcd, 0xb5, 0xc7, 0xbd, 0x26, 0xc9, 0x54, 0x3e, 0xcc, 0x0d,
  0xeb, 0xbc, 0x9a, 0x49, 0x9f, 0xbf, 0x5b, 0xda, 0x57, 0x3e, 0x2c, 0x14, 0xb2,
  0xbe, 0xb7, 0xfe, 0xba, 0xbc, 0x9c, 0x10, 0x82, 0xbf, 0xe1, 0x97, 0x2d, 0xbe,
  0xd6, 0xd3, 0x8b, 0x3e, 0xe5, 0x41, 0xdc, 0xbf, 0xc4, 0xd5, 0x99, 0xbd, 0x23,
  0xfb, 0x8d, 0xbf, 0xf1, 0x75, 0xa0, 0xbe, 0xaf, 0xdd, 0xee, 0x3e, 0xb0, 0xb0,
  0x05, 0x40, 0x28, 0x8b, 0x82, 0xbe, 0x83, 0x37, 0x0b, 0xbe, 0x32, 0xa8, 0xef,
  0xbb, 0x0c, 0x5e, 0x91, 0xbe, 0x90, 0x9c, 0xf2, 0xbe, 0xb2, 0x06, 0xee, 0x3c,
  0x24, 0x7c, 0xc2, 0xbd, 0xa9, 0x2b, 0x55, 0xbf, 0x34, 0x73, 0x30, 0xbd, 0x26,
  0xa3, 0x76, 0x3a, 0x63, 0xc1, 0xee, 0xbe, 0xcf, 0x7a, 0xcc, 0xbf, 0x13, 0xba,
  0xc8, 0x3e, 0xe2, 0xd3, 0x65, 0x3e, 0xda, 0x3a, 0xfa, 0x3c, 0x1a, 0xf5, 0xda,
  0xbf, 0x4b, 0x72, 0x9d, 0xbd, 0x6d, 0x8c, 0xbf, 0x3e, 0x2d, 0xfb, 0xaa, 0x3e,
  0x02, 0x28, 0x26, 0xbf, 0x79, 0x43, 0x54, 0xbf, 0xd5, 0x75, 0x18, 0xbf, 0x20,
  0x55, 0x69, 0x3e, 0xc2, 0x09, 0x7b, 0xbd, 0x01, 0x30, 0x29, 0xbd, 0x08, 0xa3,
  0x68, 0xbe, 0x6f, 0x9e, 0x1c, 0xbf, 0x3d, 0x98, 0x76, 0x3f, 0x93, 0x3e, 0x2b,
  0xbf, 0x77, 0x04, 0x4d, 0xbf, 0x99, 0x37, 0xba, 0x3d, 0x5d, 0xd4, 0x5e, 0xbf,
  0x88, 0x23, 0x1a, 0xbe, 0x9b, 0x2f, 0x4d, 0xbe, 0x96, 0xc4, 0xff, 0xff, 0x04,
  0x00, 0x00, 0x00, 0x20, 0x01, 0x00, 0x00, 0x0f, 0x2e, 0x2a, 0xbe, 0x8f, 0x23,
  0x30, 0xbf, 0x3d, 0x5a, 0x64, 0xbe, 0x97, 0x56, 0x10, 0x3d, 0xef, 0x82, 0x3b,
  0xbe, 0x92, 0xf8, 0x2f, 0xbd, 0xd4, 0x8a, 0x5e, 0x3a, 0x55, 0xd8, 0x92, 0xbd,
  0x84, 0x21, 0x42, 0xbe, 0x2e, 0x02, 0x6f, 0xbf, 0x5e, 0x83, 0xe5, 0xbc, 0x09,
  0xd7, 0xdf, 0xbb, 0x11, 0x30, 0x7e, 0xbc, 0xf1, 0x39, 0x09, 0xbe, 0xe6, 0x68,
  0x9e, 0xbd, 0x45, 0x0c, 0xf0, 0xbe, 0xaa, 0x8e, 0x0e, 0xbe, 0x66, 0xd4, 0xcc,
  0xbe, 0x0e, 0x58, 0x80, 0xbe, 0xf9, 0x00, 0x7e, 0xbe, 0x7a, 0xdb, 0xf2, 0xbd,
  0xf3, 0x75, 0x89, 0xbe, 0x74, 0xa2, 0x31, 0xbd, 0x37, 0x20, 0x35, 0x3b, 0xa7,
  0xc6, 0x01, 0xbf, 0xc5, 0xcf, 0xfd, 0xbd, 0xa5, 0xd0, 0xfa, 0x3d, 0xc0, 0xd2,
  0x15, 0x3f, 0xf7, 0x00, 0x81, 0xbd, 0xa4, 0x74, 0x49, 0x3e, 0xc5, 0x14, 0xf7,
  0xbe, 0xff, 0x0e, 0x7c, 0xbe, 0xa5, 0xf0, 0x85, 0x3f, 0x7a, 0xf3, 0x81, 0xbf,
  0x36, 0xa8, 0x74, 0xbb, 0x0e, 0x3d, 0xb9, 0x3f, 0xe5, 0x1c, 0xec, 0xbe, 0x09,
  0x95, 0x96, 0x3f, 0x8e, 0xe3, 0xe7, 0x3e, 0xca, 0x9c, 0x95, 0x3f, 0xe7, 0xeb,
  0xb7, 0x3e, 0xce, 0x7c, 0x2e, 0x3e, 0x99, 0x93, 0xde, 0xbe, 0xff, 0x88, 0x66,
  0xbf, 0x79, 0xdb, 0x36, 0xbe, 0x97, 0x39, 0x78, 0xbe, 0x10, 0xc0, 0x09, 0x3f,
  0x31, 0x0c, 0xa3, 0xbe, 0x47, 0x6b, 0x50, 0xbe, 0xb2, 0x16, 0x39, 0x3e, 0x75,
  0x26, 0x93, 0x3c, 0x3f, 0xe3, 0xaa, 0xbe, 0x62, 0xb5, 0x50, 0xbe, 0xde, 0x3e,
  0xd3, 0xbe, 0x83, 0x12, 0x07, 0xbf, 0xb5, 0x04, 0xc2, 0xbe, 0xbd, 0x61, 0x94,
  0xbd, 0x23, 0xbb, 0xad, 0xbe, 0x03, 0x65, 0x7d, 0xbe, 0x08, 0xe3, 0x86, 0xbe,
  0x42, 0x42, 0x68, 0x3e, 0x3b, 0x79, 0xc7, 0xbc, 0xbe, 0x9d, 0x1e, 0x3f, 0xc8,
  0xc8, 0xea, 0x3e, 0x34, 0x1f, 0xb1, 0x3e, 0x30, 0x49, 0x16, 0x3e, 0x1a, 0x21,
  0xa0, 0xbe, 0x12, 0xdb, 0xc4, 0x3d, 0x86, 0x8b, 0x96, 0xbc, 0xa0, 0x5c, 0x02,
  0xbe, 0xe2, 0xf1, 0x69, 0x3e, 0x0a, 0xa1, 0x85, 0xbe, 0xc2, 0xc5, 0xff, 0xff,
  0x04, 0x00, 0x00, 0x00, 0x00, 0x02, 0x00, 0x00, 0xe8, 0x8c, 0xe0, 0x3d, 0x83,
  0x25, 0xb0, 0xbf, 0xb7, 0x41, 0x09, 0xbf, 0xd6, 0xd2, 0x68, 0xbe, 0xf2, 0x74,
  0x1b, 0xbf, 0xcc, 0x68, 0x92, 0xbe, 0x5c, 0x38, 0x2b, 0xbe, 0xcf, 0xd4, 0x73,
  0xbd, 0xee, 0xeb, 0x23, 0x3f, 0x90, 0xf0, 0x64, 0x3e, 0xc0, 0x53, 0x9e, 0x3f,
  0xe1, 0xaa, 0xa5, 0x3e, 0x73, 0x90, 0xa5, 0x3d, 0xd6, 0x15, 0x10, 0xbe, 0x77,
  0x70, 0x95, 0x3e, 0xe1, 0x95, 0xc0, 0xbd, 0x01, 0x3a, 0x64, 0x3f, 0x0c, 0xa1,
  0x17, 0x3f, 0x61, 0x76, 0xdb, 0x3e, 0xfb, 0x98, 0x26, 0xc0, 0xee, 0x9d, 0x14,
  0xbf, 0x7e, 0xbf, 0x40, 0x3f, 0xb5, 0xe1, 0x49, 0xbf, 0xf7, 0x45, 0x12, 0x3f,
  0x72, 0x59, 0xd5, 0x3e, 0x9c, 0xba, 0x63, 0x3d, 0x29, 0xf3, 0x22, 0x3e, 0x41,
  0xeb, 0x29, 0xbf, 0xbb, 0x8c, 0xf4, 0x3d, 0xff, 0x04, 0x37, 0x3e, 0xa8, 0xff,
  0xbb, 0x3f, 0x3a, 0x8a, 0x17, 0xbd, 0x57, 0x77, 0x17, 0x3f, 0x18, 0x55, 0x43,
  0xbf, 0x18, 0xd0, 0x9a, 0x3f, 0x8d, 0xe9, 0x03, 0xbf, 0x5c, 0x8a, 0x0d, 0x3e,
  0xdf, 0xdf, 0x37, 0xbf, 0xca, 0x06, 0x28, 0x3f, 0x9a, 0x6b, 0xc5, 0xbe, 0xc2,
  0x25, 0x92, 0x3e, 0x08, 0x68, 0x48, 0xbe, 0x19, 0xf8, 0xf1, 0x3d, 0xd1, 0xa5,
  0xea, 0xbe, 0x4c, 0xbb, 0x14, 0xbf, 0x1c, 0x9a, 0xe1, 0x3e, 0x32, 0x12, 0xff,
  0xbd, 0xa6, 0xd3, 0x27, 0xbe, 0xef, 0xb7, 0x97, 0xbd, 0xba, 0x3f, 0x4a, 0x3f,
  0x8c, 0x54, 0xb1, 0x40, 0x38, 0x30, 0xbc, 0x3d, 0x51, 0x27, 0x5a, 0x3f, 0xb3,
  0xab, 0x5a, 0x3e, 0xf0, 0x0f, 0x00, 0x3e, 0x73, 0x67, 0x71, 0x3e, 0xb5, 0xec,
  0x8f, 0xbf, 0x31, 0x18, 0x82, 0x3f, 0x29, 0x16, 0x41, 0xbf, 0xe5, 0x03, 0x56,
  0x3e, 0x8e, 0x81, 0x2d, 0x3f, 0xf2, 0xe8, 0x51, 0x3d, 0xf2, 0xf5, 0x40, 0xbe,
  0xa4, 0x73, 0x2d, 0xbe, 0x5e, 0xb9, 0x72, 0xbf, 0xf5, 0xc6, 0x76, 0xbf, 0xa3,
  0x5c, 0x6d, 0xbf, 0x8d, 0x94, 0xbd, 0x3e, 0x00, 0x7e, 0x44, 0xbf, 0x48, 0x92,
  0xcb, 0xbe, 0xf6, 0x48, 0x40, 0x3e, 0x7b, 0x4c, 0x0a, 0x3c, 0x22, 0x6a, 0x3c,
  0x3f, 0x52, 0x8d, 0x1a, 0x3f, 0x55, 0x79, 0x95, 0x3e, 0xed, 0xcf, 0x90, 0x3d,
  0xfc, 0x0e, 0x86, 0xbe, 0xa2, 0x44, 0xaf, 0x3e, 0x17, 0x15, 0x31, 0xbf, 0xff,
  0x17, 0xd1, 0xbc, 0x03, 0x3d, 0x15, 0x3f, 0x0f, 0x1e, 0xde, 0xbe, 0xa9, 0xc2,
  0x8a, 0xbe, 0xb9, 0x84, 0x11, 0xbe, 0xe2, 0xa3, 0xaa, 0xbe, 0xe4, 0x87, 0x3f,
  0xbe, 0xd5, 0xa8, 0xf8, 0xbc, 0xa9, 0xbc, 0x4d, 0xbd, 0x03, 0x7a, 0xcd, 0x3e,
  0x46, 0xfd, 0x10, 0xbf, 0xbb, 0x81, 0x14, 0x3f, 0x2c, 0x18, 0x67, 0x3e, 0xeb,
  0x38, 0xa6, 0xbe, 0x6d, 0x54, 0xf2, 0xbc, 0x73, 0x1a, 0x62, 0xbf, 0x65, 0x41,
  0x0e, 0xbe, 0xcb, 0x0b, 0xae, 0x3e, 0x3f, 0x92, 0x01, 0xbf, 0x97, 0x95, 0x32,
  0x3f, 0x2b, 0x04, 0x99, 0xbe, 0x05, 0x3d, 0xbb, 0x3c, 0x13, 0x76, 0x0d, 0x3f,
  0x6b, 0x8f, 0x7a, 0xbf, 0xb5, 0xed, 0x5c, 0xbf, 0x29, 0x48, 0x54, 0xbe, 0xab,
  0xee, 0xf6, 0xbd, 0x3a, 0xed, 0xa9, 0xbe, 0xd3, 0x26, 0x1f, 0x3f, 0x1c, 0xdb,
  0x9f, 0x3d, 0x08, 0x3f, 0x9e, 0xbf, 0xdb, 0x48, 0xfa, 0x3e, 0x6e, 0xe0, 0x99,
  0xbf, 0x3c, 0x58, 0x20, 0xbf, 0x17, 0x57, 0x8e, 0xbf, 0xf6, 0xec, 0xdd, 0xbe,
  0x7b, 0xa6, 0x56, 0x3e, 0xb6, 0xe1, 0x92, 0xbf, 0xc5, 0x86, 0x87, 0x3e, 0x9e,
  0x67, 0xb2, 0xbe, 0x97, 0xc4, 0x55, 0x3f, 0xe3, 0x15, 0xe7, 0x3e, 0x71, 0x1b,
  0x17, 0x3e, 0xb5, 0x69, 0xb9, 0x3f, 0xab, 0xc4, 0x58, 0x3f, 0xea, 0x29, 0x67,
  0xbf, 0x47, 0xfd, 0xac, 0xbe, 0x4b, 0x8c, 0xa3, 0xbf, 0xe0, 0x3c, 0x61, 0xbe,
  0xce, 0xc7, 0xff, 0xff, 0x04, 0x00, 0x00, 0x00, 0x40, 0x02, 0x00, 0x00, 0x8d,
  0xd5, 0x66, 0xbd, 0xa2, 0x6e, 0x34, 0x3f, 0x25, 0x0d, 0x86, 0x3d, 0x93, 0x8b,
  0x09, 0x3f, 0x6f, 0x76, 0xd1, 0xbe, 0x22, 0xe1, 0x95, 0xbe, 0x04, 0x9f, 0xb2,
  0xbe, 0x70, 0x5c, 0xbf, 0xbe, 0x46, 0xb6, 0x25, 0x3e, 0xd7, 0x9b, 0x70, 0xbe,
  0xb5, 0xdd, 0x12, 0x3e, 0xee, 0x4d, 0x51, 0x3e, 0x44, 0xcf, 0x59, 0x3e, 0x8a,
  0xb9, 0x7c, 0xbe, 0xe4, 0x58, 0xf0, 0xbc, 0xc4, 0xb4, 0x13, 0x3f, 0x10, 0xba,
  0xf5, 0xb9, 0x78, 0x78, 0xcb, 0xbd, 0xf9, 0x58, 0x75, 0xbf, 0x94, 0x00, 0xca,
  0xbe, 0x20, 0xb8, 0xa9, 0xbe, 0x4f, 0xfa, 0xb8, 0x3d, 0xbb, 0x83, 0x63, 0x3e,
  0x9f, 0x2b, 0x25, 0xbe, 0xa9, 0xfd, 0x40, 0xbe, 0x74, 0x54, 0x7d, 0xbe, 0x9b,
  0x90, 0x5f, 0xbf, 0x77, 0x07, 0x05, 0x3f, 0xf0, 0xd5, 0x10, 0x3e, 0x0f, 0x75,
  0xad, 0xbe, 0xc9, 0xb3, 0x3d, 0xbf, 0x34, 0xc2, 0xb4, 0x3e, 0x2f, 0xeb, 0x62,
  0x3f, 0xf1, 0xb8, 0xf6, 0x3d, 0xea, 0x71, 0x27, 0xbe, 0xc7, 0xdf, 0x41, 0x3f,
  0xe1, 0xd1, 0xc9, 0xbe, 0xee, 0x1e, 0x18, 0xbf, 0x1a, 0x68, 0x59, 0xbf, 0x13,
  0x2d, 0xaa, 0xbe, 0x27, 0x89, 0x84, 0x3e, 0x32, 0x4a, 0x72, 0xbe, 0xa1, 0xf6,
  0xa0, 0x3e, 0xb9, 0x7b, 0x4c, 0xbd, 0xa6, 0x5f, 0xdc, 0x3e, 0x4b, 0x2d, 0xab,
  0x3e, 0x0f, 0x28, 0x14, 0x3e, 0xb9, 0x06, 0x89, 0xbd, 0xc1, 0x72, 0x5a, 0xbe,
  0x73, 0xdb, 0x38, 0xbf, 0x45, 0x12, 0x81, 0xbf, 0x2f, 0x51, 0x9d, 0xbe, 0x1d,
  0xc9, 0x8b, 0xbe, 0xeb, 0x65, 0x61, 0xbf, 0xad, 0xeb, 0x43, 0xbf, 0x22, 0x25,
  0xa2, 0xbe, 0x2b, 0x42, 0x75, 0x3c, 0x2e, 0xc4, 0xa7, 0xbe, 0x7d, 0x63, 0x28,
  0xbe, 0x14, 0xca, 0x6a, 0x3f, 0xa9, 0x81, 0x22, 0xbf, 0x37, 0x0e, 0x1d, 0xbf,
  0xf0, 0xf5, 0xdd, 0x3e, 0x39, 0xd5, 0x76, 0x3d, 0xa9, 0x6d, 0x20, 0x3f, 0x2a,
  0x47, 0xe8, 0x3c, 0x30, 0xcf, 0xab, 0xbe, 0xf7, 0x79, 0x89, 0x3e, 0x90, 0x6d,
  0xe3, 0x3d, 0x48, 0xb3, 0x75, 0xbe, 0x5c, 0x98, 0xd2, 0xbe, 0xaa, 0x24, 0xbb,
  0xbe, 0x2c, 0xb0, 0x23, 0x3f, 0x6d, 0xeb, 0x2f, 0x3f, 0x0b, 0x8d, 0x6b, 0xbf,
  0x06, 0x9e, 0x2a, 0xbb, 0x94, 0x6a, 0x2b, 0xbf, 0x8c, 0xc9, 0x6f, 0x3e, 0x5c,
  0x44, 0x05, 0xbf, 0xcd, 0x18, 0x34, 0x3e, 0x18, 0x42, 0x38, 0xbf, 0xf6, 0x57,
  0xba, 0x3f, 0xd9, 0x3f, 0x0b, 0x3e, 0x13, 0x0a, 0x82, 0x3e, 0x1d, 0x4b, 0xbb,
  0x3d, 0x4f, 0xa5, 0xfb, 0xbe, 0xf2, 0x81, 0x51, 0xbd, 0x4a, 0x9b, 0x28, 0xbf,
  0xd9, 0xf6, 0x7f, 0x3d, 0xab, 0x45, 0x53, 0x3e, 0xa4, 0xa5, 0x69, 0xbd, 0x0f,
  0xbc, 0x80, 0xbb, 0x84, 0x1d, 0x17, 0x3f, 0xfe, 0x8d, 0x03, 0x3f, 0xda, 0xe5,
  0x7a, 0xbe, 0x9d, 0x01, 0x15, 0xbe, 0xcb, 0x9a, 0xb7, 0x3b, 0xea, 0x54, 0x81,
  0x3e, 0xfc, 0x10, 0xea, 0x3d, 0xa9, 0x61, 0xea, 0xbe, 0x87, 0x2f, 0xfe, 0xbe,
  0x3b, 0x79, 0x1e, 0x3d, 0xe6, 0x41, 0x0f, 0x3e, 0x7d, 0x1c, 0x74, 0xbe, 0x47,
  0xca, 0x35, 0xbd, 0xff, 0xa7, 0xac, 0x3d, 0xcd, 0xe4, 0x77, 0x3e, 0x38, 0xff,
  0x00, 0xbf, 0x5d, 0xc7, 0xad, 0x3d, 0x2b, 0xc9, 0xb3, 0x3e, 0x7d, 0x25, 0xa5,
  0xbd, 0xb8, 0x66, 0x30, 0xbf, 0xa5, 0x29, 0x3b, 0x3f, 0x28, 0xec, 0x1f, 0x3d,
  0x91, 0x96, 0x8b, 0xbf, 0x12, 0x49, 0x4d, 0xbf, 0xa6, 0xae, 0xc8, 0xbe, 0x96,
  0xae, 0x61, 0x3d, 0x7c, 0x8e, 0x86, 0x3d, 0xde, 0x32, 0x8a, 0xbb, 0xd8, 0xa9,
  0xb1, 0x3e, 0x0c, 0x2a, 0x91, 0x3e, 0x0a, 0xe4, 0xaa, 0x3e, 0x2f, 0x86, 0x76,
  0xbe, 0x81, 0x07, 0x6c, 0xbe, 0xd4, 0x5c, 0xab, 0xbe, 0xe3, 0x99, 0x36, 0x3e,
  0xaf, 0xc3, 0x74, 0xbf, 0x91, 0x23, 0xdc, 0x3e, 0xe3, 0x63, 0x20, 0xbe, 0x68,
  0x19, 0x0e, 0x3d, 0x96, 0xc2, 0x63, 0xbf, 0xd6, 0x65, 0xbe, 0xbe, 0x4a, 0x96,
  0xab, 0xbe, 0xec, 0xe4, 0xdb, 0xbe, 0x94, 0x07, 0xee, 0xbe, 0x02, 0x80, 0x45,
  0xbd, 0x19, 0x39, 0xf4, 0x3e, 0x57, 0x3d, 0xaa, 0x3e, 0x50, 0xba, 0xcd, 0x3d,
  0x6a, 0xe5, 0x4b, 0x3d, 0xed, 0x1b, 0x9d, 0xbd, 0xa1, 0x67, 0xaa, 0x3e, 0x63,
  0xfa, 0x14, 0x3f, 0x1a, 0xca, 0xff, 0xff, 0x04, 0x00, 0x00, 0x00, 0x00, 0x01,
  0x00, 0x00, 0x14, 0x80, 0x55, 0x3f, 0x98, 0x7e, 0x8f, 0x3e, 0x38, 0xc5, 0xb2,
  0xbe, 0x15, 0x85, 0x29, 0xbf, 0x92, 0xd9, 0x87, 0x3f, 0x7f, 0x98, 0x2e, 0xbe,
  0x0d, 0x7f, 0xcb, 0x3f, 0xfd, 0x85, 0x55, 0x40, 0x37, 0xc4, 0xe1, 0x3e, 0x9f,
  0x70, 0xfb, 0x3e, 0xd2, 0xd1, 0x80, 0x3e, 0xcc, 0x0c, 0xf4, 0x3e, 0x37, 0x7f,
  0x2f, 0x3f, 0x51, 0x32, 0x41, 0x3e, 0xfe, 0x5b, 0x85, 0xbf, 0x9b, 0xfd, 0x00,
  0x3d, 0xc4, 0x65, 0xe4, 0x3e, 0x1a, 0x78, 0x97, 0x3e, 0x40, 0xbf, 0x87, 0xbf,
  0xdd, 0x82, 0x22, 0xbe, 0x5c, 0x58, 0x0b, 0x3f, 0x42, 0x20, 0xd8, 0xbf, 0x4d,
  0xf3, 0x38, 0x3f, 0x05, 0xe4, 0x34, 0x3f, 0xe1, 0xd8, 0xf5, 0xbf, 0x97, 0x96,
  0x9a, 0xbd, 0xc1, 0x78, 0x42, 0xbe, 0x6e, 0x0e, 0x57, 0x3e, 0xdb, 0x49, 0x8a,
  0x3d, 0x04, 0x21, 0xdd, 0x3d, 0x20, 0x18, 0xcc, 0xbf, 0x06, 0xec, 0x6b, 0x3f,
  0xcd, 0xae, 0x6c, 0x3e, 0x43, 0xfd, 0x31, 0x3e, 0x72, 0x67, 0x68, 0xbe, 0xb5,
  0xa3, 0x4c, 0x3f, 0x83, 0x20, 0x01, 0xbf, 0xdf, 0x90, 0x26, 0xbf, 0xbe, 0x35,
  0x06, 0xbe, 0x82, 0xee, 0x76, 0x3e, 0x3d, 0x17, 0x5f, 0x3f, 0x1f, 0xfc, 0xaf,
  0x3f, 0x4e, 0x9c, 0x47, 0xbf, 0xaf, 0x8d, 0x10, 0x3f, 0x6e, 0x62, 0x2e, 0x3f,
  0xfd, 0x92, 0xa0, 0x3d, 0x65, 0x60, 0x90, 0xbe, 0x17, 0x5d, 0x9f, 0x3f, 0x42,
  0xcd, 0x3a, 0x3f, 0xb0, 0x79, 0x95, 0x3f, 0x1c, 0x76, 0x98, 0x3f, 0xbb, 0x9e,
  0x4b, 0x3e, 0x32, 0xec, 0x25, 0x3f, 0x0a, 0xd4, 0x1b, 0xbe, 0x33, 0x73, 0xf7,
  0xbe, 0x2a, 0x56, 0x54, 0x3f, 0x4e, 0xe0, 0x45, 0xbf, 0x53, 0x6f, 0x67, 0xbe,
  0x9f, 0xfc, 0x8b, 0xbd, 0xc7, 0xf9, 0xe4, 0x3e, 0x3c, 0x7b, 0xbc, 0xbe, 0x5a,
  0x5e, 0x2f, 0x3f, 0xc2, 0xcf, 0x90, 0xbe, 0x60, 0x61, 0x97, 0xbe, 0x26, 0xcb,
  0xff, 0xff, 0x04, 0x00, 0x00, 0x00, 0x20, 0x01, 0x00, 0x00, 0x51, 0x31, 0x0d,
  0x3f, 0x95, 0xcc, 0xcd, 0x3e, 0x87, 0x7b, 0x5d, 0x3e, 0xa8, 0xc1, 0xd1, 0x3e,
  0x33, 0xad, 0x07, 0xbf, 0x39, 0xcf, 0xa3, 0x3e, 0xb2, 0x86, 0x37, 0x3e, 0xf5,
  0xa3, 0xb9, 0xbe, 0xc9, 0x61, 0x76, 0x3e, 0x29, 0x36, 0x9d, 0xbd, 0x21, 0xe9,
  0x37, 0x3e, 0xaf, 0x87, 0xbc, 0x3d, 0xcb, 0xb1, 0x01, 0x3f, 0x87, 0x8e, 0xdf,
  0x3d, 0x7d, 0x97, 0x3d, 0xbe, 0xa0, 0x58, 0xaa, 0x3d, 0x25, 0x9b, 0x37, 0x3f,
  0x45, 0x1e, 0xe0, 0x3e, 0x16, 0x5f, 0xc2, 0xbe, 0x25, 0x34, 0x75, 0x3e, 0x0c,
  0x47, 0xd7, 0xbe, 0x55, 0xed, 0x1e, 0x3e, 0x56, 0x45, 0x54, 0xbf, 0x25, 0x9e,
  0x16, 0xbf, 0xde, 0x95, 0x98, 0xbe, 0xdf, 0x7a, 0xf7, 0xbe, 0x8b, 0xa9, 0x26,
  0x3f, 0xca, 0xbd, 0x00, 0x3d, 0x4f, 0x15, 0xed, 0xbd, 0xca, 0x95, 0xe2, 0x3d,
  0x33, 0xfc, 0x69, 0x3e, 0x3c, 0xd4, 0x7e, 0xbf, 0x75, 0x7f, 0x69, 0xbf, 0x76,
  0xd5, 0xe1, 0x3d, 0x4e, 0x1c, 0x10, 0x3f, 0xc4, 0x9b, 0x92, 0xbd, 0x8e, 0x9a,
  0xc6, 0x3e, 0xd2, 0x9a, 0x26, 0xbf, 0xcd, 0x5f, 0xe4, 0x3c, 0xc1, 0xf3, 0x4d,
  0x3f, 0x95, 0xcc, 0x7e, 0xbe, 0x98, 0xea, 0xdb, 0x3e, 0xdc, 0x43, 0xc1, 0x3e,
  0x54, 0xe3, 0xd6, 0x3e, 0xfb, 0x97, 0xf5, 0xbc, 0xa0, 0x63, 0x01, 0x3e, 0xa7,
  0xee, 0x1f, 0xbd, 0xf3, 0x86, 0xe5, 0x3e, 0x68, 0x24, 0x28, 0x3f, 0x2f, 0xd1,
  0x01, 0x3f, 0xc3, 0x65, 0xbf, 0xbe, 0x1b, 0x05, 0xe0, 0x3e, 0xcd, 0xbd, 0xb3,
  0xbe, 0x86, 0xba, 0x1b, 0x3f, 0x7e, 0xda, 0x31, 0x3f, 0xcf, 0x23, 0xd1, 0xbc,
  0x65, 0x06, 0x00, 0xbe, 0x2c, 0xdb, 0x9d, 0xbe, 0x45, 0x60, 0xc9, 0xbe, 0x3a,
  0xd4, 0xb3, 0x3d, 0x73, 0xde, 0x64, 0x3e, 0x55, 0x41, 0x6e, 0xbe, 0x63, 0xc2,
  0x23, 0x3f, 0x50, 0x24, 0x0d, 0xbe, 0x33, 0x8f, 0x39, 0x3f, 0xa4, 0xbf, 0xd3,
  0x3e, 0xb1, 0x8c, 0x51, 0xbe, 0xcf, 0xf2, 0xbc, 0x3e, 0x88, 0xda, 0xbe, 0xbe,
  0x8d, 0xd3, 0x2b, 0x3f, 0x36, 0x3b, 0xa5, 0xbe, 0x58, 0x5d, 0x27, 0xbf, 0x52,
  0xcc, 0xff, 0xff, 0x04, 0x00, 0x00, 0x00, 0x00, 0x01, 0x00, 0x00, 0x1b, 0xdc,
  0x21, 0xbf, 0x36, 0x3b, 0x6d, 0x3e, 0x84, 0xb6, 0x74, 0xbf, 0x1e, 0x97, 0x4f,
  0xbe, 0x20, 0x92, 0xc4, 0x3f, 0x69, 0x31, 0x40, 0xbf, 0x5d, 0x58, 0xaf, 0xbe,
  0x8f, 0xcb, 0x2c, 0xbe, 0xe3, 0xda, 0xb7, 0x3d, 0xee, 0xb8, 0x95, 0x3c, 0xd3,
  0x8f, 0x51, 0x3c, 0x49, 0xd7, 0xda, 0x3b, 0x3f, 0x9e, 0x93, 0xbc, 0xa9, 0x34,
  0x99, 0x3d, 0x41, 0xd2, 0x08, 0x40, 0x89, 0x91, 0x73, 0x3c, 0xb8, 0xa6, 0xbd,
  0xbd, 0xae, 0x2e, 0x8d, 0xbe, 0x92, 0x62, 0x26, 0xbf, 0xc0, 0x92, 0x52, 0xbe,
  0x8f, 0xd5, 0x26, 0xbf, 0x32, 0xc3, 0x7d, 0xbf, 0x0c, 0x64, 0xfc, 0x3d, 0x4f,
  0xc5, 0x2e, 0xbe, 0x10, 0x0b, 0xf2, 0xbe, 0xd2, 0x53, 0x16, 0xbe, 0xb1, 0x51,
  0x0a, 0x3f, 0xe2, 0x9f, 0xa3, 0x3e, 0x1d, 0x9e, 0xfb, 0xbe, 0xdc, 0x00, 0x30,
  0x3e, 0x47, 0xd2, 0x31, 0xbf, 0xbc, 0x35, 0xfa, 0xbe, 0x34, 0x61, 0x84, 0xbd,
  0x08, 0x85, 0x7f, 0xbf, 0xca, 0xab, 0x47, 0x3e, 0x1e, 0x22, 0xd3, 0x3d, 0x58,
  0x75, 0xaf, 0xbe, 0x5b, 0x1e, 0x0a, 0xbe, 0x59, 0x10, 0xa3, 0x3f, 0x87, 0xe3,
  0x23, 0xbf, 0xf7, 0x6d, 0xae, 0xbf, 0x93, 0xb9, 0x59, 0xbf, 0x55, 0xd7, 0x7f,
  0x3e, 0x60, 0x5a, 0xc3, 0xbf, 0x4c, 0x7e, 0x46, 0x3f, 0x0e, 0xd8, 0x66, 0xbf,
  0x86, 0x61, 0x6a, 0x3e, 0x23, 0x5a, 0x40, 0x3f, 0x91, 0xd3, 0x2b, 0xbe, 0x87,
  0xcb, 0x1c, 0xbe, 0x79, 0x56, 0xc5, 0x3e, 0xf0, 0x26, 0xb2, 0xbd, 0xc8, 0x29,
  0xcf, 0x3b, 0x69, 0x0a, 0x0e, 0xbf, 0x88, 0xf9, 0xe6, 0xbd, 0x4c, 0x20, 0x30,
  0x3d, 0xb6, 0x97, 0x28, 0xbf, 0xf5, 0xc0, 0xa9, 0xbb, 0x9c, 0xb0, 0xd4, 0xbe,
  0x40, 0x26, 0xcc, 0x3e, 0xdc, 0xd9, 0x67, 0xbf, 0x6b, 0x19, 0x03, 0x3f, 0xae,
  0xa5, 0xa9, 0x3e, 0x69, 0xb9, 0x9a, 0x3e, 0x5e, 0xcd, 0xff, 0xff, 0x04, 0x00,
  0x00, 0x00, 0x20, 0x01, 0x00, 0x00, 0xe2, 0x5e, 0xd7, 0x3e, 0x02, 0xaa, 0xb5,
  0xbe, 0xee, 0xaa, 0x40, 0xbe, 0x02, 0x62, 0xf0, 0xbe, 0xff, 0x76, 0x46, 0xbf,
  0x99, 0x23, 0x11, 0x3e, 0xe6, 0xae, 0xa3, 0xbe, 0xa8, 0x0d, 0x09, 0xbe, 0xa0,
  0x4f, 0x85, 0x3e, 0x08, 0x66, 0x50, 0xbe, 0xfa, 0xf3, 0xcd, 0x3d, 0x04, 0x5f,
  0xf4, 0x3d, 0x8a, 0x45, 0xd2, 0xbc, 0x96, 0xd1, 0x5c, 0xbe, 0xf0, 0xb7, 0x7f,
  0xbd, 0x66, 0x35, 0x06, 0x3e, 0x4b, 0x13, 0x1f, 0xbf, 0x6b, 0xc8, 0xd1, 0x3c,
  0x3f, 0x4d, 0x78, 0x3d, 0x4e, 0x9c, 0x1e, 0xbf, 0xa6, 0xae, 0x69, 0x3e, 0xad,
  0xd4, 0x78, 0x3e, 0xb8, 0xaf, 0xcc, 0x3e, 0x6a, 0xf1, 0x58, 0xbf, 0x45, 0xcc,
  0x4c, 0x3e, 0xec, 0x5e, 0x2d, 0xbf, 0xc9, 0xbe, 0x0e, 0xbd, 0x25, 0x28, 0x36,
  0xbe, 0xe0, 0x37, 0x0c, 0x3e, 0xea, 0x58, 0xa6, 0x3c, 0x4e, 0x1f, 0x61, 0xbf,
  0x9f, 0xf7, 0xb4, 0xbd, 0xc5, 0x59, 0xe7, 0x3e, 0x44, 0x63, 0x4e, 0xbe, 0xa1,
  0x52, 0x02, 0x3f, 0x58, 0xf4, 0x24, 0x3f, 0x86, 0xc5, 0xfb, 0x3d, 0x28, 0x7e,
  0xb8, 0xbe, 0x46, 0x46, 0x1b, 0x3e, 0xbc, 0x2b, 0xc7, 0xbd, 0xa8, 0x86, 0xb0,
  0xbe, 0xf9, 0xff, 0x82, 0x3e, 0x6d, 0x9f, 0xb0, 0x3e, 0x6e, 0xd5, 0x46, 0x3e,
  0x7b, 0x31, 0x85, 0xbf, 0x00, 0xe9, 0x69, 0xbe, 0x55, 0x95, 0x47, 0x3f, 0xdb,
  0x02, 0x26, 0xbd, 0xd9, 0xde, 0x33, 0xbe, 0x93, 0xe3, 0x33, 0xbb, 0x4e, 0xc6,
  0x8b, 0x3d, 0xfb, 0x97, 0x61, 0xbe, 0xb7, 0x77, 0x03, 0xbe, 0xf8, 0xb2, 0x47,
  0x3e, 0x82, 0xff, 0xc3, 0x3d, 0x7e, 0x79, 0xcd, 0xbe, 0x04, 0x0b, 0x8b, 0xbc,
  0xd5, 0xd7, 0x09, 0x3e, 0xc4, 0x34, 0x1c, 0x3e, 0x7a, 0xcc, 0x03, 0xbe, 0x07,
  0xd4, 0x4a, 0xbb, 0x2d, 0x1f, 0xf0, 0xbe, 0xf6, 0xa1, 0xc0, 0x3c, 0x43, 0xa2,
  0x97, 0x3e, 0x37, 0x8f, 0x6b, 0xbe, 0x78, 0xec, 0xf8, 0x3e, 0xb9, 0xef, 0x4d,
  0xbc, 0x90, 0x6a, 0xd0, 0xbe, 0xf0, 0xcf, 0xaf, 0xbc, 0x67, 0x16, 0x10, 0xbb,
  0xf8, 0x2f, 0x3e, 0xbe, 0x78, 0x73, 0x73, 0xbe, 0x8a, 0xce, 0xff, 0xff, 0x04,
  0x00, 0x00, 0x00, 0x00, 0x02, 0x00, 0x00, 0x17, 0xc9, 0xac, 0x92, 0x9e, 0xc2,
  0xac, 0x12, 0xcd, 0xc5, 0xac, 0x92, 0xfd, 0xcd, 0xac, 0x12, 0x72, 0xc5, 0xac,
  0x92, 0xa7, 0xbb, 0xac, 0x12, 0x63, 0xdf, 0xac, 0x12, 0xc2, 0xd1, 0xac, 0x92,
  0xa1, 0xba, 0x21, 0xbf, 0x65, 0x32, 0x7c, 0x3e, 0xca, 0x64, 0x3f, 0x3f, 0x27,
  0x1c, 0xbd, 0xbe, 0x17, 0xe2, 0xac, 0x12, 0xdd, 0xcf, 0x3f, 0xbd, 0x9e, 0x6b,
  0x9f, 0x3c, 0x7c, 0x70, 0x02, 0x3f, 0x9c, 0x86, 0xac, 0x92, 0xa8, 0xca, 0xac,
  0x92, 0xfb, 0xd6, 0xac, 0x92, 0x8c, 0xc6, 0xac, 0x92, 0x24, 0x89, 0xac, 0x92,
  0x86, 0xe2, 0xac, 0x92, 0x6b, 0xd5, 0xac, 0x12, 0xa1, 0xd1, 0xac, 0x12, 0x7b,
  0xfe, 0x13, 0xbf, 0x6c, 0x8f, 0xb7, 0xbe, 0x6d, 0x90, 0x04, 0x3f, 0xf0, 0x8c,
  0xd5, 0xbe, 0x33, 0xbd, 0xac, 0x92, 0x86, 0x33, 0xec, 0xbe, 0xc5, 0x12, 0x63,
  0x3e, 0xf3, 0xa3, 0x06, 0x3f, 0x27, 0x8a, 0xac, 0x92, 0xba, 0xd4, 0xac, 0x12,
  0xeb, 0xdd, 0xac, 0x12, 0x74, 0xd7, 0xac, 0x12, 0xb0, 0xe5, 0xac, 0x92, 0xd5,
  0xcb, 0xac, 0x92, 0x25, 0xd6, 0xac, 0x92, 0x7c, 0xdc, 0xac, 0x12, 0x39, 0x76,
  0xbf, 0xbe, 0x05, 0x0c, 0x29, 0xbe, 0xa7, 0x7a, 0xbf, 0xbe, 0x93, 0x9e, 0x0c,
  0xbf, 0xd4, 0xd2, 0xac, 0x12, 0x0b, 0x55, 0x1b, 0x3e, 0x8d, 0x3d, 0xef, 0xbe,
  0x4f, 0x22, 0x91, 0xbc, 0xb4, 0x86, 0xac, 0x92, 0xa0, 0xda, 0xac, 0x92, 0x63,
  0xca, 0xac, 0x92, 0xbb, 0xbb, 0xac, 0x12, 0x00, 0xdd, 0xac, 0x12, 0x2d, 0xd4,
  0xac, 0x92, 0xf6, 0xbd, 0xac, 0x92, 0x77, 0xd4, 0xac, 0x92, 0x80, 0xa0, 0x41,
  0x3f, 0x0c, 0x5e, 0x66, 0x3f, 0xb3, 0x4a, 0xad, 0x3e, 0xb7, 0x40, 0xc3, 0xbe,
  0xfd, 0xcd, 0xac, 0x12, 0xc9, 0xa3, 0x6f, 0x3f, 0x60, 0xe6, 0x10, 0xbf, 0x0e,
  0xc3, 0x5f, 0x3e, 0x58, 0xdf, 0xac, 0x92, 0xb2, 0xdf, 0xac, 0x12, 0xbc, 0xd7,
  0xac, 0x92, 0x24, 0x89, 0xac, 0x92, 0x09, 0xbc, 0xac, 0x92, 0x59, 0xc1, 0xac,
  0x12, 0xd5, 0xd9, 0xac, 0x92, 0x5c, 0xcf, 0xac, 0x12, 0xb2, 0x7d, 0x63, 0x3d,
  0xb3, 0x3d, 0xc7, 0x3e, 0xb3, 0x56, 0x1f, 0xbf, 0x62, 0x1c, 0xfd, 0xbc, 0xe8,
  0x86, 0xac, 0x92, 0xfd, 0x1c, 0xc2, 0xbe, 0x6b, 0xd7, 0xf0, 0xbc, 0x77, 0x53,
  0xc1, 0xbb, 0x2f, 0xe0, 0xac, 0x12, 0x3e, 0xde, 0xac, 0x12, 0x75, 0xbe, 0xac,
  0x12, 0x6e, 0xcb, 0xac, 0x92, 0xef, 0xe4, 0xac, 0x12, 0xb9, 0xdc, 0xac, 0x92,
  0xf7, 0xdb, 0xac, 0x12, 0xf6, 0xbd, 0xac, 0x92, 0x48, 0x98, 0xf3, 0xbe, 0xb3,
  0x3a, 0xf5, 0xbe, 0xa7, 0xc9, 0x8c, 0xbe, 0xc7, 0xb8, 0x86, 0x3c, 0x84, 0xca,
  0xac, 0x12, 0x45, 0x61, 0x32, 0x3c, 0x7e, 0x18, 0x2e, 0xbf, 0xac, 0xda, 0x82,
  0x3e, 0xdc, 0x86, 0xac, 0x92, 0x40, 0xc7, 0xac, 0x12, 0x9e, 0xd4, 0xac, 0x12,
  0x4a, 0xc0, 0xac, 0x92, 0x57, 0xcd, 0xac, 0x92, 0xdb, 0xc6, 0xac, 0x92, 0xc9,
  0x87, 0xac, 0x12, 0x39, 0xd4, 0xac, 0x92, 0xbf, 0x33, 0xa6, 0x3e, 0xb0, 0xf1,
  0x13, 0x3f, 0x32, 0xb3, 0xb1, 0xbe, 0x97, 0x63, 0x69, 0xbf, 0x2a, 0xce, 0xac,
  0x92, 0xff, 0x3c, 0x90, 0x3e, 0x65, 0x6e, 0xbb, 0x3d, 0x97, 0xf0, 0xa8, 0x3c,
  0xcf, 0xd9, 0xac, 0x92, 0xc2, 0xd1, 0xac, 0x92, 0x84, 0xc2, 0xac, 0x12, 0x41,
  0xd1, 0xac, 0x92, 0x3e, 0xe5, 0xac, 0x92, 0x7c, 0xc2, 0xac, 0x12, 0x9d, 0xbf,
  0xac, 0x12, 0xae, 0xca, 0xac, 0x92, 0xa1, 0x3a, 0x6e, 0xbe, 0xb0, 0x1c, 0x02,
  0x3e, 0x36, 0x4e, 0x50, 0x3d, 0xe0, 0x81, 0x1d, 0xbf, 0x58, 0xd0, 0xac, 0x92,
  0xfb, 0x8b, 0x02, 0xbf, 0xf6, 0x90, 0xa3, 0x3e, 0xe8, 0xc0, 0x56, 0x3f, 0x96,
  0xd0, 0xff, 0xff, 0x04, 0x00, 0x00, 0x00, 0x40, 0x02, 0x00, 0x00, 0x7c, 0xe3,
  0xac, 0x12, 0x82, 0xd0, 0xac, 0x12, 0xe8, 0xdd, 0xac, 0x92, 0xf7, 0xd6, 0xac,
  0x12, 0x05, 0xbb, 0xac, 0x12, 0x92, 0xbd, 0xac, 0x92, 0x3e, 0xe5, 0xac, 0x92,
  0xfd, 0xcd, 0xac, 0x92, 0xd5, 0x2f, 0xe6, 0xbd, 0x1f, 0xc9, 0x11, 0xbd, 0x5d,
  0x1e, 0x51, 0x3e, 0xcb, 0x44, 0x90, 0x3c, 0x00, 0xdd, 0xac, 0x92, 0xef, 0xbb,
  0x0b, 0x3e, 0xe1, 0x01, 0xa3, 0xbd, 0x59, 0xb2, 0x56, 0x3e, 0x38, 0xd2, 0xac,
  0x92, 0xcf, 0xd9, 0xac, 0x92, 0x31, 0xe2, 0xac, 0x92, 0x26, 0xd8, 0xac, 0x92,
  0x17, 0xdb, 0xac, 0x12, 0xb7, 0xc8, 0xac, 0x12, 0xa4, 0xc1, 0xac, 0x92, 0x04,
  0xe1, 0xac, 0x92, 0x47, 0x50, 0x4d, 0xbd, 0xd8, 0x7e, 0x21, 0xbe, 0x81, 0xa7,
  0x49, 0x3e, 0xee, 0xf5, 0x2f, 0xbd, 0x54, 0xdf, 0xac, 0x12, 0x20, 0x12, 0x93,
  0x3d, 0x86, 0xee, 0xa6, 0xbe, 0x24, 0xbe, 0x9c, 0x3e, 0x4a, 0xc0, 0xac, 0x12,
  0x53, 0xcd, 0xac, 0x12, 0xa1, 0xe1, 0xac, 0x12, 0x4d, 0xda, 0xac, 0x92, 0xeb,
  0xdd, 0xac, 0x92, 0x0a, 0xcd, 0xac, 0x12, 0x13, 0xc6, 0xac, 0x12, 0x77, 0xd4,
  0xac, 0x12, 0x38, 0x0d, 0xaf, 0xbd, 0x10, 0x05, 0x93, 0xbc, 0x5a, 0x89, 0x07,
  0x3e, 0x9c, 0xc4, 0xd3, 0x3d, 0xe8, 0xdd, 0xac, 0x92, 0x21, 0xf9, 0x2c, 0x3e,
  0xd4, 0x64, 0x57, 0xbe, 0x46, 0x36, 0x1e, 0xbe, 0x9a, 0xc1, 0xac, 0x92, 0xc6,
  0xd6, 0xac, 0x92, 0xb4, 0xc9, 0xac, 0x92, 0x55, 0xd4, 0xac, 0x12, 0x88, 0xc4,
  0xac, 0x12, 0x7c, 0x8a, 0xac, 0x12, 0xad, 0xe1, 0xac, 0x92, 0x18, 0xd5, 0xac,
  0x12, 0x60, 0xe7, 0x01, 0xbe, 0x4d, 0x5a, 0xe7, 0xbd, 0x35, 0x92, 0x05, 0x3e,
  0x59, 0x89, 0x87, 0xbd, 0xd2, 0xc4, 0xac, 0x12, 0xf3, 0x8d, 0x08, 0xbd, 0x86,
  0xc0, 0x06, 0xbe, 0x28, 0xda, 0x56, 0xbe, 0x81, 0xc7, 0xac, 0x92, 0x2f, 0xe5,
  0xac, 0x12, 0x26, 0xd8, 0xac, 0x92, 0x22, 0xcd, 0xac, 0x92, 0xf8, 0xdd, 0xac,
  0x12, 0xef, 0xe4, 0xac, 0x92, 0x03, 0xe4, 0xac, 0x12, 0x78, 0xe2, 0xac, 0x92,
  0x27, 0x51, 0xd8, 0xbe, 0xfe, 0x76, 0x05, 0xbf, 0x23, 0x77, 0x7e, 0x3d, 0xef,
  0x57, 0x71, 0xbf, 0xeb, 0xcc, 0xac, 0x92, 0x02, 0xa8, 0x92, 0x3e, 0xaa, 0x2d,
  0x82, 0xbe, 0x18, 0x8e, 0x88, 0xbf, 0xff, 0xd2, 0xac, 0x12, 0x43, 0x88, 0xac,
  0x12, 0x86, 0xe2, 0xac, 0x12, 0xe9, 0xda, 0xac, 0x92, 0x3c, 0xdb, 0xac, 0x12,
  0xee, 0xc8, 0xac, 0x92, 0xf6, 0xbd, 0xac, 0x92, 0x73, 0xc7, 0xac, 0x12, 0x9e,
  0x9e, 0xcd, 0xbd, 0xa1, 0x35, 0xa4, 0xbe, 0x4d, 0x62, 0x11, 0x3d, 0x15, 0x19,
  0x41, 0xbe, 0x93, 0xc8, 0xac, 0x92, 0xf8, 0xce, 0x44, 0x3e, 0x88, 0x66, 0xb4,
  0xbe, 0x90, 0xd4, 0x39, 0x3d, 0x75, 0xc3, 0xac, 0x12, 0x9d, 0xc3, 0xac, 0x12,
  0x26, 0xd8, 0xac, 0x92, 0x32, 0xc7, 0xac, 0x92, 0x03, 0xc0, 0xac, 0x92, 0x82,
  0xd0, 0xac, 0x92, 0xec, 0xd4, 0xac, 0x92, 0xec, 0xd4, 0xac, 0x92, 0x18, 0x83,
  0x31, 0xbe, 0xd4, 0x53, 0x2f, 0xbe, 0x76, 0xa6, 0xb9, 0x3d, 0x18, 0x32, 0xce,
  0xbd, 0x25, 0xdb, 0xac, 0x12, 0x5c, 0x29, 0xa2, 0x3e, 0x2a, 0x62, 0x6b, 0xbe,
  0xdc, 0xa4, 0x1e, 0xbe, 0x3e, 0xbb, 0xac, 0x12, 0xa8, 0xca, 0xac, 0x12, 0x13,
  0xdf, 0xac, 0x92, 0xbe, 0xde, 0xac, 0x12, 0xd4, 0xe3, 0xac, 0x12, 0x42, 0xc0,
  0xac, 0x12, 0x4d, 0xc5, 0xac, 0x92, 0x37, 0xc4, 0xac, 0x12, 0x62, 0x9c, 0xab,
  0xbd, 0xdd, 0x71, 0xbf, 0xbd, 0x45, 0x63, 0x8e, 0x3e, 0x11, 0xb2, 0x30, 0xbe,
  0x3c, 0xdb, 0xac, 0x12, 0xc1, 0xa8, 0x42, 0xba, 0x6e, 0x75, 0x45, 0xbe, 0x08,
  0x19, 0x62, 0xbe, 0x21, 0xc8, 0xac, 0x12, 0x40, 0xdb, 0xac, 0x12, 0xdf, 0xc3,
  0xac, 0x12, 0x63, 0xdf, 0xac, 0x92, 0x28, 0xde, 0xac, 0x92, 0x91, 0xd8, 0xac,
  0x92, 0xad, 0xc7, 0xac, 0x12, 0xff, 0x88, 0xac, 0x92, 0x82, 0xdf, 0x1a, 0xbe,
  0x16, 0x89, 0x59, 0xbd, 0xfe, 0x2c, 0xdc, 0x3c, 0x7a, 0x0c, 0x0e, 0x3d, 0x3c,
  0xdb, 0xac, 0x12, 0xba, 0x19, 0xe1, 0x3d, 0xe7, 0x80, 0x2c, 0xbd, 0x10, 0xac,
  0x82, 0xbd, 0xe2, 0xd2, 0xff, 0xff, 0x04, 0x00, 0x00, 0x00, 0x40, 0x00, 0x00,
  0x00, 0x00, 0x00, 0x00, 0x00, 0x00, 0x00, 0x00, 0x00, 0x00, 0x00, 0x00, 0x00,
  0x00, 0x00, 0x00, 0x00, 0x00, 0x00, 0x00, 0x00, 0x00, 0x00, 0x00, 0x00, 0x00,
  0x00, 0x00, 0x00, 0x00, 0x00, 0x00, 0x00, 0x00, 0x00, 0x00, 0x00, 0x00, 0x00,
  0x00, 0x00, 0x00, 0x00, 0x00, 0x00, 0x00, 0x00, 0x00, 0x00, 0x00, 0x00, 0x00,
  0x00, 0x00, 0x00, 0x00, 0x00, 0x00, 0x00, 0x00, 0x00, 0x00, 0x00, 0x00, 0x00,
  0x2e, 0xd3, 0xff, 0xff, 0x04, 0x00, 0x00, 0x00, 0xc0, 0x00, 0x00, 0x00, 0x08,
  0xbf, 0xac, 0x92, 0x03, 0xe4, 0xac, 0x12, 0x0f, 0xe2, 0xac, 0x12, 0x6d, 0xbb,
  0xac, 0x12, 0x18, 0xd7, 0xac, 0x12, 0x8e, 0xda, 0xac, 0x12, 0x31, 0xe0, 0xac,
  0x92, 0xb9, 0xdc, 0xac, 0x92, 0x48, 0x89, 0xac, 0x92, 0xa3, 0xd0, 0xac, 0x12,
  0xce, 0xbd, 0xac, 0x12, 0xb7, 0xbd, 0xac, 0x12, 0x11, 0xdf, 0xac, 0x12, 0x91,
  0xd7, 0xac, 0x92, 0x6e, 0xc0, 0xac, 0x92, 0x82, 0xbc, 0xac, 0x92, 0x19, 0x8a,
  0xac, 0x92, 0xcf, 0xda, 0xac, 0x12, 0x9e, 0xc2, 0xac, 0x12, 0xe0, 0xe5, 0xac,
  0x12, 0x14, 0xbf, 0xac, 0x92, 0xed, 0xe3, 0xac, 0x92, 0x67, 0xcb, 0xac, 0x92,
  0xc8, 0xcd, 0xac, 0x92, 0x06, 0xc6, 0xac, 0x12, 0xba, 0xc9, 0xac, 0x12, 0xfa,
  0xc9, 0xac, 0x92, 0xf5, 0xc4, 0xac, 0x92, 0x24, 0x89, 0xac, 0x92, 0x63, 0xe5,
  0xac, 0x12, 0x9e, 0xda, 0xac, 0x92, 0x41, 0xd5, 0xac, 0x12, 0xb8, 0xd1, 0xac,
  0x12, 0x27, 0xc4, 0xac, 0x92, 0xbe, 0x89, 0xac, 0x12, 0x9e, 0xc2, 0xac, 0x12,
  0xaa, 0xbc, 0xac, 0x12, 0x41, 0xd5, 0xac, 0x12, 0xad, 0xe1, 0xac, 0x92, 0xab,
  0xbc, 0xac, 0x92, 0xdf, 0xe3, 0xac, 0x92, 0xe9, 0xcb, 0xac, 0x92, 0xeb, 0x89,
  0xac, 0x92, 0xdf, 0xe3, 0xac, 0x92, 0x8a, 0xcf, 0xac, 0x12, 0x77, 0x8a, 0xac,
  0x12, 0x2f, 0xe0, 0xac, 0x92, 0xcc, 0xd7, 0xac, 0x12, 0xfa, 0xd3, 0xff, 0xff,
  0x04, 0x00, 0x00, 0x00, 0xd8, 0x00, 0x00, 0x00, 0x9c, 0x86, 0xac, 0x92, 0x20,
  0xdb, 0xac, 0x12, 0x2f, 0xe0, 0xac, 0x12, 0x1a, 0xbd, 0xac, 0x12, 0x09, 0xc4,
  0xac, 0x12, 0x4a, 0xc0, 0xac, 0x12, 0xef, 0xd5, 0xac, 0x92, 0xdb, 0xc6, 0xac,
  0x92, 0xfc, 0xd1, 0xac, 0x12, 0x65, 0xdd, 0xac, 0x12, 0x35, 0xc0, 0xac, 0x92,
  0x84, 0xca, 0xac, 0x12, 0xeb, 0x89, 0xac, 0x92, 0xc3, 0xe4, 0xac, 0x12, 0xb3,
  0xe4, 0xac, 0x92, 0xdb, 0xc6, 0xac, 0x92, 0x99, 0xdc, 0xac, 0x92, 0x0b, 0xda,
  0xac, 0x12, 0xa0, 0xda, 0xac, 0x92, 0x9a, 0xc1, 0xac, 0x92, 0xb6, 0xba, 0xac,
  0x92, 0x67, 0xcb, 0xac, 0x12, 0x00, 0xd1, 0xac, 0x92, 0x04, 0xe1, 0xac, 0x12,
  0xd4, 0xd0, 0xac, 0x12, 0x01, 0xcf, 0xac, 0x12, 0xad, 0xbb, 0xac, 0x92, 0x94,
  0xe2, 0xac, 0x92, 0xe6, 0x86, 0xac, 0x92, 0x7f, 0xc0, 0xac, 0x92, 0x9d, 0xbf,
  0xac, 0x12, 0x3e, 0xbf, 0xac, 0x12, 0xda, 0xde, 0xac, 0x12, 0xfc, 0xc4, 0xac,
  0x92, 0x58, 0xd0, 0xac, 0x92, 0x39, 0xd4, 0xac, 0x92, 0x3d, 0xc5, 0xac, 0x12,
  0xf7, 0xc4, 0xac, 0x92, 0xfb, 0xbb, 0xac, 0x12, 0xe0, 0xe5, 0xac, 0x12, 0xc5,
  0x87, 0xac, 0x92, 0xbd, 0xd4, 0xac, 0x12, 0x6b, 0xc0, 0xac, 0x12, 0x53, 0xe0,
  0xac, 0x12, 0x0e, 0xd0, 0xac, 0x92, 0xaf, 0xbb, 0xac, 0x12, 0x3a, 0xc7, 0xac,
  0x92, 0xf7, 0xd9, 0xac, 0x12, 0x00, 0xc7, 0xac, 0x92, 0xb4, 0xc4, 0xac, 0x12,
  0x40, 0xc7, 0xac, 0x92, 0x18, 0xc3, 0xac, 0x12, 0x67, 0xcd, 0xac, 0x12, 0x55,
  0xd4, 0xac, 0x92, 0xde, 0xd4, 0xff, 0xff, 0x04, 0x00, 0x00, 0x00, 0x90, 0x00,
  0x00, 0x00, 0xf9, 0xd8, 0xac, 0x92, 0x1a, 0xc5, 0xac, 0x12, 0xa1, 0xe1, 0xac,
  0x92, 0x1d, 0xda, 0xac, 0x12, 0x19, 0xce, 0xac, 0x12, 0x30, 0xdb, 0xac, 0x12,
  0x17, 0xd9, 0xac, 0x12, 0x27, 0x8a, 0xac, 0x12, 0x2e, 0xd6, 0xac, 0x12, 0xfb,
  0xd6, 0xac, 0x92, 0x7c, 0xc2, 0xac, 0x92, 0xc1, 0xe2, 0xac, 0x12, 0xfe, 0xd4,
  0xac, 0x12, 0x2f, 0xd3, 0xac, 0x12, 0xb0, 0xe5, 0xac, 0x12, 0xc2, 0xbd, 0xac,
  0x92, 0xbe, 0x87, 0xac, 0x12, 0xee, 0x86, 0xac, 0x12, 0x3c, 0xdb, 0xac, 0x12,
  0xa4, 0xcf, 0xac, 0x12, 0x66, 0xbf, 0xac, 0x92, 0x5e, 0x87, 0xac, 0x12, 0xd3,
  0xd9, 0xac, 0x12, 0xf5, 0xc4, 0xac, 0x12, 0xee, 0xd2, 0xac, 0x12, 0xff, 0xca,
  0xac, 0x12, 0x35, 0xd4, 0xac, 0x12, 0x65, 0xdd, 0xac, 0x12, 0xfb, 0xd8, 0xac,
  0x12, 0x9f, 0xbb, 0xac, 0x12, 0xe0, 0xda, 0xac, 0x12, 0xaa, 0xcf, 0xac, 0x92,
  0xdc, 0xde, 0xac, 0x92, 0x91, 0xd7, 0xac, 0x12, 0xf4, 0x86, 0xac, 0x12, 0xe7,
  0xda, 0xac, 0x92, 0x7a, 0xd5, 0xff, 0xff, 0x04, 0x00, 0x00, 0x00, 0xd8, 0x00,
  0x00, 0x00, 0xf1, 0xdd, 0xac, 0x92, 0xdf, 0xe3, 0xac, 0x12, 0x19, 0x8a, 0xac,
  0x92, 0x39, 0xd4, 0xac, 0x12, 0x8d, 0x88, 0xac, 0x12, 0xc9, 0x87, 0xac, 0x12,
  0x57, 0xcd, 0xac, 0x12, 0x8a, 0xc4, 0xac, 0x12, 0xc2, 0xbd, 0xac, 0x12, 0x19,
  0xce, 0xac, 0x92, 0x39, 0xe1, 0xac, 0x92, 0x24, 0xe1, 0xac, 0x92, 0xe6, 0x86,
  0xac, 0x92, 0xae, 0xde, 0xac, 0x12, 0xbe, 0x87, 0xac, 0x12, 0x0d, 0xd9, 0xac,
  0x12, 0x85, 0xe0, 0xac, 0x92, 0x3c, 0xdb, 0xac, 0x12, 0x4e, 0xc7, 0xac, 0x92,
  0xe9, 0xcb, 0xac, 0x12, 0x02, 0xd2, 0xac, 0x12, 0xe7, 0xcf, 0xac, 0x92, 0x6b,
  0xd5, 0xac, 0x12, 0xdb, 0xbb, 0xac, 0x92, 0x3d, 0xc1, 0xac, 0x12, 0x5b, 0xc6,
  0xac, 0x12, 0x31, 0xd2, 0xac, 0x12, 0x41, 0xd3, 0xac, 0x12, 0xad, 0xbb, 0xac,
  0x92, 0x34, 0xc1, 0xac, 0x92, 0xd7, 0xd8, 0xac, 0x92, 0xd2, 0xc2, 0xac, 0x92,
  0x1b, 0xdc, 0xac, 0x92, 0xc0, 0xbb, 0xac, 0x12, 0x71, 0xc2, 0xac, 0x92, 0xa0,
  0xda, 0xac, 0x92, 0x17, 0xd9, 0xac, 0x92, 0x2f, 0xe0, 0xac, 0x12, 0xee, 0xbc,
  0xac, 0x92, 0x05, 0xde, 0xac, 0x12, 0x86, 0xe2, 0xac, 0x12, 0x4d, 0xda, 0xac,
  0x12, 0xb6, 0xd6, 0xac, 0x92, 0xb4, 0xc9, 0xac, 0x12, 0x90, 0xdd, 0xac, 0x12,
  0x5d, 0xcf, 0xac, 0x92, 0xc9, 0x87, 0xac, 0x92, 0x0d, 0xdf, 0xac, 0x12, 0xce,
  0xd4, 0xac, 0x92, 0x9a, 0x86, 0xac, 0x12, 0x6f, 0xca, 0xac, 0x92, 0x41, 0xc1,
  0xac, 0x92, 0x3b, 0xd4, 0xac, 0x92, 0x68, 0xcd, 0xac, 0x92, 0x5e, 0xd6, 0xff,
  0xff, 0x04, 0x00, 0x00, 0x00, 0x20, 0x01, 0x00, 0x00, 0x35, 0xd0, 0xac, 0x92,
  0x85, 0xe3, 0xac, 0x92, 0xad, 0xbb, 0xac, 0x12, 0x7f, 0x88, 0xac, 0x12, 0x1f,
  0xe0, 0xac, 0x12, 0xd7, 0xdc, 0xac, 0x92, 0xa1, 0xe1, 0xac, 0x12, 0x17, 0xd9,
  0xac, 0x92, 0x57, 0xce, 0xac, 0x12, 0xf7, 0x89, 0xac, 0x12, 0x39, 0xd3, 0xac,
  0x12, 0xbd, 0xd4, 0xac, 0x92, 0x6a, 0xc7, 0xac, 0x92, 0xaf, 0xbb, 0xac, 0x12,
  0xe3, 0xca, 0xac, 0x12, 0xea, 0xbc, 0xac, 0x12, 0x94, 0xe2, 0xac, 0x12, 0xf0,
  0xcb, 0xac, 0x92, 0x5a, 0xd8, 0xac, 0x12, 0x73, 0xc7, 0xac, 0x12, 0x20, 0xdb,
  0xac, 0x92, 0xd9, 0xc8, 0xac, 0x92, 0xea, 0xbc, 0xac, 0x92, 0xe2, 0xca, 0xac,
  0x92, 0x44, 0xd5, 0xac, 0x12, 0xae, 0xdd, 0xac, 0x12, 0xc2, 0xe4, 0xac, 0x12,
  0x30, 0xd0, 0xac, 0x92, 0xe1, 0xba, 0xac, 0x92, 0xb2, 0xdf, 0xac, 0x12, 0xe3,
  0xca, 0xac, 0x92, 0x24, 0xe1, 0xac, 0x92, 0xed, 0xc6, 0xac, 0x92, 0x3c, 0xdb,
  0xac, 0x12, 0x2f, 0x88, 0xac, 0x92, 0x93, 0xc8, 0xac, 0x12, 0x3c, 0xd5, 0xac,
  0x12, 0xfd, 0xd9, 0xac, 0x92, 0xa0, 0xc9, 0xac, 0x12, 0xd5, 0xca, 0xac, 0x92,
  0x3a, 0xc7, 0xac, 0x12, 0x51, 0xc3, 0xac, 0x12, 0x18, 0xd0, 0xac, 0x92, 0x71,
  0xbe, 0xac, 0x12, 0x18, 0xc3, 0xac, 0x92, 0x5d, 0xdf, 0xac, 0x92, 0xe7, 0xc4,
  0xac, 0x92, 0xb0, 0xbc, 0xac, 0x12, 0xd6, 0xc2, 0xac, 0x12, 0xea, 0xd2, 0xac,
  0x12, 0x14, 0xbf, 0xac, 0x12, 0x03, 0xcc, 0xac, 0x12, 0xd5, 0xcb, 0xac, 0x12,
  0x33, 0xbd, 0xac, 0x92, 0xb7, 0xc8, 0xac, 0x12, 0xd5, 0xca, 0xac, 0x92, 0x48,
  0xce, 0xac, 0x92, 0xf5, 0xc4, 0xac, 0x92, 0x7a, 0xda, 0xac, 0x12, 0xe5, 0xbe,
  0xac, 0x92, 0xee, 0x86, 0xac, 0x92, 0xb6, 0xd6, 0xac, 0x12, 0xc3, 0xe4, 0xac,
  0x92, 0x56, 0xc7, 0xac, 0x12, 0x87, 0xe1, 0xac, 0x12, 0x0a, 0xd2, 0xac, 0x92,
  0xfb, 0xd6, 0xac, 0x92, 0x32, 0xde, 0xac, 0x12, 0xf4, 0xd8, 0xac, 0x92, 0x21,
  0xc8, 0xac, 0x12, 0x12, 0xca, 0xac, 0x92, 0xc1, 0xd5, 0xac, 0x12, 0x8a, 0xd7,
  0xff, 0xff, 0x04, 0x00, 0x00, 0x00, 0xb0, 0x01, 0x00, 0x00, 0xee, 0xd7, 0xac,
  0x92, 0x95, 0xd5, 0xac, 0x92, 0x27, 0x8a, 0xac, 0x12, 0x58, 0xd0, 0xac, 0x12,
  0x33, 0xbd, 0xac, 0x12, 0x4e, 0xc7, 0xac, 0x12, 0x9f, 0xcf, 0xac, 0x12, 0x05,
  0xbb, 0xac, 0x12, 0xdb, 0xc6, 0xac, 0x12, 0x03, 0xcc, 0xac, 0x92, 0xfb, 0xd6,
  0xac, 0x12, 0x83, 0xc3, 0xac, 0x92, 0x5a, 0xc5, 0xac, 0x92, 0xdf, 0xbb, 0xac,
  0x92, 0x6b, 0xd5, 0xac, 0x12, 0x2b, 0xcd, 0xac, 0x92, 0x27, 0x8a, 0xac, 0x12,
  0xf2, 0xba, 0xac, 0x92, 0xce, 0xd8, 0xac, 0x12, 0x3a, 0x89, 0xac, 0x92, 0xb4,
  0xc9, 0xac, 0x92, 0x56, 0xc7, 0xac, 0x12, 0xe3, 0xe3, 0xac, 0x92, 0xff, 0xca,
  0xac, 0x12, 0x5e, 0x87, 0xac, 0x12, 0x6b, 0xc0, 0xac, 0x92, 0x64, 0xcf, 0xac,
  0x92, 0x0d, 0xc1, 0xac, 0x12, 0xca, 0xd7, 0xac, 0x12, 0xa7, 0xbb, 0xac, 0x92,
  0x77, 0xd6, 0xac, 0x92, 0x4b, 0xbf, 0xac, 0x92, 0x88, 0xc4, 0xac, 0x92, 0x31,
  0xe2, 0xac, 0x92, 0x7c, 0xe3, 0xac, 0x92, 0x17, 0x89, 0xac, 0x12, 0x64, 0x88,
  0xac, 0x12, 0x47, 0xd3, 0xac, 0x92, 0x35, 0xd3, 0xac, 0x92, 0x94, 0xd3, 0xac,
  0x12, 0xee, 0x86, 0xac, 0x12, 0x75, 0xc3, 0xac, 0x12, 0x33, 0xbd, 0xac, 0x92,
  0x8d, 0xd6, 0xac, 0x92, 0xdb, 0xbb, 0xac, 0x92, 0xc5, 0xc9, 0xac, 0x92, 0x86,
  0xc0, 0xac, 0x12, 0x09, 0xc4, 0xac, 0x12, 0x9e, 0x87, 0xac, 0x12, 0xef, 0xca,
  0xac, 0x92, 0xc7, 0xc0, 0xac, 0x12, 0x4a, 0xe1, 0xac, 0x92, 0xb5, 0xbb, 0xac,
  0x92, 0x45, 0xdd, 0xac, 0x12, 0xf8, 0xdd, 0xac, 0x92, 0x0f, 0xe2, 0xac, 0x92,
  0x53, 0xd4, 0xac, 0x92, 0x08, 0xbf, 0xac, 0x92, 0xbc, 0xc3, 0xac, 0x12, 0xcd,
  0xc5, 0xac, 0x92, 0xa1, 0xd1, 0xac, 0x92, 0x99, 0xdc, 0xac, 0x92, 0x17, 0x8a,
  0xac, 0x92, 0x04, 0xe1, 0xac, 0x92, 0x6e, 0xc0, 0xac, 0x12, 0x20, 0xdb, 0xac,
  0x92, 0xee, 0xd7, 0xac, 0x12, 0x4d, 0xe5, 0xac, 0x12, 0xd2, 0xc2, 0xac, 0x12,
  0x69, 0xc8, 0xac, 0x92, 0x46, 0xda, 0xac, 0x12, 0x37, 0xc8, 0xac, 0x92, 0xd2,
  0xc2, 0xac, 0x92, 0x7f, 0xc0, 0xac, 0x12, 0xd4, 0xd2, 0xac, 0x12, 0xbe, 0x87,
  0xac, 0x12, 0x58, 0xc7, 0xac, 0x12, 0x21, 0xc8, 0xac, 0x92, 0xd5, 0xdb, 0xac,
  0x12, 0x24, 0x89, 0xac, 0x12, 0x03, 0xc0, 0xac, 0x12, 0x37, 0xc8, 0xac, 0x12,
  0x0e, 0xd1, 0xac, 0x12, 0xed, 0xc6, 0xac, 0x92, 0xea, 0xbc, 0xac, 0x92, 0xcd,
  0xc5, 0xac, 0x92, 0x1a, 0xd0, 0xac, 0x92, 0x58, 0xc7, 0xac, 0x92, 0xae, 0xdd,
  0xac, 0x12, 0x86, 0xc0, 0xac, 0x12, 0xfa, 0xc9, 0xac, 0x12, 0x51, 0xc6, 0xac,
  0x12, 0x2f, 0xe0, 0xac, 0x92, 0xd5, 0xc0, 0xac, 0x92, 0x32, 0xc7, 0xac, 0x92,
  0x40, 0xd5, 0xac, 0x12, 0xc2, 0xe4, 0xac, 0x12, 0xbe, 0xc5, 0xac, 0x12, 0xae,
  0xca, 0xac, 0x92, 0x4a, 0xe3, 0xac, 0x12, 0x36, 0xbe, 0xac, 0x12, 0x56, 0xc4,
  0xac, 0x12, 0x7c, 0xc2, 0xac, 0x92, 0xd4, 0xe3, 0xac, 0x92, 0xc9, 0x87, 0xac,
  0x12, 0xc9, 0xbf, 0xac, 0x92, 0xad, 0xbb, 0xac, 0x12, 0x04, 0xe1, 0xac, 0x12,
  0x46, 0xd9, 0xff, 0xff, 0x04, 0x00, 0x00, 0x00, 0x30, 0x00, 0x00, 0x00, 0x00,
  0x00, 0x00, 0x00, 0x00, 0x00, 0x00, 0x00, 0x00, 0x00, 0x00, 0x00, 0x00, 0x00,
  0x00, 0x00, 0x00, 0x00, 0x00, 0x00, 0x00, 0x00, 0x00, 0x00, 0x00, 0x00, 0x00,
  0x00, 0x00, 0x00, 0x00, 0x00, 0x00, 0x00, 0x00, 0x00, 0x00, 0x00, 0x00, 0x00,
  0x00, 0x00, 0x00, 0x00, 0x00, 0x00, 0x00, 0x00, 0x82, 0xd9, 0xff, 0xff, 0x04,
  0x00, 0x00, 0x00, 0x90, 0x00, 0x00, 0x00, 0x23, 0xc0, 0xac, 0x12, 0x6c, 0xd1,
  0xac, 0x92, 0x65, 0xdd, 0xac, 0x12, 0xc3, 0xe4, 0xac, 0x12, 0x93, 0xce, 0xac,
  0x12, 0xb5, 0xe0, 0xac, 0x92, 0xb6, 0xd6, 0xac, 0x12, 0x75, 0xbb, 0xac, 0x92,
  0xbb, 0xbb, 0xac, 0x92, 0x27, 0x8a, 0xac, 0x92, 0xbc, 0xca, 0xac, 0x12, 0x42,
  0x87, 0xac, 0x92, 0x9a, 0xc1, 0xac, 0x12, 0xb5, 0xd2, 0xac, 0x92, 0xda, 0xde,
  0xac, 0x92, 0x09, 0xc4, 0xac, 0x12, 0x3a, 0x89, 0xac, 0x92, 0x22, 0xcb, 0xac,
  0x92, 0x16, 0xe0, 0xac, 0x12, 0x03, 0xc0, 0xac, 0x92, 0xf6, 0xbc, 0xac, 0x92,
  0x8c, 0xe2, 0xac, 0x92, 0xc9, 0x87, 0xac, 0x12, 0x65, 0xdd, 0xac, 0x12, 0xb0,
  0xcd, 0xac, 0x92, 0x55, 0xd4, 0xac, 0x92, 0xd7, 0xd8, 0xac, 0x92, 0x8a, 0xe3,
  0xac, 0x12, 0x9f, 0xcf, 0xac, 0x92, 0x18, 0xc1, 0xac, 0x92, 0x46, 0xda, 0xac,
  0x12, 0x3c, 0xdb, 0xac, 0x12, 0x98, 0xd4, 0xac, 0x92, 0xe3, 0xca, 0xac, 0x92,
  0xf8, 0xdd, 0xac, 0x12, 0x24, 0xe1, 0xac, 0x92, 0x1e, 0xda, 0xff, 0xff, 0x04,
  0x00, 0x00, 0x00, 0xd8, 0x00, 0x00, 0x00, 0x8d, 0x88, 0xac, 0x12, 0x03, 0xc0,
  0xac, 0x12, 0x0c, 0xc2, 0xac, 0x92, 0xb0, 0xd1, 0xac, 0x12, 0xb7, 0xbd, 0xac,
  0x12, 0xb3, 0xe4, 0xac, 0x12, 0x83, 0xc3, 0xac, 0x92, 0x92, 0xbd, 0xac, 0x92,
  0x0e, 0xd1, 0xac, 0x92, 0x1e, 0xc6, 0xac, 0x92, 0xb7, 0xc8, 0xac, 0x12, 0xe1,
  0xcf, 0xac, 0x12, 0xa4, 0xc1, 0xac, 0x92, 0x4f, 0xe4, 0xac, 0x92, 0x6b, 0xd5,
  0xac, 0x12, 0x09, 0xcb, 0xac, 0x92, 0xbe, 0x88, 0xac, 0x12, 0xdf, 0xdc, 0xac,
  0x12, 0x6f, 0xca, 0xac, 0x92, 0x2f, 0x88, 0xac, 0x12, 0x75, 0xbe, 0xac, 0x92,
  0xfd, 0xcd, 0xac, 0x92, 0x2b, 0xd9, 0xac, 0x12, 0xf0, 0xcb, 0xac, 0x92, 0x1d,
  0xe5, 0xac, 0x12, 0xd4, 0xd7, 0xac, 0x12, 0x82, 0xd0, 0xac, 0x12, 0xbe, 0xc5,
  0xac, 0x12, 0xf6, 0xbd, 0xac, 0x92, 0x82, 0xd2, 0xac, 0x12, 0x2f, 0xe0, 0xac,
  0x92, 0xd5, 0xc9, 0xac, 0x92, 0xf6, 0xbd, 0xac, 0x12, 0x33, 0xc3, 0xac, 0x12,
  0x03, 0xd9, 0xac, 0x12, 0x9c, 0xd9, 0xac, 0x92, 0xee, 0xd2, 0xac, 0x92, 0xbe,
  0xc5, 0xac, 0x12, 0x64, 0xcf, 0xac, 0x92, 0xaf, 0xc3, 0xac, 0x92, 0x86, 0xc0,
  0xac, 0x12, 0xf3, 0xdc, 0xac, 0x92, 0xf6, 0x86, 0xac, 0x12, 0xad, 0xc7, 0xac,
  0x92, 0x07, 0xd4, 0xac, 0x92, 0x05, 0xbb, 0xac, 0x92, 0xe7, 0xbc, 0xac, 0x12,
  0x27, 0xd9, 0xac, 0x92, 0x73, 0xc7, 0xac, 0x12, 0xfb, 0xd2, 0xac, 0x12, 0xe0,
  0xda, 0xac, 0x12, 0x12, 0xcd, 0xac, 0x12, 0x68, 0xe2, 0xac, 0x92, 0xfa, 0xc5,
  0xac, 0x92, 0x02, 0xdb, 0xff, 0xff, 0x04, 0x00, 0x00, 0x00, 0x90, 0x00, 0x00,
  0x00, 0x78, 0xe2, 0xac, 0x92, 0xd2, 0xc2, 0xac, 0x92, 0x7b, 0xd4, 0xac, 0x12,
  0xeb, 0xc3, 0xac, 0x12, 0xe9, 0xbf, 0xac, 0x92, 0x4f, 0xe4, 0xac, 0x12, 0xfa,
  0xde, 0xac, 0x12, 0x56, 0xc4, 0xac, 0x12, 0xd2, 0xc2, 0xac, 0x12, 0xb8, 0xe3,
  0xac, 0x12, 0x9d, 0xc3, 0xac, 0x92, 0xc9, 0xbf, 0xac, 0x12, 0xc7, 0xe1, 0xac,
  0x12, 0x12, 0xcd, 0xac, 0x12, 0xb6, 0xd6, 0xac, 0x92, 0x86, 0xdc, 0xac, 0x12,
  0x33, 0xbd, 0xac, 0x12, 0x0f, 0xcb, 0xac, 0x12, 0x73, 0xc7, 0xac, 0x12, 0xb9,
  0xdc, 0xac, 0x92, 0x2f, 0xe0, 0xac, 0x12, 0xea, 0xd1, 0xac, 0x12, 0x24, 0x89,
  0xac, 0x12, 0x55, 0xd4, 0xac, 0x92, 0x4d, 0xdd, 0xac, 0x92, 0xb0, 0xbc, 0xac,
  0x92, 0x8f, 0xcd, 0xac, 0x12, 0x43, 0xd3, 0xac, 0x92, 0xeb, 0xcc, 0xac, 0x12,
  0x17, 0xdb, 0xac, 0x92, 0x31, 0xe5, 0xac, 0x12, 0x8b, 0xc1, 0xac, 0x12, 0x6b,
  0xd5, 0xac, 0x92, 0x89, 0xe0, 0xac, 0x12, 0x2f, 0xe0, 0xac, 0x12, 0xef, 0xca,
  0xac, 0x12, 0x9e, 0xdb, 0xff, 0xff, 0x04, 0x00, 0x00, 0x00, 0xd8, 0x00, 0x00,
  0x00, 0x4b, 0xbf, 0xac, 0x92, 0xae, 0xdd, 0xac, 0x92, 0x2d, 0xda, 0xac, 0x92,
  0x93, 0xce, 0xac, 0x12, 0xf9, 0xd3, 0xac, 0x12, 0xd5, 0xc6, 0xac, 0x12, 0xc2,
  0x87, 0xac, 0x12, 0x39, 0xd4, 0xac, 0x92, 0x9c, 0xd6, 0xac, 0x12, 0x39, 0xc2,
  0xac, 0x12, 0xd7, 0xd8, 0xac, 0x12, 0x06, 0xcc, 0xac, 0x92, 0x2f, 0xd3, 0xac,
  0x12, 0x0a, 0xbd, 0xac, 0x12, 0x11, 0xce, 0xac, 0x92, 0x28, 0xdb, 0xac, 0x12,
  0x21, 0x88, 0xac, 0x12, 0x0f, 0xdd, 0xac, 0x92, 0xd5, 0xca, 0xac, 0x12, 0x4f,
  0xe4, 0xac, 0x92, 0xd9, 0xc8, 0xac, 0x12, 0xef, 0xc4, 0xac, 0x92, 0x3a, 0xc7,
  0xac, 0x92, 0xac, 0x86, 0xac, 0x92, 0xb4, 0xc9, 0xac, 0x12, 0x27, 0x8a, 0xac,
  0x92, 0x9d, 0xd6, 0xac, 0x12, 0x3c, 0xdb, 0xac, 0x92, 0xfc, 0xd1, 0xac, 0x12,
  0x4a, 0xe1, 0xac, 0x12, 0x87, 0xd8, 0xac, 0x12, 0x6c, 0xd1, 0xac, 0x12, 0x4a,
  0xe3, 0xac, 0x92, 0xf9, 0xc3, 0xac, 0x12, 0x10, 0xca, 0xac, 0x92, 0x19, 0x8a,
  0xac, 0x12, 0x3d, 0xc9, 0xac, 0x12, 0xf7, 0xd6, 0xac, 0x92, 0x9f, 0xc6, 0xac,
  0x12, 0xfc, 0xd1, 0xac, 0x12, 0x6d, 0xbb, 0xac, 0x12, 0x70, 0xd6, 0xac, 0x12,
  0x9f, 0xc6, 0xac, 0x12, 0x26, 0xd8, 0xac, 0x12, 0x33, 0xbd, 0xac, 0x12, 0x6c,
  0xd1, 0xac, 0x92, 0xb4, 0xd6, 0xac, 0x92, 0xae, 0xca, 0xac, 0x12, 0x93, 0xc8,
  0xac, 0x12, 0xf5, 0xc9, 0xac, 0x12, 0xf8, 0xdd, 0xac, 0x12, 0xb9, 0x86, 0xac,
  0x92, 0xcd, 0xc3, 0xac, 0x92, 0x18, 0xc3, 0xac, 0x12, 0x82, 0xdc, 0xff, 0xff,
  0x04, 0x00, 0x00, 0x00, 0xc0, 0x00, 0x00, 0x00, 0xa5, 0xc6, 0xac, 0x12, 0x17,
  0xe2, 0xac, 0x12, 0xe2, 0xe2, 0xac, 0x12, 0x36, 0xbe, 0xac, 0x12, 0x01, 0xcf,
  0xac, 0x92, 0xb6, 0xd6, 0xac, 0x12, 0x39, 0xc2, 0xac, 0x12, 0x8f, 0x8a, 0xac,
  0x12, 0xfc, 0xd7, 0xac, 0x12, 0x3b, 0xd4, 0xac, 0x12, 0xc9, 0x87, 0xac, 0x12,
  0x27, 0x8a, 0xac, 0x12, 0xf6, 0xd7, 0xac, 0x12, 0x39, 0xc2, 0xac, 0x12, 0x14,
  0xde, 0xac, 0x92, 0x86, 0xc0, 0xac, 0x92, 0xc8, 0xd1, 0xac, 0x92, 0x3a, 0x89,
  0xac, 0x12, 0xbc, 0xcf, 0xac, 0x92, 0x39, 0xd3, 0xac, 0x92, 0x14, 0xde, 0xac,
  0x12, 0x31, 0xe0, 0xac, 0x92, 0x4a, 0xe3, 0xac, 0x92, 0x4d, 0xda, 0xac, 0x92,
  0x92, 0xe2, 0xac, 0x12, 0x95, 0xd5, 0xac, 0x92, 0xef, 0xca, 0xac, 0x92, 0x29,
  0xd2, 0xac, 0x12, 0x7c, 0xe3, 0xac, 0x12, 0xe7, 0xc4, 0xac, 0x12, 0x38, 0xce,
  0xac, 0x92, 0x4d, 0xda, 0xac, 0x92, 0x7c, 0xc2, 0xac, 0x92, 0x3b, 0xd4, 0xac,
  0x92, 0xa0, 0xc9, 0xac, 0x12, 0xca, 0x86, 0xac, 0x92, 0x25, 0xd6, 0xac, 0x12,
  0xc9, 0xcc, 0xac, 0x92, 0x70, 0xbc, 0xac, 0x92, 0xc0, 0xd6, 0xac, 0x12, 0x72,
  0xbb, 0xac, 0x92, 0xc2, 0xbd, 0xac, 0x92, 0x9e, 0xd0, 0xac, 0x92, 0x5b, 0xc6,
  0xac, 0x92, 0xca, 0xd7, 0xac, 0x92, 0xe8, 0xd4, 0xac, 0x92, 0xb9, 0x86, 0xac,
  0x92, 0x0e, 0xd1, 0xac, 0x92, 0x4e, 0xdd, 0xff, 0xff, 0x04, 0x00, 0x00, 0x00,
  0x18, 0x00, 0x00, 0x00, 0x00, 0x00, 0x00, 0x00, 0x00, 0x00, 0x00, 0x00, 0x00,
  0x00, 0x00, 0x00, 0x00, 0x00, 0x00, 0x00, 0x00, 0x00, 0x00, 0x00, 0x00, 0x00,
  0x00, 0x00, 0x72, 0xdd, 0xff, 0xff, 0x04, 0x00, 0x00, 0x00, 0x20, 0x01, 0x00,
  0x00, 0xc2, 0xd1, 0xac, 0x92, 0xe2, 0xca, 0xac, 0x92, 0xd4, 0xd2, 0xac, 0x92,
  0x29, 0x8a, 0xac, 0x12, 0x9c, 0x86, 0xac, 0x12, 0x04, 0xe1, 0xac, 0x12, 0x51,
  0xc9, 0xac, 0x12, 0x53, 0xcd, 0xac, 0x12, 0x9a, 0x86, 0xac, 0x12, 0xf9, 0xc3,
  0xac, 0x12, 0xe9, 0xe4, 0xac, 0x12, 0xf7, 0xd9, 0xac, 0x12, 0xc8, 0xcd, 0xac,
  0x12, 0x31, 0xd2, 0xac, 0x12, 0xf5, 0xc4, 0xac, 0x12, 0xd2, 0xc2, 0xac, 0x92,
  0x4d, 0xe5, 0xac, 0x12, 0xe8, 0xbf, 0xac, 0x12, 0xc9, 0xcc, 0xac, 0x12, 0x86,
  0xe2, 0xac, 0x12, 0x64, 0xcf, 0xac, 0x12, 0x4f, 0xe4, 0xac, 0x12, 0x03, 0xd9,
  0xac, 0x12, 0x09, 0xc4, 0xac, 0x12, 0x8f, 0x8a, 0xac, 0x12, 0xc8, 0xcd, 0xac,
  0x12, 0x24, 0x89, 0xac, 0x92, 0xb0, 0xd1, 0xac, 0x12, 0x39, 0xd4, 0xac, 0x12,
  0x3e, 0xbf, 0xac, 0x92, 0x05, 0xbb, 0xac, 0x92, 0xfa, 0xd0, 0xac, 0x92, 0x47,
  0xdb, 0xac, 0x92, 0x12, 0xcd, 0xac, 0x92, 0x59, 0xd5, 0xac, 0x92, 0x30, 0xdb,
  0xac, 0x12, 0xa1, 0xe1, 0xac, 0x92, 0x55, 0xd4, 0xac, 0x92, 0x31, 0xbb, 0xac,
  0x92, 0xd5, 0xca, 0xac, 0x92, 0x5d, 0xda, 0xac, 0x12, 0xf9, 0xd3, 0xac, 0x92,
  0x68, 0xe2, 0xac, 0x92, 0xe0, 0xda, 0xac, 0x12, 0xd4, 0xd2, 0xac, 0x12, 0x25,
  0xd6, 0xac, 0x92, 0x44, 0xbe, 0xac, 0x12, 0xdc, 0xde, 0xac, 0x92, 0x75, 0xbb,
  0xac, 0x92, 0x8d, 0x89, 0xac, 0x12, 0xb6, 0xd4, 0xac, 0x12, 0x9d, 0xbf, 0xac,
  0x92, 0x0c, 0xc2, 0xac, 0x12, 0x27, 0xc4, 0xac, 0x92, 0x40, 0xc7, 0xac, 0x12,
  0xf9, 0xd8, 0xac, 0x12, 0x02, 0xd2, 0xac, 0x12, 0xe9, 0xe4, 0xac, 0x12, 0xb5,
  0xd2, 0xac, 0x12, 0xc9, 0xbf, 0xac, 0x12, 0xeb, 0xc3, 0xac, 0x92, 0xe3, 0xbd,
  0xac, 0x12, 0x55, 0xd4, 0xac, 0x92, 0x65, 0xdd, 0xac, 0x12, 0xd2, 0xc2, 0xac,
  0x12, 0x4a, 0xc0, 0xac, 0x12, 0xdb, 0xdf, 0xac, 0x12, 0x7c, 0xc2, 0xac, 0x92,
  0xe3, 0xca, 0xac, 0x92, 0xd2, 0xc2, 0xac, 0x92, 0x8c, 0xe2, 0xac, 0x92, 0x7c,
  0xc2, 0xac, 0x92, 0x9e, 0xde, 0xff, 0xff, 0x04, 0x00, 0x00, 0x00, 0x00, 0x01,
  0x00, 0x00, 0xec, 0x9e, 0x43, 0xbe, 0x11, 0x97, 0x27, 0xbf, 0x0d, 0x22, 0x74,
  0xbe, 0x3c, 0xc8, 0x09, 0x3f, 0x81, 0x64, 0xd1, 0x3d, 0x69, 0x6b, 0x9a, 0xbd,
  0x6c, 0xe8, 0x81, 0x3f, 0xe0, 0x2d, 0x12, 0x3f, 0x67, 0x21, 0xa8, 0xbd, 0x13,
  0x2c, 0x89, 0x3e, 0xad, 0x96, 0x6c, 0xbd, 0x39, 0xc2, 0xdd, 0xbd, 0x9c, 0x2c,
  0x89, 0x3c, 0x9d, 0x41, 0x02, 0x3e, 0x33, 0xfb, 0x38, 0xbf, 0xd6, 0x8f, 0x5e,
  0xbe, 0xc7, 0x02, 0x93, 0x3e, 0xe6, 0x8a, 0xd6, 0x3e, 0x65, 0x1b, 0xd2, 0x3e,
  0x49, 0xb5, 0xf7, 0x3e, 0xe8, 0x73, 0x5b, 0xbd, 0x9e, 0xff, 0x9e, 0x3e, 0xa9,
  0x1f, 0xe0, 0x3e, 0xab, 0x2b, 0x8d, 0xbe, 0xe8, 0x22, 0x65, 0x3e, 0x96, 0x91,
  0x8d, 0x3e, 0x08, 0x30, 0xdf, 0xbe, 0xc1, 0x8c, 0xdd, 0x3d, 0xe1, 0x74, 0x5c,
  0xbf, 0xa1, 0xc6, 0x42, 0x3e, 0x27, 0x79, 0x82, 0xbe, 0xd1, 0x8d, 0x43, 0x3c,
  0xd7, 0xda, 0xac, 0x92, 0x87, 0xe1, 0xac, 0x92, 0x6e, 0xc0, 0xac, 0x12, 0x9a,
  0x86, 0xac, 0x92, 0x31, 0xd2, 0xac, 0x12, 0x4a, 0xe1, 0xac, 0x12, 0xc6, 0xbb,
  0xac, 0x92, 0xd2, 0xc4, 0xac, 0x92, 0xab, 0xf7, 0x09, 0x3f, 0xc7, 0x79, 0xe5,
  0x3e, 0xed, 0x8c, 0xa0, 0x3e, 0xc4, 0x59, 0x31, 0xbf, 0xdb, 0xa1, 0x47, 0x3d,
  0x25, 0xe2, 0x5b, 0xbd, 0x07, 0x2b, 0x3a, 0xbf, 0x97, 0x50, 0x49, 0xbf, 0x5f,
  0x6b, 0x24, 0x3e, 0xe1, 0x17, 0xbb, 0xbe, 0x01, 0x3f, 0x17, 0xbe, 0x89, 0x9c,
  0xcb, 0x3e, 0xee, 0x01, 0xbc, 0x3e, 0x2c, 0xa0, 0x15, 0x3f, 0xac, 0xf6, 0x34,
  0xbd, 0x16, 0xe9, 0x92, 0xbe, 0xbd, 0xa1, 0x49, 0x3e, 0x73, 0xe0, 0x3f, 0x3e,
  0x23, 0xb0, 0x84, 0xbe, 0xae, 0xdc, 0xb1, 0x3d, 0x96, 0x7e, 0x05, 0xbf, 0xd8,
  0x13, 0x9f, 0x3e, 0x68, 0xa0, 0x77, 0xbd, 0x26, 0x6b, 0xf3, 0x3e, 0xaa, 0xdf,
  0xff, 0xff, 0x04, 0x00, 0x00, 0x00, 0x20, 0x01, 0x00, 0x00, 0x4f, 0xce, 0xd8,
  0xbd, 0xf4, 0x17, 0x9a, 0x3e, 0x85, 0x99, 0x48, 0x3d, 0xc4, 0xf9, 0x57, 0x3e,
  0xbc, 0xf8, 0x56, 0xbe, 0xd0, 0x53, 0xa2, 0xbe, 0x9a, 0x88, 0x87, 0xbe, 0x0a,
  0xca, 0x53, 0x3e, 0x0e, 0xac, 0x4a, 0x3d, 0x3c, 0x97, 0x22, 0xbb, 0x1a, 0x3a,
  0x6d, 0x3c, 0x53, 0x26, 0x36, 0xbe, 0x80, 0xf9, 0x39, 0x3d, 0x30, 0x7e, 0x15,
  0x3f, 0x00, 0x6a, 0x13, 0xbe, 0xd8, 0x8f, 0x50, 0xbe, 0xe8, 0xd4, 0xaf, 0xbe,
  0x21, 0xe8, 0x3e, 0x3d, 0x8e, 0x6a, 0x0e, 0xbe, 0x01, 0xd8, 0xca, 0xbe, 0xcd,
  0xc7, 0x62, 0xbd, 0x04, 0xac, 0x82, 0x3d, 0x92, 0xf2, 0xa0, 0xbd, 0x96, 0x1a,
  0xc3, 0x3e, 0xb1, 0xeb, 0xd7, 0xbe, 0x22, 0xcc, 0x9e, 0xbd, 0x29, 0xa9, 0x94,
  0xbe, 0xb8, 0xc6, 0x2b, 0xbe, 0x82, 0xfd, 0xe2, 0xbc, 0x71, 0xb2, 0xdd, 0x3e,
  0xc3, 0x8c, 0xa9, 0xbe, 0xf2, 0xf7, 0x6a, 0x3e, 0x98, 0x86, 0xba, 0x3b, 0x69,
  0xb3, 0x61, 0x3f, 0x47, 0x7f, 0x2f, 0xbf, 0xae, 0x7d, 0x23, 0x3f, 0x2a, 0x06,
  0x02, 0xbf, 0x45, 0xd1, 0x9f, 0xbf, 0xbf, 0xa5, 0xc1, 0x3d, 0x46, 0x94, 0x54,
  0x3c, 0xf7, 0x8a, 0xe9, 0x3e, 0xda, 0x93, 0xc4, 0xbd, 0x74, 0xc0, 0x03, 0x3e,
  0xc3, 0xb3, 0x1a, 0x3f, 0x2b, 0x83, 0x88, 0x3d, 0xbf, 0x90, 0x52, 0x3e, 0x6d,
  0x13, 0x84, 0x3d, 0x52, 0x3d, 0x03, 0x3e, 0xdb, 0x5b, 0x21, 0xbe, 0x24, 0xce,
  0x11, 0x3e, 0xef, 0xaa, 0xa7, 0x3d, 0x74, 0x59, 0x47, 0xbe, 0x09, 0x19, 0x03,
  0xbe, 0x80, 0xbf, 0xc6, 0x3e, 0x9c, 0xd7, 0xca, 0xbc, 0x7f, 0xce, 0x71, 0x3e,
  0xec, 0xb6, 0xff, 0xbd, 0xe3, 0x33, 0x33, 0x3c, 0xe9, 0x01, 0x11, 0x3d, 0x6b,
  0x48, 0x94, 0x3d, 0xb6, 0xe6, 0x08, 0x3e, 0x95, 0xa2, 0x84, 0x3e, 0xe8, 0x99,
  0xb6, 0xbb, 0xdb, 0x97, 0x38, 0x3e, 0x11, 0xb2, 0x37, 0xbe, 0xfb, 0x4e, 0xfb,
  0x3d, 0xde, 0x3b, 0x64, 0xbd, 0x9e, 0x1b, 0xbb, 0xbd, 0x9a, 0xf8, 0x14, 0xbe,
  0xc3, 0x98, 0x0c, 0x3d, 0x9b, 0x27, 0xfc, 0x3b, 0x83, 0xe5, 0x91, 0x3d, 0xd6,
  0xe0, 0xff, 0xff, 0x04, 0x00, 0x00, 0x00, 0x00, 0x01, 0x00, 0x00, 0x7c, 0xb0,
  0x5d, 0x3d, 0xf7, 0xab, 0x26, 0xbf, 0xad, 0x91, 0x97, 0xbe, 0x14, 0x31, 0x2a,
  0x3e, 0x9c, 0x98, 0x34, 0x3e, 0x0e, 0x2d, 0x00, 0x3e, 0x49, 0x4a, 0xf9, 0xbd,
  0xbe, 0xf7, 0x96, 0xbe, 0x35, 0xa6, 0xb7, 0xbd, 0x3c, 0xdd, 0x82, 0x3d, 0xae,
  0x0c, 0x01, 0x3e, 0xcf, 0x8d, 0xd9, 0x3d, 0xb4, 0xbf, 0xdb, 0x3e, 0xcd, 0x2e,
  0x2f, 0x3d, 0xc4, 0xeb, 0x36, 0xbf, 0x8c, 0xa0, 0x32, 0xbe, 0xf4, 0xd5, 0x6c,
  0xbe, 0x0b, 0xe3, 0xa0, 0x3e, 0x18, 0x1d, 0x29, 0x3f, 0x38, 0xdb, 0x78, 0xbd,
  0x5c, 0x49, 0x05, 0x3f, 0x7e, 0xa7, 0xcd, 0xbd, 0x6a, 0xc4, 0x89, 0xbc, 0xb7,
  0xce, 0x5b, 0x3d, 0x8f, 0x42, 0xdc, 0xbd, 0xbf, 0x1f, 0xa8, 0xbd, 0xec, 0x49,
  0x52, 0xbe, 0xe4, 0x50, 0x44, 0xbf, 0x1f, 0x86, 0xd7, 0xbe, 0xf1, 0x9c, 0xee,
  0xbe, 0x7c, 0x4c, 0xbe, 0x3e, 0x55, 0xbf, 0x68, 0x3e, 0xf7, 0xf6, 0x6c, 0x3e,
  0xa1, 0xf0, 0x8a, 0xbe, 0xb6, 0x12, 0xd4, 0x3e, 0xcc, 0x7e, 0xfc, 0x3c, 0xfe,
  0x99, 0x09, 0xbe, 0x47, 0x0b, 0x79, 0xbe, 0x78, 0x8c, 0x8d, 0x3d, 0xa8, 0x40,
  0xa2, 0xbd, 0x9f, 0x36, 0xde, 0xbd, 0x5a, 0x1f, 0xb7, 0xbd, 0xf9, 0xd3, 0xeb,
  0xbc, 0x2c, 0x34, 0x28, 0xbf, 0x01, 0x75, 0x9b, 0xbe, 0x62, 0x04, 0xaa, 0x3b,
  0xe3, 0x5c, 0x52, 0xbe, 0xd4, 0x45, 0x15, 0x3e, 0x4d, 0x12, 0xeb, 0xbe, 0xfc,
  0xba, 0x2c, 0x3d, 0xf4, 0x11, 0x08, 0x3e, 0xc2, 0xcb, 0x96, 0x3c, 0x8b, 0xa1,
  0xc0, 0xbc, 0xa9, 0x40, 0xf7, 0xbd, 0xab, 0x60, 0xdd, 0x3f, 0xa9, 0xd9, 0xac,
  0x3d, 0x5c, 0xd3, 0xf8, 0x3d, 0xdb, 0x53, 0xd8, 0x3e, 0x62, 0x15, 0x97, 0xbe,
  0x54, 0x8b, 0xc2, 0x3d, 0xd8, 0x01, 0x68, 0xbf, 0x0c, 0xff, 0x6b, 0x3e, 0x97,
  0xef, 0x4b, 0xbd, 0x09, 0x59, 0x84, 0x3d, 0xe2, 0xe1, 0xff, 0xff, 0x04, 0x00,
  0x00, 0x00, 0x20, 0x01, 0x00, 0x00, 0xe7, 0x0e, 0xbd, 0xbc, 0xf4, 0x92, 0x25,
  0xbd, 0x8f, 0xca, 0x1f, 0x3e, 0xc4, 0xd4, 0x17, 0x3e, 0xab, 0x72, 0x99, 0xbe,
  0xa1, 0x65, 0x2b, 0x3e, 0xc9, 0xf7, 0x65, 0x3d, 0xcb, 0xe6, 0x86, 0xbd, 0x5f,
  0xef, 0x28, 0x3d, 0x57, 0xb1, 0x13, 0x3e, 0xb5, 0xd3, 0x51, 0xbe, 0xac, 0x0c,
  0x0c, 0xbe, 0x6c, 0x9c, 0x28, 0x3e, 0x74, 0x0f, 0xf7, 0xbd, 0x1a, 0xb3, 0x6d,
  0x3d, 0xd2, 0x70, 0x2d, 0xbe, 0x69, 0xa5, 0x60, 0x3c, 0x9e, 0x95, 0xdb, 0xbd,
  0x7d, 0xa0, 0xa8, 0x3d, 0x3a, 0x59, 0xe0, 0x3d, 0xde, 0xf6, 0xe4, 0xbe, 0xc6,
  0x91, 0x6a, 0x3d, 0x62, 0xd5, 0x5b, 0xbd, 0x2d, 0x84, 0xf9, 0x3e, 0xf7, 0xe3,
  0x3c, 0xbd, 0x54, 0x85, 0x5e, 0xbf, 0xb0, 0x11, 0xbb, 0xbe, 0x4d, 0xa3, 0x49,
  0xbd, 0x04, 0x6f, 0x0a, 0x3e, 0xde, 0xad, 0x00, 0xbe, 0x03, 0x63, 0xa5, 0x3e,
  0x17, 0x29, 0xa5, 0xbd, 0x85, 0x11, 0x52, 0x3e, 0x2e, 0x52, 0x2b, 0x3e, 0x58,
  0x58, 0x3c, 0x3f, 0x6b, 0xdc, 0x83, 0xbf, 0xe8, 0xb5, 0x12, 0x3f, 0xbb, 0x20,
  0x1d, 0x3e, 0x43, 0x39, 0xdd, 0x3f, 0x7f, 0xfb, 0x43, 0xbd, 0x3a, 0x2d, 0x41,
  0xbd, 0x83, 0x0a, 0x92, 0x3e, 0x60, 0x44, 0x82, 0xbd, 0xc9, 0x4e, 0x01, 0xbe,
  0xea, 0x48, 0xc2, 0x3d, 0x5a, 0x52, 0x74, 0xbe, 0x3f, 0xd2, 0x8b, 0xbf, 0x83,
  0xbd, 0x7d, 0x3d, 0xe6, 0x73, 0x41, 0xbe, 0x05, 0xd3, 0x9b, 0xbd, 0x1e, 0x86,
  0xd1, 0x3c, 0xcc, 0xa4, 0xba, 0x3e, 0xed, 0xbc, 0xe2, 0xbe, 0x6a, 0x9c, 0x09,
  0xbd, 0x18, 0xe0, 0x9a, 0xbd, 0xad, 0xf9, 0xff, 0x3d, 0x4b, 0x3c, 0xd0, 0xbe,
  0x51, 0x06, 0x85, 0xbc, 0x80, 0x0a, 0xb0, 0x3c, 0x91, 0x12, 0x98, 0x3e, 0x9b,
  0x49, 0x72, 0x3d, 0xee, 0xf7, 0x3b, 0xbe, 0xbf, 0x7c, 0xa9, 0xbe, 0x73, 0x98,
  0x3e, 0x3f, 0x00, 0x99, 0x89, 0x3d, 0x7c, 0xc0, 0xe1, 0x3d, 0xc8, 0xc2, 0x40,
  0x3d, 0xa8, 0xd6, 0x9f, 0xbe, 0x50, 0xa6, 0x0d, 0xbe, 0x91, 0xb8, 0x58, 0xbd,
  0x20, 0xc8, 0x02, 0xbf, 0x46, 0x28, 0x48, 0xbf, 0x0e, 0xe3, 0xff, 0xff, 0x04,
  0x00, 0x00, 0x00, 0x00, 0x01, 0x00, 0x00, 0x13, 0x07, 0x0a, 0xbf, 0xfd, 0xa9,
  0xdc, 0x3e, 0x12, 0xcd, 0x4d, 0xbe, 0x5a, 0x1d, 0xa0, 0xbe, 0x8a, 0x5d, 0xdd,
  0xbb, 0x48, 0x14, 0x67, 0xbd, 0x5c, 0x3a, 0x9e, 0xbe, 0x28, 0xba, 0xc6, 0xbe,
  0x52, 0x51, 0xba, 0xbf, 0xa1, 0xfe, 0xbd, 0xbc, 0xb7, 0x5a, 0xa3, 0x3e, 0x1d,
  0x59, 0x65, 0xbe, 0xd0, 0xb3, 0xa5, 0xbc, 0x0a, 0x14, 0xa9, 0x3b, 0xa0, 0x30,
  0x36, 0xbb, 0xc1, 0xf5, 0x0b, 0x3e, 0xb2, 0xc2, 0x27, 0xbe, 0x49, 0x3b, 0xcd,
  0xbc, 0x39, 0x9d, 0xa8, 0xbe, 0xc0, 0xf5, 0x3f, 0xbe, 0x6d, 0x2c, 0x68, 0x3b,
  0xd5, 0x87, 0x5b, 0x3d, 0x49, 0x59, 0x39, 0x3d, 0xbe, 0x40, 0x83, 0x3e, 0x40,
  0x6d, 0xea, 0xbe, 0xec, 0xc5, 0x49, 0x3d, 0xa8, 0xcc, 0x4c, 0xbf, 0x65, 0x09,
  0x2f, 0x3d, 0x4a, 0xb7, 0x05, 0x3d, 0xef, 0xc8, 0x41, 0xbe, 0xd0, 0xea, 0xe3,
  0xbc, 0x7f, 0x1b, 0x0c, 0xbd, 0x11, 0x58, 0x4e, 0xbc, 0x51, 0x62, 0x5a, 0x3c,
  0xdf, 0x39, 0x34, 0x3e, 0x4f, 0x0d, 0xd4, 0xbb, 0x14, 0xf1, 0xd0, 0x3c, 0x65,
  0x7d, 0x9b, 0xbd, 0xaf, 0xa2, 0xd1, 0x3d, 0x39, 0x32, 0x3b, 0x3e, 0x5c, 0xc9,
  0xa0, 0xbd, 0x1b, 0x77, 0x1a, 0xbc, 0x2f, 0x8a, 0x73, 0xbb, 0x01, 0x98, 0x1c,
  0x3d, 0x69, 0xe2, 0x1c, 0xbf, 0x90, 0x8c, 0xa6, 0x3f, 0x44, 0x09, 0x40, 0x3e,
  0x6d, 0x86, 0x35, 0x3d, 0xe5, 0x0f, 0xf5, 0xbd, 0xc1, 0x06, 0x31, 0xbc, 0x87,
  0x5f, 0x24, 0xbf, 0xf4, 0x21, 0x32, 0x3d, 0x3a, 0x1d, 0xc9, 0xb9, 0x62, 0x4f,
  0x89, 0x3b, 0x8a, 0x11, 0x0b, 0x3d, 0x56, 0xf9, 0x5f, 0xbd, 0x57, 0xca, 0x89,
  0x3d, 0x3d, 0x7a, 0x22, 0x3f, 0x24, 0x59, 0x4b, 0xbe, 0x79, 0x5c, 0x0a, 0xbf,
  0x91, 0x3d, 0x5f, 0x3d, 0xfd, 0x53, 0x0e, 0xbe, 0x1c, 0xcd, 0xae, 0xbf, 0xd4,
  0x6f, 0x1a, 0xbf, 0x1a, 0xe4, 0xff, 0xff, 0x04, 0x00, 0x00, 0x00, 0x20, 0x01,
  0x00, 0x00, 0x60, 0x01, 0x18, 0xbf, 0x72, 0x98, 0x85, 0x3e, 0xc3, 0xd2, 0x9a,
  0x3e, 0x9c, 0xd1, 0x3e, 0x3d, 0x79, 0xa4, 0x82, 0x3e, 0x0a, 0x60, 0x02, 0xbd,
  0xfc, 0x94, 0x09, 0x3e, 0xc8, 0xab, 0xbb, 0x3c, 0x57, 0xd8, 0x0e, 0xbf, 0x42,
  0x15, 0x06, 0x3f, 0x3c, 0x8f, 0x41, 0x3e, 0x32, 0x18, 0x1c, 0xbd, 0xd1, 0x28,
  0xff, 0x3d, 0x3d, 0x3a, 0x34, 0xbd, 0x18, 0x6d, 0x1b, 0x3e, 0x4a, 0xaa, 0x9f,
  0xba, 0xbe, 0x0e, 0xa3, 0xbc, 0x5c, 0x12, 0xb3, 0x3d, 0xb8, 0x6d, 0x3c, 0xbe,
  0x64, 0x8d, 0x0f, 0xbd, 0xe7, 0x99, 0x35, 0x3e, 0xd2, 0x56, 0xdc, 0xbb, 0xcc,
  0x0b, 0xf9, 0x3d, 0x62, 0x92, 0xf6, 0xbb, 0x68, 0x35, 0x3b, 0xbd, 0xcd, 0x2c,
  0x2a, 0xbd, 0xaa, 0xca, 0xb4, 0xbe, 0x1a, 0x4b, 0x03, 0xbe, 0xc9, 0x8e, 0x0a,
  0xbe, 0x90, 0xd0, 0xa0, 0x3d, 0x73, 0xa1, 0x04, 0x3d, 0x40, 0x5a, 0xf5, 0x3d,
  0xf8, 0x60, 0xfa, 0x3d, 0xf7, 0xa5, 0x7a, 0xbd, 0x8e, 0xdc, 0xd8, 0x3d, 0xda,
  0x47, 0x00, 0xbe, 0x88, 0x97, 0x8a, 0xbe, 0x95, 0xad, 0x38, 0xbe, 0xcd, 0xfa,
  0x76, 0x3d, 0xc8, 0xeb, 0x87, 0x3e, 0x27, 0xda, 0xa7, 0x3d, 0xfc, 0xb1, 0x1f,
  0xbd, 0x3a, 0x82, 0x9d, 0x3e, 0x64, 0xd0, 0xc4, 0xbd, 0xc1, 0x01, 0xa9, 0xbc,
  0x4a, 0x9c, 0xdb, 0xbd, 0xd6, 0xab, 0x46, 0x3d, 0x98, 0xa1, 0x89, 0x3b, 0xa0,
  0x86, 0xcf, 0x3d, 0xae, 0x77, 0xa4, 0x3d, 0xba, 0x1a, 0x39, 0x3e, 0xa4, 0x19,
  0xbf, 0x3d, 0x2c, 0x07, 0x3e, 0x3e, 0x69, 0xe4, 0xd4, 0xbd, 0x2a, 0x16, 0xb2,
  0x3d, 0xa6, 0xae, 0x72, 0xbc, 0x17, 0x9b, 0x29, 0xbd, 0x8a, 0x87, 0x27, 0xba,
  0x1a, 0x33, 0xa7, 0xbf, 0xc0, 0xb3, 0x29, 0xbe, 0xfb, 0x78, 0x11, 0x3e, 0x0b,
  0x24, 0x2a, 0xbd, 0x4b, 0x82, 0x95, 0x3c, 0xe6, 0xef, 0x95, 0x3e, 0x18, 0x85,
  0xdf, 0xbd, 0x6b, 0xa8, 0x60, 0x3d, 0x2e, 0x51, 0xf4, 0xbe, 0x05, 0x3f, 0xa0,
  0x3d, 0x2e, 0xd2, 0x14, 0x3e, 0xe4, 0xa5, 0x6b, 0xbd, 0x47, 0x4f, 0x9f, 0x3d,
  0xe9, 0xf4, 0x6f, 0x3d, 0x46, 0xe5, 0xff, 0xff, 0x04, 0x00, 0x00, 0x00, 0x80,
  0x00, 0x00, 0x00, 0x34, 0xab, 0xa0, 0xbb, 0xab, 0xb1, 0x81, 0xbe, 0x1f, 0x81,
  0x36, 0x3e, 0xcd, 0x3c, 0x5f, 0xbd, 0x68, 0xc3, 0xfe, 0xbd, 0xd1, 0x72, 0xcc,
  0xbd, 0x64, 0xb4, 0x15, 0xbe, 0x51, 0xe1, 0x53, 0x3c, 0x35, 0xc6, 0x41, 0x3a,
  0xbd, 0x29, 0x5f, 0x3b, 0xd3, 0xc7, 0xa8, 0x3c, 0x90, 0xd8, 0x67, 0xbb, 0xe1,
  0xd8, 0xbb, 0xbd, 0xf8, 0x07, 0x17, 0x3c, 0xa6, 0x6a, 0x77, 0xbe, 0x11, 0xd1,
  0xf8, 0x3c, 0xdc, 0x53, 0x75, 0xbc, 0x23, 0x70, 0xa5, 0xbb, 0xfa, 0x9a, 0x69,
  0x39, 0x19, 0xd2, 0x95, 0x3e, 0x88, 0x8c, 0x4a, 0xbb, 0x08, 0x57, 0x27, 0x3c,
  0x77, 0x4f, 0x01, 0xbc, 0x57, 0x8a, 0xb8, 0xbe, 0x65, 0x41, 0x2f, 0xbe, 0xa2,
  0x90, 0x91, 0xbc, 0x91, 0x50, 0x24, 0xbc, 0xd6, 0x56, 0xfa, 0xb9, 0xa2, 0x7b,
  0xae, 0x3c, 0xf6, 0x5a, 0x2b, 0xbc, 0xda, 0xa3, 0x8c, 0xbe, 0xa5, 0xec, 0xc4,
  0x3b, 0xd2, 0xe5, 0xff, 0xff, 0x04, 0x00, 0x00, 0x00, 0x20, 0x00, 0x00, 0x00,
  0x00, 0x00, 0x00, 0x00, 0x00, 0x00, 0x00, 0x00, 0x00, 0x00, 0x00, 0x00, 0x00,
  0x00, 0x00, 0x00, 0x00, 0x00, 0x00, 0x00, 0x00, 0x00, 0x00, 0x00, 0x00, 0x00,
  0x00, 0x00, 0x00, 0x00, 0x00, 0x00, 0xfe, 0xe5, 0xff, 0xff, 0x04, 0x00, 0x00,
  0x00, 0x90, 0x00, 0x00, 0x00, 0xac, 0x12, 0x54, 0x3d, 0xf7, 0x45, 0x66, 0xbc,
  0xce, 0xa3, 0xa3, 0x3a, 0x28, 0x0c, 0x62, 0x3c, 0x2b, 0x7d, 0xc8, 0xbe, 0xcf,
  0x3d, 0x15, 0x3c, 0xd5, 0x46, 0x3d, 0x3d, 0xc8, 0xcf, 0x3a, 0x3d, 0xa7, 0xbd,
  0x87, 0x3d, 0xff, 0x4e, 0x93, 0x3b, 0x55, 0xec, 0xb6, 0xbb, 0xc5, 0x98, 0x59,
  0xbd, 0x7d, 0x5f, 0x54, 0xbd, 0xe1, 0xae, 0xe0, 0x3c, 0x87, 0xd7, 0x01, 0x3c,
  0xa0, 0x54, 0xe4, 0xbd, 0x20, 0x81, 0x23, 0xbd, 0xb6, 0xae, 0xb8, 0x3c, 0x82,
  0x91, 0x8a, 0xbe, 0x26, 0x43, 0x94, 0xbd, 0xbf, 0xfe, 0x08, 0xbe, 0xd5, 0x21,
  0x02, 0xbd, 0x08, 0xaf, 0x69, 0x3d, 0x58, 0x2b, 0x35, 0x3e, 0x75, 0xcc, 0xc4,
  0x3b, 0xc5, 0x43, 0x0e, 0x3c, 0xc6, 0x6b, 0xbe, 0xbc, 0x7e, 0xbc, 0x06, 0xbe,
  0x30, 0x41, 0xe7, 0x3e, 0x9d, 0x5f, 0x57, 0x3d, 0x53, 0x58, 0x53, 0x3d, 0xc0,
  0x11, 0xc6, 0x3c, 0xa7, 0x55, 0x67, 0x3d, 0x9a, 0x6c, 0x85, 0x3d, 0x5c, 0xb3,
  0x09, 0xbd, 0x8e, 0xff, 0xce, 0x3d, 0x9a, 0xe6, 0xff, 0xff, 0x04, 0x00, 0x00,
  0x00, 0x40, 0x00, 0x00, 0x00, 0x90, 0x71, 0xca, 0x40, 0x7b, 0x0a, 0x1b, 0x3c,
  0x60, 0x3e, 0x17, 0xbc, 0x10, 0x87, 0xc8, 0x3f, 0x73, 0x68, 0x19, 0xc1, 0x2f,
  0x5d, 0x07, 0xbd, 0x93, 0x2d, 0x23, 0xbd, 0x62, 0x14, 0x0f, 0x41, 0x85, 0xdb,
  0x25, 0xc0, 0x36, 0xb8, 0x10, 0x3c, 0xd0, 0x11, 0x6e, 0xbc, 0x9e, 0x2e, 0xdf,
  0x3f, 0x93, 0xc6, 0xff, 0x40, 0x2f, 0x86, 0xa5, 0xbc, 0xec, 0x5b, 0xee, 0xbc,
  0x0c, 0x1d, 0xdc, 0xbe, 0xe6, 0xe6, 0xff, 0xff, 0x04, 0x00, 0x00, 0x00, 0x90,
  0x00, 0x00, 0x00, 0xff, 0x0d, 0xc1, 0x3f, 0x02, 0xa4, 0x0e, 0xc1, 0x87, 0x6f,
  0x11, 0x3f, 0x18, 0xd3, 0x66, 0x3f, 0xc0, 0x9d, 0xd6, 0xc0, 0xcf, 0x65, 0x26,
  0x41, 0x08, 0x1c, 0x3e, 0xc1, 0x0f, 0x0f, 0x79, 0xc0, 0xb1, 0x53, 0xc0, 0x40,
  0x6d, 0xba, 0x45, 0xc0, 0xf6, 0xe0, 0xba, 0x40, 0xf9, 0xcd, 0x12, 0x40, 0x58,
  0x74, 0xb8, 0xbe, 0x8d, 0xe4, 0xd8, 0xc0, 0x2b, 0x20, 0x27, 0xc1, 0x73, 0xe0,
  0x85, 0xbf, 0xb4, 0x1f, 0xa4, 0x40, 0x4c, 0x79, 0xa3, 0x40, 0x09, 0x87, 0xf6,
  0xc0, 0xb9, 0x8a, 0xc1, 0xbf, 0x29, 0x79, 0x08, 0x40, 0xe9, 0xbc, 0x24, 0x40,
  0x81, 0x1a, 0xc0, 0x40, 0x18, 0xdb, 0xda, 0x3e, 0x45, 0x43, 0xd8, 0xbf, 0x4d,
  0x50, 0x19, 0xc0, 0x22, 0x12, 0xb6, 0xc0, 0xbb, 0xd2, 0xac, 0xbf, 0x9d, 0x0b,
  0x0c, 0xc0, 0x9b, 0xfb, 0x99, 0x41, 0xfd, 0xb4, 0x05, 0xc1, 0x41, 0xa2, 0x95,
  0xc0, 0xfb, 0x59, 0x2b, 0xc0, 0xdf, 0xe9, 0x84, 0x41, 0x66, 0xf1, 0x8e, 0xc0,
  0xea, 0x8e, 0x6a, 0xc0, 0x82, 0xe7, 0xff, 0xff, 0x04, 0x00, 0x00, 0x00, 0x10,
  0x00, 0x00, 0x00, 0x8f, 0x66, 0xce, 0xbd, 0xb4, 0xa5, 0xd9, 0x41, 0xec, 0xb7,
  0x90, 0x41, 0xcf, 0xcf, 0x61, 0xbe, 0x9e, 0xe7, 0xff, 0xff, 0x04, 0x00, 0x00,
  0x00, 0x10, 0x00, 0x00, 0x00, 0x00, 0x00, 0x00, 0x00, 0x00, 0x00, 0x00, 0x00,
  0x00, 0x00, 0x00, 0x00, 0x00, 0x00, 0x00, 0x00, 0xba, 0xe7, 0xff, 0xff, 0x04,
  0x00, 0x00, 0x00, 0x24, 0x00, 0x00, 0x00, 0x49, 0x35, 0xa5, 0x40, 0x32, 0xb0,
  0xbf, 0x42, 0x40, 0x94, 0x8c, 0x42, 0x3b, 0x33, 0x87, 0xc1, 0xda, 0x05, 0x6f,
  0x42, 0x4d, 0x87, 0x87, 0xc2, 0x4c, 0x2a, 0xda, 0x3e, 0xba, 0xe1, 0x4d, 0xc1,
  0xd5, 0x01, 0x5b, 0x41, 0xea, 0xe7, 0xff, 0xff, 0x04, 0x00, 0x00, 0x00, 0x04,
  0x00, 0x00, 0x00, 0x00, 0x00, 0x00, 0x00, 0xfa, 0xe7, 0xff, 0xff, 0x04, 0x00,
  0x00, 0x00, 0x08, 0x00, 0x00, 0x00, 0xa3, 0x5e, 0xf5, 0x41, 0x3a, 0x66, 0xea,
  0xc0, 0x0e, 0xe8, 0xff, 0xff, 0x04, 0x00, 0x00, 0x00, 0x10, 0x00, 0x00, 0x00,
  0x7e, 0xf1, 0xd1, 0xbf, 0xc4, 0x2b, 0xec, 0x3a, 0x22, 0xa5, 0x11, 0x42, 0x87,
  0xde, 0xa9, 0xc0, 0x2a, 0xe8, 0xff, 0xff, 0x04, 0x00, 0x00, 0x00, 0x10, 0x00,
  0x00, 0x00, 0xb3, 0x52, 0x78, 0xc0, 0x67, 0x54, 0xaa, 0x3e, 0x86, 0x6b, 0x03,
  0xc1, 0xb4, 0x49, 0x53, 0x3f, 0x46, 0xe8, 0xff, 0xff, 0x04, 0x00, 0x00, 0x00,
  0x10, 0x00, 0x00, 0x00, 0x7c, 0xfb, 0xdc, 0x3f, 0x10, 0xec, 0x46, 0xc1, 0x98,
  0xeb, 0x0a, 0x40, 0xfe, 0x06, 0x1b, 0x40, 0x62, 0xe8, 0xff, 0xff, 0x04, 0x00,
  0x00, 0x00, 0x20, 0x00, 0x00, 0x00, 0xba, 0x73, 0x8b, 0xbf, 0x36, 0xf6, 0xf8,
  0x3f, 0xde, 0xdb, 0x46, 0x40, 0x0e, 0x6f, 0x9e, 0xc0, 0x96, 0xbf, 0xfa, 0xc0,
  0xa0, 0x1c, 0x14, 0x40, 0xd4, 0x5b, 0xe9, 0x3f, 0x13, 0x1b, 0xdf, 0xbf, 0x8e,
  0xe8, 0xff, 0xff, 0x04, 0x00, 0x00, 0x00, 0x20, 0x00, 0x00, 0x00, 0xbb, 0x1c,
  0x06, 0xbf, 0x9d, 0x2c, 0x9e, 0x3e, 0xae, 0x40, 0x9e, 0x3e, 0xde, 0x8e, 0xc0,
  0xbe, 0x13, 0xb2, 0xb5, 0xbc, 0x55, 0x26, 0x8d, 0x40, 0xfa, 0xf5, 0xfd, 0xbd,
  0x2d, 0x14, 0xab, 0xbf, 0xba, 0xe8, 0xff, 0xff, 0x04, 0x00, 0x00, 0x00, 0x20,
  0x00, 0x00, 0x00, 0xf9, 0x3d, 0x88, 0x3e, 0xd1, 0x71, 0x5e, 0xbf, 0x65, 0xc2,
  0x0c, 0x40, 0x30, 0x77, 0xa0, 0x3f, 0xb2, 0xbe, 0x6a, 0x3f, 0xdb, 0x51, 0x9a,
  0x3f, 0x79, 0x19, 0x09, 0xbf, 0x8d, 0x1c, 0x24, 0xbf, 0xe6, 0xe8, 0xff, 0xff,
  0x04, 0x00, 0x00, 0x00, 0x20, 0x00, 0x00, 0x00, 0xc5, 0xb7, 0xcd, 0xbd, 0x76,
  0xc5, 0x72, 0x3e, 0xde, 0x17, 0x45, 0x3f, 0xaa, 0xb8, 0x63, 0x3f, 0xb0, 0x0a,
  0x8b, 0xbd, 0x1a, 0x79, 0xe4, 0x3e, 0x1c, 0x9c, 0x0b, 0x40, 0x33, 0x1c, 0xc1,
  0x3f, 0x12, 0xe9, 0xff, 0xff, 0x04, 0x00, 0x00, 0x00, 0x20, 0x00, 0x00, 0x00,
  0x01, 0xaf, 0x7d, 0xbf, 0xf2, 0x0b, 0x2f, 0xbf, 0xc1, 0xb5, 0x2d, 0xbf, 0xb2,
  0xdd, 0xcd, 0x3e, 0xc5, 0x12, 0x9a, 0x3f, 0x20, 0x4c, 0x1b, 0x3e, 0x28, 0x92,
  0xb5, 0x3f, 0x2c, 0xcd, 0xb1, 0x3e, 0x3e, 0xe9, 0xff, 0xff, 0x04, 0x00, 0x00,
  0x00, 0x20, 0x00, 0x00, 0x00, 0x70, 0x27, 0x77, 0xbc, 0x3a, 0x18, 0x12, 0xbc,
  0x67, 0x54, 0x88, 0xbc, 0x89, 0x9e, 0x74, 0xbc, 0xb0, 0xc1, 0x76, 0xbc, 0x39,
  0xaa, 0x73, 0xbc, 0xbf, 0x73, 0x44, 0xbc, 0x1b, 0x11, 0xe5, 0xbc, 0x6a, 0xe9,
  0xff, 0xff, 0x04, 0x00, 0x00, 0x00, 0x18, 0x00, 0x00, 0x00, 0x53, 0xac, 0x5a,
  0xbc, 0x41, 0xeb, 0x74, 0xbc, 0x4d, 0xa4, 0x69, 0xbc, 0x58, 0xe5, 0x31, 0xbc,
  0x41, 0xb7, 0x89, 0x3b, 0xce, 0x39, 0x57, 0xbc, 0x8e, 0xe9, 0xff, 0xff, 0x04,
  0x00, 0x00, 0x00, 0x18, 0x00, 0x00, 0x00, 0xbf, 0xa7, 0x58, 0x3d, 0x09, 0xb5,
  0x37, 0xbc, 0x97, 0x70, 0x4a, 0xbc, 0xa1, 0x10, 0x57, 0xbc, 0x76, 0xfb, 0x6f,
  0xbc, 0x0f, 0x72, 0x66, 0xbc, 0xb2, 0xe9, 0xff, 0xff, 0x04, 0x00, 0x00, 0x00,
  0x18, 0x00, 0x00, 0x00, 0x1a, 0x77, 0x4c, 0xbb, 0xad, 0x89, 0xb9, 0x3c, 0x4a,
  0x1f, 0x1b, 0x3c, 0xce, 0x95, 0x87, 0x3c, 0x83, 0xd5, 0x43, 0xbc, 0x7e, 0xba,
  0x07, 0xbc, 0xd6, 0xe9, 0xff, 0xff, 0x04, 0x00, 0x00, 0x00, 0x18, 0x00, 0x00,
  0x00, 0xc9, 0x01, 0x1b, 0xbc, 0x47, 0xbe, 0xb7, 0xbb, 0x8b, 0x65, 0x0a, 0xbc,
  0x8e, 0xde, 0xc7, 0xbb, 0xd1, 0x83, 0x36, 0xbc, 0x11, 0xcb, 0x9e, 0xbb, 0xfa,
  0xe9, 0xff, 0xff, 0x04, 0x00, 0x00, 0x00, 0x18, 0x00, 0x00, 0x00, 0x98, 0x9a,
  0x4f, 0xbb, 0xb6, 0xce, 0xd6, 0xbb, 0x87, 0x33, 0x5e, 0xbb, 0x0e, 0x33, 0x43,
  0xbc, 0x92, 0x20, 0x2a, 0xbc, 0x04, 0xa8, 0xaf, 0x3b, 0x1e, 0xea, 0xff, 0xff,
  0x04, 0x00, 0x00, 0x00, 0x20, 0x00, 0x00, 0x00, 0x91, 0x5a, 0x3d, 0x3f, 0x41,
  0xb8, 0x1c, 0x3f, 0x6b, 0x90, 0xa6, 0x3e, 0x8a, 0xec, 0xb6, 0xbe, 0xa1, 0x75,
  0x2e, 0xbd, 0x50, 0x1a, 0x11, 0x3f, 0xcc, 0xaf, 0x43, 0x3f, 0xb2, 0x60, 0x93,
  0xbf, 0x4a, 0xea, 0xff, 0xff, 0x04, 0x00, 0x00, 0x00, 0x20, 0x00, 0x00, 0x00,
  0x22, 0xd8, 0x2d, 0xbe, 0xa2, 0x74, 0x82, 0x3f, 0xb6, 0xcd, 0x5f, 0xbf, 0xfb,
  0x5a, 0x28, 0xbf, 0xf5, 0xe0, 0x88, 0xbd, 0x7a, 0x9e, 0x8b, 0xbe, 0xb8, 0x19,
  0x1c, 0xbf, 0x1a, 0x03, 0x90, 0x3f, 0x76, 0xea, 0xff, 0xff, 0x04, 0x00, 0x00,
  0x00, 0x20, 0x00, 0x00, 0x00, 0xc9, 0xf2, 0x33, 0xbf, 0xf7, 0x76, 0x37, 0xbf,
  0xbe, 0xa6, 0xf8, 0xbf, 0x97, 0x15, 0xcc, 0x3f, 0x4e, 0x62, 0xb8, 0xbf, 0x65,
  0xd9, 0x10, 0x40, 0xdf, 0xff, 0x8c, 0x40, 0x46, 0x62, 0x85, 0xbe, 0xa2, 0xea,
  0xff, 0xff, 0x04, 0x00, 0x00, 0x00, 0x20, 0x00, 0x00, 0x00, 0x4c, 0xc8, 0xa2,
  0x40, 0x9a, 0x79, 0xdb, 0x3e, 0x11, 0xc0, 0x2c, 0x40, 0x82, 0x61, 0x01, 0xc0,
  0x8f, 0xec, 0xc3, 0x3f, 0xa5, 0xa3, 0xe9, 0x3f, 0x64, 0xd6, 0x6f, 0xbf, 0x2e,
  0x50, 0xfe, 0xbf, 0xce, 0xea, 0xff, 0xff, 0x04, 0x00, 0x00, 0x00, 0x10, 0x00,
  0x00, 0x00, 0x9f, 0xf9, 0x87, 0xc1, 0x93, 0x90, 0x01, 0xc1, 0x71, 0xb3, 0x17,
  0x41, 0xf6, 0x94, 0x3d, 0x41, 0xea, 0xea, 0xff, 0xff, 0x04, 0x00, 0x00, 0x00,
  0x10, 0x00, 0x00, 0x00, 0xb8, 0x2c, 0x65, 0x41, 0xcc, 0xde, 0x9f, 0x3e, 0x88,
  0x51, 0xc7, 0x40, 0xff, 0x2d, 0xdf, 0x40, 0x28, 0x99, 0xff, 0xff, 0x2c, 0x99,
  0xff, 0xff, 0x0f, 0x00, 0x00, 0x00, 0x4d, 0x4c, 0x49, 0x52, 0x20, 0x43, 0x6f,
  0x6e, 0x76, 0x65, 0x72, 0x74, 0x65, 0x64, 0x2e, 0x00, 0x01, 0x00, 0x00, 0x00,
  0x14, 0x00, 0x00, 0x00, 0x00, 0x00, 0x0e, 0x00, 0x18, 0x00, 0x14, 0x00, 0x10,
  0x00, 0x0c, 0x00, 0x08, 0x00, 0x04, 0x00, 0x0e, 0x00, 0x00, 0x00, 0x14, 0x00,
  0x00, 0x00, 0x1c, 0x00, 0x00, 0x00, 0x2c, 0x15, 0x00, 0x00, 0x30, 0x15, 0x00,
  0x00, 0x34, 0x15, 0x00, 0x00, 0x04, 0x00, 0x00, 0x00, 0x6d, 0x61, 0x69, 0x6e,
  0x00, 0x00, 0x00, 0x00, 0x53, 0x00, 0x00, 0x00, 0xdc, 0x14, 0x00, 0x00, 0x80,
  0x14, 0x00, 0x00, 0x3c, 0x14, 0x00, 0x00, 0xe8, 0x13, 0x00, 0x00, 0x94, 0x13,
  0x00, 0x00, 0x60, 0x13, 0x00, 0x00, 0x18, 0x13, 0x00, 0x00, 0xd0, 0x12, 0x00,
  0x00, 0x80, 0x12, 0x00, 0x00, 0x4c, 0x12, 0x00, 0x00, 0x1c, 0x12, 0x00, 0x00,
  0xd8, 0x11, 0x00, 0x00, 0x90, 0x11, 0x00, 0x00, 0x48, 0x11, 0x00, 0x00, 0x14,
  0x11, 0x00, 0x00, 0xcc, 0x10, 0x00, 0x00, 0x84, 0x10, 0x00, 0x00, 0x44, 0x10,
  0x00, 0x00, 0x10, 0x10, 0x00, 0x00, 0xe0, 0x0f, 0x00, 0x00, 0x9c, 0x0f, 0x00,
  0x00, 0x54, 0x0f, 0x00, 0x00, 0x0c, 0x0f, 0x00, 0x00, 0xd8, 0x0e, 0x00, 0x00,
  0x90, 0x0e, 0x00, 0x00, 0x48, 0x0e, 0x00, 0x00, 0x08, 0x0e, 0x00, 0x00, 0xd4,
  0x0d, 0x00, 0x00, 0xa4, 0x0d, 0x00, 0x00, 0x60, 0x0d, 0x00, 0x00, 0x18, 0x0d,
  0x00, 0x00, 0xd0, 0x0c, 0x00, 0x00, 0x9c, 0x0c, 0x00, 0x00, 0x54, 0x0c, 0x00,
  0x00, 0x0c, 0x0c, 0x00, 0x00, 0xcc, 0x0b, 0x00, 0x00, 0x88, 0x0b, 0x00, 0x00,
  0x54, 0x0b, 0x00, 0x00, 0x0c, 0x0b, 0x00, 0x00, 0xc4, 0x0a, 0x00, 0x00, 0x8c,
  0x0a, 0x00, 0x00, 0x58, 0x0a, 0x00, 0x00, 0x10, 0x0a, 0x00, 0x00, 0xc8, 0x09,
  0x00, 0x00, 0x94, 0x09, 0x00, 0x00, 0x4c, 0x09, 0x00, 0x00, 0x04, 0x09, 0x00,
  0x00, 0xcc, 0x08, 0x00, 0x00, 0x98, 0x08, 0x00, 0x00, 0x50, 0x08, 0x00, 0x00,
  0x08, 0x08, 0x00, 0x00, 0xd0, 0x07, 0x00, 0x00, 0x9c, 0x07, 0x00, 0x00, 0x54,
  0x07, 0x00, 0x00, 0x0c, 0x07, 0x00, 0x00, 0xd8, 0x06, 0x00, 0x00, 0x90, 0x06,
  0x00, 0x00, 0x48, 0x06, 0x00, 0x00, 0x10, 0x06, 0x00, 0x00, 0xdc, 0x05, 0x00,
  0x00, 0x94, 0x05, 0x00, 0x00, 0x4c, 0x05, 0x00, 0x00, 0x14, 0x05, 0x00, 0x00,
  0xe0, 0x04, 0x00, 0x00, 0x98, 0x04, 0x00, 0x00, 0x50, 0x04, 0x00, 0x00, 0x1c,
  0x04, 0x00, 0x00, 0xd4, 0x03, 0x00, 0x00, 0x8c, 0x03, 0x00, 0x00, 0x54, 0x03,
  0x00, 0x00, 0x20, 0x03, 0x00, 0x00, 0xd8, 0x02, 0x00, 0x00, 0x90, 0x02, 0x00,
  0x00, 0x58, 0x02, 0x00, 0x00, 0x24, 0x02, 0x00, 0x00, 0xdc, 0x01, 0x00, 0x00,
  0x94, 0x01, 0x00, 0x00, 0x60, 0x01, 0x00, 0x00, 0x18, 0x01, 0x00, 0x00, 0xd0,
  0x00, 0x00, 0x00, 0x9c, 0x00, 0x00, 0x00, 0x54, 0x00, 0x00, 0x00, 0x04, 0x00,
  0x00, 0x00, 0xd6, 0xec, 0xff, 0xff, 0x20, 0x00, 0x00, 0x00, 0x00, 0x00, 0x00,
  0x01, 0x28, 0x00, 0x00, 0x00, 0x2c, 0x00, 0x00, 0x00, 0x04, 0x00, 0x00, 0x00,
  0x00, 0x00, 0x0a, 0x00, 0x10, 0x00, 0x0f, 0x00, 0x08, 0x00, 0x04, 0x00, 0x0a,
  0x00, 0x00, 0x00, 0x01, 0x00, 0x00, 0x00, 0x01, 0x00, 0x00, 0x00, 0x00, 0x00,
  0x00, 0x01, 0x01, 0x00, 0x00, 0x00, 0xa3, 0x00, 0x00, 0x00, 0x03, 0x00, 0x00,
  0x00, 0xa2, 0x00, 0x00, 0x00, 0x45, 0x00, 0x00, 0x00, 0x15, 0x00, 0x00, 0x00,
  0x22, 0xed, 0xff, 0xff, 0x14, 0x00, 0x00, 0x00, 0x00, 0x00, 0x00, 0x02, 0x20,
  0x00, 0x00, 0x00, 0x24, 0x00, 0x00, 0x00, 0x03, 0x00, 0x00, 0x00, 0xa4, 0xed,
  0xff, 0xff, 0x01, 0x00, 0x00, 0x00, 0x01, 0x00, 0x00, 0x00, 0x01, 0x00, 0x00,
  0x00, 0x00, 0x00, 0x00, 0x01, 0x01, 0x00, 0x00, 0x00, 0xa2, 0x00, 0x00, 0x00,
  0x03, 0x00, 0x00, 0x00, 0xa1, 0x00, 0x00, 0x00, 0x44, 0x00, 0x00, 0x00, 0x18,
  0x00, 0x00, 0x00, 0x66, 0xed, 0xff, 0xff, 0x14, 0x00, 0x00, 0x00, 0x00, 0x00,
  0x00, 0x16, 0x10, 0x00, 0x00, 0x00, 0x14, 0x00, 0x00, 0x00, 0x02, 0x00, 0x00,
  0x00, 0x78, 0x9b, 0xff, 0xff, 0x01, 0x00, 0x00, 0x00, 0xa1, 0x00, 0x00, 0x00,
  0x02, 0x00, 0x00, 0x00, 0xa0, 0x00, 0x00, 0x00, 0x47, 0x00, 0x00, 0x00, 0x96,
  0xed, 0xff, 0xff, 0x14, 0x00, 0x00, 0x00, 0x00, 0x00, 0x00, 0x01, 0x20, 0x00,
  0x00, 0x00, 0x24, 0x00, 0x00, 0x00, 0x04, 0x00, 0x00, 0x00, 0x68, 0xee, 0xff,
  0xff, 0x00, 0x00, 0x00, 0x01, 0x01, 0x00, 0x00, 0x00, 0x01, 0x00, 0x00, 0x00,
  0x00, 0x00, 0x00, 0x01, 0x01, 0x00, 0x00, 0x00, 0xa0, 0x00, 0x00, 0x00, 0x03,
  0x00, 0x00, 0x00, 0x9f, 0x00, 0x00, 0x00, 0x43, 0x00, 0x00, 0x00, 0x14, 0x00,
  0x00, 0x00, 0xda, 0xed, 0xff, 0xff, 0x14, 0x00, 0x00, 0x00, 0x00, 0x00, 0x00,
  0x02, 0x20, 0x00, 0x00, 0x00, 0x24, 0x00, 0x00, 0x00, 0x03, 0x00, 0x00, 0x00,
  0x5c, 0xee, 0xff, 0xff, 0x01, 0x00, 0x00, 0x00, 0x01, 0x00, 0x00, 0x00, 0x01,
  0x00, 0x00, 0x00, 0x00, 0x00, 0x00, 0x01, 0x01, 0x00, 0x00, 0x00, 0x9f, 0x00,
  0x00, 0x00, 0x03, 0x00, 0x00, 0x00, 0x9e, 0x00, 0x00, 0x00, 0x42, 0x00, 0x00,
  0x00, 0x18, 0x00, 0x00, 0x00, 0x1e, 0xee, 0xff, 0xff, 0x14, 0x00, 0x00, 0x00,
  0x00, 0x00, 0x00, 0x16, 0x10, 0x00, 0x00, 0x00, 0x14, 0x00, 0x00, 0x00, 0x02,
  0x00, 0x00, 0x00, 0x30, 0x9c, 0xff, 0xff, 0x01, 0x00, 0x00, 0x00, 0x9e, 0x00,
  0x00, 0x00, 0x02, 0x00, 0x00, 0x00, 0x9d, 0x00, 0x00, 0x00, 0x47, 0x00, 0x00,
  0x00, 0x4e, 0xee, 0xff, 0xff, 0x14, 0x00, 0x00, 0x00, 0x00, 0x00, 0x00, 0x01,
  0x20, 0x00, 0x00, 0x00, 0x24, 0x00, 0x00, 0x00, 0x04, 0x00, 0x00, 0x00, 0x20,
  0xef, 0xff, 0xff, 0x00, 0x00, 0x00, 0x01, 0x01, 0x00, 0x00, 0x00, 0x01, 0x00,
  0x00, 0x00, 0x00, 0x00, 0x00, 0x01, 0x01, 0x00, 0x00, 0x00, 0x9d, 0x00, 0x00,
  0x00, 0x03, 0x00, 0x00, 0x00, 0x9c, 0x00, 0x00, 0x00, 0x41, 0x00, 0x00, 0x00,
  0x13, 0x00, 0x00, 0x00, 0x92, 0xee, 0xff, 0xff, 0x14, 0x00, 0x00, 0x00, 0x00,
  0x00, 0x00, 0x02, 0x20, 0x00, 0x00, 0x00, 0x24, 0x00, 0x00, 0x00, 0x03, 0x00,
  0x00, 0x00, 0x14, 0xef, 0xff, 0xff, 0x01, 0x00, 0x00, 0x00, 0x01, 0x00, 0x00,
  0x00, 0x01, 0x00, 0x00, 0x00, 0x00, 0x00, 0x00, 0x01, 0x01, 0x00, 0x00, 0x00,
  0x9c, 0x00, 0x00, 0x00, 0x03, 0x00, 0x00, 0x00, 0x9b, 0x00, 0x00, 0x00, 0x40,
  0x00, 0x00, 0x00, 0x1d, 0x00, 0x00, 0x00, 0xd6, 0xee, 0xff, 0xff, 0x14, 0x00,
  0x00, 0x00, 0x00, 0x00, 0x00, 0x16, 0x10, 0x00, 0x00, 0x00, 0x14, 0x00, 0x00,
  0x00, 0x02, 0x00, 0x00, 0x00, 0xe8, 0x9c, 0xff, 0xff, 0x01, 0x00, 0x00, 0x00,
  0x9b, 0x00, 0x00, 0x00, 0x02, 0x00, 0x00, 0x00, 0x9a, 0x00, 0x00, 0x00, 0x47,
  0x00, 0x00, 0x00, 0x06, 0xef, 0xff, 0xff, 0x14, 0x00, 0x00, 0x00, 0x00, 0x00,
  0x00, 0x0a, 0x14, 0x00, 0x00, 0x00, 0x18, 0x00, 0x00, 0x00, 0x07, 0x00, 0x00,
  0x00, 0xf6, 0xee, 0xff, 0xff, 0x03, 0x00, 0x00, 0x00, 0x01, 0x00, 0x00, 0x00,
  0x9a, 0x00, 0x00, 0x00, 0x02, 0x00, 0x00, 0x00, 0x99, 0x00, 0x00, 0x00, 0x52,
  0x00, 0x00, 0x00, 0x3a, 0xef, 0xff, 0xff, 0x14, 0x00, 0x00, 0x00, 0x00, 0x00,
  0x00, 0x01, 0x20, 0x00, 0x00, 0x00, 0x24, 0x00, 0x00, 0x00, 0x04, 0x00, 0x00,
  0x00, 0x0c, 0xf0, 0xff, 0xff, 0x00, 0x00, 0x00, 0x01, 0x01, 0x00, 0x00, 0x00,
  0x01, 0x00, 0x00, 0x00, 0x00, 0x00, 0x00, 0x01, 0x01, 0x00, 0x00, 0x00, 0x99,
  0x00, 0x00, 0x00, 0x03, 0x00, 0x00, 0x00, 0x98, 0x00, 0x00, 0x00, 0x3f, 0x00,
  0x00, 0x00, 0x12, 0x00, 0x00, 0x00, 0x7e, 0xef, 0xff, 0xff, 0x14, 0x00, 0x00,
  0x00, 0x00, 0x00, 0x00, 0x02, 0x20, 0x00, 0x00, 0x00, 0x24, 0x00, 0x00, 0x00,
  0x03, 0x00, 0x00, 0x00, 0x00, 0xf0, 0xff, 0xff, 0x01, 0x00, 0x00, 0x00, 0x01,
  0x00, 0x00, 0x00, 0x01, 0x00, 0x00, 0x00, 0x00, 0x00, 0x00, 0x01, 0x01, 0x00,
  0x00, 0x00, 0x98, 0x00, 0x00, 0x00, 0x03, 0x00, 0x00, 0x00, 0x97, 0x00, 0x00,
  0x00, 0x3e, 0x00, 0x00, 0x00, 0x1d, 0x00, 0x00, 0x00, 0xc2, 0xef, 0xff, 0xff,
  0x14, 0x00, 0x00, 0x00, 0x00, 0x00, 0x00, 0x16, 0x10, 0x00, 0x00, 0x00, 0x14,
  0x00, 0x00, 0x00, 0x02, 0x00, 0x00, 0x00, 0xd4, 0x9d, 0xff, 0xff, 0x01, 0x00,
  0x00, 0x00, 0x97, 0x00, 0x00, 0x00, 0x02, 0x00, 0x00, 0x00, 0x96, 0x00, 0x00,
  0x00, 0x47, 0x00, 0x00, 0x00, 0xf2, 0xef, 0xff, 0xff, 0x14, 0x00, 0x00, 0x00,
  0x00, 0x00, 0x00, 0x0f, 0x14, 0x00, 0x00, 0x00, 0x18, 0x00, 0x00, 0x00, 0x06,
  0x00, 0x00, 0x00, 0x50, 0xf8, 0xff, 0xff, 0x00, 0x00, 0x00, 0x01, 0x01, 0x00,
  0x00, 0x00, 0x96, 0x00, 0x00, 0x00, 0x02, 0x00, 0x00, 0x00, 0x95, 0x00, 0x00,
  0x00, 0x4b, 0x00, 0x00, 0x00, 0x26, 0xf0, 0xff, 0xff, 0x14, 0x00, 0x00, 0x00,
  0x00, 0x00, 0x00, 0x01, 0x20, 0x00, 0x00, 0x00, 0x24, 0x00, 0x00, 0x00, 0x04,
  0x00, 0x00, 0x00, 0xf8, 0xf0, 0xff, 0xff, 0x00, 0x00, 0x00, 0x01, 0x01, 0x00,
  0x00, 0x00, 0x01, 0x00, 0x00, 0x00, 0x00, 0x00, 0x00, 0x01, 0x01, 0x00, 0x00,
  0x00, 0x95, 0x00, 0x00, 0x00, 0x03, 0x00, 0x00, 0x00, 0x94, 0x00, 0x00, 0x00,
  0x3d, 0x00, 0x00, 0x00, 0x11, 0x00, 0x00, 0x00, 0x6a, 0xf0, 0xff, 0xff, 0x14,
  0x00, 0x00, 0x00, 0x00, 0x00, 0x00, 0x02, 0x20, 0x00, 0x00, 0x00, 0x24, 0x00,
  0x00, 0x00, 0x03, 0x00, 0x00, 0x00, 0xec, 0xf0, 0xff, 0xff, 0x01, 0x00, 0x00,
  0x00, 0x01, 0x00, 0x00, 0x00, 0x01, 0x00, 0x00, 0x00, 0x00, 0x00, 0x00, 0x01,
  0x01, 0x00, 0x00, 0x00, 0x94, 0x00, 0x00, 0x00, 0x03, 0x00, 0x00, 0x00, 0x93,
  0x00, 0x00, 0x00, 0x3c, 0x00, 0x00, 0x00, 0x1d, 0x00, 0x00, 0x00, 0xae, 0xf0,
  0xff, 0xff, 0x14, 0x00, 0x00, 0x00, 0x00, 0x00, 0x00, 0x16, 0x10, 0x00, 0x00,
  0x00, 0x14, 0x00, 0x00, 0x00, 0x02, 0x00, 0x00, 0x00, 0xc0, 0x9e, 0xff, 0xff,
  0x01, 0x00, 0x00, 0x00, 0x93, 0x00, 0x00, 0x00, 0x02, 0x00, 0x00, 0x00, 0x92,
  0x00, 0x00, 0x00, 0x47, 0x00, 0x00, 0x00, 0xde, 0xf0, 0xff, 0xff, 0x14, 0x00,
  0x00, 0x00, 0x00, 0x00, 0x00, 0x01, 0x20, 0x00, 0x00, 0x00, 0x24, 0x00, 0x00,
  0x00, 0x04, 0x00, 0x00, 0x00, 0xb0, 0xf1, 0xff, 0xff, 0x00, 0x00, 0x00, 0x01,
  0x01, 0x00, 0x00, 0x00, 0x01, 0x00, 0x00, 0x00, 0x00, 0x00, 0x00, 0x01, 0x01,
  0x00, 0x00, 0x00, 0x92, 0x00, 0x00, 0x00, 0x03, 0x00, 0x00, 0x00, 0x91, 0x00,
  0x00, 0x00, 0x3b, 0x00, 0x00, 0x00, 0x10, 0x00, 0x00, 0x00, 0x22, 0xf1, 0xff,
  0xff, 0x14, 0x00, 0x00, 0x00, 0x00, 0x00, 0x00, 0x02, 0x20, 0x00, 0x00, 0x00,
  0x24, 0x00, 0x00, 0x00, 0x03, 0x00, 0x00, 0x00, 0xa4, 0xf1, 0xff, 0xff, 0x01,
  0x00, 0x00, 0x00, 0x01, 0x00, 0x00, 0x00, 0x01, 0x00, 0x00, 0x00, 0x00, 0x00,
  0x00, 0x01, 0x01, 0x00, 0x00, 0x00, 0x91, 0x00, 0x00, 0x00, 0x03, 0x00, 0x00,
  0x00, 0x90, 0x00, 0x00, 0x00, 0x3a, 0x00, 0x00, 0x00, 0x33, 0x00, 0x00, 0x00,
  0x66, 0xf1, 0xff, 0xff, 0x14, 0x00, 0x00, 0x00, 0x00, 0x00, 0x00, 0x16, 0x10,
  0x00, 0x00, 0x00, 0x14, 0x00, 0x00, 0x00, 0x02, 0x00, 0x00, 0x00, 0x78, 0x9f,
  0xff, 0xff, 0x01, 0x00, 0x00, 0x00, 0x90, 0x00, 0x00, 0x00, 0x02, 0x00, 0x00,
  0x00, 0x8f, 0x00, 0x00, 0x00, 0x47, 0x00, 0x00, 0x00, 0x96, 0xf1, 0xff, 0xff,
  0x14, 0x00, 0x00, 0x00, 0x00, 0x00, 0x00, 0x0a, 0x14, 0x00, 0x00, 0x00, 0x18,
  0x00, 0x00, 0x00, 0x07, 0x00, 0x00, 0x00, 0x86, 0xf1, 0xff, 0xff, 0x03, 0x00,
  0x00, 0x00, 0x01, 0x00, 0x00, 0x00, 0x8f, 0x00, 0x00, 0x00, 0x02, 0x00, 0x00,
  0x00, 0x8e, 0x00, 0x00, 0x00, 0x5d, 0x00, 0x00, 0x00, 0xca, 0xf1, 0xff, 0xff,
  0x14, 0x00, 0x00, 0x00, 0x00, 0x00, 0x00, 0x01, 0x20, 0x00, 0x00, 0x00, 0x24,
  0x00, 0x00, 0x00, 0x04, 0x00, 0x00, 0x00, 0x9c, 0xf2, 0xff, 0xff, 0x00, 0x00,
  0x00, 0x01, 0x01, 0x00, 0x00, 0x00, 0x01, 0x00, 0x00, 0x00, 0x00, 0x00, 0x00,
  0x01, 0x01, 0x00, 0x00, 0x00, 0x8e, 0x00, 0x00, 0x00, 0x03, 0x00, 0x00, 0x00,
  0x8d, 0x00, 0x00, 0x00, 0x39, 0x00, 0x00, 0x00, 0x0f, 0x00, 0x00, 0x00, 0x0e,
  0xf2, 0xff, 0xff, 0x14, 0x00, 0x00, 0x00, 0x00, 0x00, 0x00, 0x02, 0x20, 0x00,
  0x00, 0x00, 0x24, 0x00, 0x00, 0x00, 0x03, 0x00, 0x00, 0x00, 0x90, 0xf2, 0xff,
  0xff, 0x01, 0x00, 0x00, 0x00, 0x01, 0x00, 0x00, 0x00, 0x01, 0x00, 0x00, 0x00,
  0x00, 0x00, 0x00, 0x01, 0x01, 0x00, 0x00, 0x00, 0x8d, 0x00, 0x00, 0x00, 0x03,
  0x00, 0x00, 0x00, 0x8c, 0x00, 0x00, 0x00, 0x38, 0x00, 0x00, 0x00, 0x1d, 0x00,
  0x00, 0x00, 0x52, 0xf2, 0xff, 0xff, 0x14, 0x00, 0x00, 0x00, 0x00, 0x00, 0x00,
  0x16, 0x10, 0x00, 0x00, 0x00, 0x14, 0x00, 0x00, 0x00, 0x02, 0x00, 0x00, 0x00,
  0x64, 0xa0, 0xff, 0xff, 0x01, 0x00, 0x00, 0x00, 0x8c, 0x00, 0x00, 0x00, 0x02,
  0x00, 0x00, 0x00, 0x8b, 0x00, 0x00, 0x00, 0x47, 0x00, 0x00, 0x00, 0x82, 0xf2,
  0xff, 0xff, 0x14, 0x00, 0x00, 0x00, 0x00, 0x00, 0x00, 0x0f, 0x14, 0x00, 0x00,
  0x00, 0x18, 0x00, 0x00, 0x00, 0x06, 0x00, 0x00, 0x00, 0xe0, 0xfa, 0xff, 0xff,
  0x00, 0x00, 0x00, 0x01, 0x01, 0x00, 0x00, 0x00, 0x8b, 0x00, 0x00, 0x00, 0x02,
  0x00, 0x00, 0x00, 0x8a, 0x00, 0x00, 0x00, 0x57, 0x00, 0x00, 0x00, 0xb6, 0xf2,
  0xff, 0xff, 0x14, 0x00, 0x00, 0x00, 0x00, 0x00, 0x00, 0x01, 0x20, 0x00, 0x00,
  0x00, 0x24, 0x00, 0x00, 0x00, 0x04, 0x00, 0x00, 0x00, 0x88, 0xf3, 0xff, 0xff,
  0x00, 0x00, 0x00, 0x01, 0x01, 0x00, 0x00, 0x00, 0x01, 0x00, 0x00, 0x00, 0x00,
  0x00, 0x00, 0x01, 0x01, 0x00, 0x00, 0x00, 0x8a, 0x00, 0x00, 0x00, 0x03, 0x00,
  0x00, 0x00, 0x89, 0x00, 0x00, 0x00, 0x37, 0x00, 0x00, 0x00, 0x0e, 0x00, 0x00,
  0x00, 0xfa, 0xf2, 0xff, 0xff, 0x14, 0x00, 0x00, 0x00, 0x00, 0x00, 0x00, 0x02,
  0x20, 0x00, 0x00, 0x00, 0x24, 0x00, 0x00, 0x00, 0x03, 0x00, 0x00, 0x00, 0x7c,
  0xf3, 0xff, 0xff, 0x01, 0x00, 0x00, 0x00, 0x01, 0x00, 0x00, 0x00, 0x01, 0x00,
  0x00, 0x00, 0x00, 0x00, 0x00, 0x01, 0x01, 0x00, 0x00, 0x00, 0x89, 0x00, 0x00,
  0x00, 0x03, 0x00, 0x00, 0x00, 0x88, 0x00, 0x00, 0x00, 0x36, 0x00, 0x00, 0x00,
  0x1d, 0x00, 0x00, 0x00, 0x3e, 0xf3, 0xff, 0xff, 0x14, 0x00, 0x00, 0x00, 0x00,
  0x00, 0x00, 0x16, 0x10, 0x00, 0x00, 0x00, 0x14, 0x00, 0x00, 0x00, 0x02, 0x00,
  0x00, 0x00, 0x50, 0xa1, 0xff, 0xff, 0x01, 0x00, 0x00, 0x00, 0x88, 0x00, 0x00,
  0x00, 0x02, 0x00, 0x00, 0x00, 0x87, 0x00, 0x00, 0x00, 0x47, 0x00, 0x00, 0x00,
  0x6e, 0xf3, 0xff, 0xff, 0x14, 0x00, 0x00, 0x00, 0x00, 0x00, 0x00, 0x01, 0x20,
  0x00, 0x00, 0x00, 0x24, 0x00, 0x00, 0x00, 0x04, 0x00, 0x00, 0x00, 0x40, 0xf4,
  0xff, 0xff, 0x00, 0x00, 0x00, 0x01, 0x01, 0x00, 0x00, 0x00, 0x01, 0x00, 0x00,
  0x00, 0x00, 0x00, 0x00, 0x01, 0x01, 0x00, 0x00, 0x00, 0x87, 0x00, 0x00, 0x00,
  0x03, 0x00, 0x00, 0x00, 0x86, 0x00, 0x00, 0x00, 0x35, 0x00, 0x00, 0x00, 0x0d,
  0x00, 0x00, 0x00, 0xb2, 0xf3, 0xff, 0xff, 0x14, 0x00, 0x00, 0x00, 0x00, 0x00,
  0x00, 0x02, 0x20, 0x00, 0x00, 0x00, 0x24, 0x00, 0x00, 0x00, 0x03, 0x00, 0x00,
  0x00, 0x34, 0xf4, 0xff, 0xff, 0x01, 0x00, 0x00, 0x00, 0x01, 0x00, 0x00, 0x00,
  0x01, 0x00, 0x00, 0x00, 0x00, 0x00, 0x00, 0x01, 0x01, 0x00, 0x00, 0x00, 0x86,
  0x00, 0x00, 0x00, 0x03, 0x00, 0x00, 0x00, 0x85, 0x00, 0x00, 0x00, 0x34, 0x00,
  0x00, 0x00, 0x33, 0x00, 0x00, 0x00, 0xf6, 0xf3, 0xff, 0xff, 0x14, 0x00, 0x00,
  0x00, 0x00, 0x00, 0x00, 0x16, 0x10, 0x00, 0x00, 0x00, 0x14, 0x00, 0x00, 0x00,
  0x02, 0x00, 0x00, 0x00, 0x08, 0xa2, 0xff, 0xff, 0x01, 0x00, 0x00, 0x00, 0x85,
  0x00, 0x00, 0x00, 0x02, 0x00, 0x00, 0x00, 0x84, 0x00, 0x00, 0x00, 0x47, 0x00,
  0x00, 0x00, 0x26, 0xf4, 0xff, 0xff, 0x14, 0x00, 0x00, 0x00, 0x00, 0x00, 0x00,
  0x0a, 0x14, 0x00, 0x00, 0x00, 0x18, 0x00, 0x00, 0x00, 0x07, 0x00, 0x00, 0x00,
  0x16, 0xf4, 0xff, 0xff, 0x03, 0x00, 0x00, 0x00, 0x01, 0x00, 0x00, 0x00, 0x84,
  0x00, 0x00, 0x00, 0x02, 0x00, 0x00, 0x00, 0x83, 0x00, 0x00, 0x00, 0x68, 0x00,
  0x00, 0x00, 0x5a, 0xf4, 0xff, 0xff, 0x14, 0x00, 0x00, 0x00, 0x00, 0x00, 0x00,
  0x01, 0x20, 0x00, 0x00, 0x00, 0x24, 0x00, 0x00, 0x00, 0x04, 0x00, 0x00, 0x00,
  0x2c, 0xf5, 0xff, 0xff, 0x00, 0x00, 0x00, 0x01, 0x01, 0x00, 0x00, 0x00, 0x01,
  0x00, 0x00, 0x00, 0x00, 0x00, 0x00, 0x01, 0x01, 0x00, 0x00, 0x00, 0x83, 0x00,
  0x00, 0x00, 0x03, 0x00, 0x00, 0x00, 0x82, 0x00, 0x00, 0x00, 0x32, 0x00, 0x00,
  0x00, 0x0c, 0x00, 0x00, 0x00, 0x9e, 0xf4, 0xff, 0xff, 0x14, 0x00, 0x00, 0x00,
  0x00, 0x00, 0x00, 0x02, 0x20, 0x00, 0x00, 0x00, 0x24, 0x00, 0x00, 0x00, 0x03,
  0x00, 0x00, 0x00, 0x20, 0xf5, 0xff, 0xff, 0x01, 0x00, 0x00, 0x00, 0x01, 0x00,
  0x00, 0x00, 0x01, 0x00, 0x00, 0x00, 0x00, 0x00, 0x00, 0x01, 0x01, 0x00, 0x00,
  0x00, 0x82, 0x00, 0x00, 0x00, 0x03, 0x00, 0x00, 0x00, 0x81, 0x00, 0x00, 0x00,
  0x31, 0x00, 0x00, 0x00, 0x26, 0x00, 0x00, 0x00, 0xe2, 0xf4, 0xff, 0xff, 0x14,
  0x00, 0x00, 0x00, 0x00, 0x00, 0x00, 0x16, 0x10, 0x00, 0x00, 0x00, 0x14, 0x00,
  0x00, 0x00, 0x02, 0x00, 0x00, 0x00, 0xf4, 0xa2, 0xff, 0xff, 0x01, 0x00, 0x00,
  0x00, 0x81, 0x00, 0x00, 0x00, 0x02, 0x00, 0x00, 0x00, 0x80, 0x00, 0x00, 0x00,
  0x47, 0x00, 0x00, 0x00, 0x12, 0xf5, 0xff, 0xff, 0x14, 0x00, 0x00, 0x00, 0x00,
  0x00, 0x00, 0x0f, 0x14, 0x00, 0x00, 0x00, 0x18, 0x00, 0x00, 0x00, 0x06, 0x00,
  0x00, 0x00, 0x70, 0xfd, 0xff, 0xff, 0x00, 0x00, 0x00, 0x01, 0x01, 0x00, 0x00,
  0x00, 0x80, 0x00, 0x00, 0x00, 0x02, 0x00, 0x00, 0x00, 0x7f, 0x00, 0x00, 0x00,
  0x62, 0x00, 0x00, 0x00, 0x46, 0xf5, 0xff, 0xff, 0x14, 0x00, 0x00, 0x00, 0x00,
  0x00, 0x00, 0x01, 0x20, 0x00, 0x00, 0x00, 0x24, 0x00, 0x00, 0x00, 0x04, 0x00,
  0x00, 0x00, 0x18, 0xf6, 0xff, 0xff, 0x00, 0x00, 0x00, 0x01, 0x01, 0x00, 0x00,
  0x00, 0x01, 0x00, 0x00, 0x00, 0x00, 0x00, 0x00, 0x01, 0x01, 0x00, 0x00, 0x00,
  0x7f, 0x00, 0x00, 0x00, 0x03, 0x00, 0x00, 0x00, 0x7e, 0x00, 0x00, 0x00, 0x30,
  0x00, 0x00, 0x00, 0x0b, 0x00, 0x00, 0x00, 0x8a, 0xf5, 0xff, 0xff, 0x14, 0x00,
  0x00, 0x00, 0x00, 0x00, 0x00, 0x02, 0x20, 0x00, 0x00, 0x00, 0x24, 0x00, 0x00,
  0x00, 0x03, 0x00, 0x00, 0x00, 0x0c, 0xf6, 0xff, 0xff, 0x01, 0x00, 0x00, 0x00,
  0x01, 0x00, 0x00, 0x00, 0x01, 0x00, 0x00, 0x00, 0x00, 0x00, 0x00, 0x01, 0x01,
  0x00, 0x00, 0x00, 0x7e, 0x00, 0x00, 0x00, 0x03, 0x00, 0x00, 0x00, 0x7d, 0x00,
  0x00, 0x00, 0x2f, 0x00, 0x00, 0x00, 0x26, 0x00, 0x00, 0x00, 0xce, 0xf5, 0xff,
  0xff, 0x14, 0x00, 0x00, 0x00, 0x00, 0x00, 0x00, 0x16, 0x10, 0x00, 0x00, 0x00,
  0x14, 0x00, 0x00, 0x00, 0x02, 0x00, 0x00, 0x00, 0xe0, 0xa3, 0xff, 0xff, 0x01,
  0x00, 0x00, 0x00, 0x7d, 0x00, 0x00, 0x00, 0x02, 0x00, 0x00, 0x00, 0x7c, 0x00,
  0x00, 0x00, 0x47, 0x00, 0x00, 0x00, 0xfe, 0xf5, 0xff, 0xff, 0x14, 0x00, 0x00,
  0x00, 0x00, 0x00, 0x00, 0x01, 0x20, 0x00, 0x00, 0x00, 0x24, 0x00, 0x00, 0x00,
  0x04, 0x00, 0x00, 0x00, 0xd0, 0xf6, 0xff, 0xff, 0x00, 0x00, 0x00, 0x01, 0x01,
  0x00, 0x00, 0x00, 0x01, 0x00, 0x00, 0x00, 0x00, 0x00, 0x00, 0x01, 0x01, 0x00,
  0x00, 0x00, 0x7c, 0x00, 0x00, 0x00, 0x03, 0x00, 0x00, 0x00, 0x7b, 0x00, 0x00,
  0x00, 0x2e, 0x00, 0x00, 0x00, 0x0a, 0x00, 0x00, 0x00, 0x42, 0xf6, 0xff, 0xff,
  0x14, 0x00, 0x00, 0x00, 0x00, 0x00, 0x00, 0x02, 0x20, 0x00, 0x00, 0x00, 0x24,
  0x00, 0x00, 0x00, 0x03, 0x00, 0x00, 0x00, 0xc4, 0xf6, 0xff, 0xff, 0x01, 0x00,
  0x00, 0x00, 0x01, 0x00, 0x00, 0x00, 0x01, 0x00, 0x00, 0x00, 0x00, 0x00, 0x00,
  0x01, 0x01, 0x00, 0x00, 0x00, 0x7b, 0x00, 0x00, 0x00, 0x03, 0x00, 0x00, 0x00,
  0x7a, 0x00, 0x00, 0x00, 0x2d, 0x00, 0x00, 0x00, 0x2c, 0x00, 0x00, 0x00, 0x86,
  0xf6, 0xff, 0xff, 0x14, 0x00, 0x00, 0x00, 0x00, 0x00, 0x00, 0x16, 0x10, 0x00,
  0x00, 0x00, 0x14, 0x00, 0x00, 0x00, 0x02, 0x00, 0x00, 0x00, 0x98, 0xa4, 0xff,
  0xff, 0x01, 0x00, 0x00, 0x00, 0x7a, 0x00, 0x00, 0x00, 0x02, 0x00, 0x00, 0x00,
  0x79, 0x00, 0x00, 0x00, 0x47, 0x00, 0x00, 0x00, 0xb6, 0xf6, 0xff, 0xff, 0x14,
  0x00, 0x00, 0x00, 0x00, 0x00, 0x00, 0x0a, 0x14, 0x00, 0x00, 0x00, 0x18, 0x00,
  0x00, 0x00, 0x07, 0x00, 0x00, 0x00, 0xa6, 0xf6, 0xff, 0xff, 0x03, 0x00, 0x00,
  0x00, 0x01, 0x00, 0x00, 0x00, 0x79, 0x00, 0x00, 0x00, 0x02, 0x00, 0x00, 0x00,
  0x78, 0x00, 0x00, 0x00, 0x73, 0x00, 0x00, 0x00, 0xea, 0xf6, 0xff, 0xff, 0x14,
  0x00, 0x00, 0x00, 0x00, 0x00, 0x00, 0x01, 0x20, 0x00, 0x00, 0x00, 0x24, 0x00,
  0x00, 0x00, 0x04, 0x00, 0x00, 0x00, 0xbc, 0xf7, 0xff, 0xff, 0x00, 0x00, 0x00,
  0x01, 0x01, 0x00, 0x00, 0x00, 0x01, 0x00, 0x00, 0x00, 0x00, 0x00, 0x00, 0x01,
  0x01, 0x00, 0x00, 0x00, 0x78, 0x00, 0x00, 0x00, 0x03, 0x00, 0x00, 0x00, 0x77,
  0x00, 0x00, 0x00, 0x2b, 0x00, 0x00, 0x00, 0x09, 0x00, 0x00, 0x00, 0x2e, 0xf7,
  0xff, 0xff, 0x14, 0x00, 0x00, 0x00, 0x00, 0x00, 0x00, 0x02, 0x20, 0x00, 0x00,
  0x00, 0x24, 0x00, 0x00, 0x00, 0x03, 0x00, 0x00, 0x00, 0xb0, 0xf7, 0xff, 0xff,
  0x01, 0x00, 0x00, 0x00, 0x01, 0x00, 0x00, 0x00, 0x01, 0x00, 0x00, 0x00, 0x00,
  0x00, 0x00, 0x01, 0x01, 0x00, 0x00, 0x00, 0x77, 0x00, 0x00, 0x00, 0x03, 0x00,
  0x00, 0x00, 0x76, 0x00, 0x00, 0x00, 0x2a, 0x00, 0x00, 0x00, 0x26, 0x00, 0x00,
  0x00, 0x72, 0xf7, 0xff, 0xff, 0x14, 0x00, 0x00, 0x00, 0x00, 0x00, 0x00, 0x16,
  0x10, 0x00, 0x00, 0x00, 0x14, 0x00, 0x00, 0x00, 0x02, 0x00, 0x00, 0x00, 0x84,
  0xa5, 0xff, 0xff, 0x01, 0x00, 0x00, 0x00, 0x76, 0x00, 0x00, 0x00, 0x02, 0x00,
  0x00, 0x00, 0x75, 0x00, 0x00, 0x00, 0x47, 0x00, 0x00, 0x00, 0xa2, 0xf7, 0xff,
  0xff, 0x20, 0x00, 0x00, 0x00, 0x00, 0x00, 0x00, 0x0f, 0x20, 0x00, 0x00, 0x00,
  0x24, 0x00, 0x00, 0x00, 0x06, 0x00, 0x00, 0x00, 0x0c, 0x00, 0x08, 0x00, 0x00,
