/*
 * Copyright (c) 2023, Alliance for Open Media. All rights reserved
 *
 * This source code is subject to the terms of the BSD 2 Clause License and
 * the Alliance for Open Media Patent License 1.0. If the BSD 2 Clause License
 * was not distributed with this source code in the LICENSE file, you can
 * obtain it at www.aomedia.org/license/software. If the Alliance for Open
 * Media Patent License 1.0 was not distributed with this source code in the
 * PATENTS file, you can obtain it at www.aomedia.org/license/patent.
 */
const struct ModelParams sms_part_split_prune_tflite_model_params_bs12[] = {
    {0.0001, 0.95, 75, 160}, {0.005, 0.9, 75, 160}, {0.01, 0.85, 75, 160},
    {0.02, 0.8, 75, 160}};

const struct ModelParams sms_part_split_prune_tflite_model_params_bs9[] = {
    {0.001, 0.99, 75, 160}, {0.005, 0.95, 75, 160}, {0.02, 0.9, 75, 160},
    {0.04, 0.85, 75, 160}};

const struct ModelParams sms_part_split_prune_tflite_model_params_bs6[] = {
    {0.01, 1, 75, 160}, {0.02, 1, 75, 160}, {0.05, 1, 75, 160},
    {0.1, 1, 75, 160}};

const struct ModelParams sms_part_split_prune_tflite_model_params_bs3[] = {
    {0.05, 1, 75, 160}, {0.1, 1, 75, 160}, {0.25, 1, 75, 160},
    {0.35, 1, 75, 160}};

// git_part_prune_bs3_6_9_12_qp_110_135_160_nnz_psnr_vect_satdq_32_16_a2_a3_bs12_tflite_model.cc
unsigned char sms_part_split_prune_tflite_model_bs12[] = {
  0x1c, 0x00, 0x00, 0x00, 0x54, 0x46, 0x4c, 0x33, 0x14, 0x00, 0x20, 0x00,
  0x1c, 0x00, 0x18, 0x00, 0x14, 0x00, 0x10, 0x00, 0x0c, 0x00, 0x00, 0x00,
  0x08, 0x00, 0x04, 0x00, 0x14, 0x00, 0x00, 0x00, 0x1c, 0x00, 0x00, 0x00,
  0x80, 0x00, 0x00, 0x00, 0xd8, 0x00, 0x00, 0x00, 0x84, 0x1a, 0x00, 0x00,
  0x94, 0x1a, 0x00, 0x00, 0x18, 0x20, 0x00, 0x00, 0x03, 0x00, 0x00, 0x00,
  0x01, 0x00, 0x00, 0x00, 0x04, 0x00, 0x00, 0x00, 0x2e, 0xe5, 0xff, 0xff,
  0x0c, 0x00, 0x00, 0x00, 0x1c, 0x00, 0x00, 0x00, 0x38, 0x00, 0x00, 0x00,
  0x0f, 0x00, 0x00, 0x00, 0x73, 0x65, 0x72, 0x76, 0x69, 0x6e, 0x67, 0x5f,
  0x64, 0x65, 0x66, 0x61, 0x75, 0x6c, 0x74, 0x00, 0x01, 0x00, 0x00, 0x00,
  0x04, 0x00, 0x00, 0x00, 0x9c, 0xff, 0xff, 0xff, 0x0a, 0x00, 0x00, 0x00,
  0x04, 0x00, 0x00, 0x00, 0x07, 0x00, 0x00, 0x00, 0x64, 0x65, 0x6e, 0x73,
  0x65, 0x5f, 0x32, 0x00, 0x01, 0x00, 0x00, 0x00, 0x04, 0x00, 0x00, 0x00,
  0x3a, 0xe6, 0xff, 0xff, 0x04, 0x00, 0x00, 0x00, 0x07, 0x00, 0x00, 0x00,
  0x69, 0x6e, 0x70, 0x75, 0x74, 0x5f, 0x31, 0x00, 0x02, 0x00, 0x00, 0x00,
  0x34, 0x00, 0x00, 0x00, 0x04, 0x00, 0x00, 0x00, 0xdc, 0xff, 0xff, 0xff,
  0x0d, 0x00, 0x00, 0x00, 0x04, 0x00, 0x00, 0x00, 0x13, 0x00, 0x00, 0x00,
  0x43, 0x4f, 0x4e, 0x56, 0x45, 0x52, 0x53, 0x49, 0x4f, 0x4e, 0x5f, 0x4d,
  0x45, 0x54, 0x41, 0x44, 0x41, 0x54, 0x41, 0x00, 0x08, 0x00, 0x0c, 0x00,
  0x08, 0x00, 0x04, 0x00, 0x08, 0x00, 0x00, 0x00, 0x0c, 0x00, 0x00, 0x00,
  0x04, 0x00, 0x00, 0x00, 0x13, 0x00, 0x00, 0x00, 0x6d, 0x69, 0x6e, 0x5f,
  0x72, 0x75, 0x6e, 0x74, 0x69, 0x6d, 0x65, 0x5f, 0x76, 0x65, 0x72, 0x73,
  0x69, 0x6f, 0x6e, 0x00, 0x0e, 0x00, 0x00, 0x00, 0xa8, 0x19, 0x00, 0x00,
  0xa0, 0x19, 0x00, 0x00, 0x50, 0x19, 0x00, 0x00, 0x38, 0x11, 0x00, 0x00,
  0xe8, 0x10, 0x00, 0x00, 0xd4, 0x10, 0x00, 0x00, 0x44, 0x10, 0x00, 0x00,
  0xb4, 0x00, 0x00, 0x00, 0xac, 0x00, 0x00, 0x00, 0xa4, 0x00, 0x00, 0x00,
  0x9c, 0x00, 0x00, 0x00, 0x94, 0x00, 0x00, 0x00, 0x74, 0x00, 0x00, 0x00,
  0x04, 0x00, 0x00, 0x00, 0xe6, 0xe6, 0xff, 0xff, 0x04, 0x00, 0x00, 0x00,
  0x60, 0x00, 0x00, 0x00, 0x10, 0x00, 0x00, 0x00, 0x00, 0x00, 0x00, 0x00,
  0x08, 0x00, 0x0e, 0x00, 0x08, 0x00, 0x04, 0x00, 0x08, 0x00, 0x00, 0x00,
  0x10, 0x00, 0x00, 0x00, 0x24, 0x00, 0x00, 0x00, 0x00, 0x00, 0x06, 0x00,
  0x08, 0x00, 0x04, 0x00, 0x06, 0x00, 0x00, 0x00, 0x04, 0x00, 0x00, 0x00,
  0x00, 0x00, 0x00, 0x00, 0x0c, 0x00, 0x18, 0x00, 0x14, 0x00, 0x10, 0x00,
  0x0c, 0x00, 0x04, 0x00, 0x0c, 0x00, 0x00, 0x00, 0x81, 0x13, 0xf7, 0xa3,
  0x48, 0x69, 0x7f, 0x5b, 0x02, 0x00, 0x00, 0x00, 0x02, 0x00, 0x00, 0x00,
  0x04, 0x00, 0x00, 0x00, 0x06, 0x00, 0x00, 0x00, 0x32, 0x2e, 0x31, 0x37,
  0x2e, 0x30, 0x00, 0x00, 0x52, 0xe7, 0xff, 0xff, 0x04, 0x00, 0x00, 0x00,
  0x10, 0x00, 0x00, 0x00, 0x31, 0x2e, 0x31, 0x34, 0x2e, 0x30, 0x00, 0x00,
  0x00, 0x00, 0x00, 0x00, 0x00, 0x00, 0x00, 0x00, 0xac, 0xe1, 0xff, 0xff,
  0xb0, 0xe1, 0xff, 0xff, 0xb4, 0xe1, 0xff, 0xff, 0xb8, 0xe1, 0xff, 0xff,
  0x7e, 0xe7, 0xff, 0xff, 0x04, 0x00, 0x00, 0x00, 0x80, 0x0f, 0x00, 0x00,
  0x21, 0x79, 0xa7, 0xbd, 0xfb, 0xee, 0x73, 0xbe, 0xab, 0x32, 0x0f, 0x3f,
  0xc6, 0x94, 0x94, 0xbe, 0x7e, 0x8c, 0xbd, 0xbc, 0xd1, 0x14, 0x2f, 0x3f,
  0x99, 0xb8, 0xc8, 0xbe, 0x89, 0xa8, 0x3b, 0xbe, 0xc8, 0x14, 0xb4, 0x3e,
  0x92, 0x29, 0xc7, 0xbe, 0x8b, 0xe2, 0x49, 0xbe, 0x16, 0x4e, 0xc2, 0x3e,
  0x23, 0x29, 0xec, 0x3b, 0x6f, 0x1c, 0x66, 0x3e, 0x85, 0x43, 0x84, 0x3e,
  0x80, 0xeb, 0x2c, 0xbe, 0x4e, 0x4c, 0xd7, 0x3b, 0xaf, 0xc3, 0x35, 0x3d,
  0xbd, 0x84, 0xa7, 0x3e, 0x73, 0xd6, 0x5e, 0xbd, 0xe7, 0x9c, 0x2c, 0x3e,
  0x82, 0xef, 0x94, 0x3d, 0x6c, 0x5f, 0x63, 0x3c, 0x13, 0xe0, 0x03, 0x3e,
  0xf0, 0x52, 0x5c, 0xbd, 0x6d, 0x45, 0x30, 0x3c, 0x5e, 0xe0, 0x99, 0xbe,
  0x8b, 0x58, 0x0a, 0x3b, 0x94, 0x8f, 0x45, 0x3e, 0xba, 0x58, 0xc7, 0x3d,
  0xf9, 0x9f, 0x83, 0x3e, 0xab, 0x35, 0x99, 0x3e, 0x86, 0x48, 0x5c, 0x3a,
  0x17, 0xe3, 0x3c, 0x3f, 0x74, 0x3b, 0x76, 0xbe, 0xda, 0x8e, 0xae, 0xbc,
  0x15, 0x5c, 0x71, 0x3f, 0x00, 0x20, 0xe3, 0xbe, 0xad, 0x68, 0xc8, 0x3d,
  0xc2, 0xc3, 0x75, 0x3f, 0xa9, 0xca, 0xca, 0xbe, 0xd6, 0x38, 0x0f, 0xbe,
  0xe7, 0xdd, 0x5a, 0x3f, 0x75, 0xfd, 0x05, 0xbf, 0xa2, 0x02, 0x24, 0x3d,
  0xeb, 0xa7, 0x6d, 0x3f, 0xa0, 0x54, 0xf4, 0xbc, 0x5c, 0x27, 0x17, 0xbd,
  0x1f, 0x96, 0xf7, 0xbc, 0x4f, 0x55, 0xfb, 0xbc, 0x26, 0x34, 0x8d, 0xbd,
  0x5a, 0xb7, 0xd3, 0x3d, 0x8e, 0x4b, 0x02, 0xbb, 0x27, 0x05, 0x88, 0xbe,
  0x43, 0xe4, 0x30, 0xbe, 0x8a, 0x47, 0x36, 0xbe, 0xe2, 0x20, 0x9b, 0xbd,
  0x2e, 0x3c, 0x23, 0x3d, 0x65, 0xba, 0x28, 0x3e, 0xcc, 0xc5, 0x42, 0x3e,
  0xd0, 0x70, 0x96, 0xbd, 0xeb, 0xd7, 0x5d, 0xbe, 0x47, 0xc8, 0xb3, 0x3d,
  0x05, 0x33, 0xef, 0xbd, 0xae, 0x44, 0x87, 0xbe, 0xe0, 0x1a, 0x23, 0x3e,
  0x0d, 0xf2, 0x90, 0x3e, 0x30, 0xe9, 0xb6, 0xbd, 0xf7, 0x14, 0x36, 0x3f,
  0xdd, 0xd7, 0x3f, 0x3e, 0x69, 0xe6, 0xa1, 0xbd, 0x6b, 0xc8, 0xdf, 0x3e,
  0xe2, 0x24, 0x0e, 0x3e, 0x80, 0xdc, 0x0e, 0xbf, 0xe0, 0x93, 0x28, 0x3f,
  0xc0, 0x74, 0x29, 0x3e, 0x3f, 0xf2, 0xa2, 0xbe, 0x2c, 0x81, 0x9c, 0x3e,
  0x96, 0xc0, 0xe3, 0x3d, 0x26, 0x81, 0x4c, 0x3e, 0xf5, 0xc1, 0xe1, 0xbd,
  0x8d, 0xae, 0x03, 0x3e, 0xfd, 0x97, 0x96, 0xbe, 0xdf, 0x21, 0x1e, 0xbe,
  0xd3, 0xc7, 0xfb, 0xbd, 0x30, 0x45, 0x09, 0xbe, 0x70, 0x97, 0x95, 0xbd,
  0x58, 0x52, 0x2b, 0x3d, 0x11, 0x15, 0x23, 0x3e, 0x83, 0x5b, 0xcc, 0x3e,
  0xf9, 0xd9, 0xb8, 0x3e, 0x67, 0xb6, 0xad, 0x3d, 0x38, 0xdd, 0x63, 0x3e,
  0xda, 0x13, 0xf7, 0x3c, 0x0c, 0x37, 0x05, 0xbe, 0xea, 0x24, 0x29, 0x3e,
  0x48, 0xe4, 0x63, 0x3d, 0xa8, 0xd6, 0x26, 0x3e, 0xae, 0x0d, 0xc6, 0x3e,
  0x56, 0x9f, 0xd0, 0xbd, 0xc6, 0x01, 0x8e, 0x3e, 0xb5, 0x3c, 0xae, 0x3e,
  0xd0, 0xd1, 0x80, 0xbe, 0x14, 0xab, 0x8f, 0x3e, 0xed, 0x16, 0xac, 0x3d,
  0xa4, 0xf7, 0xbe, 0xbe, 0xe0, 0x5e, 0x74, 0x3e, 0x31, 0xc9, 0x02, 0x3f,
  0xcb, 0xba, 0xa7, 0xbd, 0x0d, 0xa4, 0x9b, 0xbe, 0x51, 0xac, 0x81, 0x3e,
  0xa2, 0xef, 0x38, 0xbd, 0xae, 0x91, 0x0a, 0x3e, 0x63, 0xde, 0x04, 0xbe,
  0xa0, 0x07, 0x26, 0x3c, 0x7e, 0x52, 0x37, 0xbe, 0x17, 0x7a, 0x10, 0xbe,
  0x43, 0x82, 0x41, 0xbe, 0xa3, 0x1c, 0x52, 0x3e, 0xc3, 0xc2, 0x69, 0xbd,
  0x7e, 0x56, 0x03, 0x3d, 0x72, 0x52, 0x13, 0x3e, 0x5b, 0x5e, 0x86, 0x3e,
  0x8e, 0xce, 0x24, 0xbe, 0x78, 0x83, 0x5d, 0x3e, 0x6b, 0x58, 0xf4, 0xbd,
  0xf0, 0xbc, 0x3a, 0x3e, 0xae, 0xc7, 0xfc, 0xbe, 0x2e, 0xa4, 0x5b, 0xbe,
  0x63, 0xae, 0xb3, 0x3e, 0x8b, 0x95, 0x8b, 0x3e, 0x1a, 0x9d, 0x3e, 0xbd,
  0x21, 0x53, 0xb8, 0x3d, 0x98, 0x69, 0x4a, 0xbd, 0x8d, 0xbe, 0x07, 0x3d,
  0x8e, 0xf2, 0x83, 0x3e, 0x5c, 0x90, 0xf8, 0xbc, 0x2a, 0xac, 0x30, 0x3e,
  0x72, 0x5c, 0x94, 0x3e, 0xe2, 0x68, 0xad, 0xbe, 0x7a, 0xf8, 0x0b, 0xbe,
  0x3f, 0x6c, 0x98, 0x3d, 0x64, 0x6d, 0x95, 0x3e, 0x61, 0xe3, 0xb7, 0xbd,
  0xa7, 0x50, 0x06, 0x3e, 0xaa, 0xa4, 0x43, 0x3e, 0xde, 0x13, 0xf3, 0x3d,
  0xeb, 0xd6, 0x90, 0x3e, 0x15, 0x92, 0x06, 0xbe, 0x9c, 0xb6, 0xaa, 0xbc,
  0x80, 0x45, 0x04, 0xbe, 0x34, 0x6b, 0x0d, 0xbe, 0x39, 0xc7, 0x99, 0x3d,
  0x28, 0xc5, 0xa2, 0xbd, 0x13, 0x69, 0x91, 0x3e, 0xa6, 0xb2, 0x2e, 0x3d,
  0x48, 0xa1, 0x5b, 0x3b, 0x0c, 0xed, 0x34, 0x3e, 0xc0, 0x00, 0x97, 0x3e,
  0xf3, 0x71, 0x1a, 0x3d, 0xc1, 0xe1, 0x03, 0x3f, 0x6f, 0xc7, 0x62, 0xbe,
  0x9f, 0x08, 0xf0, 0x3d, 0xe1, 0xb8, 0xe4, 0x3e, 0x16, 0x66, 0xd4, 0xbe,
  0xc9, 0x91, 0xfc, 0xbc, 0xd7, 0x70, 0xe2, 0x3e, 0x38, 0x86, 0x82, 0x3e,
  0x6a, 0x89, 0x21, 0xbe, 0x40, 0x4f, 0xf6, 0x3e, 0x26, 0xe7, 0x10, 0xbe,
  0xd5, 0x72, 0x84, 0xbd, 0xb2, 0xa8, 0xd0, 0x3e, 0x07, 0xbc, 0x84, 0xbe,
  0xe8, 0xf6, 0x93, 0x3e, 0x6c, 0xb1, 0xd5, 0x3d, 0xd9, 0x5c, 0x33, 0x3e,
  0xc9, 0x0e, 0x8a, 0x3e, 0xb8, 0xcd, 0xdc, 0x3e, 0x2d, 0x31, 0x09, 0x3e,
  0x31, 0x09, 0x80, 0x3c, 0x71, 0xb9, 0x4b, 0xbd, 0xbc, 0xd1, 0xb3, 0xbe,
  0xb9, 0x2c, 0x5c, 0xbe, 0x37, 0x1a, 0x32, 0x3d, 0xe7, 0xa9, 0xd8, 0xbd,
  0x33, 0x31, 0xe7, 0xba, 0x9e, 0xbe, 0xd7, 0x3c, 0x16, 0x01, 0x32, 0xbf,
  0xfd, 0x8b, 0xdd, 0x3e, 0x76, 0x60, 0x6b, 0x3e, 0x34, 0x83, 0xc9, 0xbe,
  0x18, 0x0d, 0x7e, 0xbd, 0xd0, 0xfd, 0x4e, 0xbe, 0xb9, 0xf8, 0xf2, 0xbd,
  0x35, 0xeb, 0xf8, 0x3e, 0xe1, 0x74, 0x9e, 0xbe, 0x61, 0x8f, 0x18, 0xbf,
  0x2f, 0x0e, 0xb1, 0xbc, 0x49, 0x14, 0x86, 0x3e, 0xf9, 0x58, 0x36, 0xbd,
  0x6c, 0x84, 0xfa, 0x3e, 0x2c, 0xc8, 0xbf, 0xbd, 0xdf, 0xc3, 0xce, 0xbc,
  0x06, 0xc1, 0xb8, 0xbd, 0x9c, 0xd6, 0x5e, 0xbc, 0x7a, 0x2c, 0x0f, 0x3e,
  0xf7, 0x06, 0x3d, 0x3d, 0xe8, 0x47, 0x0a, 0x3d, 0xbd, 0x96, 0xf1, 0xbb,
  0x2e, 0x05, 0xe0, 0xbb, 0x9a, 0x5e, 0x92, 0xbd, 0x7c, 0xe8, 0x00, 0x3e,
  0x77, 0x7f, 0x06, 0xbd, 0xbd, 0xee, 0x09, 0x3c, 0xf3, 0xa6, 0x2a, 0x3e,
  0xf5, 0x39, 0x90, 0xbe, 0xe0, 0xfd, 0x8f, 0xbd, 0x04, 0xcb, 0xfd, 0xbc,
  0x5d, 0x7a, 0x0b, 0x3e, 0xdb, 0xcd, 0x3d, 0xbe, 0xf8, 0x72, 0xa0, 0xbe,
  0xa8, 0xf0, 0x6f, 0x3d, 0x57, 0x8b, 0x0d, 0x3e, 0x55, 0x64, 0x76, 0x3e,
  0x97, 0xb3, 0xe6, 0x3e, 0x5f, 0x06, 0x25, 0xbe, 0x47, 0x45, 0xd4, 0xbd,
  0x7d, 0xcd, 0xf0, 0x3d, 0xab, 0xde, 0x89, 0xbe, 0x90, 0x97, 0xa5, 0x3d,
  0xbc, 0x07, 0x95, 0x3e, 0x75, 0x7d, 0x7a, 0xbe, 0xe1, 0xd6, 0xe7, 0xbd,
  0xd3, 0x99, 0x2e, 0x3e, 0x81, 0xed, 0x4a, 0xbe, 0x30, 0xf4, 0x81, 0xbe,
  0x4e, 0xaa, 0x70, 0xbe, 0x3c, 0x33, 0x86, 0xbe, 0x4a, 0x01, 0xe1, 0x3d,
  0x1d, 0x97, 0x8c, 0xbe, 0xcc, 0x5d, 0x41, 0xbe, 0xd3, 0xc8, 0xea, 0xbd,
  0x8d, 0xfc, 0x2e, 0xbe, 0xc0, 0x02, 0x4f, 0x3e, 0x0a, 0xc9, 0x55, 0x3e,
  0x86, 0xfc, 0x3e, 0xbe, 0x77, 0x13, 0x1a, 0x3e, 0xdb, 0x09, 0x47, 0x3e,
  0xc3, 0xad, 0x4e, 0x3e, 0xcd, 0xcc, 0xca, 0xbe, 0x14, 0xba, 0xfb, 0x3c,
  0xf4, 0x6d, 0x10, 0xbe, 0x84, 0xb1, 0x0a, 0xbf, 0x59, 0x7e, 0x8e, 0x3d,
  0x35, 0xcd, 0x9b, 0xbe, 0xca, 0x80, 0x6e, 0xbe, 0xb0, 0x3e, 0xc0, 0x3c,
  0xba, 0x0a, 0xc0, 0xbe, 0x5a, 0x05, 0x79, 0xbe, 0x39, 0x9d, 0x91, 0x3e,
  0xec, 0x5c, 0x7b, 0x3a, 0x02, 0x30, 0xc6, 0xbe, 0xe1, 0x5b, 0x6f, 0xbd,
  0x63, 0xbf, 0x2f, 0xbd, 0x6d, 0xe6, 0x93, 0xbd, 0xbd, 0x0c, 0x1c, 0x3e,
  0x17, 0x65, 0xdd, 0x3d, 0x26, 0x59, 0x16, 0x3c, 0xa3, 0x8d, 0x75, 0xbe,
  0x4e, 0x9b, 0x72, 0xbe, 0xff, 0xfb, 0xde, 0x3e, 0x87, 0x6f, 0x0c, 0x3e,
  0xbf, 0x06, 0x76, 0xbd, 0x2a, 0x7c, 0x08, 0xbd, 0xe5, 0xfb, 0x2b, 0x3e,
  0x1e, 0x70, 0xf1, 0xbc, 0x1b, 0xd2, 0xbd, 0x3d, 0x74, 0x36, 0x2e, 0x3e,
  0x3d, 0xef, 0x1d, 0xbe, 0xf4, 0x28, 0x30, 0xbe, 0x42, 0x45, 0x94, 0xbd,
  0xa0, 0x3b, 0x34, 0x3e, 0xf4, 0x65, 0x0b, 0xbd, 0x95, 0x57, 0x59, 0x3e,
  0xa4, 0x4f, 0x17, 0x3f, 0x06, 0xda, 0x1c, 0x3e, 0x9e, 0x7e, 0x1d, 0xbe,
  0xaf, 0xe8, 0xd8, 0x3d, 0xb6, 0x38, 0x15, 0xbe, 0x3b, 0xa7, 0x68, 0x3d,
  0xba, 0x1d, 0x09, 0x3f, 0x09, 0xaa, 0x5d, 0x3c, 0x50, 0xd1, 0xc5, 0x3d,
  0xa2, 0x11, 0x17, 0x3f, 0x62, 0x7a, 0x23, 0x3e, 0xba, 0x16, 0xad, 0x3c,
  0x61, 0x0d, 0x9b, 0x3e, 0x7e, 0x4b, 0x11, 0xbe, 0x8f, 0xfd, 0x44, 0xbe,
  0x79, 0x7a, 0x93, 0x3d, 0xf8, 0xda, 0xe4, 0xbd, 0x43, 0xad, 0x22, 0xbd,
  0xd9, 0x38, 0x9f, 0xbd, 0xb4, 0x67, 0x06, 0xbe, 0x6a, 0xdc, 0x7b, 0x3e,
  0xed, 0x47, 0x3e, 0xbe, 0x43, 0xd1, 0x6e, 0x3e, 0x2e, 0xe4, 0xbc, 0xbd,
  0x84, 0x7a, 0x14, 0xbe, 0xe1, 0xc3, 0x52, 0x3e, 0x53, 0xcc, 0xbd, 0x3d,
  0x8c, 0xda, 0x8e, 0x3d, 0x79, 0x6e, 0x6c, 0x3e, 0x37, 0x91, 0xf5, 0xbc,
  0x29, 0xcc, 0x02, 0xbe, 0x49, 0xc9, 0x15, 0x3d, 0x99, 0x4e, 0x50, 0xbe,
  0xf9, 0xed, 0x64, 0xbe, 0xd8, 0xe3, 0x0f, 0x3f, 0x13, 0x18, 0x23, 0xbe,
  0xb7, 0x0e, 0xf1, 0x3d, 0xf7, 0x75, 0x95, 0x3e, 0xd9, 0x4b, 0x8a, 0xbb,
  0x23, 0xb8, 0x65, 0xbe, 0xcc, 0xc6, 0x87, 0x3e, 0x37, 0x28, 0xe1, 0xbd,
  0xdf, 0xb3, 0x42, 0xbb, 0x1e, 0x82, 0x85, 0xbe, 0x8e, 0xb6, 0x52, 0x3d,
  0xec, 0x4c, 0x7a, 0x3e, 0xd3, 0x9a, 0x24, 0xbb, 0xec, 0x52, 0x72, 0xbd,
  0x97, 0x8d, 0x49, 0x3e, 0x77, 0x08, 0x98, 0x3e, 0xe2, 0xaa, 0x3a, 0xbe,
  0x22, 0xad, 0x8f, 0xbc, 0xb6, 0x87, 0x9d, 0x3d, 0xf3, 0xc7, 0x83, 0xbd,
  0x27, 0x3b, 0x4f, 0xbe, 0x61, 0xa7, 0xbb, 0x3d, 0x40, 0x29, 0x69, 0xbe,
  0x38, 0xf0, 0x97, 0xbd, 0xc8, 0x67, 0xa3, 0xbd, 0x34, 0x85, 0x23, 0x3d,
  0xbc, 0x5c, 0x0f, 0xbc, 0xae, 0x94, 0x86, 0xbd, 0x19, 0xa5, 0xf6, 0x3e,
  0x02, 0xec, 0x97, 0xbe, 0x90, 0xd8, 0x2a, 0x3e, 0x50, 0xe4, 0x1f, 0x3e,
  0x2c, 0xff, 0x06, 0x3e, 0xed, 0x10, 0xe6, 0x3d, 0x4d, 0x3d, 0x1d, 0x3e,
  0x46, 0xd2, 0x93, 0x3e, 0xe7, 0x45, 0xe6, 0xbc, 0x4b, 0x16, 0x8c, 0x3e,
  0xeb, 0x3e, 0x3d, 0x3e, 0x52, 0x0a, 0x0c, 0xbe, 0xd6, 0x52, 0xf9, 0xbd,
  0x67, 0xba, 0xa8, 0xbe, 0x67, 0xca, 0x8a, 0x3e, 0xbd, 0x9d, 0x71, 0x3d,
  0x42, 0x9e, 0xdb, 0xbd, 0x7e, 0x0e, 0x9f, 0xbe, 0x36, 0x19, 0x92, 0x3e,
  0xa1, 0xef, 0xa5, 0x3e, 0xa9, 0xc1, 0x89, 0x3e, 0x47, 0x48, 0x9b, 0xbd,
  0x6e, 0x39, 0x52, 0xbe, 0x91, 0x44, 0xac, 0x3e, 0x58, 0x99, 0x22, 0x3d,
  0x41, 0x4a, 0x99, 0x3e, 0xfe, 0xac, 0x29, 0xbe, 0x8e, 0x14, 0x26, 0xbf,
  0xda, 0x3a, 0x18, 0x3f, 0x46, 0xf4, 0x95, 0x3e, 0x6b, 0xfb, 0x3e, 0xbf,
  0x25, 0x7f, 0xb8, 0x3e, 0x8a, 0x8f, 0x26, 0x3e, 0xe2, 0xdc, 0x67, 0xbe,
  0x17, 0xc3, 0xf1, 0x3e, 0x8e, 0x23, 0x24, 0xbd, 0x12, 0x4d, 0x89, 0xbe,
  0x75, 0x02, 0x62, 0xbd, 0x8f, 0x3d, 0x35, 0xbe, 0x25, 0x91, 0x37, 0xbf,
  0x04, 0x92, 0xb6, 0xbd, 0xbb, 0x80, 0x55, 0xbd, 0x17, 0xa5, 0x37, 0x3e,
  0x3f, 0x96, 0x02, 0x3e, 0x50, 0x6f, 0x81, 0xbd, 0xfb, 0xa1, 0x82, 0x3e,
  0x25, 0x49, 0xd1, 0x3c, 0x04, 0x7f, 0x1f, 0xbe, 0x6b, 0x52, 0x86, 0xbe,
  0x9e, 0xee, 0x35, 0x3c, 0x6b, 0x4c, 0x9a, 0x3d, 0x15, 0x7e, 0xea, 0x3e,
  0xf0, 0x66, 0x3f, 0xbd, 0xc7, 0x19, 0x29, 0x3e, 0xfc, 0x08, 0x18, 0x3e,
  0xc6, 0x29, 0x15, 0x3e, 0x44, 0xf1, 0xbb, 0x3c, 0x5c, 0x3a, 0x35, 0xbc,
  0xdc, 0x7e, 0xef, 0xbe, 0x64, 0x72, 0x4f, 0x3f, 0xc6, 0xd7, 0xbc, 0xbd,
  0x43, 0x69, 0x08, 0xbf, 0x14, 0x5f, 0x38, 0x3e, 0x2d, 0xd2, 0xe7, 0x3d,
  0xd6, 0xf4, 0x0b, 0xbf, 0x8a, 0x3b, 0xb3, 0x3e, 0xa5, 0x33, 0x99, 0xbe,
  0x80, 0x63, 0x11, 0xbf, 0x9b, 0x66, 0xa4, 0x3e, 0x02, 0xb1, 0x1b, 0x3e,
  0x8a, 0x14, 0x15, 0xbf, 0x86, 0x92, 0xd1, 0x3e, 0x10, 0x84, 0x84, 0x3d,
  0xf3, 0xf8, 0xc1, 0xbd, 0x19, 0x82, 0x8b, 0x3e, 0x9e, 0x57, 0x1b, 0x3e,
  0x9f, 0xfa, 0x7a, 0xbe, 0x04, 0x29, 0x47, 0xbe, 0xa0, 0xf8, 0xad, 0xbd,
  0x00, 0x1d, 0xa2, 0x3e, 0x43, 0x0c, 0x0c, 0xbe, 0x0a, 0xaa, 0x4b, 0xbe,
  0xd0, 0x11, 0xd0, 0x3e, 0x14, 0x84, 0x18, 0x3e, 0x4a, 0x51, 0xfc, 0x3c,
  0x65, 0x60, 0xab, 0x3d, 0xc0, 0xcc, 0xaa, 0x3e, 0xf6, 0x4d, 0xe9, 0x3c,
  0xda, 0x2a, 0x81, 0xbd, 0x9a, 0x7d, 0xa2, 0xbd, 0xb1, 0x49, 0x72, 0x3e,
  0xce, 0x7b, 0xae, 0x3e, 0x85, 0x23, 0xde, 0xbe, 0xd2, 0x7e, 0x32, 0xbd,
  0x44, 0xb2, 0x88, 0xbc, 0x89, 0x10, 0xb1, 0xbc, 0x63, 0x57, 0xae, 0x3d,
  0x96, 0x82, 0xb4, 0x3e, 0xf9, 0x29, 0x0e, 0xbc, 0x86, 0x94, 0x9b, 0x3e,
  0x6f, 0xdf, 0x1e, 0x3e, 0x3b, 0x21, 0x83, 0x3d, 0xae, 0x08, 0xc4, 0x3e,
  0x90, 0xd0, 0x66, 0x3e, 0xc9, 0xbb, 0xf7, 0x3b, 0xee, 0x69, 0x24, 0xbe,
  0xa7, 0x72, 0x5e, 0xbe, 0xba, 0x9c, 0x41, 0x3d, 0xda, 0x5e, 0x88, 0x3e,
  0x9f, 0x69, 0xc7, 0x3d, 0x44, 0x4c, 0xd0, 0x3d, 0x4a, 0x4d, 0x2c, 0xbe,
  0xb4, 0xdf, 0x2a, 0x3e, 0xba, 0x9d, 0x08, 0x3e, 0xa6, 0x2c, 0xd7, 0x3d,
  0xc4, 0x0f, 0x52, 0x3e, 0x39, 0x84, 0x4d, 0xbe, 0x85, 0x90, 0x82, 0x3c,
  0x70, 0xbc, 0x5b, 0x3e, 0xa9, 0x2e, 0x82, 0x3e, 0xb3, 0x4f, 0x9d, 0x3e,
  0xca, 0xf5, 0xa3, 0xbe, 0xae, 0x13, 0xa8, 0x3c, 0xba, 0x8f, 0x11, 0x3f,
  0x6a, 0xbc, 0xff, 0xbe, 0xaa, 0x7b, 0x83, 0xbd, 0xda, 0x7c, 0x99, 0x3e,
  0x19, 0x7b, 0xe5, 0xbd, 0x15, 0x15, 0x5b, 0xbe, 0x80, 0xac, 0xc8, 0x3e,
  0x5e, 0x4c, 0x88, 0x3a, 0x13, 0xdd, 0x92, 0x3d, 0xc0, 0x71, 0x10, 0x3f,
  0xa7, 0x56, 0x77, 0xbe, 0xd6, 0xa3, 0x64, 0x3c, 0x26, 0x51, 0x71, 0x3e,
  0x80, 0xfa, 0x8b, 0xbe, 0x1c, 0xee, 0x3a, 0x3e, 0xeb, 0x5c, 0x94, 0xbe,
  0x82, 0xf8, 0xc9, 0xbd, 0xfc, 0x55, 0x14, 0x3e, 0xf1, 0xb9, 0x96, 0xbe,
  0x01, 0x8a, 0x5f, 0x3e, 0x88, 0x24, 0xf7, 0x3c, 0x18, 0x08, 0xf8, 0xbe,
  0x04, 0xbf, 0xc1, 0xbe, 0xa5, 0xa7, 0xab, 0xbd, 0xe7, 0xcc, 0xbd, 0xbe,
  0x98, 0x4e, 0x98, 0xbd, 0x2b, 0xd1, 0x8e, 0xbe, 0xba, 0x78, 0x0c, 0xbe,
  0x04, 0x55, 0x29, 0xbe, 0xcb, 0xb2, 0xc5, 0x3e, 0xfb, 0x8a, 0xae, 0xbe,
  0x48, 0x19, 0x38, 0x3d, 0x60, 0xff, 0xd2, 0x3e, 0x58, 0x7e, 0x9c, 0x3e,
  0x66, 0x0d, 0x04, 0xbf, 0xc9, 0xe4, 0xa5, 0x3e, 0xac, 0xf1, 0x1a, 0x3d,
  0x3e, 0x66, 0x86, 0xbe, 0x11, 0xb1, 0x15, 0x3e, 0xe9, 0x9e, 0xc9, 0xbd,
  0x03, 0x3b, 0x03, 0x3e, 0x85, 0xce, 0xb6, 0x3e, 0x70, 0x54, 0xe8, 0xbd,
  0xf9, 0xc8, 0x2f, 0xbe, 0xa2, 0x5d, 0xab, 0x3d, 0xf4, 0x6d, 0xcb, 0x3d,
  0xd1, 0xc9, 0x78, 0xbd, 0xdd, 0xde, 0x89, 0xbd, 0x65, 0xfa, 0x33, 0x3e,
  0x17, 0x78, 0xa0, 0xbd, 0x10, 0xc4, 0x0b, 0xbd, 0xea, 0x62, 0x85, 0xbc,
  0x66, 0x4c, 0xc3, 0x3d, 0xe2, 0xa8, 0x39, 0x3a, 0xdd, 0xa6, 0xaf, 0x3d,
  0x91, 0xb1, 0x0c, 0xbd, 0xb7, 0x64, 0xc6, 0x3c, 0x9b, 0x63, 0x63, 0x3e,
  0xd2, 0xca, 0x4a, 0xbe, 0xe3, 0x0b, 0x21, 0xbf, 0xf6, 0x62, 0x0b, 0x3f,
  0xd2, 0x2c, 0xc2, 0xbd, 0x4e, 0xcc, 0x61, 0xbf, 0xe9, 0x46, 0x0f, 0x3f,
  0x15, 0x0b, 0xbc, 0x3e, 0x78, 0xbb, 0x6f, 0xbf, 0xe3, 0xdc, 0xf5, 0x3e,
  0x5f, 0x31, 0x09, 0xbe, 0x0b, 0x1d, 0x87, 0xbf, 0x6f, 0xe6, 0x6e, 0x3d,
  0x76, 0xfe, 0x26, 0x3e, 0x1a, 0xc8, 0x00, 0xbf, 0x23, 0xd5, 0x03, 0x3f,
  0xaf, 0xb1, 0xc3, 0xbe, 0xf8, 0x4a, 0x19, 0x3e, 0x35, 0x3a, 0x81, 0xbe,
  0xe7, 0xc9, 0x3e, 0x3e, 0xc6, 0xf0, 0x8c, 0x3e, 0x78, 0x83, 0x61, 0xbe,
  0xae, 0xe3, 0x5a, 0x3e, 0x00, 0x20, 0xd2, 0xbd, 0xa3, 0x89, 0x23, 0x3d,
  0x65, 0xe3, 0x17, 0x3d, 0xf7, 0xb6, 0x52, 0xbe, 0x48, 0x3a, 0x57, 0xbb,
  0x61, 0xaa, 0x1c, 0x3e, 0x63, 0x36, 0x4b, 0xbd, 0x2d, 0xd8, 0x3e, 0xbd,
  0xf3, 0x7d, 0x16, 0xbe, 0x44, 0x9f, 0x33, 0xbe, 0x2b, 0xda, 0x40, 0x3e,
  0x60, 0x44, 0xa1, 0xbd, 0x86, 0x2f, 0x97, 0x3e, 0xb4, 0x4e, 0x89, 0xbe,
  0xfb, 0xfd, 0x54, 0xbd, 0xa7, 0x88, 0x31, 0xbd, 0x2e, 0xd6, 0x1a, 0x3e,
  0x40, 0x10, 0xb1, 0x3c, 0xdd, 0xa4, 0x2a, 0x3e, 0xa4, 0x61, 0xc5, 0xbd,
  0x6e, 0xcd, 0xc1, 0xbe, 0xc7, 0x62, 0x41, 0xbe, 0x97, 0xe2, 0x31, 0xbe,
  0x09, 0xad, 0x87, 0xbe, 0x83, 0xb6, 0xe4, 0x3d, 0x6c, 0x9a, 0xec, 0xbd,
  0xeb, 0xc9, 0x2f, 0xbb, 0x7b, 0xdf, 0x43, 0x3e, 0x83, 0xe4, 0xff, 0xbd,
  0x10, 0x53, 0xec, 0xbd, 0x6f, 0x26, 0xa2, 0xbe, 0xaf, 0xa5, 0xc1, 0xbe,
  0x1e, 0xe7, 0x8d, 0xbe, 0x61, 0xda, 0x8e, 0x3c, 0x21, 0xa6, 0xba, 0xbd,
  0x34, 0xaf, 0x00, 0xbe, 0x62, 0xb9, 0x29, 0x3e, 0x83, 0xa2, 0x77, 0xbe,
  0x52, 0x3b, 0x64, 0x3e, 0x07, 0xf9, 0xa7, 0x3e, 0x72, 0x79, 0x97, 0x3d,
  0xbe, 0x93, 0xed, 0x3e, 0x72, 0x8c, 0x79, 0xbe, 0xc3, 0xb0, 0xb1, 0x3c,
  0xad, 0x6f, 0xa9, 0x3e, 0xfc, 0xe3, 0xcb, 0xbd, 0x97, 0xe6, 0xe6, 0xbc,
  0xe1, 0x12, 0x22, 0x3f, 0x9c, 0xd1, 0x0d, 0xbe, 0xb7, 0x38, 0x09, 0x3e,
  0x47, 0xd0, 0x27, 0x3e, 0xa8, 0x73, 0x72, 0xbc, 0xba, 0x16, 0xa5, 0x3d,
  0x35, 0x0f, 0xf6, 0x3e, 0xc7, 0x67, 0x7b, 0xbe, 0xbf, 0xd3, 0x56, 0x3e,
  0xe8, 0xb7, 0xc6, 0x3d, 0x92, 0x44, 0x8b, 0x3e, 0xa5, 0x2e, 0xfe, 0x3d,
  0x73, 0xf5, 0x16, 0x3d, 0xc3, 0x46, 0x1e, 0xbe, 0xea, 0x4e, 0x0d, 0x3e,
  0x51, 0xc5, 0x38, 0xbe, 0x4b, 0xcd, 0xf2, 0xbd, 0xc5, 0xef, 0x37, 0xbe,
  0x36, 0xf1, 0x5e, 0xbe, 0x8d, 0x2c, 0xbe, 0x3d, 0x33, 0xfa, 0x15, 0x3d,
  0x25, 0x4c, 0xac, 0x3c, 0x9f, 0xd9, 0x84, 0x3e, 0x15, 0x06, 0xaf, 0x3e,
  0xd5, 0x4b, 0x92, 0xbe, 0x57, 0xfe, 0xf1, 0x3e, 0xd4, 0x82, 0x30, 0xbf,
  0x06, 0xf4, 0x89, 0x3e, 0x6b, 0x1b, 0x94, 0x3e, 0x66, 0x0a, 0xbc, 0xbd,
  0x8d, 0x23, 0x79, 0x3e, 0x4a, 0x8c, 0x45, 0x3f, 0x9e, 0x4a, 0xec, 0xbc,
  0xf7, 0x40, 0x15, 0xbe, 0x20, 0x45, 0x04, 0x3f, 0xc6, 0x63, 0xbf, 0xbe,
  0x10, 0x97, 0xca, 0xbb, 0x9d, 0x1b, 0x13, 0x3f, 0xc6, 0x2e, 0x44, 0xbe,
  0xce, 0xd1, 0x06, 0xbc, 0xa8, 0xc6, 0x7b, 0xbe, 0xdd, 0xc8, 0x7b, 0xbd,
  0x99, 0xd7, 0xa5, 0x3d, 0x5e, 0x77, 0x23, 0x3e, 0xaf, 0xe4, 0x6f, 0x3e,
  0x4a, 0x8f, 0xcc, 0xbd, 0x10, 0x8a, 0x4c, 0x3e, 0x7f, 0xb9, 0x54, 0x3e,
  0xcf, 0xe0, 0x49, 0x3e, 0x76, 0x03, 0x99, 0xbe, 0xcc, 0x6e, 0x58, 0xbb,
  0x7f, 0x40, 0x05, 0x3e, 0xfe, 0x80, 0xfa, 0x3d, 0x71, 0x00, 0x05, 0x3e,
  0xa6, 0xd1, 0xb4, 0x3d, 0x93, 0xbe, 0x6d, 0xbc, 0xdd, 0x1e, 0x1a, 0xbe,
  0xbb, 0x78, 0x54, 0xbe, 0x5f, 0xee, 0x70, 0xbe, 0x0d, 0xa8, 0x87, 0x3e,
  0xb7, 0xa5, 0x5f, 0xbe, 0x8f, 0x30, 0x85, 0x3e, 0xfd, 0xcc, 0x02, 0x3e,
  0x72, 0xaf, 0xe7, 0x3e, 0x77, 0x5e, 0xc9, 0xbd, 0x2d, 0x49, 0xca, 0x3e,
  0x32, 0x62, 0x25, 0x3d, 0x88, 0x54, 0x58, 0xbe, 0x6e, 0xe6, 0x96, 0x3d,
  0xd9, 0x47, 0xe3, 0x3e, 0x84, 0x6d, 0x83, 0x3e, 0x7e, 0xca, 0x6d, 0xbe,
  0x00, 0x7d, 0x6f, 0x3d, 0x4c, 0x53, 0x0a, 0xbe, 0xc2, 0x30, 0xfa, 0xbc,
  0x2b, 0x91, 0x14, 0xbe, 0xe8, 0x77, 0x6b, 0xbe, 0x4d, 0x4c, 0x57, 0xbe,
  0xa9, 0x55, 0x5d, 0xbe, 0x02, 0x9c, 0x7c, 0xbe, 0xaa, 0xc0, 0xe0, 0xbe,
  0x4c, 0x7e, 0x96, 0xbe, 0x2f, 0x07, 0xec, 0xbd, 0x07, 0x2c, 0x9c, 0x3d,
  0x50, 0x86, 0x43, 0x3e, 0x90, 0xbc, 0x43, 0x3e, 0x15, 0x75, 0xb7, 0xbe,
  0x0a, 0xb3, 0x34, 0x3f, 0xb8, 0xf1, 0x1e, 0xbf, 0xb7, 0xdb, 0x66, 0xbe,
  0xc2, 0x68, 0x34, 0x3f, 0x48, 0xca, 0x09, 0xbf, 0x64, 0xde, 0x0e, 0x3e,
  0x32, 0x5a, 0x66, 0x3f, 0x4b, 0x3d, 0x86, 0xbe, 0x05, 0xf3, 0xca, 0x3d,
  0x56, 0x1a, 0x80, 0x3e, 0xe4, 0x44, 0x0a, 0x3d, 0xaa, 0xd5, 0x60, 0x3e,
  0x53, 0x9e, 0x47, 0x3f, 0x2e, 0xcb, 0x47, 0x3d, 0x3b, 0xc5, 0xde, 0xbd,
  0x53, 0x4f, 0xd5, 0xbc, 0x7c, 0x43, 0x83, 0xbe, 0x07, 0x73, 0xaa, 0xbd,
  0x3b, 0x82, 0x7e, 0xbe, 0x1a, 0x96, 0xd1, 0xbd, 0x43, 0xb1, 0xd0, 0xbd,
  0xc6, 0xbb, 0x9a, 0x3d, 0xae, 0x2a, 0x2a, 0x3e, 0xc5, 0xef, 0x9c, 0xbd,
  0x5e, 0xdb, 0xc5, 0x3d, 0x1c, 0xb6, 0x2c, 0x3e, 0x55, 0x64, 0x0e, 0x3a,
  0x1a, 0x60, 0x22, 0x3e, 0x31, 0x62, 0xdd, 0x3d, 0x8b, 0xf1, 0xea, 0xbd,
  0x68, 0x31, 0x88, 0xbe, 0xd3, 0x24, 0xda, 0xbe, 0xb1, 0x32, 0xfa, 0x3e,
  0x42, 0x6b, 0x4a, 0xbe, 0x31, 0x5f, 0xfa, 0xbe, 0xaf, 0x0e, 0xdf, 0x3e,
  0x95, 0x5b, 0xba, 0x3d, 0xa1, 0x91, 0x58, 0xbf, 0xea, 0xe6, 0xa0, 0x3e,
  0x89, 0xbe, 0x38, 0x3e, 0x74, 0xad, 0x3e, 0xbf, 0x48, 0x63, 0xd1, 0x3e,
  0xc0, 0x55, 0x7f, 0xbb, 0x2e, 0xc6, 0x1a, 0xbf, 0x7a, 0xdf, 0x7e, 0x3d,
  0xf2, 0x78, 0x6e, 0x3e, 0xba, 0x22, 0x37, 0xbe, 0xa7, 0x8b, 0x90, 0x3e,
  0xe2, 0xd1, 0x20, 0xbe, 0xd0, 0xf8, 0x1d, 0x3e, 0xb6, 0xe4, 0xbc, 0xbd,
  0xd5, 0x20, 0x16, 0x3e, 0xa7, 0x9a, 0x5e, 0x3e, 0x42, 0xdb, 0x1c, 0x3e,
  0x0a, 0x26, 0xaa, 0xbe, 0x88, 0xd4, 0xa5, 0x3e, 0x32, 0xd5, 0xd7, 0xbc,
  0x9e, 0x79, 0x0e, 0xbe, 0x9e, 0x35, 0x78, 0x3d, 0x77, 0x93, 0x72, 0x3e,
  0x15, 0x5e, 0x24, 0xbe, 0xce, 0x84, 0x97, 0xbd, 0xde, 0x72, 0xef, 0x3d,
  0xd4, 0xc4, 0x14, 0xbe, 0xed, 0x38, 0x20, 0x3e, 0x79, 0x2e, 0xa2, 0x3e,
  0xe9, 0x63, 0x73, 0xbe, 0xa6, 0xd0, 0x9c, 0xbe, 0x4e, 0x62, 0xc2, 0xbd,
  0x15, 0x8b, 0x4a, 0xbe, 0xd6, 0xc6, 0x97, 0xbe, 0x37, 0x1a, 0x7d, 0x3d,
  0xbe, 0x96, 0xe7, 0xbe, 0x04, 0x54, 0x93, 0xbd, 0x8b, 0x3a, 0x10, 0xbe,
  0xc0, 0x4b, 0xb1, 0x3d, 0x2e, 0xeb, 0x97, 0xbe, 0x78, 0x22, 0xe0, 0xbd,
  0xe9, 0x6b, 0x9c, 0x3e, 0xd7, 0x05, 0x88, 0xbe, 0x99, 0xa9, 0x33, 0xbe,
  0xb4, 0x0d, 0x54, 0x3d, 0xfe, 0x55, 0x03, 0x3e, 0xd7, 0x15, 0xbc, 0xbd,
  0xdf, 0x2c, 0x75, 0x3e, 0x01, 0x4a, 0x8e, 0xbd, 0x2a, 0x4e, 0x26, 0xbe,
  0x10, 0x39, 0x4a, 0xbe, 0xd4, 0xf0, 0x87, 0xbd, 0xe5, 0xbe, 0xea, 0xbc,
  0xd5, 0x45, 0x81, 0x3d, 0xc8, 0xc0, 0x0e, 0x3e, 0x43, 0x68, 0xd7, 0xbd,
  0x09, 0x1a, 0xf9, 0x3e, 0xde, 0x94, 0x25, 0xbf, 0xba, 0x0e, 0x0f, 0x3e,
  0xb8, 0xc4, 0x0b, 0x3f, 0x32, 0x6c, 0x8a, 0xbd, 0x5b, 0x0c, 0x32, 0x3e,
  0x9e, 0x91, 0x3b, 0x3f, 0xa3, 0x5e, 0x41, 0xbe, 0xbe, 0xf8, 0xb4, 0xbd,
  0x16, 0x08, 0x11, 0x3f, 0x56, 0x2e, 0xaf, 0xbe, 0x7e, 0x84, 0x3a, 0xbe,
  0x79, 0xb0, 0xde, 0x3e, 0x56, 0x92, 0xaa, 0xbe, 0x01, 0xb0, 0xa6, 0xbb,
  0x25, 0xd9, 0xf9, 0x3d, 0xa0, 0xf9, 0xab, 0x3d, 0xc7, 0xcf, 0xc9, 0x3c,
  0x46, 0x58, 0x3d, 0xbe, 0xe7, 0x94, 0x0d, 0xbe, 0x19, 0xfa, 0x31, 0x3e,
  0xf1, 0x14, 0x4d, 0x3e, 0x25, 0xf2, 0x8a, 0x3d, 0xcf, 0x09, 0x4b, 0x3e,
  0x62, 0x4d, 0xdd, 0xbd, 0x64, 0x82, 0x94, 0x3c, 0xcc, 0xd5, 0x77, 0xbe,
  0x6b, 0xe9, 0x59, 0x3d, 0xa5, 0x3b, 0x9c, 0xbd, 0x57, 0x27, 0xb0, 0x3d,
  0x18, 0x52, 0xb5, 0x3e, 0xa5, 0x42, 0x85, 0x3b, 0xdb, 0x4c, 0x28, 0xbf,
  0x8f, 0x90, 0x32, 0x3d, 0x16, 0x68, 0x69, 0x3e, 0x58, 0x54, 0x02, 0xbf,
  0x21, 0xac, 0xcb, 0x3d, 0x5c, 0x0b, 0x1a, 0x3f, 0x17, 0x21, 0x1a, 0xbe,
  0x8f, 0x8a, 0x06, 0xbe, 0xc2, 0xf5, 0x15, 0xbe, 0x93, 0xf4, 0x94, 0xbe,
  0x9c, 0x96, 0x1c, 0x3e, 0x82, 0x35, 0xed, 0x3e, 0xed, 0x93, 0x1e, 0xbe,
  0x9c, 0x9d, 0x96, 0x3e, 0x80, 0xe1, 0x87, 0xbe, 0xa4, 0x36, 0xf5, 0x3d,
  0x60, 0xac, 0xf6, 0x3d, 0x42, 0x27, 0x51, 0x3d, 0xd2, 0x30, 0x16, 0xbe,
  0xec, 0xa5, 0xb7, 0xbd, 0xa9, 0x98, 0x29, 0xbe, 0x6e, 0xfe, 0xa5, 0x3d,
  0x2d, 0x94, 0x14, 0xbe, 0xd5, 0x02, 0x57, 0xbe, 0xcb, 0x56, 0x36, 0xbe,
  0xcc, 0xe7, 0x65, 0x3e, 0xc5, 0x17, 0x31, 0x3d, 0x53, 0x47, 0xf5, 0x3d,
  0x7b, 0x8c, 0x3e, 0xbe, 0xfb, 0xd5, 0x94, 0xbd, 0xa3, 0x7f, 0xe1, 0x3e,
  0xe3, 0x72, 0xc0, 0x3e, 0x8c, 0x02, 0x56, 0x3e, 0x8a, 0xfd, 0x47, 0xbe,
  0xaf, 0xbb, 0x87, 0xbe, 0xd5, 0x3d, 0x6a, 0x3e, 0x5e, 0x87, 0x23, 0xbe,
  0x6a, 0xab, 0xbc, 0xbe, 0x0a, 0xe3, 0x91, 0xbe, 0xec, 0xeb, 0x34, 0x3e,
  0x13, 0x3e, 0xab, 0x3d, 0x4c, 0xf0, 0xa7, 0xbd, 0xf4, 0x68, 0x31, 0x3e,
  0x46, 0x46, 0xdf, 0x3e, 0x62, 0x04, 0x42, 0xbe, 0x90, 0xd3, 0x69, 0xbe,
  0x4e, 0x80, 0x76, 0x3e, 0xf2, 0xab, 0xf0, 0xbd, 0x94, 0xdd, 0x5b, 0x3d,
  0xed, 0x5f, 0x0b, 0xbe, 0x5e, 0x41, 0xb1, 0xbd, 0x71, 0xaf, 0xc9, 0x3d,
  0x81, 0xcf, 0x60, 0xbd, 0x34, 0x3b, 0x4b, 0xbd, 0xe5, 0xfa, 0x00, 0xbd,
  0xe0, 0x9c, 0xc7, 0xbe, 0x50, 0xbf, 0xbd, 0xbc, 0xbd, 0x98, 0xbf, 0x3e,
  0x9a, 0x26, 0x9f, 0xbd, 0xc1, 0x4e, 0x9f, 0x3d, 0x4e, 0xe4, 0x11, 0xbe,
  0xe7, 0x79, 0x34, 0xbf, 0xba, 0x6e, 0xcb, 0x3e, 0x06, 0xa0, 0x4b, 0x3e,
  0xd8, 0xd5, 0x08, 0xbf, 0xb1, 0x06, 0x23, 0xbe, 0xfd, 0xaf, 0x71, 0xbc,
  0xb7, 0x7e, 0x50, 0xbe, 0xfa, 0xdb, 0xa4, 0x3e, 0x49, 0xa1, 0x69, 0x3e,
  0x4c, 0xce, 0xdf, 0xbe, 0xc8, 0x65, 0x92, 0x3e, 0x8f, 0x4c, 0x77, 0x3e,
  0x30, 0x36, 0xcb, 0xbe, 0x23, 0xf8, 0x31, 0xbe, 0x2a, 0xfa, 0x8a, 0xbe,
  0x6e, 0x21, 0x35, 0xbd, 0x65, 0x3b, 0x66, 0x3e, 0x42, 0xef, 0x36, 0x3d,
  0x9f, 0x18, 0x0a, 0xbe, 0xde, 0x80, 0x83, 0x3e, 0x2d, 0xbf, 0x47, 0x3e,
  0x6d, 0xed, 0x9f, 0xbd, 0x4a, 0x13, 0x91, 0x3e, 0xee, 0x0a, 0xd7, 0x3d,
  0x5d, 0xa9, 0xaf, 0x3c, 0x42, 0xd2, 0xc3, 0x3d, 0xfe, 0x8d, 0x52, 0x3d,
  0x71, 0x62, 0x57, 0x3e, 0xe5, 0x6d, 0x9f, 0x3e, 0xdd, 0x8b, 0xf0, 0x3d,
  0x48, 0xd6, 0xc6, 0x3d, 0xff, 0x0a, 0xce, 0xbd, 0xeb, 0x9b, 0x47, 0x3e,
  0xed, 0xda, 0xbe, 0xbb, 0xda, 0xed, 0xde, 0xbe, 0x0b, 0x83, 0xb0, 0x3e,
  0x35, 0x30, 0x38, 0xbe, 0x1a, 0x88, 0x1e, 0xbf, 0xb1, 0x6d, 0xf0, 0x3e,
  0x02, 0x56, 0x27, 0xbe, 0xa0, 0xd2, 0xcb, 0xbe, 0x30, 0x64, 0x9e, 0x3e,
  0x64, 0x87, 0x51, 0xbe, 0x87, 0x54, 0x3d, 0xbe, 0x88, 0x6e, 0x3b, 0x3e,
  0x37, 0xdf, 0x16, 0x3e, 0x17, 0x39, 0x03, 0x3e, 0x1d, 0xe5, 0x10, 0x3e,
  0xea, 0xdb, 0x8f, 0xbd, 0xcf, 0x31, 0x95, 0xbe, 0x0a, 0x88, 0x87, 0x3e,
  0x64, 0x74, 0xa5, 0xbd, 0x0a, 0xf8, 0x52, 0x3e, 0x68, 0xc4, 0x39, 0xbe,
  0x6f, 0x0c, 0x5f, 0x3e, 0xa8, 0x5c, 0x40, 0x3d, 0x30, 0x1b, 0x57, 0xbe,
  0x75, 0x39, 0x7d, 0x3d, 0xef, 0x36, 0x8a, 0xbe, 0x65, 0x65, 0xeb, 0x3d,
  0x2b, 0xe5, 0xa8, 0x3e, 0x5d, 0xbc, 0xce, 0xbd, 0x1a, 0x60, 0x21, 0x3f,
  0x62, 0x4f, 0x03, 0xbe, 0xf9, 0x24, 0xe7, 0x3d, 0xc7, 0x9c, 0x79, 0x3f,
  0xf0, 0x3d, 0x24, 0xbc, 0x06, 0x9b, 0x1f, 0xbe, 0xa1, 0xca, 0x73, 0x3e,
  0x62, 0x6f, 0xcf, 0xbe, 0x3f, 0xf3, 0x5f, 0xbc, 0x28, 0x3b, 0x54, 0x3f,
  0x7f, 0x36, 0x60, 0xbd, 0x73, 0xc7, 0x26, 0x3e, 0xc9, 0xce, 0x18, 0x3f,
  0x1b, 0x37, 0xc3, 0x3e, 0x1c, 0xf0, 0xdf, 0xbd, 0x42, 0x93, 0x1e, 0xbe,
  0x13, 0x50, 0x0d, 0xbd, 0x4a, 0x3d, 0xb1, 0xbe, 0x34, 0x16, 0x6f, 0xbe,
  0x9d, 0x86, 0x13, 0xbe, 0xba, 0x94, 0x9e, 0xbe, 0xa6, 0x0f, 0x16, 0xbd,
  0x16, 0x6b, 0xbc, 0xbd, 0xd4, 0xa7, 0x07, 0xbd, 0x02, 0x94, 0x98, 0xbe,
  0x6b, 0xae, 0x41, 0xbe, 0xba, 0x5e, 0x03, 0xbf, 0xbf, 0x70, 0x96, 0x3d,
  0x3d, 0x04, 0x2a, 0x3d, 0x58, 0xd2, 0x25, 0x3c, 0xa9, 0x3b, 0x8e, 0x3e,
  0x4d, 0x08, 0x16, 0x3f, 0xb7, 0x14, 0x0e, 0xbf, 0xcc, 0x2e, 0x08, 0x3b,
  0xbd, 0x45, 0xc4, 0x3e, 0xcd, 0x20, 0x83, 0xbe, 0x7c, 0x73, 0x0b, 0xbd,
  0x0c, 0x34, 0x72, 0x3e, 0x92, 0xd1, 0x0d, 0xbf, 0x1e, 0x39, 0x43, 0x3d,
  0x8e, 0x53, 0xb4, 0x3e, 0xda, 0xc7, 0xe0, 0xbd, 0xa8, 0x23, 0xf5, 0xbd,
  0xcc, 0x20, 0xb8, 0x3e, 0x00, 0x44, 0x19, 0xbf, 0x72, 0x39, 0x94, 0xbc,
  0xa9, 0x33, 0x6e, 0xbd, 0x4c, 0x17, 0x29, 0xbe, 0x03, 0x35, 0x7c, 0xbe,
  0xc5, 0xc7, 0x75, 0x3e, 0xf3, 0x9a, 0x51, 0x3d, 0x75, 0x9e, 0x05, 0x3e,
  0xbf, 0x0e, 0x5e, 0xbe, 0x89, 0xf7, 0x5a, 0x3e, 0x0b, 0x5d, 0x9a, 0xbd,
  0x84, 0x5d, 0xb0, 0xbe, 0x27, 0x0d, 0x81, 0x3d, 0x66, 0xcd, 0x3e, 0x3e,
  0x76, 0xf0, 0x85, 0xbe, 0x25, 0xc7, 0x8d, 0xbe, 0x0a, 0xf7, 0xff, 0xff,
  0x04, 0x00, 0x00, 0x00, 0x80, 0x00, 0x00, 0x00, 0x1e, 0x5e, 0xdc, 0x3d,
  0x28, 0x29, 0x1a, 0x3e, 0xa4, 0xd3, 0xbe, 0xbd, 0x29, 0xef, 0x22, 0x3d,
  0x26, 0x09, 0x32, 0x3e, 0x72, 0xb7, 0xd1, 0x3d, 0xef, 0x4d, 0xe5, 0x3c,
  0xf7, 0xf8, 0x00, 0x3c, 0x04, 0x0d, 0x55, 0xbd, 0x48, 0x6e, 0x8f, 0xbc,
  0xa1, 0xb5, 0x0c, 0x3e, 0xf8, 0x29, 0x12, 0x3d, 0xb7, 0x7d, 0xdd, 0xbd,
  0x27, 0x72, 0x97, 0xbd, 0x02, 0x6f, 0x79, 0xbd, 0x4c, 0x75, 0xb3, 0xbc,
  0x71, 0x80, 0x6d, 0xbd, 0x3a, 0x82, 0x65, 0xbe, 0xf4, 0x5a, 0xb6, 0x3d,
  0x84, 0xe1, 0x2e, 0x3e, 0xb5, 0xb2, 0x19, 0x3e, 0x1e, 0xfd, 0xf7, 0x3d,
  0xfb, 0x87, 0x53, 0x3e, 0x40, 0x7e, 0xd6, 0xbd, 0x65, 0xba, 0xee, 0xbc,
  0xc7, 0xd3, 0xe0, 0x3d, 0xf6, 0x7e, 0xef, 0x3d, 0x2f, 0x45, 0x89, 0x3d,
  0xf4, 0x78, 0x81, 0xbd, 0x10, 0xe5, 0x00, 0xbe, 0xd4, 0x75, 0x73, 0x3e,
  0x11, 0x9f, 0x19, 0x3e, 0x96, 0xf7, 0xff, 0xff, 0x04, 0x00, 0x00, 0x00,
  0x04, 0x00, 0x00, 0x00, 0x27, 0x78, 0x1f, 0xbe, 0xa6, 0xf7, 0xff, 0xff,
  0x04, 0x00, 0x00, 0x00, 0x40, 0x00, 0x00, 0x00, 0xbe, 0xcb, 0x18, 0x3e,
  0x05, 0x29, 0xc4, 0xbc, 0x81, 0xed, 0x84, 0xbd, 0xaf, 0xac, 0x24, 0x3e,
  0x8a, 0x37, 0x42, 0x3e, 0x83, 0xdb, 0x4f, 0x3e, 0x80, 0xdb, 0x07, 0xbd,
  0xc6, 0x9a, 0xc9, 0xbd, 0x06, 0xb8, 0x20, 0xbe, 0xe0, 0x77, 0xb1, 0xbd,
  0xee, 0x84, 0xdd, 0x3b, 0x8a, 0x39, 0x48, 0x3d, 0xb1, 0xb7, 0x1e, 0x3e,
  0xb1, 0x55, 0xd5, 0xbd, 0x1f, 0x40, 0xe6, 0xbd, 0x80, 0x34, 0x96, 0xbd,
  0xf2, 0xf7, 0xff, 0xff, 0x04, 0x00, 0x00, 0x00, 0x00, 0x08, 0x00, 0x00,
  0x80, 0x77, 0x98, 0x3e, 0xf5, 0xd7, 0xc6, 0x3d, 0x94, 0x4c, 0x2b, 0xbd,
  0x25, 0xf8, 0xac, 0x3e, 0x6b, 0xd5, 0x36, 0x3e, 0x90, 0x29, 0x28, 0x3e,
  0x7e, 0x2b, 0x16, 0xbe, 0xaf, 0x4f, 0xc1, 0x3e, 0xa6, 0xb1, 0x0b, 0x3e,
  0x2e, 0x1b, 0x54, 0x3b, 0x5e, 0x55, 0x22, 0x3e, 0xf9, 0xdb, 0xb6, 0xbe,
  0x9d, 0xbe, 0x1c, 0xbc, 0x97, 0xc3, 0x69, 0xbd, 0x14, 0x02, 0x02, 0x3e,
  0x52, 0xdc, 0x13, 0xbe, 0x74, 0xd4, 0x9a, 0xbe, 0xe4, 0xe3, 0x24, 0xbe,
  0x44, 0xdb, 0x85, 0xbe, 0x10, 0x14, 0xb3, 0xbc, 0xa2, 0xea, 0x7e, 0x3e,
  0xe1, 0x28, 0xc0, 0x3d, 0x7f, 0x35, 0xd9, 0xbc, 0x57, 0x72, 0x33, 0xbe,
  0xda, 0xd3, 0x4f, 0x3e, 0xc1, 0x6b, 0x87, 0x3d, 0xc8, 0x5c, 0x49, 0xbe,
  0x6b, 0x87, 0x36, 0xbe, 0x16, 0x94, 0x98, 0xbd, 0x82, 0x2f, 0x85, 0xbe,
  0x0d, 0x2b, 0xfa, 0x3e, 0xb3, 0x35, 0x0a, 0xbe, 0x00, 0x0b, 0xa2, 0x3e,
  0x7c, 0x88, 0xdc, 0xbe, 0xc9, 0x8e, 0x2b, 0x3e, 0x3e, 0x3e, 0x05, 0x3d,
  0x07, 0xc7, 0x93, 0xbe, 0xb2, 0xf2, 0x10, 0x3c, 0x5e, 0x10, 0xaf, 0xbd,
  0xef, 0xc3, 0xc3, 0x3e, 0x6a, 0x55, 0x42, 0x3e, 0x1c, 0x64, 0x6e, 0xbe,
  0x2a, 0x39, 0x95, 0xbe, 0x52, 0x00, 0x77, 0x3e, 0x5d, 0x57, 0x3f, 0xbe,
  0x70, 0x8f, 0x83, 0x3d, 0x94, 0x57, 0x9a, 0xbc, 0x65, 0x57, 0xe8, 0x3e,
  0x37, 0xa8, 0x3b, 0x3d, 0x1f, 0x24, 0x5e, 0x3e, 0x6c, 0x39, 0xd7, 0xbd,
  0xf6, 0xf1, 0x14, 0xbe, 0x63, 0x45, 0x87, 0x3c, 0xef, 0xf7, 0xca, 0x3e,
  0xb8, 0x79, 0xb9, 0xbe, 0xb0, 0xe8, 0x47, 0x3e, 0xf0, 0x85, 0x8f, 0x3e,
  0x3e, 0x66, 0xfc, 0xbd, 0xef, 0xd6, 0x75, 0xbe, 0x89, 0x4d, 0x79, 0xbe,
  0xa3, 0x29, 0x8f, 0x3e, 0xc9, 0x4e, 0x60, 0xbe, 0x08, 0xe4, 0xc0, 0x3e,
  0x5d, 0xbf, 0xbf, 0xbb, 0x42, 0x5c, 0x91, 0xbe, 0x84, 0x50, 0x8f, 0xbe,
  0x79, 0xb9, 0xbb, 0xbe, 0xaf, 0xb9, 0x67, 0x3e, 0x8b, 0x66, 0x19, 0xbd,
  0xa8, 0xb5, 0x8a, 0x3e, 0x8d, 0xd7, 0x88, 0xbe, 0x1d, 0xf4, 0x59, 0xbd,
  0x92, 0x34, 0x01, 0xbe, 0x64, 0xa2, 0xba, 0xbe, 0x26, 0x4e, 0x90, 0xbe,
  0x27, 0x28, 0x64, 0xbe, 0x27, 0x8d, 0xb5, 0xbe, 0x5a, 0x38, 0x10, 0xbe,
  0x79, 0xb8, 0xc8, 0xbe, 0xf6, 0x8f, 0xeb, 0x3d, 0xd5, 0xc5, 0x54, 0xbe,
  0x60, 0xf8, 0x2d, 0xbc, 0x77, 0xfa, 0x65, 0xbd, 0x2b, 0x30, 0x21, 0xbe,
  0x34, 0xac, 0x5a, 0x3e, 0xd2, 0x32, 0x0c, 0xbe, 0xef, 0x0f, 0x3d, 0xbd,
  0xbe, 0xe2, 0x08, 0x3e, 0x01, 0x47, 0xd3, 0x3d, 0xfb, 0xa4, 0x4b, 0x3e,
  0xfc, 0x76, 0x90, 0xbe, 0xbd, 0x60, 0x3e, 0xbd, 0x9c, 0x0e, 0x45, 0x3e,
  0x4d, 0x67, 0x84, 0xbe, 0x1c, 0xe6, 0x13, 0x3e, 0xa6, 0xc6, 0xd8, 0x3b,
  0xe5, 0xa6, 0xd8, 0xbd, 0xce, 0x01, 0xb8, 0x3e, 0x70, 0x7c, 0x1a, 0x3c,
  0xc6, 0xa8, 0x7a, 0x3d, 0xdf, 0x0e, 0x5f, 0x3e, 0x36, 0x75, 0x35, 0x3e,
  0x31, 0x15, 0x5a, 0x3e, 0x29, 0x7e, 0xb0, 0xbd, 0x28, 0x34, 0xfe, 0x3c,
  0xe6, 0xac, 0x6d, 0xbe, 0x09, 0x90, 0xcc, 0xbd, 0xd4, 0x28, 0x92, 0x3e,
  0x16, 0xf2, 0x61, 0x3e, 0x1f, 0x74, 0xbe, 0x3b, 0xfc, 0x83, 0x91, 0xbe,
  0x1f, 0xbb, 0xe1, 0x3e, 0x12, 0xe0, 0xbc, 0xbe, 0x1c, 0x64, 0x50, 0x3c,
  0xe6, 0x1b, 0xa7, 0x3c, 0xd0, 0xcc, 0xb7, 0x3e, 0xa8, 0x01, 0x4f, 0x3e,
  0xb9, 0xbc, 0x16, 0xbe, 0xf7, 0x25, 0x4a, 0x3e, 0xc1, 0xef, 0x9c, 0x3e,
  0x09, 0x17, 0x98, 0xbe, 0xbb, 0xf2, 0x11, 0x3e, 0x2d, 0x29, 0xb8, 0xbb,
  0xbd, 0x39, 0x0b, 0x3e, 0x77, 0xda, 0xbb, 0xbe, 0xa6, 0xd4, 0x97, 0xbe,
  0x1a, 0x8c, 0x05, 0xbe, 0x42, 0x9d, 0xd9, 0x3e, 0x6c, 0x38, 0x09, 0xbe,
  0x7d, 0x92, 0x75, 0x3e, 0x6c, 0x6c, 0x78, 0x3d, 0xe6, 0xda, 0x20, 0xbe,
  0x9c, 0x30, 0x3e, 0xbe, 0x81, 0xd1, 0xab, 0x3e, 0x93, 0x40, 0x8c, 0x3d,
  0xc0, 0xd7, 0x43, 0x3e, 0x48, 0x7b, 0x9a, 0x3e, 0x28, 0x87, 0x41, 0xbe,
  0xb5, 0x85, 0x0e, 0xbe, 0x40, 0x0b, 0x0a, 0x3e, 0xd8, 0xc0, 0x2e, 0xbe,
  0x52, 0xcc, 0x70, 0x3c, 0x8d, 0x42, 0xd2, 0xbd, 0x60, 0xc9, 0x1a, 0x3d,
  0x17, 0x5d, 0x85, 0x3e, 0x44, 0x04, 0x81, 0xbe, 0x54, 0xa2, 0x43, 0xbd,
  0x78, 0x0c, 0xea, 0x3e, 0x2e, 0x5e, 0x62, 0x3e, 0xca, 0x96, 0x16, 0xbd,
  0x97, 0x39, 0x19, 0xbe, 0xf5, 0x3e, 0x9c, 0xbe, 0x4d, 0x7a, 0x07, 0xbe,
  0x55, 0xb4, 0x9f, 0xbd, 0x2c, 0xcb, 0xbb, 0x3e, 0x80, 0xc8, 0x96, 0x3e,
  0x41, 0xf2, 0xbc, 0xbe, 0x90, 0x2b, 0xeb, 0xbd, 0xcf, 0xf8, 0x6b, 0xbe,
  0xca, 0xb7, 0x2c, 0xbe, 0xf5, 0x88, 0xe9, 0xbc, 0xfa, 0xd4, 0x68, 0xbd,
  0xdd, 0xed, 0x67, 0xbd, 0xcf, 0x7d, 0x3f, 0xbe, 0xeb, 0x69, 0x4c, 0xbe,
  0xb0, 0x18, 0x84, 0x3e, 0x0d, 0xb2, 0xf2, 0xbd, 0x6d, 0xcf, 0xc4, 0xbd,
  0x28, 0x81, 0x20, 0xbe, 0x6b, 0x18, 0xa4, 0x3e, 0x5c, 0xaa, 0x25, 0x3e,
  0x79, 0x12, 0x9d, 0x3e, 0x38, 0xdf, 0x53, 0xba, 0xae, 0xeb, 0xa7, 0xba,
  0x78, 0x57, 0x37, 0x3e, 0xb0, 0x25, 0xbe, 0x3e, 0x60, 0xe1, 0xc8, 0xbe,
  0x65, 0x32, 0x3b, 0xbe, 0x28, 0xce, 0x1f, 0xbe, 0xed, 0xdf, 0xae, 0x3d,
  0x68, 0x6a, 0x28, 0x3d, 0x7c, 0x0d, 0xde, 0x3e, 0x00, 0xca, 0x1e, 0x3d,
  0x3b, 0xd0, 0x52, 0xbe, 0x5f, 0x19, 0x90, 0xbe, 0xdb, 0x2c, 0xcd, 0x3e,
  0xb7, 0x25, 0x4f, 0x3e, 0x5f, 0x39, 0x83, 0x3e, 0x35, 0x45, 0x4d, 0x3d,
  0x3d, 0x2a, 0xa0, 0x3e, 0x6c, 0x77, 0xeb, 0x3e, 0xd5, 0x81, 0xe8, 0x3e,
  0x07, 0x53, 0x59, 0x3e, 0x90, 0x26, 0x2e, 0xbe, 0x51, 0x48, 0xbc, 0x3e,
  0x80, 0xcf, 0x5e, 0xbe, 0x4c, 0x77, 0x92, 0x3d, 0x4f, 0x5a, 0x15, 0xbe,
  0x7c, 0x93, 0xdf, 0x3d, 0x99, 0x8b, 0x85, 0xbe, 0xb0, 0xb5, 0x7f, 0x3d,
  0xfa, 0x0d, 0x81, 0xbd, 0x60, 0x68, 0x06, 0xbe, 0x79, 0x4e, 0xc4, 0x3d,
  0x4c, 0x65, 0x86, 0x3d, 0x84, 0x5d, 0x74, 0x3e, 0x8f, 0x92, 0x5f, 0x3e,
  0x69, 0x8c, 0x9f, 0x3c, 0x0f, 0x29, 0xc0, 0x3e, 0x77, 0xb9, 0xac, 0xbd,
  0xd2, 0xd9, 0xc9, 0xbe, 0x15, 0xef, 0x23, 0xbe, 0x27, 0xfa, 0x32, 0x3e,
  0x58, 0xaf, 0x78, 0xbe, 0x08, 0xb1, 0x4a, 0xbd, 0x16, 0xab, 0x68, 0x3e,
  0xd7, 0xbc, 0x6d, 0x3e, 0x2d, 0x10, 0xcb, 0xbd, 0xb8, 0xeb, 0xd1, 0xbd,
  0x06, 0xbf, 0x4a, 0xbe, 0xd0, 0xba, 0x41, 0x3e, 0x36, 0xae, 0x69, 0xbe,
  0xaa, 0x90, 0x98, 0x3d, 0xc2, 0xdf, 0x11, 0x3d, 0xc9, 0x65, 0x9b, 0xbe,
  0x1e, 0x5b, 0xf1, 0xbd, 0x2a, 0xe1, 0x84, 0x3e, 0x8d, 0xb8, 0xad, 0xbd,
  0xda, 0x46, 0x51, 0x3e, 0x15, 0xe3, 0x93, 0x3e, 0xd7, 0x88, 0x6b, 0x3e,
  0x6b, 0x64, 0xd4, 0x3c, 0x2f, 0x52, 0x0e, 0x3e, 0x67, 0x0c, 0x98, 0xbe,
  0x47, 0x3f, 0xab, 0x3e, 0x3d, 0x0d, 0x3d, 0x3e, 0x34, 0xeb, 0xa7, 0x3e,
  0xf1, 0x95, 0x9c, 0xbc, 0xdf, 0x99, 0x1d, 0x3e, 0x80, 0xd4, 0x9f, 0xbe,
  0xd6, 0x73, 0xee, 0x3a, 0xa8, 0x1e, 0x83, 0x3e, 0xe4, 0x40, 0x9a, 0xbe,
  0xef, 0x94, 0x85, 0xbe, 0x8e, 0x27, 0x8c, 0xbe, 0x44, 0xf0, 0x10, 0xbe,
  0x5c, 0x82, 0x9e, 0xbe, 0x9e, 0x14, 0xbe, 0x3e, 0x38, 0x98, 0x5d, 0xbe,
  0x94, 0x77, 0xae, 0xbe, 0x46, 0x3f, 0xe6, 0x3d, 0xbd, 0xf9, 0x0b, 0x3e,
  0xe5, 0xac, 0x87, 0xbe, 0x97, 0x43, 0xcb, 0xbd, 0x8c, 0xe2, 0xa9, 0x3e,
  0x93, 0x7c, 0x38, 0xbd, 0x86, 0x67, 0x19, 0x3e, 0x1d, 0x3a, 0x0d, 0x3e,
  0x53, 0x53, 0x98, 0x3e, 0x96, 0x21, 0x11, 0x3d, 0xd0, 0x04, 0xfa, 0xbd,
  0x12, 0xf0, 0xcb, 0xbd, 0xa0, 0x13, 0x72, 0x3e, 0x8b, 0x2b, 0x23, 0xbe,
  0x3b, 0xdd, 0x46, 0x3d, 0x07, 0x86, 0x75, 0x3e, 0xb3, 0x60, 0x81, 0xbd,
  0x30, 0xa0, 0x79, 0x3e, 0x8c, 0x2a, 0x5a, 0x3e, 0x67, 0xd3, 0xa2, 0x3e,
  0x6f, 0x13, 0x88, 0xbe, 0x1e, 0x30, 0xcb, 0x3c, 0x69, 0xe4, 0xb2, 0x3c,
  0xec, 0xe2, 0x90, 0xbd, 0xf6, 0xb7, 0xb8, 0xbe, 0xf7, 0xe0, 0xaf, 0x3d,
  0x6a, 0x78, 0xc1, 0x3d, 0x19, 0x8f, 0x65, 0xbe, 0x25, 0x92, 0x51, 0xbe,
  0xea, 0x52, 0xe4, 0x3b, 0x52, 0x58, 0x4b, 0xbd, 0xe1, 0xde, 0x6b, 0x3e,
  0x4f, 0x2e, 0x91, 0x3e, 0x02, 0xc0, 0xd5, 0xbe, 0xf0, 0x33, 0x0d, 0xbe,
  0xa2, 0xd8, 0x9b, 0x3e, 0x25, 0x8e, 0xb0, 0xbd, 0x2c, 0x24, 0x9d, 0xbe,
  0x53, 0xb1, 0x86, 0x3e, 0x2e, 0x39, 0x58, 0x3e, 0x0a, 0x23, 0x41, 0x3d,
  0x64, 0x25, 0xc9, 0x3d, 0x43, 0x24, 0x25, 0xbe, 0x87, 0xe5, 0x62, 0xbe,
  0xf7, 0x2c, 0xf1, 0x3d, 0x79, 0x69, 0xa0, 0x3e, 0xc1, 0x67, 0x79, 0xbe,
  0xa6, 0x59, 0x03, 0xbe, 0x56, 0x96, 0xab, 0xbd, 0x3c, 0xff, 0x24, 0xbe,
  0x2a, 0x87, 0xff, 0xbd, 0x03, 0xb3, 0xa0, 0xbe, 0x58, 0x0f, 0xb0, 0xbe,
  0x58, 0x36, 0x82, 0x3e, 0x19, 0xa0, 0x94, 0xbe, 0x46, 0x12, 0xaf, 0x3d,
  0x4e, 0x64, 0x1c, 0xbe, 0xf1, 0x65, 0x05, 0x3e, 0x9b, 0x4f, 0xb9, 0xbe,
  0x6a, 0x23, 0x38, 0x3e, 0x96, 0x6d, 0xa9, 0xbe, 0xa3, 0x84, 0x78, 0xbe,
  0x79, 0x51, 0xe0, 0xbc, 0xc3, 0xb5, 0xea, 0x3d, 0xd7, 0x72, 0x16, 0xbe,
  0x9a, 0x19, 0x90, 0xbe, 0x88, 0x1d, 0x60, 0xbe, 0xf6, 0x07, 0x07, 0x3e,
  0x3c, 0x49, 0x91, 0xbd, 0x30, 0xd1, 0xbd, 0xbe, 0x79, 0x22, 0x7f, 0xbe,
  0x80, 0x79, 0xf6, 0x3d, 0x2f, 0x56, 0x07, 0xbe, 0x44, 0xcd, 0x5b, 0x3d,
  0x7e, 0xf5, 0xaa, 0x3e, 0xf2, 0x09, 0x8a, 0xbd, 0x5c, 0x97, 0xb5, 0x3d,
  0x60, 0x17, 0xae, 0xbe, 0x75, 0x11, 0x9b, 0x3d, 0xbe, 0x7b, 0xb3, 0xbe,
  0xc4, 0x05, 0x13, 0xbe, 0x53, 0x29, 0xe9, 0xbe, 0x11, 0xc5, 0xbb, 0xbd,
  0xed, 0x0b, 0xb1, 0xbd, 0xce, 0x0f, 0xb7, 0xbe, 0x14, 0x2c, 0xad, 0xbc,
  0xc3, 0xa9, 0xc2, 0xbe, 0x08, 0xd7, 0x85, 0x3e, 0x83, 0x49, 0x35, 0x3e,
  0x7c, 0x68, 0x2a, 0x3d, 0x70, 0x9b, 0x38, 0x3d, 0x98, 0xdf, 0x25, 0x3e,
  0x14, 0xf2, 0x7c, 0x3e, 0xe2, 0x4c, 0x81, 0xbe, 0xdc, 0xde, 0xf3, 0x3c,
  0x84, 0x40, 0x78, 0x3e, 0x86, 0x6f, 0x2c, 0xbe, 0x7d, 0x67, 0x5e, 0xbd,
  0xd9, 0xa1, 0xc3, 0x3e, 0xf2, 0x3c, 0xcc, 0xbe, 0x24, 0x1d, 0x67, 0xbe,
  0x5c, 0x37, 0x90, 0xbe, 0x2a, 0xfd, 0x9b, 0xbd, 0x17, 0x3a, 0xa1, 0xbd,
  0x18, 0x5b, 0x67, 0x3d, 0xb7, 0x23, 0xae, 0x3c, 0x11, 0x03, 0x67, 0xbd,
  0x8b, 0xf8, 0x23, 0xbd, 0x5c, 0xcf, 0x1a, 0xbe, 0x81, 0xf0, 0xb5, 0x3e,
  0x26, 0xc6, 0x91, 0xbe, 0x26, 0x54, 0x95, 0x3d, 0x2c, 0x00, 0xbc, 0xbe,
  0x64, 0x46, 0x3b, 0x3e, 0x8e, 0x8b, 0xfb, 0x3d, 0x40, 0xa1, 0x86, 0x3e,
  0x14, 0x9f, 0xdb, 0x3d, 0x39, 0xeb, 0x1d, 0xbd, 0xcf, 0x0f, 0x96, 0x3e,
  0x7b, 0xec, 0x09, 0x3c, 0x71, 0x1b, 0x9c, 0x3e, 0x45, 0xb6, 0x93, 0x3e,
  0x9d, 0xe4, 0x22, 0x3e, 0xe7, 0x8c, 0x01, 0xbf, 0xb6, 0x19, 0xbb, 0xbe,
  0x4a, 0x78, 0x9d, 0x3e, 0xbe, 0x1f, 0x9c, 0xbe, 0xb2, 0xad, 0xd8, 0xbe,
  0xd4, 0xc5, 0xa3, 0x3e, 0xcb, 0x5e, 0x24, 0x3c, 0x6a, 0x1c, 0x87, 0x3d,
  0x7c, 0xb9, 0x95, 0x3d, 0x24, 0x22, 0x23, 0xbe, 0xa0, 0x86, 0xf4, 0x3c,
  0x78, 0x67, 0x8d, 0x3e, 0xe7, 0xbd, 0x60, 0x3d, 0x28, 0xa3, 0x88, 0x3e,
  0x65, 0x6b, 0x73, 0xbe, 0x11, 0xac, 0x91, 0x3e, 0xfe, 0x52, 0x1f, 0x3e,
  0x5b, 0x76, 0xc4, 0xbe, 0x1d, 0x39, 0x94, 0xbe, 0xd0, 0x39, 0x6b, 0xbd,
  0x49, 0xbf, 0x44, 0x3e, 0xba, 0x80, 0xb2, 0x3e, 0xf2, 0x83, 0x9c, 0xba,
  0xe5, 0x7c, 0x8c, 0xbe, 0xd6, 0x73, 0x33, 0xbe, 0xd9, 0x3c, 0x0a, 0xbe,
  0xbb, 0xc5, 0x4e, 0xbe, 0xff, 0x61, 0x17, 0x3e, 0xaf, 0xe5, 0x81, 0xbe,
  0x86, 0x7f, 0x9e, 0x3e, 0xcc, 0x76, 0x6d, 0x3e, 0xd0, 0xba, 0xc0, 0xbd,
  0x92, 0x76, 0x2f, 0x3e, 0xcb, 0x6f, 0x46, 0xbd, 0xc0, 0x2f, 0xab, 0xbe,
  0x6d, 0x8a, 0x50, 0xbc, 0x97, 0x6a, 0x19, 0x3e, 0x2f, 0x86, 0x83, 0x3e,
  0x92, 0x4c, 0x83, 0x3e, 0x92, 0x8d, 0x98, 0xbc, 0xc3, 0x55, 0xdc, 0xbc,
  0xcf, 0x90, 0xd0, 0x3d, 0x83, 0xbe, 0x40, 0xbe, 0x36, 0xcb, 0xa5, 0x3e,
  0x23, 0xc4, 0x9c, 0x3e, 0x1d, 0xf7, 0x84, 0xbe, 0x57, 0xe6, 0x9e, 0xbe,
  0x81, 0xe3, 0xa3, 0x3d, 0x07, 0xb9, 0x93, 0x3e, 0xae, 0xcd, 0x7c, 0x3d,
  0xec, 0x96, 0x93, 0x3e, 0x9b, 0xf0, 0x88, 0x3e, 0x51, 0xe5, 0xce, 0xbd,
  0x47, 0x71, 0x71, 0xbc, 0x48, 0x21, 0x0c, 0xbe, 0x20, 0x19, 0x4c, 0x3c,
  0xbc, 0x7f, 0x8b, 0xbe, 0xfc, 0x0a, 0x35, 0xbd, 0xe0, 0x90, 0x2c, 0xbe,
  0x96, 0x4a, 0x01, 0x3c, 0xae, 0x16, 0x16, 0xbe, 0x87, 0x05, 0x7a, 0xbe,
  0xdd, 0x9f, 0x2c, 0x3c, 0xee, 0x9b, 0x2e, 0xbe, 0x39, 0xcd, 0x5e, 0xbc,
  0x29, 0x0b, 0x91, 0x3e, 0xac, 0x73, 0x3a, 0x3e, 0x9c, 0xcc, 0x21, 0xbe,
  0xc7, 0x1b, 0xae, 0xbd, 0x17, 0xbc, 0xb1, 0xbd, 0x06, 0x94, 0x7e, 0xbe,
  0x19, 0x1d, 0x09, 0xbe, 0xdf, 0xa7, 0x9f, 0xbe, 0x6b, 0x8d, 0xf1, 0xbc,
  0x0d, 0x56, 0xe7, 0xbe, 0x2b, 0xcf, 0x04, 0x3e, 0xff, 0x11, 0xa4, 0xbb,
  0x72, 0x0f, 0x3c, 0xbe, 0xd2, 0x27, 0xc7, 0xbc, 0x92, 0xc7, 0x70, 0x3d,
  0x25, 0xfd, 0x7f, 0xbd, 0xbe, 0x71, 0x3e, 0x3e, 0x4b, 0xec, 0x6b, 0xbe,
  0x98, 0xa1, 0x3f, 0x3c, 0x6d, 0xb9, 0x96, 0x3e, 0x0e, 0x63, 0x48, 0x3e,
  0x9d, 0x74, 0x42, 0xbe, 0x0f, 0x35, 0x99, 0x3e, 0x5d, 0x3a, 0xba, 0x3e,
  0xff, 0xe6, 0x32, 0xbe, 0xc6, 0x2d, 0xee, 0xbd, 0xd8, 0x7e, 0x5f, 0x3d,
  0xc5, 0x1e, 0xed, 0xbb, 0x34, 0xb7, 0xd0, 0xbe, 0x75, 0x10, 0x62, 0xbe,
  0x18, 0x83, 0x85, 0x3d, 0x17, 0xc3, 0x63, 0xbe, 0xe0, 0x46, 0x88, 0x3c,
  0x03, 0x0b, 0xe9, 0x3d, 0xd4, 0x1d, 0x89, 0xbd, 0x7d, 0x0b, 0x8a, 0xbe,
  0xb1, 0x59, 0x6f, 0xbe, 0xe7, 0x3c, 0xcc, 0xbe, 0x4a, 0x7c, 0x15, 0xbd,
  0x1c, 0x24, 0x84, 0xbe, 0xf9, 0x3d, 0x30, 0x3e, 0xcf, 0x34, 0x84, 0xbd,
  0x16, 0xac, 0xe5, 0xbe, 0x69, 0x32, 0x78, 0x3c, 0xa0, 0x0a, 0x2e, 0x3e,
  0x9f, 0x5f, 0x8a, 0xbe, 0x1e, 0x4f, 0x48, 0x3e, 0x12, 0x60, 0x77, 0xbe,
  0x76, 0x59, 0x63, 0x3e, 0xfd, 0x1e, 0xda, 0xbb, 0x30, 0x68, 0x6b, 0x3d,
  0x67, 0x2e, 0xc8, 0xbe, 0x25, 0xf2, 0x2c, 0xbe, 0x75, 0xdf, 0xf2, 0xbd,
  0xc3, 0x13, 0x94, 0x3e, 0x7d, 0x4f, 0x68, 0xbe, 0x17, 0x50, 0x39, 0x3d,
  0x5c, 0xad, 0x52, 0x3b, 0xc3, 0xe0, 0x83, 0x3d, 0xf7, 0xe4, 0xb9, 0x3e,
  0x8f, 0x87, 0xf2, 0xbd, 0x78, 0xa4, 0x4f, 0x3e, 0xe4, 0xe9, 0x4f, 0xbe,
  0x53, 0x0e, 0xc6, 0x3e, 0x82, 0xc2, 0x44, 0xbe, 0x08, 0xce, 0xbc, 0x3d,
  0x78, 0x9e, 0x1d, 0xbe, 0xac, 0x55, 0xa8, 0x3e, 0x94, 0xb6, 0xa2, 0xbe,
  0x4f, 0x2f, 0xb7, 0x3d, 0x5d, 0xf0, 0x90, 0x3d, 0xc7, 0x48, 0xbb, 0x3e,
  0x64, 0xf4, 0xca, 0xbe, 0xe7, 0x3e, 0x39, 0x3e, 0x00, 0x00, 0x06, 0x00,
  0x08, 0x00, 0x04, 0x00, 0x06, 0x00, 0x00, 0x00, 0x04, 0x00, 0x00, 0x00,
  0x40, 0x00, 0x00, 0x00, 0xf1, 0x27, 0x09, 0xbf, 0xb5, 0xfe, 0x05, 0xbf,
  0xc3, 0xdf, 0x2f, 0x3e, 0xb0, 0x68, 0x0b, 0xbf, 0xc0, 0xb4, 0xb4, 0xbe,
  0x44, 0x95, 0x9c, 0xbe, 0x58, 0x2e, 0xaa, 0x3e, 0xa8, 0xcf, 0x09, 0x3f,
  0x71, 0x67, 0xc1, 0x3e, 0x39, 0x5d, 0x7e, 0x3e, 0x21, 0xc6, 0xa3, 0x3e,
  0x1f, 0x8e, 0x1c, 0xbe, 0x5a, 0x34, 0x01, 0xbf, 0xe3, 0xdd, 0x43, 0x3d,
  0x9f, 0x34, 0x31, 0x3e, 0xad, 0x4b, 0x96, 0x3e, 0x90, 0xfa, 0xff, 0xff,
  0x94, 0xfa, 0xff, 0xff, 0x0f, 0x00, 0x00, 0x00, 0x4d, 0x4c, 0x49, 0x52,
  0x20, 0x43, 0x6f, 0x6e, 0x76, 0x65, 0x72, 0x74, 0x65, 0x64, 0x2e, 0x00,
  0x01, 0x00, 0x00, 0x00, 0x14, 0x00, 0x00, 0x00, 0x00, 0x00, 0x0e, 0x00,
  0x18, 0x00, 0x14, 0x00, 0x10, 0x00, 0x0c, 0x00, 0x08, 0x00, 0x04, 0x00,
  0x0e, 0x00, 0x00, 0x00, 0x14, 0x00, 0x00, 0x00, 0x1c, 0x00, 0x00, 0x00,
  0x08, 0x01, 0x00, 0x00, 0x0c, 0x01, 0x00, 0x00, 0x10, 0x01, 0x00, 0x00,
  0x04, 0x00, 0x00, 0x00, 0x6d, 0x61, 0x69, 0x6e, 0x00, 0x00, 0x00, 0x00,
  0x04, 0x00, 0x00, 0x00, 0xb0, 0x00, 0x00, 0x00, 0x68, 0x00, 0x00, 0x00,
  0x34, 0x00, 0x00, 0x00, 0x10, 0x00, 0x00, 0x00, 0x00, 0x00, 0x0a, 0x00,
  0x10, 0x00, 0x0c, 0x00, 0x08, 0x00, 0x04, 0x00, 0x0a, 0x00, 0x00, 0x00,
  0x0c, 0x00, 0x00, 0x00, 0x10, 0x00, 0x00, 0x00, 0x01, 0x00, 0x00, 0x00,
  0x01, 0x00, 0x00, 0x00, 0x0a, 0x00, 0x00, 0x00, 0x01, 0x00, 0x00, 0x00,
  0x09, 0x00, 0x00, 0x00, 0x9a, 0xff, 0xff, 0xff, 0x10, 0x00, 0x00, 0x00,
  0x00, 0x00, 0x00, 0x08, 0x0c, 0x00, 0x00, 0x00, 0x10, 0x00, 0x00, 0x00,
  0x3c, 0xfb, 0xff, 0xff, 0x01, 0x00, 0x00, 0x00, 0x09, 0x00, 0x00, 0x00,
  0x03, 0x00, 0x00, 0x00, 0x08, 0x00, 0x00, 0x00, 0x01, 0x00, 0x00, 0x00,
  0x04, 0x00, 0x00, 0x00, 0xca, 0xff, 0xff, 0xff, 0x10, 0x00, 0x00, 0x00,
  0x00, 0x00, 0x00, 0x08, 0x10, 0x00, 0x00, 0x00, 0x14, 0x00, 0x00, 0x00,
  0xba, 0xff, 0xff, 0xff, 0x00, 0x00, 0x00, 0x01, 0x01, 0x00, 0x00, 0x00,
  0x08, 0x00, 0x00, 0x00, 0x03, 0x00, 0x00, 0x00, 0x07, 0x00, 0x00, 0x00,
  0x02, 0x00, 0x00, 0x00, 0x03, 0x00, 0x00, 0x00, 0x00, 0x00, 0x0e, 0x00,
  0x16, 0x00, 0x00, 0x00, 0x10, 0x00, 0x0c, 0x00, 0x0b, 0x00, 0x04, 0x00,
  0x0e, 0x00, 0x00, 0x00, 0x18, 0x00, 0x00, 0x00, 0x00, 0x00, 0x00, 0x08,
  0x18, 0x00, 0x00, 0x00, 0x1c, 0x00, 0x00, 0x00, 0x00, 0x00, 0x06, 0x00,
  0x08, 0x00, 0x07, 0x00, 0x06, 0x00, 0x00, 0x00, 0x00, 0x00, 0x00, 0x01,
  0x01, 0x00, 0x00, 0x00, 0x07, 0x00, 0x00, 0x00, 0x03, 0x00, 0x00, 0x00,
  0x00, 0x00, 0x00, 0x00, 0x06, 0x00, 0x00, 0x00, 0x05, 0x00, 0x00, 0x00,
  0x01, 0x00, 0x00, 0x00, 0x0a, 0x00, 0x00, 0x00, 0x01, 0x00, 0x00, 0x00,
  0x00, 0x00, 0x00, 0x00, 0x0b, 0x00, 0x00, 0x00, 0xec, 0x03, 0x00, 0x00,
  0x94, 0x03, 0x00, 0x00, 0x3c, 0x03, 0x00, 0x00, 0xe4, 0x02, 0x00, 0x00,
  0x8c, 0x02, 0x00, 0x00, 0x38, 0x02, 0x00, 0x00, 0xf0, 0x01, 0x00, 0x00,
  0x68, 0x01, 0x00, 0x00, 0xd8, 0x00, 0x00, 0x00, 0x60, 0x00, 0x00, 0x00,
  0x04, 0x00, 0x00, 0x00, 0x56, 0xfc, 0xff, 0xff, 0x00, 0x00, 0x00, 0x01,
  0x14, 0x00, 0x00, 0x00, 0x1c, 0x00, 0x00, 0x00, 0x1c, 0x00, 0x00, 0x00,
  0x0b, 0x00, 0x00, 0x00, 0x34, 0x00, 0x00, 0x00, 0x02, 0x00, 0x00, 0x00,
  0xff, 0xff, 0xff, 0xff, 0x01, 0x00, 0x00, 0x00, 0x40, 0xfc, 0xff, 0xff,
  0x19, 0x00, 0x00, 0x00, 0x53, 0x74, 0x61, 0x74, 0x65, 0x66, 0x75, 0x6c,
  0x50, 0x61, 0x72, 0x74, 0x69, 0x74, 0x69, 0x6f, 0x6e, 0x65, 0x64, 0x43,
  0x61, 0x6c, 0x6c, 0x3a, 0x30, 0x00, 0x00, 0x00, 0x02, 0x00, 0x00, 0x00,
  0x01, 0x00, 0x00, 0x00, 0x01, 0x00, 0x00, 0x00, 0xae, 0xfc, 0xff, 0xff,
  0x00, 0x00, 0x00, 0x01, 0x14, 0x00, 0x00, 0x00, 0x1c, 0x00, 0x00, 0x00,
  0x1c, 0x00, 0x00, 0x00, 0x0a, 0x00, 0x00, 0x00, 0x50, 0x00, 0x00, 0x00,
  0x02, 0x00, 0x00, 0x00, 0xff, 0xff, 0xff, 0xff, 0x01, 0x00, 0x00, 0x00,
  0x98, 0xfc, 0xff, 0xff, 0x34, 0x00, 0x00, 0x00, 0x73, 0x65, 0x71, 0x75,
  0x65, 0x6e, 0x74, 0x69, 0x61, 0x6c, 0x2f, 0x64, 0x65, 0x6e, 0x73, 0x65,
  0x5f, 0x32, 0x2f, 0x4d, 0x61, 0x74, 0x4d, 0x75, 0x6c, 0x3b, 0x73, 0x65,
  0x71, 0x75, 0x65, 0x6e, 0x74, 0x69, 0x61, 0x6c, 0x2f, 0x64, 0x65, 0x6e,
  0x73, 0x65, 0x5f, 0x32, 0x2f, 0x42, 0x69, 0x61, 0x73, 0x41, 0x64, 0x64,
  0x00, 0x00, 0x00, 0x00, 0x02, 0x00, 0x00, 0x00, 0x01, 0x00, 0x00, 0x00,
  0x01, 0x00, 0x00, 0x00, 0x22, 0xfd, 0xff, 0xff, 0x00, 0x00, 0x00, 0x01,
  0x14, 0x00, 0x00, 0x00, 0x1c, 0x00, 0x00, 0x00, 0x1c, 0x00, 0x00, 0x00,
  0x09, 0x00, 0x00, 0x00, 0x68, 0x00, 0x00, 0x00, 0x02, 0x00, 0x00, 0x00,
  0xff, 0xff, 0xff, 0xff, 0x10, 0x00, 0x00, 0x00, 0x0c, 0xfd, 0xff, 0xff,
  0x4c, 0x00, 0x00, 0x00, 0x73, 0x65, 0x71, 0x75, 0x65, 0x6e, 0x74, 0x69,
  0x61, 0x6c, 0x2f, 0x64, 0x65, 0x6e, 0x73, 0x65, 0x5f, 0x31, 0x2f, 0x4d,
  0x61, 0x74, 0x4d, 0x75, 0x6c, 0x3b, 0x73, 0x65, 0x71, 0x75, 0x65, 0x6e,
  0x74, 0x69, 0x61, 0x6c, 0x2f, 0x64, 0x65, 0x6e, 0x73, 0x65, 0x5f, 0x31,
  0x2f, 0x52, 0x65, 0x6c, 0x75, 0x3b, 0x73, 0x65, 0x71, 0x75, 0x65, 0x6e,
  0x74, 0x69, 0x61, 0x6c, 0x2f, 0x64, 0x65, 0x6e, 0x73, 0x65, 0x5f, 0x31,
  0x2f, 0x42, 0x69, 0x61, 0x73, 0x41, 0x64, 0x64, 0x00, 0x00, 0x00, 0x00,
  0x02, 0x00, 0x00, 0x00, 0x01, 0x00, 0x00, 0x00, 0x10, 0x00, 0x00, 0x00,
  0xae, 0xfd, 0xff, 0xff, 0x00, 0x00, 0x00, 0x01, 0x14, 0x00, 0x00, 0x00,
  0x1c, 0x00, 0x00, 0x00, 0x1c, 0x00, 0x00, 0x00, 0x08, 0x00, 0x00, 0x00,
  0x60, 0x00, 0x00, 0x00, 0x02, 0x00, 0x00, 0x00, 0xff, 0xff, 0xff, 0xff,
  0x20, 0x00, 0x00, 0x00, 0x98, 0xfd, 0xff, 0xff, 0x46, 0x00, 0x00, 0x00,
  0x73, 0x65, 0x71, 0x75, 0x65, 0x6e, 0x74, 0x69, 0x61, 0x6c, 0x2f, 0x64,
  0x65, 0x6e, 0x73, 0x65, 0x2f, 0x4d, 0x61, 0x74, 0x4d, 0x75, 0x6c, 0x3b,
  0x73, 0x65, 0x71, 0x75, 0x65, 0x6e, 0x74, 0x69, 0x61, 0x6c, 0x2f, 0x64,
  0x65, 0x6e, 0x73, 0x65, 0x2f, 0x52, 0x65, 0x6c, 0x75, 0x3b, 0x73, 0x65,
  0x71, 0x75, 0x65, 0x6e, 0x74, 0x69, 0x61, 0x6c, 0x2f, 0x64, 0x65, 0x6e,
  0x73, 0x65, 0x2f, 0x42, 0x69, 0x61, 0x73, 0x41, 0x64, 0x64, 0x00, 0x00,
  0x02, 0x00, 0x00, 0x00, 0x01, 0x00, 0x00, 0x00, 0x20, 0x00, 0x00, 0x00,
  0x86, 0xfe, 0xff, 0xff, 0x00, 0x00, 0x00, 0x01, 0x10, 0x00, 0x00, 0x00,
  0x10, 0x00, 0x00, 0x00, 0x07, 0x00, 0x00, 0x00, 0x24, 0x00, 0x00, 0x00,
  0x0c, 0xfe, 0xff, 0xff, 0x17, 0x00, 0x00, 0x00, 0x73, 0x65, 0x71, 0x75,
  0x65, 0x6e, 0x74, 0x69, 0x61, 0x6c, 0x2f, 0x64, 0x65, 0x6e, 0x73, 0x65,
  0x2f, 0x4d, 0x61, 0x74, 0x4d, 0x75, 0x6c, 0x00, 0x02, 0x00, 0x00, 0x00,
  0x20, 0x00, 0x00, 0x00, 0x1f, 0x00, 0x00, 0x00, 0xca, 0xfe, 0xff, 0xff,
  0x00, 0x00, 0x00, 0x01, 0x10, 0x00, 0x00, 0x00, 0x10, 0x00, 0x00, 0x00,
  0x06, 0x00, 0x00, 0x00, 0x34, 0x00, 0x00, 0x00, 0x50, 0xfe, 0xff, 0xff,
  0x27, 0x00, 0x00, 0x00, 0x73, 0x65, 0x71, 0x75, 0x65, 0x6e, 0x74, 0x69,
  0x61, 0x6c, 0x2f, 0x64, 0x65, 0x6e, 0x73, 0x65, 0x2f, 0x42, 0x69, 0x61,
  0x73, 0x41, 0x64, 0x64, 0x2f, 0x52, 0x65, 0x61, 0x64, 0x56, 0x61, 0x72,
  0x69, 0x61, 0x62, 0x6c, 0x65, 0x4f, 0x70, 0x00, 0x01, 0x00, 0x00, 0x00,
  0x20, 0x00, 0x00, 0x00, 0x1a, 0xff, 0xff, 0xff, 0x00, 0x00, 0x00, 0x01,
  0x10, 0x00, 0x00, 0x00, 0x10, 0x00, 0x00, 0x00, 0x05, 0x00, 0x00, 0x00,
  0x38, 0x00, 0x00, 0x00, 0xa0, 0xfe, 0xff, 0xff, 0x29, 0x00, 0x00, 0x00,
  0x73, 0x65, 0x71, 0x75, 0x65, 0x6e, 0x74, 0x69, 0x61, 0x6c, 0x2f, 0x64,
  0x65, 0x6e, 0x73, 0x65, 0x5f, 0x32, 0x2f, 0x42, 0x69, 0x61, 0x73, 0x41,
  0x64, 0x64, 0x2f, 0x52, 0x65, 0x61, 0x64, 0x56, 0x61, 0x72, 0x69, 0x61,
  0x62, 0x6c, 0x65, 0x4f, 0x70, 0x00, 0x00, 0x00, 0x01, 0x00, 0x00, 0x00,
  0x01, 0x00, 0x00, 0x00, 0x6e, 0xff, 0xff, 0xff, 0x00, 0x00, 0x00, 0x01,
  0x10, 0x00, 0x00, 0x00, 0x10, 0x00, 0x00, 0x00, 0x04, 0x00, 0x00, 0x00,
  0x38, 0x00, 0x00, 0x00, 0xf4, 0xfe, 0xff, 0xff, 0x29, 0x00, 0x00, 0x00,
  0x73, 0x65, 0x71, 0x75, 0x65, 0x6e, 0x74, 0x69, 0x61, 0x6c, 0x2f, 0x64,
  0x65, 0x6e, 0x73, 0x65, 0x5f, 0x31, 0x2f, 0x42, 0x69, 0x61, 0x73, 0x41,
  0x64, 0x64, 0x2f, 0x52, 0x65, 0x61, 0x64, 0x56, 0x61, 0x72, 0x69, 0x61,
  0x62, 0x6c, 0x65, 0x4f, 0x70, 0x00, 0x00, 0x00, 0x01, 0x00, 0x00, 0x00,
  0x10, 0x00, 0x00, 0x00, 0xc2, 0xff, 0xff, 0xff, 0x00, 0x00, 0x00, 0x01,
  0x10, 0x00, 0x00, 0x00, 0x10, 0x00, 0x00, 0x00, 0x03, 0x00, 0x00, 0x00,
  0x1c, 0x00, 0x00, 0x00, 0x48, 0xff, 0xff, 0xff, 0x0f, 0x00, 0x00, 0x00,
  0x61, 0x72, 0x69, 0x74, 0x68, 0x2e, 0x63, 0x6f, 0x6e, 0x73, 0x74, 0x61,
  0x6e, 0x74, 0x31, 0x00, 0x02, 0x00, 0x00, 0x00, 0x10, 0x00, 0x00, 0x00,
  0x20, 0x00, 0x00, 0x00, 0x00, 0x00, 0x16, 0x00, 0x18, 0x00, 0x14, 0x00,
  0x00, 0x00, 0x10, 0x00, 0x0c, 0x00, 0x08, 0x00, 0x00, 0x00, 0x00, 0x00,
  0x00, 0x00, 0x07, 0x00, 0x16, 0x00, 0x00, 0x00, 0x00, 0x00, 0x00, 0x01,
  0x10, 0x00, 0x00, 0x00, 0x10, 0x00, 0x00, 0x00, 0x02, 0x00, 0x00, 0x00,
  0x1c, 0x00, 0x00, 0x00, 0x9c, 0xff, 0xff, 0xff, 0x0e, 0x00, 0x00, 0x00,
  0x61, 0x72, 0x69, 0x74, 0x68, 0x2e, 0x63, 0x6f, 0x6e, 0x73, 0x74, 0x61,
  0x6e, 0x74, 0x00, 0x00, 0x02, 0x00, 0x00, 0x00, 0x01, 0x00, 0x00, 0x00,
  0x10, 0x00, 0x00, 0x00, 0x00, 0x00, 0x16, 0x00, 0x1c, 0x00, 0x18, 0x00,
  0x00, 0x00, 0x14, 0x00, 0x10, 0x00, 0x0c, 0x00, 0x00, 0x00, 0x00, 0x00,
  0x08, 0x00, 0x07, 0x00, 0x16, 0x00, 0x00, 0x00, 0x00, 0x00, 0x00, 0x01,
  0x14, 0x00, 0x00, 0x00, 0x20, 0x00, 0x00, 0x00, 0x20, 0x00, 0x00, 0x00,
  0x01, 0x00, 0x00, 0x00, 0x38, 0x00, 0x00, 0x00, 0x02, 0x00, 0x00, 0x00,
  0xff, 0xff, 0xff, 0xff, 0x1f, 0x00, 0x00, 0x00, 0x04, 0x00, 0x04, 0x00,
  0x04, 0x00, 0x00, 0x00, 0x19, 0x00, 0x00, 0x00, 0x73, 0x65, 0x72, 0x76,
  0x69, 0x6e, 0x67, 0x5f, 0x64, 0x65, 0x66, 0x61, 0x75, 0x6c, 0x74, 0x5f,
  0x69, 0x6e, 0x70, 0x75, 0x74, 0x5f, 0x31, 0x3a, 0x30, 0x00, 0x00, 0x00,
  0x02, 0x00, 0x00, 0x00, 0x01, 0x00, 0x00, 0x00, 0x1f, 0x00, 0x00, 0x00,
  0x02, 0x00, 0x00, 0x00, 0x20, 0x00, 0x00, 0x00, 0x04, 0x00, 0x00, 0x00,
  0xf4, 0xff, 0xff, 0xff, 0x0e, 0x00, 0x00, 0x00, 0x00, 0x00, 0x00, 0x0e,
  0x0c, 0x00, 0x0c, 0x00, 0x0b, 0x00, 0x00, 0x00, 0x00, 0x00, 0x04, 0x00,
  0x0c, 0x00, 0x00, 0x00, 0x09, 0x00, 0x00, 0x00, 0x00, 0x00, 0x00, 0x09
};
//
// git_part_prune_bs3_6_9_12_qp_110_135_160_nnz_psnr_vect_satdq_32_16_a2_a3_bs9_tflite_model.cc
unsigned char sms_part_split_prune_tflite_model_bs9[] = {
  0x1c, 0x00, 0x00, 0x00, 0x54, 0x46, 0x4c, 0x33, 0x14, 0x00, 0x20, 0x00,
  0x1c, 0x00, 0x18, 0x00, 0x14, 0x00, 0x10, 0x00, 0x0c, 0x00, 0x00, 0x00,
  0x08, 0x00, 0x04, 0x00, 0x14, 0x00, 0x00, 0x00, 0x1c, 0x00, 0x00, 0x00,
  0x80, 0x00, 0x00, 0x00, 0xd8, 0x00, 0x00, 0x00, 0x84, 0x1a, 0x00, 0x00,
  0x94, 0x1a, 0x00, 0x00, 0x18, 0x20, 0x00, 0x00, 0x03, 0x00, 0x00, 0x00,
  0x01, 0x00, 0x00, 0x00, 0x04, 0x00, 0x00, 0x00, 0x2e, 0xe5, 0xff, 0xff,
  0x0c, 0x00, 0x00, 0x00, 0x1c, 0x00, 0x00, 0x00, 0x38, 0x00, 0x00, 0x00,
  0x0f, 0x00, 0x00, 0x00, 0x73, 0x65, 0x72, 0x76, 0x69, 0x6e, 0x67, 0x5f,
  0x64, 0x65, 0x66, 0x61, 0x75, 0x6c, 0x74, 0x00, 0x01, 0x00, 0x00, 0x00,
  0x04, 0x00, 0x00, 0x00, 0x9c, 0xff, 0xff, 0xff, 0x0a, 0x00, 0x00, 0x00,
  0x04, 0x00, 0x00, 0x00, 0x07, 0x00, 0x00, 0x00, 0x64, 0x65, 0x6e, 0x73,
  0x65, 0x5f, 0x32, 0x00, 0x01, 0x00, 0x00, 0x00, 0x04, 0x00, 0x00, 0x00,
  0x3a, 0xe6, 0xff, 0xff, 0x04, 0x00, 0x00, 0x00, 0x07, 0x00, 0x00, 0x00,
  0x69, 0x6e, 0x70, 0x75, 0x74, 0x5f, 0x31, 0x00, 0x02, 0x00, 0x00, 0x00,
  0x34, 0x00, 0x00, 0x00, 0x04, 0x00, 0x00, 0x00, 0xdc, 0xff, 0xff, 0xff,
  0x0d, 0x00, 0x00, 0x00, 0x04, 0x00, 0x00, 0x00, 0x13, 0x00, 0x00, 0x00,
  0x43, 0x4f, 0x4e, 0x56, 0x45, 0x52, 0x53, 0x49, 0x4f, 0x4e, 0x5f, 0x4d,
  0x45, 0x54, 0x41, 0x44, 0x41, 0x54, 0x41, 0x00, 0x08, 0x00, 0x0c, 0x00,
  0x08, 0x00, 0x04, 0x00, 0x08, 0x00, 0x00, 0x00, 0x0c, 0x00, 0x00, 0x00,
  0x04, 0x00, 0x00, 0x00, 0x13, 0x00, 0x00, 0x00, 0x6d, 0x69, 0x6e, 0x5f,
  0x72, 0x75, 0x6e, 0x74, 0x69, 0x6d, 0x65, 0x5f, 0x76, 0x65, 0x72, 0x73,
  0x69, 0x6f, 0x6e, 0x00, 0x0e, 0x00, 0x00, 0x00, 0xa8, 0x19, 0x00, 0x00,
  0xa0, 0x19, 0x00, 0x00, 0x50, 0x19, 0x00, 0x00, 0x38, 0x11, 0x00, 0x00,
  0xe8, 0x10, 0x00, 0x00, 0xd4, 0x10, 0x00, 0x00, 0x44, 0x10, 0x00, 0x00,
  0xb4, 0x00, 0x00, 0x00, 0xac, 0x00, 0x00, 0x00, 0xa4, 0x00, 0x00, 0x00,
  0x9c, 0x00, 0x00, 0x00, 0x94, 0x00, 0x00, 0x00, 0x74, 0x00, 0x00, 0x00,
  0x04, 0x00, 0x00, 0x00, 0xe6, 0xe6, 0xff, 0xff, 0x04, 0x00, 0x00, 0x00,
  0x60, 0x00, 0x00, 0x00, 0x10, 0x00, 0x00, 0x00, 0x00, 0x00, 0x00, 0x00,
  0x08, 0x00, 0x0e, 0x00, 0x08, 0x00, 0x04, 0x00, 0x08, 0x00, 0x00, 0x00,
  0x10, 0x00, 0x00, 0x00, 0x24, 0x00, 0x00, 0x00, 0x00, 0x00, 0x06, 0x00,
  0x08, 0x00, 0x04, 0x00, 0x06, 0x00, 0x00, 0x00, 0x04, 0x00, 0x00, 0x00,
  0x00, 0x00, 0x00, 0x00, 0x0c, 0x00, 0x18, 0x00, 0x14, 0x00, 0x10, 0x00,
  0x0c, 0x00, 0x04, 0x00, 0x0c, 0x00, 0x00, 0x00, 0x81, 0x13, 0xf7, 0xa3,
  0x48, 0x69, 0x7f, 0x5b, 0x02, 0x00, 0x00, 0x00, 0x02, 0x00, 0x00, 0x00,
  0x04, 0x00, 0x00, 0x00, 0x06, 0x00, 0x00, 0x00, 0x32, 0x2e, 0x31, 0x37,
  0x2e, 0x30, 0x00, 0x00, 0x52, 0xe7, 0xff, 0xff, 0x04, 0x00, 0x00, 0x00,
  0x10, 0x00, 0x00, 0x00, 0x31, 0x2e, 0x31, 0x34, 0x2e, 0x30, 0x00, 0x00,
  0x00, 0x00, 0x00, 0x00, 0x00, 0x00, 0x00, 0x00, 0xac, 0xe1, 0xff, 0xff,
  0xb0, 0xe1, 0xff, 0xff, 0xb4, 0xe1, 0xff, 0xff, 0xb8, 0xe1, 0xff, 0xff,
  0x7e, 0xe7, 0xff, 0xff, 0x04, 0x00, 0x00, 0x00, 0x80, 0x0f, 0x00, 0x00,
  0x3a, 0x47, 0x3d, 0x3e, 0xeb, 0x8c, 0x56, 0xbe, 0x37, 0x41, 0x08, 0xbf,
  0x8c, 0x81, 0x49, 0x3f, 0x01, 0xc3, 0x3b, 0xbb, 0x98, 0xc4, 0xd4, 0x3e,
  0xdc, 0x33, 0x6f, 0x3e, 0x69, 0x13, 0x60, 0x3e, 0x64, 0xca, 0x6b, 0x3e,
  0x84, 0x65, 0xce, 0x3e, 0x7d, 0xb5, 0x4f, 0x3e, 0x6a, 0x97, 0x07, 0x3d,
  0x7d, 0x5e, 0x03, 0x3f, 0x6d, 0x4f, 0x70, 0x3c, 0x40, 0xc7, 0x98, 0x3e,
  0x1b, 0x7a, 0x41, 0x3f, 0x54, 0x1c, 0x41, 0xbe, 0xfa, 0xb6, 0x3f, 0x3e,
  0xa3, 0x79, 0x8e, 0x3e, 0x0c, 0xe5, 0x81, 0x3e, 0x18, 0x1a, 0x7b, 0x3e,
  0x49, 0x4f, 0x5c, 0xbe, 0x47, 0xd3, 0x38, 0x3e, 0x5e, 0xbd, 0x81, 0x3d,
  0x9b, 0x2b, 0x78, 0xbe, 0xf2, 0xf9, 0x3c, 0x3d, 0x43, 0xfb, 0x52, 0x3e,
  0x6f, 0xf4, 0x88, 0xbd, 0x86, 0xf0, 0xee, 0xbd, 0x70, 0xeb, 0xbd, 0x3d,
  0x51, 0xe9, 0x37, 0x3e, 0x43, 0xc1, 0x13, 0x3e, 0xc5, 0xc3, 0xc6, 0x3d,
  0x62, 0x79, 0xd6, 0x3f, 0xb0, 0x4d, 0x9e, 0xbd, 0xf3, 0x86, 0x62, 0x3d,
  0x26, 0x71, 0xa6, 0x3f, 0xe6, 0x86, 0x68, 0xbf, 0x45, 0x52, 0xc5, 0x3c,
  0x07, 0x75, 0xaa, 0x3f, 0x6b, 0xe7, 0x47, 0x3e, 0xa8, 0x89, 0x77, 0xbd,
  0x4e, 0x17, 0xd7, 0x3f, 0xfc, 0xaf, 0x47, 0xbf, 0xae, 0xeb, 0xc4, 0xbd,
  0x2a, 0xdf, 0xe1, 0x3e, 0x33, 0x9f, 0x59, 0xbf, 0x49, 0xc0, 0x05, 0x3d,
  0x23, 0xb7, 0x30, 0xbd, 0x00, 0x2f, 0x3e, 0xbb, 0x59, 0xc1, 0xb2, 0xbc,
  0xed, 0xef, 0x1a, 0xbe, 0xea, 0x7d, 0x5d, 0xbd, 0xc5, 0xaa, 0x4b, 0xbe,
  0x28, 0xcc, 0xdc, 0x3d, 0x5b, 0x6e, 0xc2, 0xbd, 0x61, 0x5d, 0x1e, 0x3e,
  0xc9, 0xc8, 0xfd, 0x3d, 0x9d, 0x0d, 0xc8, 0xbe, 0x6c, 0xa5, 0x24, 0xbe,
  0x04, 0x83, 0xbf, 0xbe, 0x42, 0x02, 0x6f, 0xbe, 0xf8, 0x2e, 0x07, 0xbe,
  0xa8, 0x07, 0x11, 0xbe, 0x14, 0xc1, 0x36, 0xbf, 0xf7, 0x2b, 0x28, 0x3d,
  0xbf, 0xf4, 0x76, 0xbd, 0x73, 0xa5, 0xb4, 0x3f, 0xf6, 0x65, 0xd0, 0x3e,
  0x3e, 0x12, 0x86, 0x3d, 0xf8, 0xc1, 0x3f, 0x3f, 0xbd, 0x43, 0xa8, 0x3e,
  0x71, 0xcc, 0xf4, 0xbd, 0xd9, 0x97, 0x86, 0x3f, 0x62, 0x58, 0x01, 0x3f,
  0x68, 0x73, 0x5e, 0xbe, 0xfa, 0xa0, 0x95, 0x3f, 0x39, 0x1e, 0x85, 0xbc,
  0x42, 0x5a, 0xa7, 0xbe, 0x22, 0xe4, 0x75, 0xbe, 0x90, 0x2b, 0xe3, 0xbb,
  0x86, 0x71, 0xb5, 0x3b, 0xde, 0x41, 0x20, 0xbe, 0xe4, 0xba, 0xf1, 0xbc,
  0xf0, 0x2a, 0x89, 0xbe, 0x28, 0x01, 0x1b, 0xbd, 0x10, 0xb4, 0x86, 0x3c,
  0xae, 0x6e, 0x6c, 0xbd, 0xcc, 0x92, 0x0f, 0xbf, 0x18, 0x7e, 0x0f, 0x3d,
  0x2b, 0xfe, 0xbe, 0x3e, 0x91, 0xdc, 0x30, 0x3e, 0x5d, 0x40, 0xc6, 0x3e,
  0xb9, 0x8c, 0x8c, 0x3e, 0xbf, 0x66, 0x3d, 0x3d, 0x57, 0x8a, 0x24, 0xc0,
  0x6a, 0x56, 0xbc, 0x3f, 0xf9, 0x21, 0x07, 0x3e, 0x83, 0xff, 0x2e, 0xc0,
  0x38, 0x44, 0x6c, 0x3f, 0xe5, 0x6a, 0x12, 0x3e, 0x9e, 0x70, 0x18, 0xc0,
  0x21, 0x86, 0xab, 0x3f, 0x8f, 0x14, 0x17, 0x3e, 0x09, 0x80, 0xd3, 0xbf,
  0xe7, 0xcb, 0xa1, 0x3f, 0xb0, 0xb0, 0x1e, 0x3d, 0x89, 0xca, 0x14, 0xc0,
  0xe2, 0x12, 0xcf, 0x3f, 0x7a, 0xa3, 0x7c, 0xbe, 0x85, 0x42, 0x3e, 0xbe,
  0x70, 0xaa, 0x67, 0xbc, 0x9c, 0x6b, 0xd6, 0xbc, 0xd0, 0xf9, 0x87, 0xbd,
  0x73, 0xa0, 0x10, 0x3e, 0xda, 0x58, 0xbd, 0xbd, 0x0a, 0xca, 0x0c, 0x3c,
  0xd7, 0x04, 0x2d, 0xba, 0x69, 0xe2, 0xda, 0x3c, 0xb7, 0x1a, 0xc3, 0x3e,
  0xf3, 0x68, 0x38, 0xbe, 0xd3, 0x20, 0x48, 0xbd, 0xf5, 0xe5, 0x01, 0x3d,
  0x29, 0x54, 0x30, 0xbe, 0xce, 0xfe, 0x9d, 0x3e, 0x56, 0x1e, 0x88, 0xbd,
  0x2b, 0xe5, 0x8c, 0x3f, 0xd6, 0xb7, 0xf3, 0xbe, 0x1e, 0x6f, 0xda, 0x3d,
  0x29, 0x0d, 0x9d, 0xbe, 0x4e, 0x79, 0xe4, 0xbe, 0x10, 0xbb, 0x0c, 0x3c,
  0x99, 0xd4, 0xe9, 0xbd, 0x8e, 0xc6, 0xdc, 0xbe, 0xe7, 0x9e, 0x3f, 0x3e,
  0x24, 0x04, 0x71, 0xbd, 0x61, 0xa1, 0xcb, 0xbe, 0xd2, 0x8b, 0x57, 0xbd,
  0x21, 0xf7, 0x69, 0xbe, 0x31, 0xac, 0x0a, 0xbf, 0xac, 0x12, 0x6e, 0xbe,
  0xee, 0x2c, 0xf5, 0x3d, 0x2d, 0x70, 0x39, 0x3e, 0x48, 0x95, 0x8f, 0xbc,
  0x73, 0xfd, 0x27, 0x3e, 0x9f, 0x63, 0x06, 0xbe, 0xe2, 0xcf, 0x10, 0x3e,
  0xbd, 0x2b, 0x8b, 0xbd, 0xa3, 0x12, 0x9e, 0xbc, 0x74, 0xe8, 0x2a, 0xbc,
  0x62, 0xbe, 0x97, 0xbe, 0xda, 0xd8, 0xd0, 0x3b, 0xc2, 0x52, 0x1d, 0xbe,
  0x10, 0x88, 0x91, 0x3e, 0xf6, 0x40, 0x9b, 0x3e, 0xf7, 0xa4, 0x5c, 0xbe,
  0xb3, 0x5f, 0xb6, 0x3d, 0x41, 0x84, 0x40, 0x3f, 0xf7, 0x3f, 0x29, 0xbf,
  0xbd, 0x17, 0xb5, 0xbd, 0x60, 0x10, 0x36, 0xbb, 0xb3, 0x19, 0x01, 0x3f,
  0x93, 0x2d, 0x55, 0xbe, 0x44, 0xf7, 0x2b, 0xbf, 0x32, 0xf0, 0x4e, 0xbe,
  0xd5, 0xac, 0x89, 0xbe, 0xb9, 0xae, 0xeb, 0xbe, 0xc6, 0x75, 0xba, 0x3e,
  0xb7, 0x65, 0xad, 0x3e, 0x30, 0xfc, 0xe5, 0x3e, 0x37, 0x86, 0x78, 0x3f,
  0xc2, 0x12, 0xb9, 0xbd, 0x99, 0x17, 0x3b, 0xbb, 0x5a, 0x02, 0x32, 0xbd,
  0xeb, 0xd0, 0x5c, 0x3d, 0x1a, 0x4a, 0x88, 0x3d, 0x03, 0xb7, 0x51, 0x3d,
  0xb8, 0x64, 0x2f, 0xbc, 0x6d, 0x5e, 0x3b, 0x3d, 0x6e, 0x02, 0x4a, 0xbd,
  0x1d, 0xec, 0x85, 0xbd, 0x8e, 0xd2, 0x4d, 0x3e, 0x6e, 0x24, 0xdf, 0xbd,
  0x6d, 0x7c, 0x0c, 0x3e, 0x52, 0xb9, 0xd5, 0x3e, 0x84, 0x31, 0x61, 0xbe,
  0xba, 0xa3, 0x8d, 0xbe, 0x33, 0xa9, 0x31, 0xbe, 0x03, 0x97, 0x62, 0xbf,
  0xdd, 0x18, 0x74, 0x3f, 0x92, 0x26, 0x47, 0xbe, 0x92, 0x0a, 0x36, 0xc0,
  0xea, 0xcc, 0x3f, 0xbe, 0xa6, 0xee, 0x0d, 0xbc, 0x9a, 0x0b, 0x01, 0xc0,
  0x52, 0x9b, 0x13, 0x3e, 0x33, 0x5a, 0x66, 0xbe, 0xf4, 0xad, 0x3e, 0xc0,
  0xc1, 0x45, 0x97, 0xbe, 0xea, 0xa2, 0x42, 0x3e, 0x8b, 0x6c, 0xa6, 0xbf,
  0x88, 0x68, 0xe0, 0x3e, 0x62, 0xa1, 0x14, 0xbe, 0x13, 0x56, 0xb6, 0xbd,
  0x18, 0xaa, 0x95, 0x3d, 0xd5, 0x86, 0x6c, 0x3d, 0x05, 0xeb, 0x0e, 0xbe,
  0xad, 0xf7, 0xfa, 0x3b, 0x38, 0x5e, 0x10, 0x3e, 0xeb, 0xd8, 0x05, 0x3c,
  0x1d, 0xbb, 0xcf, 0xbd, 0xc6, 0xcb, 0xc6, 0xbc, 0x2f, 0x7a, 0x10, 0x3e,
  0x6e, 0xc2, 0xdd, 0xbd, 0x40, 0x85, 0x7b, 0xbe, 0xba, 0x08, 0x88, 0xbe,
  0x7d, 0x3e, 0x1f, 0x3e, 0xa0, 0x71, 0xc5, 0x3e, 0x4b, 0xb8, 0x23, 0x3e,
  0x3b, 0xc8, 0x94, 0x40, 0x5e, 0x8f, 0xbb, 0xbf, 0x3e, 0x63, 0x63, 0xbd,
  0xa2, 0x32, 0x15, 0x40, 0x98, 0xb1, 0xdd, 0xbf, 0x3e, 0x30, 0x86, 0xbc,
  0x9f, 0xb7, 0x0f, 0x40, 0x82, 0x10, 0x03, 0xc0, 0x20, 0x6d, 0x88, 0x3d,
  0xaf, 0x01, 0xd3, 0x3f, 0xda, 0x9b, 0x23, 0xc0, 0xa1, 0x3c, 0x5b, 0xbd,
  0xfb, 0x22, 0x1b, 0x40, 0x7d, 0x31, 0x0f, 0xc0, 0x09, 0x56, 0x1e, 0x3e,
  0x02, 0x5a, 0x95, 0xbd, 0xff, 0x92, 0x88, 0xbd, 0x61, 0xcb, 0x07, 0xbe,
  0xb4, 0xa8, 0x03, 0xbe, 0xe2, 0xe1, 0x13, 0xbe, 0x0f, 0xee, 0x00, 0xbd,
  0xba, 0x48, 0x18, 0xbe, 0x82, 0x41, 0xc3, 0xbc, 0x70, 0x7b, 0x1b, 0xbe,
  0xfc, 0x00, 0x5a, 0xbe, 0x81, 0x84, 0x95, 0xbe, 0xc3, 0xc0, 0xb8, 0xbe,
  0x17, 0x78, 0xfa, 0xbc, 0x5c, 0x6c, 0x4e, 0xbe, 0xa8, 0x71, 0x04, 0xbe,
  0x63, 0x58, 0xf0, 0x3c, 0x86, 0x7c, 0x18, 0x3f, 0x5a, 0xae, 0x8f, 0xbe,
  0x6b, 0x3d, 0xcd, 0x3d, 0x0a, 0xcc, 0xe7, 0x3e, 0xa8, 0xdf, 0x15, 0xbf,
  0x45, 0x02, 0x62, 0x3e, 0xb2, 0xb1, 0x9e, 0x3f, 0x50, 0x8d, 0x2d, 0xbf,
  0xd4, 0xa1, 0x97, 0x3e, 0x11, 0xd2, 0x14, 0x3f, 0x56, 0xc6, 0xcf, 0xbe,
  0x76, 0x33, 0x8d, 0x3e, 0x8d, 0xe8, 0x9f, 0x3f, 0x24, 0x81, 0xa5, 0xbd,
  0x4d, 0xfa, 0xc7, 0x3d, 0xb6, 0xa2, 0x0b, 0x3d, 0xb5, 0x4b, 0x0e, 0x3d,
  0x4b, 0x22, 0x4b, 0xbd, 0x05, 0x10, 0xa8, 0x3e, 0x12, 0x54, 0xba, 0x3d,
  0x34, 0xb1, 0xb5, 0xbc, 0xd7, 0xd5, 0x2c, 0xbe, 0x86, 0xe2, 0xc1, 0x3e,
  0x12, 0xa3, 0xa9, 0xbd, 0xbd, 0x98, 0x6f, 0xbe, 0xa9, 0xec, 0xb5, 0xbc,
  0x55, 0xa9, 0x42, 0xbe, 0x2e, 0x4d, 0x11, 0x3e, 0x67, 0x32, 0x14, 0xbe,
  0xf5, 0xc4, 0x49, 0x3e, 0xaa, 0x54, 0x7e, 0xbe, 0xb3, 0x41, 0xf5, 0x3f,
  0xf4, 0xfa, 0xab, 0xbf, 0xe9, 0x3a, 0x34, 0xbe, 0xa5, 0xab, 0x5c, 0x3e,
  0x0b, 0x4b, 0x68, 0xbf, 0xc3, 0x62, 0x5b, 0xbd, 0x27, 0x67, 0x0a, 0x3f,
  0x50, 0x22, 0x89, 0xbf, 0xb3, 0x59, 0x52, 0x3d, 0x35, 0x7d, 0xa7, 0xbd,
  0x03, 0x1e, 0x92, 0xbf, 0x7a, 0x21, 0xd4, 0x3d, 0xca, 0x98, 0xd9, 0x3e,
  0x94, 0x5b, 0x93, 0xbf, 0x70, 0x30, 0xa0, 0x3e, 0xee, 0x93, 0x27, 0xbd,
  0x98, 0xfc, 0x5b, 0xbe, 0x65, 0x8b, 0x22, 0x3e, 0xf7, 0x46, 0x20, 0xbe,
  0xf0, 0xf6, 0x7f, 0x3e, 0x1a, 0xba, 0x27, 0xbe, 0xbc, 0x8e, 0x3b, 0x3e,
  0x4c, 0x18, 0x05, 0x3e, 0x57, 0x9d, 0x1c, 0x3e, 0xe7, 0x12, 0x33, 0x3e,
  0xda, 0x71, 0x2a, 0x3e, 0xa1, 0x24, 0x81, 0x3d, 0x4a, 0xf4, 0x6b, 0xbd,
  0x4f, 0x67, 0xb0, 0x3e, 0x69, 0x76, 0x85, 0xbc, 0x78, 0xc9, 0xb0, 0x3d,
  0xf4, 0x6d, 0x23, 0x3f, 0x02, 0xa8, 0xd6, 0x3e, 0x92, 0xfe, 0x86, 0xbe,
  0x68, 0xd0, 0xe5, 0x3f, 0xbb, 0x4d, 0x13, 0x3f, 0x88, 0x8d, 0x64, 0xbe,
  0x17, 0x77, 0xa6, 0x3f, 0xc2, 0x28, 0x1e, 0x3f, 0x62, 0xbe, 0x49, 0xbe,
  0xf9, 0x57, 0xd7, 0x3f, 0xc6, 0x72, 0x09, 0x3f, 0x60, 0x6b, 0x0a, 0x3e,
  0xe1, 0x3a, 0x3e, 0x3f, 0x01, 0x89, 0xb8, 0x3e, 0x0c, 0x68, 0x1a, 0xbe,
  0xf4, 0x32, 0x65, 0xbc, 0x02, 0xe3, 0x5d, 0xbd, 0x72, 0xae, 0xf7, 0x3d,
  0x2a, 0x8f, 0xf5, 0xbd, 0xe4, 0x19, 0xca, 0x3d, 0xf7, 0x3b, 0x7d, 0x3c,
  0x1d, 0xa7, 0x0f, 0x3e, 0x51, 0x30, 0x77, 0xbd, 0xa3, 0x0c, 0xc6, 0x3d,
  0x3c, 0xd5, 0xf1, 0xbe, 0xeb, 0x07, 0xcd, 0xbd, 0x26, 0xcc, 0x47, 0xbe,
  0x90, 0x91, 0xe5, 0x3c, 0x77, 0x1c, 0x7b, 0x3e, 0x34, 0xc3, 0x94, 0x3d,
  0x83, 0x20, 0xed, 0x3d, 0xd6, 0x89, 0xdf, 0xbe, 0x95, 0xb4, 0xb6, 0x3f,
  0x6e, 0x97, 0x2c, 0x3d, 0xe3, 0xce, 0x39, 0xc0, 0x44, 0x9c, 0xa3, 0xbd,
  0x0b, 0x17, 0x97, 0xbd, 0xed, 0x6a, 0x1a, 0xc0, 0x77, 0x56, 0x21, 0xbe,
  0x17, 0xe5, 0x3e, 0xbd, 0xe8, 0x2d, 0x0f, 0xc0, 0x4e, 0xa1, 0xed, 0xbe,
  0x73, 0x4d, 0xaa, 0xbd, 0x20, 0x13, 0xed, 0xbf, 0x32, 0xeb, 0xc3, 0xbe,
  0x9a, 0x79, 0x38, 0xbf, 0xae, 0xf9, 0x33, 0xbd, 0xc0, 0xaa, 0x0d, 0x3e,
  0xc1, 0x26, 0x09, 0xbd, 0x4a, 0x6d, 0xc4, 0xbc, 0x41, 0xf2, 0x8e, 0x3d,
  0xc1, 0x61, 0xbc, 0x3c, 0x58, 0x21, 0x59, 0x3d, 0x16, 0x68, 0x34, 0xbb,
  0x8b, 0xb8, 0x1b, 0x3b, 0x87, 0x42, 0x59, 0x3f, 0xf6, 0x52, 0x45, 0xbe,
  0xf7, 0x10, 0xb6, 0xbe, 0x31, 0x58, 0x70, 0xbe, 0xd5, 0xa6, 0x2a, 0xbe,
  0x8b, 0x59, 0xa6, 0xbe, 0xee, 0xe1, 0x46, 0xbd, 0xf1, 0xf1, 0x99, 0xbf,
  0x55, 0x75, 0x93, 0x3f, 0x8a, 0x0e, 0x36, 0x3e, 0x75, 0x7e, 0x16, 0x3f,
  0xb9, 0x02, 0x11, 0x3f, 0xa8, 0xd0, 0x47, 0xbe, 0x8c, 0x3d, 0xff, 0x3d,
  0x06, 0x64, 0x6d, 0x3f, 0x47, 0x9c, 0xda, 0xbc, 0x94, 0xc1, 0x37, 0x3e,
  0x42, 0x01, 0x3e, 0x3f, 0xeb, 0x07, 0x6b, 0xbe, 0x19, 0xa3, 0xcb, 0x3d,
  0xf6, 0x23, 0xa9, 0x3f, 0xa0, 0x92, 0xb0, 0x3e, 0xe5, 0xfb, 0x68, 0x3e,
  0x23, 0x98, 0x89, 0x3e, 0xe7, 0x8a, 0x8b, 0xbe, 0xb6, 0xfb, 0x66, 0x3e,
  0xcb, 0x3e, 0x2a, 0x3e, 0x75, 0xc9, 0xf7, 0x3d, 0x84, 0xdc, 0xef, 0x3c,
  0xa2, 0x67, 0x78, 0x3e, 0x2b, 0x23, 0x14, 0xbe, 0xd8, 0x3b, 0xf7, 0xbd,
  0x99, 0x66, 0xf9, 0xbc, 0x05, 0x16, 0x15, 0xbe, 0x0a, 0x12, 0x19, 0x3e,
  0x0e, 0xfb, 0x34, 0xbc, 0xd7, 0xf3, 0xac, 0x3d, 0x66, 0xf1, 0x56, 0xbe,
  0xbf, 0xb8, 0x3d, 0x40, 0x5d, 0x11, 0xab, 0x3f, 0x21, 0x7e, 0xd2, 0x3d,
  0xc6, 0x69, 0x02, 0x40, 0x00, 0xd3, 0x72, 0xbe, 0xf0, 0x6e, 0x2f, 0x3e,
  0x02, 0xab, 0xf8, 0x3f, 0x0a, 0xa6, 0x0e, 0xbe, 0x78, 0x58, 0xee, 0xbd,
  0xcd, 0x6d, 0x0b, 0x40, 0xeb, 0xb8, 0x97, 0xbe, 0x42, 0x99, 0x8d, 0xbd,
  0x6f, 0x96, 0x0c, 0x40, 0xb4, 0x87, 0x61, 0xbd, 0x1f, 0xba, 0x5e, 0x3e,
  0x9d, 0x63, 0xcb, 0x3d, 0xaf, 0x6d, 0x89, 0x3d, 0x1f, 0xea, 0xce, 0x3d,
  0xb6, 0x93, 0x24, 0xbe, 0xfc, 0xa9, 0xa6, 0x3e, 0x22, 0x4d, 0x8c, 0x3d,
  0x66, 0xde, 0xc1, 0x3d, 0x84, 0x2e, 0x2e, 0xbd, 0x0c, 0xd2, 0x84, 0x3e,
  0x4b, 0xf5, 0x1b, 0x3e, 0x8b, 0x1a, 0x0b, 0xbe, 0xbc, 0x0b, 0x07, 0xbf,
  0xfe, 0xfd, 0x25, 0xbf, 0x1b, 0x69, 0xee, 0xbe, 0xb8, 0xb8, 0x23, 0x3d,
  0x6c, 0xc4, 0x14, 0x3e, 0xc6, 0x9c, 0x9c, 0xbe, 0x10, 0xc4, 0x80, 0x3f,
  0xa2, 0x02, 0x72, 0xbc, 0x1e, 0x02, 0x79, 0x3e, 0xa2, 0x64, 0x91, 0xbe,
  0xb9, 0xa5, 0x4e, 0xbc, 0x0a, 0x65, 0xc1, 0x3e, 0x28, 0x7c, 0xaa, 0x3d,
  0x87, 0xe9, 0x11, 0xbe, 0x94, 0xb2, 0x29, 0x3f, 0x5a, 0x8b, 0x05, 0x3f,
  0x11, 0x86, 0x74, 0xbe, 0xf6, 0x4a, 0x2e, 0x3f, 0x4a, 0xaa, 0xfb, 0x3e,
  0xc8, 0x9c, 0xbc, 0xbd, 0x81, 0x2d, 0x05, 0xbe, 0x64, 0xb3, 0x1c, 0xbe,
  0x50, 0x17, 0x3a, 0x3e, 0xc5, 0xea, 0x4b, 0x3d, 0x09, 0x7d, 0x88, 0x3d,
  0xdd, 0x1e, 0xca, 0x3d, 0x5a, 0x88, 0x81, 0xbe, 0x07, 0xdd, 0x09, 0xbe,
  0x11, 0xc1, 0x45, 0x3e, 0x94, 0xa0, 0x0c, 0x3f, 0x90, 0x55, 0x12, 0xbd,
  0x14, 0xd1, 0x96, 0xbd, 0xae, 0xc4, 0x20, 0x3e, 0xf3, 0x58, 0x04, 0xbd,
  0x99, 0x5a, 0xec, 0x3d, 0x9a, 0xc6, 0xf6, 0xbd, 0xd2, 0x36, 0x12, 0x3f,
  0x31, 0x22, 0x56, 0xbf, 0x26, 0xcb, 0x2a, 0xbe, 0x33, 0xd8, 0xc0, 0xbe,
  0x8d, 0xe6, 0x3b, 0xbf, 0x2b, 0x2a, 0x6b, 0xbe, 0x0c, 0xa5, 0xa1, 0x3e,
  0x4f, 0x58, 0x86, 0xbe, 0x0a, 0xdc, 0x86, 0x3e, 0x30, 0x9c, 0x70, 0xbe,
  0x28, 0x0d, 0xdc, 0xbe, 0x09, 0xc6, 0x81, 0xbe, 0x37, 0x4a, 0x47, 0x3e,
  0x6a, 0xd2, 0x32, 0xbf, 0x40, 0x60, 0x91, 0x3e, 0xd9, 0xdd, 0x4d, 0xbe,
  0x89, 0x92, 0x62, 0xbc, 0x8b, 0x59, 0x11, 0xbe, 0xa5, 0x41, 0x61, 0xbd,
  0xcd, 0xff, 0xfe, 0x3c, 0xd5, 0x3a, 0x5d, 0x3d, 0x1e, 0x8f, 0x92, 0xbe,
  0x37, 0x92, 0x40, 0xbe, 0xc3, 0x8f, 0x44, 0xbe, 0x3c, 0x24, 0x97, 0xbe,
  0x85, 0x4d, 0x80, 0x3e, 0x2b, 0x04, 0xd3, 0xbc, 0x96, 0x5f, 0x98, 0x3e,
  0x07, 0xa0, 0x13, 0x3d, 0x5e, 0x84, 0xea, 0x3d, 0x56, 0x68, 0x11, 0x3e,
  0x16, 0xf8, 0xb6, 0xbe, 0x35, 0x9b, 0xb7, 0x3e, 0x9b, 0x98, 0xc4, 0xbe,
  0xec, 0x82, 0x89, 0xbf, 0x01, 0xf2, 0x34, 0x3f, 0xca, 0x67, 0x00, 0xbe,
  0x74, 0xe6, 0xdf, 0xbe, 0xfd, 0xec, 0x6d, 0x3f, 0xed, 0x71, 0x5d, 0xbe,
  0x6d, 0xa6, 0x36, 0xbf, 0xf2, 0x72, 0x24, 0x3f, 0x78, 0x7f, 0xeb, 0xbd,
  0x16, 0xd3, 0x83, 0xbf, 0x86, 0x4d, 0x1b, 0x3f, 0x81, 0x65, 0x1a, 0xbe,
  0xa0, 0x7f, 0x92, 0xbe, 0x01, 0x6f, 0xbb, 0x3d, 0xb8, 0xb6, 0x54, 0x3d,
  0xf2, 0x13, 0x33, 0x3e, 0xee, 0x12, 0x98, 0xbc, 0xc3, 0xf8, 0x3b, 0x3e,
  0xa6, 0xb8, 0x9e, 0xbe, 0xd6, 0x8a, 0x19, 0x3e, 0x32, 0xb0, 0x09, 0x3d,
  0x65, 0xc7, 0xf0, 0x3b, 0x08, 0x93, 0xf4, 0x3e, 0x8d, 0xf0, 0xb4, 0x3e,
  0x2e, 0xfd, 0x6c, 0xbe, 0xe2, 0x33, 0x04, 0x3e, 0xe9, 0x2d, 0xdb, 0xbd,
  0xd1, 0x78, 0x86, 0xbe, 0xe3, 0x38, 0xfa, 0xbd, 0xb2, 0xc3, 0x0b, 0x3f,
  0xea, 0x96, 0x8e, 0xbe, 0x83, 0xe0, 0x3a, 0x3f, 0x98, 0x1d, 0x3e, 0x3d,
  0x31, 0x0a, 0x87, 0xbe, 0x1e, 0x77, 0xf6, 0x3e, 0xcc, 0xa6, 0x87, 0x3c,
  0x66, 0xc5, 0x66, 0x3e, 0xc4, 0xf7, 0x85, 0x3e, 0xa6, 0xdc, 0xc2, 0x3c,
  0xfe, 0x72, 0x32, 0x3e, 0x2f, 0x17, 0x4b, 0x3f, 0x41, 0x70, 0x4c, 0x3e,
  0x46, 0x71, 0x99, 0xbc, 0x3c, 0xae, 0xcc, 0xbd, 0x43, 0xa3, 0x43, 0x3e,
  0x1a, 0x9e, 0x06, 0xbd, 0x31, 0x6f, 0x33, 0xbd, 0xd3, 0xe7, 0xb9, 0xbd,
  0x45, 0x3c, 0x97, 0xba, 0x3f, 0x14, 0x55, 0x3e, 0xe0, 0x36, 0xb3, 0x3e,
  0x5c, 0x97, 0xfc, 0x3d, 0xe6, 0x15, 0x08, 0x3f, 0x8e, 0x34, 0x83, 0xbe,
  0xe7, 0x39, 0xd0, 0x3d, 0x18, 0xfc, 0x5c, 0xbe, 0x41, 0xb5, 0x42, 0x3e,
  0x39, 0xe1, 0xd0, 0xbc, 0xfc, 0xac, 0xb7, 0x3b, 0xb4, 0x4b, 0xf7, 0xbf,
  0xc1, 0xc0, 0x05, 0xbe, 0xf7, 0xa6, 0x87, 0xbe, 0x15, 0xa5, 0xc4, 0xbf,
  0xf7, 0x14, 0xf3, 0x3e, 0x6f, 0xe4, 0x70, 0x3e, 0xfa, 0x07, 0xc2, 0xbe,
  0x9f, 0x45, 0x33, 0x3e, 0x9a, 0x1d, 0x3b, 0x3d, 0x0d, 0x65, 0x6a, 0xbf,
  0xca, 0x2e, 0xba, 0x3b, 0x1a, 0x66, 0xe5, 0xbc, 0xc7, 0x87, 0xa4, 0xbf,
  0x1b, 0xf0, 0x13, 0x3f, 0xb3, 0x4f, 0x77, 0x3b, 0x34, 0xc6, 0xd7, 0xbb,
  0xbb, 0x71, 0x8a, 0x3d, 0x33, 0x99, 0xe3, 0x3c, 0xb9, 0x68, 0x8d, 0xbd,
  0xa0, 0x8a, 0x02, 0x3c, 0x42, 0x6a, 0x83, 0xbc, 0x4f, 0xaf, 0x1d, 0xbd,
  0xb7, 0x7e, 0xb9, 0x3c, 0x5e, 0x70, 0xbc, 0xbb, 0xcd, 0xf3, 0x09, 0x3d,
  0xf5, 0xe8, 0xdf, 0x3e, 0x35, 0x55, 0xde, 0xbe, 0x42, 0x9f, 0x42, 0xbe,
  0x96, 0x0d, 0x0f, 0x3e, 0xb2, 0x1d, 0xa8, 0xbc, 0xa3, 0x71, 0x86, 0x3e,
  0x2c, 0xbd, 0xc8, 0x3e, 0x90, 0xc6, 0xdd, 0xbf, 0x1a, 0xc0, 0x6e, 0x3d,
  0x80, 0x60, 0x8a, 0xbe, 0x21, 0x5c, 0x25, 0xbf, 0x59, 0x73, 0x7f, 0xbe,
  0x94, 0x72, 0x17, 0xbf, 0x67, 0x85, 0xb9, 0xbe, 0x1e, 0xcb, 0x89, 0xbe,
  0x73, 0xc3, 0xd4, 0xbe, 0x04, 0x1d, 0x23, 0xbf, 0x83, 0x69, 0x4e, 0xbe,
  0x8b, 0x0a, 0x85, 0xbf, 0x7e, 0x80, 0x4b, 0xbf, 0xd7, 0x12, 0x65, 0xbd,
  0xa1, 0x3e, 0xf3, 0x3d, 0x05, 0xef, 0xff, 0x3d, 0x9f, 0x25, 0x81, 0xbd,
  0x66, 0x57, 0x14, 0x3d, 0xdb, 0x22, 0x4e, 0x3c, 0xa4, 0x2e, 0x26, 0xbd,
  0xae, 0xfc, 0x6c, 0x3e, 0x31, 0xb4, 0x26, 0x3e, 0xf4, 0x66, 0x0f, 0x3e,
  0x6a, 0xd0, 0xb0, 0xbd, 0x0a, 0x68, 0x86, 0x3e, 0xbd, 0x1b, 0xce, 0x3e,
  0x94, 0x7e, 0xb7, 0x3d, 0x55, 0xc5, 0xc0, 0x3d, 0xa1, 0x71, 0x1e, 0xbe,
  0x0b, 0xe4, 0x08, 0x3e, 0x12, 0xf8, 0x0e, 0xc0, 0x14, 0xeb, 0x8b, 0xbe,
  0xd7, 0x67, 0x63, 0xbc, 0x23, 0xfa, 0x5e, 0xbf, 0x30, 0x17, 0x0e, 0x3e,
  0x12, 0x91, 0x3e, 0xbe, 0x89, 0x6b, 0x27, 0xbf, 0xa5, 0x7b, 0xf4, 0x3e,
  0xb7, 0x4a, 0x8b, 0xbe, 0x1a, 0x54, 0xe9, 0xbe, 0x6c, 0x3a, 0x7d, 0x3e,
  0x77, 0xe7, 0x2e, 0xbe, 0x05, 0xdd, 0x03, 0xbf, 0x80, 0x09, 0x08, 0x3f,
  0x67, 0x5e, 0xcb, 0x3d, 0x1d, 0x31, 0x3c, 0xbd, 0xe0, 0xab, 0x4e, 0x3e,
  0xda, 0x72, 0x13, 0xbe, 0x86, 0xa0, 0x3b, 0xbe, 0x0c, 0x20, 0x23, 0x3e,
  0x9e, 0x14, 0x82, 0x3e, 0x2a, 0x21, 0x41, 0x3d, 0x76, 0x1d, 0xcf, 0xbd,
  0xac, 0xb7, 0x5a, 0x3e, 0x85, 0xdb, 0x1e, 0xbd, 0xa8, 0x13, 0xcd, 0xbc,
  0x23, 0x0b, 0xbd, 0xbd, 0x32, 0xdb, 0xa4, 0xbb, 0x4a, 0xec, 0x8e, 0xbd,
  0x3d, 0xae, 0xde, 0xbe, 0x7f, 0xb5, 0x01, 0xbe, 0x57, 0xed, 0x88, 0xbe,
  0xd3, 0xfd, 0x13, 0x40, 0x05, 0x5a, 0x96, 0xbe, 0x74, 0x91, 0x8f, 0x3d,
  0x1a, 0x6c, 0x04, 0x3f, 0x08, 0x54, 0x4c, 0xbe, 0x9f, 0x36, 0x8d, 0x3e,
  0x8f, 0xe2, 0x23, 0x3f, 0x0b, 0xb9, 0x0f, 0xbe, 0xf0, 0xe9, 0x90, 0x3e,
  0xd5, 0x76, 0x87, 0x3f, 0x32, 0xaa, 0x06, 0x3e, 0x4f, 0xde, 0x6e, 0x3e,
  0x0d, 0x40, 0x67, 0x3f, 0x16, 0x9a, 0xf7, 0x3e, 0xd7, 0x5e, 0x39, 0xbe,
  0x2a, 0x60, 0x95, 0xbd, 0xd5, 0xcc, 0x5c, 0x3e, 0xca, 0xf7, 0x43, 0x3e,
  0xf3, 0xde, 0xdf, 0xbd, 0xbd, 0xc0, 0x30, 0xbe, 0x58, 0xa2, 0x25, 0x3d,
  0x9e, 0x3b, 0x8a, 0x3e, 0xee, 0x72, 0x78, 0xbd, 0x2f, 0xb0, 0x0c, 0xbe,
  0x83, 0x07, 0x08, 0xbe, 0x07, 0x57, 0xb9, 0xbd, 0x14, 0xff, 0x68, 0xbe,
  0x7e, 0x71, 0xa1, 0xbe, 0x0b, 0x50, 0x00, 0xbe, 0xc2, 0x87, 0x15, 0xbe,
  0x4b, 0x41, 0xe0, 0x3e, 0xc3, 0x85, 0xdb, 0x3f, 0x1e, 0x29, 0x64, 0xbc,
  0xf8, 0xbe, 0xd7, 0x3f, 0x81, 0x9c, 0x38, 0x3f, 0x5d, 0x6e, 0x0b, 0xbe,
  0x71, 0x4c, 0xac, 0x3f, 0x07, 0x48, 0x00, 0x3f, 0x0d, 0x3e, 0x9f, 0x3d,
  0x41, 0x60, 0xb0, 0x3f, 0x0e, 0x58, 0x3d, 0x3f, 0xb2, 0xdb, 0x83, 0xbe,
  0x9a, 0x35, 0xca, 0x3f, 0xac, 0xd6, 0x02, 0x3f, 0x35, 0x71, 0x43, 0xbc,
  0xb6, 0x80, 0x92, 0xbe, 0x6b, 0xc3, 0x1d, 0x3e, 0xc4, 0xb0, 0x69, 0xbe,
  0x21, 0xe0, 0x7d, 0x3e, 0x9d, 0x65, 0x65, 0xbe, 0x59, 0x14, 0x8d, 0x3e,
  0xbb, 0x80, 0x2d, 0xbe, 0xec, 0x79, 0xac, 0x3e, 0xfb, 0x20, 0x3a, 0xbe,
  0x60, 0xee, 0x46, 0xbd, 0x8b, 0x53, 0x48, 0xbe, 0xfe, 0x61, 0xba, 0x3d,
  0xee, 0x23, 0x43, 0x3e, 0x93, 0x49, 0x48, 0xbe, 0xad, 0x3b, 0x73, 0xbd,
  0xde, 0x6b, 0x1f, 0x3e, 0x96, 0x11, 0xc5, 0x3f, 0xd3, 0xce, 0x4d, 0xbf,
  0xd8, 0x87, 0xc2, 0xbd, 0xb4, 0xcb, 0x7a, 0x3f, 0x94, 0x49, 0x7b, 0xbf,
  0x05, 0xc6, 0x5c, 0x3d, 0x1f, 0x51, 0xaa, 0x3f, 0x7b, 0x71, 0x64, 0xbf,
  0xda, 0xf0, 0x3f, 0xbd, 0x99, 0xbf, 0xd5, 0x3e, 0x54, 0x5a, 0x84, 0xbf,
  0xdf, 0x76, 0x17, 0x3d, 0x9c, 0x66, 0x32, 0x3e, 0x8f, 0x67, 0x32, 0xbf,
  0x1c, 0x52, 0x8f, 0x3e, 0xc6, 0x76, 0x85, 0x3d, 0xba, 0xa5, 0x18, 0xbc,
  0xfc, 0xd5, 0xae, 0x3c, 0x4c, 0x1b, 0x7f, 0x3e, 0xe4, 0x2c, 0xeb, 0x3c,
  0x37, 0x95, 0x12, 0xbe, 0x16, 0x8e, 0x5f, 0x3e, 0xb2, 0x1c, 0x76, 0xbe,
  0x9d, 0xe8, 0xb2, 0xbd, 0x64, 0x91, 0xc9, 0xbe, 0xbd, 0x28, 0xa3, 0xbe,
  0xa2, 0x14, 0xb9, 0xbc, 0x34, 0x83, 0x2c, 0x3e, 0x8f, 0x2b, 0xf4, 0x3d,
  0xc1, 0xc4, 0x53, 0xbe, 0xa3, 0xc8, 0x52, 0xbe, 0x54, 0xdc, 0x13, 0xbe,
  0x48, 0xf6, 0x04, 0xbf, 0xd6, 0x56, 0xac, 0xbe, 0x77, 0xc2, 0x79, 0x3f,
  0xd6, 0x65, 0x49, 0xbe, 0xa1, 0xb9, 0xbc, 0x3d, 0x18, 0xc5, 0xf2, 0x3e,
  0xa7, 0xa0, 0x9a, 0x3e, 0x3d, 0x5d, 0x23, 0x3e, 0xd3, 0x00, 0x30, 0xbe,
  0x53, 0xda, 0x37, 0xbf, 0x5d, 0x1b, 0x51, 0x3e, 0xdf, 0xc2, 0xdb, 0xbe,
  0xbd, 0xf6, 0x95, 0xbe, 0x8b, 0xcf, 0x91, 0xbc, 0x50, 0x6d, 0x51, 0xbc,
  0x6a, 0x3e, 0xd6, 0xbb, 0xd3, 0xc0, 0x0b, 0x3d, 0xb8, 0x2e, 0xc4, 0xbc,
  0xf4, 0x71, 0xef, 0x3c, 0x5b, 0x3a, 0x6a, 0x39, 0xc9, 0xb6, 0x9b, 0x3d,
  0xad, 0xf2, 0x45, 0xbd, 0xfb, 0xda, 0x4d, 0x3d, 0xbb, 0x10, 0x55, 0x3e,
  0x7c, 0x42, 0xcb, 0x3e, 0x79, 0xca, 0x44, 0xbe, 0x58, 0xb8, 0xb8, 0xbd,
  0x74, 0x0b, 0xe8, 0xbd, 0xec, 0xd5, 0xb0, 0x3e, 0x5d, 0x95, 0xff, 0x3d,
  0x58, 0xb3, 0x11, 0xbf, 0x81, 0xca, 0xa4, 0xbe, 0x9e, 0x26, 0x58, 0xbe,
  0x70, 0x8a, 0x9a, 0x3e, 0x01, 0x53, 0x75, 0x3c, 0x9c, 0x9b, 0xba, 0xbd,
  0x64, 0x7b, 0xd0, 0xbe, 0x8e, 0x8d, 0x70, 0xbe, 0x91, 0xff, 0x8f, 0xbd,
  0x9a, 0x03, 0x13, 0x3e, 0x94, 0x59, 0xc5, 0xbd, 0x59, 0xa8, 0x2a, 0xbe,
  0x31, 0xec, 0x80, 0xbe, 0xcf, 0xcf, 0x88, 0x3e, 0x4a, 0xcb, 0xbd, 0x3d,
  0x16, 0x3c, 0x57, 0xbe, 0x9c, 0x6c, 0xd1, 0xbe, 0xea, 0x49, 0x8f, 0x3e,
  0x7f, 0xcf, 0x25, 0xbe, 0xf0, 0x0b, 0xa6, 0xbd, 0xf1, 0x43, 0x38, 0xbe,
  0x90, 0x65, 0xad, 0xbd, 0xfa, 0x4f, 0xe9, 0x3d, 0x6c, 0xf1, 0x0e, 0x3e,
  0xbb, 0x2f, 0x11, 0xbd, 0x88, 0xb6, 0x8a, 0xbd, 0x94, 0x49, 0x93, 0x3e,
  0x62, 0x6b, 0x0d, 0x3e, 0x3d, 0x79, 0xd2, 0xbd, 0x7c, 0xf1, 0x19, 0x3e,
  0x89, 0x0e, 0x90, 0x3e, 0xe7, 0x21, 0x4f, 0x3f, 0xdd, 0x2c, 0x63, 0xbf,
  0xa4, 0xc9, 0x7e, 0xbe, 0xf0, 0xb3, 0xba, 0x3e, 0x78, 0x36, 0x84, 0xbf,
  0xc0, 0x10, 0x84, 0xbc, 0x90, 0x94, 0xde, 0x3e, 0xb6, 0xd7, 0x80, 0xbf,
  0x44, 0x47, 0x7c, 0xbe, 0x43, 0x1a, 0x50, 0x3d, 0xa8, 0x2d, 0xaa, 0xbf,
  0x09, 0x93, 0x39, 0xbd, 0x53, 0x58, 0x26, 0xbd, 0xbd, 0x19, 0xde, 0xbf,
  0x2e, 0x49, 0x44, 0x3e, 0xa8, 0x7e, 0x31, 0xbe, 0x2c, 0x0a, 0x52, 0x3e,
  0x89, 0x0a, 0x77, 0x3e, 0x5e, 0x32, 0x78, 0x3e, 0x8c, 0x31, 0x8f, 0xbc,
  0xe3, 0xde, 0x65, 0xbd, 0x6f, 0x5e, 0xcd, 0xba, 0xa8, 0xe0, 0xd2, 0x3d,
  0x3b, 0x72, 0x64, 0x3c, 0x9f, 0xbb, 0x8f, 0x3e, 0xd0, 0xda, 0x9c, 0xbd,
  0x91, 0xc9, 0x4b, 0xbe, 0x5e, 0x92, 0xbe, 0x3c, 0xdb, 0x02, 0x96, 0xbe,
  0xd2, 0xd3, 0x18, 0xbd, 0xc5, 0x6d, 0xdf, 0xbe, 0x5b, 0xc7, 0x75, 0x3e,
  0x42, 0xee, 0x0b, 0xbf, 0xa2, 0x8e, 0xe3, 0x3d, 0x62, 0x99, 0x6b, 0xbe,
  0xd7, 0xeb, 0x43, 0xbf, 0x84, 0xe1, 0x4e, 0x3e, 0x4e, 0x9e, 0x0b, 0xbf,
  0x8d, 0x6f, 0xb5, 0xbe, 0xc8, 0x0a, 0x75, 0x3c, 0x3a, 0xde, 0x32, 0x3f,
  0xc6, 0x88, 0x04, 0xbf, 0xb9, 0x07, 0x36, 0x3e, 0x57, 0xa2, 0xc7, 0xb9,
  0x4a, 0xe8, 0xa4, 0xbe, 0x71, 0xc0, 0x94, 0x3c, 0x6d, 0xcd, 0x86, 0xbd,
  0x2c, 0x67, 0xa6, 0xbd, 0xcc, 0xc2, 0x43, 0x3d, 0xed, 0x04, 0x82, 0xbc,
  0x72, 0x0f, 0x90, 0xbd, 0x8e, 0x1c, 0xad, 0xbc, 0x83, 0x16, 0x7b, 0xbc,
  0x8f, 0x6c, 0xab, 0xbb, 0x7b, 0x9a, 0x9a, 0xbd, 0xf6, 0x89, 0x1c, 0x3e,
  0x06, 0x2c, 0x66, 0x3b, 0x12, 0xb7, 0xd0, 0x3d, 0x3b, 0xa8, 0xe3, 0xbd,
  0x30, 0xe2, 0x22, 0xbd, 0xc2, 0x7f, 0x82, 0x3d, 0x5a, 0xd1, 0xcf, 0x3d,
  0x30, 0xf1, 0x27, 0xbf, 0xa9, 0xb3, 0xf4, 0x3e, 0x8a, 0x22, 0xf3, 0x3d,
  0x06, 0x85, 0x85, 0x3e, 0x3f, 0x44, 0xe7, 0x3e, 0x35, 0x9b, 0xcc, 0x3d,
  0x91, 0x5c, 0xbe, 0xbd, 0x9d, 0x53, 0x89, 0x3f, 0x42, 0x6f, 0xf8, 0x3d,
  0x8a, 0x54, 0x3a, 0xbe, 0x6a, 0x25, 0xae, 0x3e, 0xa8, 0xaa, 0x0a, 0x3e,
  0x7d, 0x0a, 0x78, 0xbe, 0x8a, 0x28, 0x12, 0x3f, 0x84, 0x4b, 0x24, 0x3d,
  0xe0, 0x22, 0x27, 0x3c, 0x22, 0x78, 0xa4, 0x3c, 0xb1, 0xbe, 0x79, 0x3d,
  0x9b, 0xfb, 0x4a, 0x3e, 0xc2, 0x1b, 0x66, 0x3c, 0x18, 0xa0, 0xb3, 0x3d,
  0xc6, 0x52, 0x93, 0xbb, 0x19, 0x47, 0x70, 0xbd, 0x3a, 0x85, 0x11, 0x3c,
  0xc5, 0xf9, 0xa7, 0x3e, 0x9f, 0xda, 0x9d, 0x3e, 0x51, 0x73, 0x32, 0x3e,
  0x19, 0x12, 0x40, 0x3e, 0x87, 0x1a, 0x9a, 0x3e, 0x3b, 0xe4, 0x47, 0x3e,
  0x40, 0x21, 0xfe, 0x3e, 0x52, 0x08, 0x67, 0x3f, 0x75, 0xab, 0x74, 0xbf,
  0xdd, 0xa8, 0xec, 0xbd, 0x8e, 0x19, 0xe2, 0x3f, 0x81, 0x04, 0x77, 0xbf,
  0xf0, 0xe4, 0xa1, 0x3d, 0xad, 0xc3, 0x98, 0x3f, 0xfc, 0xb5, 0x0c, 0xbf,
  0x75, 0x4c, 0x6c, 0xbc, 0xfa, 0xa9, 0x54, 0x3f, 0xa7, 0xe7, 0x50, 0xbf,
  0x6e, 0x54, 0xc8, 0x3c, 0x7c, 0x78, 0x40, 0x3f, 0x2d, 0x82, 0x8f, 0xbf,
  0xef, 0xe7, 0x50, 0xbe, 0x52, 0x7b, 0xfe, 0xbd, 0x86, 0x89, 0x42, 0xbd,
  0x0b, 0xc3, 0x12, 0x3e, 0x71, 0xfd, 0xee, 0xbd, 0x9a, 0x9d, 0xa7, 0x3e,
  0x92, 0xff, 0x10, 0xbe, 0x9c, 0xc1, 0x1c, 0x3e, 0x87, 0xae, 0x9c, 0xbd,
  0x32, 0x6e, 0x85, 0x3e, 0x60, 0x60, 0xf3, 0xbc, 0xc3, 0x5c, 0x19, 0x3e,
  0xc4, 0x74, 0x4e, 0x3d, 0x44, 0xb0, 0xc9, 0xbd, 0x04, 0x3f, 0x26, 0x3c,
  0x31, 0x28, 0x8b, 0xbe, 0x5c, 0xa7, 0x8a, 0x3c, 0xd1, 0x4a, 0xc0, 0xbe,
  0x74, 0x03, 0xeb, 0x3d, 0xb2, 0xfd, 0x5c, 0x3c, 0xb3, 0x80, 0xe8, 0xbe,
  0xa3, 0xaa, 0x1b, 0xbc, 0x5b, 0x49, 0x2a, 0xbe, 0xe4, 0x40, 0x0f, 0xbf,
  0x8a, 0xb9, 0x8d, 0x3e, 0x7a, 0xf6, 0x31, 0x3e, 0x61, 0x34, 0x05, 0x3e,
  0xbe, 0x9c, 0xa5, 0x3e, 0x05, 0xd9, 0x62, 0xbe, 0x88, 0xb7, 0xa9, 0xbf,
  0x31, 0x18, 0x64, 0x3f, 0x5c, 0x3c, 0xdf, 0xbd, 0x79, 0x26, 0x2d, 0xbd,
  0x09, 0x1d, 0x3b, 0x3d, 0xb9, 0xbf, 0x45, 0xbd, 0x9e, 0x8e, 0x44, 0x3d,
  0xa8, 0x3e, 0x9f, 0xbd, 0xec, 0xd7, 0x22, 0xbe, 0xa1, 0x9c, 0xa5, 0xbc,
  0x3d, 0xf4, 0x18, 0x3e, 0x4c, 0xb5, 0x7c, 0xbd, 0x3e, 0x07, 0xaa, 0x3e,
  0xac, 0x4c, 0xec, 0xbd, 0x74, 0xb0, 0x24, 0xbe, 0xa7, 0x81, 0xbf, 0xbc,
  0x4b, 0x66, 0x65, 0x3e, 0xe0, 0x3e, 0x24, 0xbe, 0xf3, 0xb5, 0x8a, 0x3e,
  0xd9, 0x90, 0x11, 0x40, 0xdd, 0xfb, 0xe2, 0xbe, 0xc3, 0xeb, 0xf7, 0xbd,
  0x36, 0x11, 0x45, 0xbc, 0x28, 0x1b, 0xbf, 0xbe, 0xa2, 0xa9, 0xb3, 0x3d,
  0x30, 0x0b, 0x3e, 0x3f, 0x81, 0xc4, 0x16, 0xbf, 0x08, 0x07, 0x17, 0xbe,
  0x48, 0x74, 0x69, 0xbe, 0xc6, 0x5b, 0xf9, 0xbe, 0x8a, 0xdf, 0xf6, 0xbd,
  0x27, 0xa7, 0xde, 0x3e, 0x2f, 0xe6, 0xb4, 0xbe, 0x2d, 0x4f, 0xe7, 0x3d,
  0x3e, 0xd7, 0x48, 0x3e, 0xfe, 0x84, 0x67, 0x3e, 0xc0, 0xf1, 0x41, 0x3c,
  0x8a, 0x79, 0x72, 0x3e, 0x62, 0xe0, 0xa3, 0x3d, 0x81, 0xd0, 0x76, 0x3e,
  0xf4, 0xd6, 0x1b, 0x3e, 0x76, 0x67, 0x1a, 0x3e, 0xf8, 0x24, 0x22, 0x3d,
  0x53, 0xf8, 0xe7, 0xbd, 0xec, 0x33, 0x46, 0xbe, 0x05, 0x55, 0xd2, 0xbd,
  0x6b, 0xc3, 0xa5, 0xbe, 0x0c, 0x17, 0x82, 0xbe, 0x0a, 0xf7, 0xff, 0xff,
  0x04, 0x00, 0x00, 0x00, 0x80, 0x00, 0x00, 0x00, 0x72, 0x7b, 0x56, 0x3d,
  0x0b, 0x49, 0x2c, 0x3e, 0x9b, 0x05, 0x62, 0xbd, 0x3a, 0x0c, 0xa0, 0xbe,
  0x57, 0xaa, 0x23, 0xbe, 0xab, 0x8c, 0x31, 0x3e, 0xa7, 0xe7, 0x9f, 0x3c,
  0x96, 0x9b, 0x7c, 0x3e, 0xda, 0x06, 0xef, 0x3e, 0x21, 0x06, 0x8c, 0xbe,
  0x4a, 0x1a, 0x04, 0xbe, 0xfb, 0xd1, 0x9b, 0x3c, 0x9c, 0xf9, 0x18, 0x3e,
  0x93, 0x75, 0xa5, 0x3d, 0x36, 0x8b, 0x06, 0x3e, 0x98, 0xdc, 0xef, 0x3d,
  0xa6, 0x40, 0xc3, 0xbe, 0x88, 0xe7, 0xa9, 0x3e, 0xe4, 0x91, 0xfb, 0x3d,
  0x66, 0x96, 0xf5, 0xba, 0xbe, 0x10, 0xbe, 0x3e, 0xd9, 0x02, 0x21, 0xbe,
  0xaa, 0xb9, 0xf5, 0xbd, 0x65, 0x78, 0x12, 0x3d, 0x8d, 0x60, 0x8b, 0xbc,
  0x96, 0xe5, 0x81, 0x3e, 0x66, 0x7a, 0x6f, 0xbd, 0x4f, 0xb9, 0x75, 0x3e,
  0x29, 0x5d, 0xa4, 0x3e, 0x81, 0x7b, 0x58, 0x3e, 0x61, 0x72, 0x9b, 0x3e,
  0x5c, 0x44, 0xa8, 0xbe, 0x96, 0xf7, 0xff, 0xff, 0x04, 0x00, 0x00, 0x00,
  0x04, 0x00, 0x00, 0x00, 0x06, 0x0d, 0x56, 0x3e, 0xa6, 0xf7, 0xff, 0xff,
  0x04, 0x00, 0x00, 0x00, 0x40, 0x00, 0x00, 0x00, 0x71, 0xed, 0xa2, 0xbd,
  0xf5, 0x52, 0xac, 0x3e, 0xe1, 0x85, 0x02, 0x3e, 0xe2, 0x25, 0xba, 0x3e,
  0xc9, 0x72, 0xa7, 0x3d, 0x7c, 0x73, 0x48, 0xbe, 0x07, 0x87, 0x8d, 0x3e,
  0x13, 0x7a, 0x28, 0x3e, 0x46, 0x62, 0x22, 0xbd, 0xd5, 0x76, 0x5a, 0xbe,
  0xb3, 0x9b, 0xea, 0xbd, 0x12, 0x9f, 0x68, 0x3e, 0x8c, 0x72, 0x8a, 0xbe,
  0xb3, 0xb5, 0x86, 0xbd, 0xc7, 0x90, 0x56, 0x3e, 0x98, 0xb6, 0x3f, 0xbe,
  0xf2, 0xf7, 0xff, 0xff, 0x04, 0x00, 0x00, 0x00, 0x00, 0x08, 0x00, 0x00,
  0x55, 0x32, 0x71, 0xbe, 0x6e, 0xcf, 0x74, 0x3e, 0x73, 0xbe, 0x8d, 0x3e,
  0x97, 0xc3, 0xb1, 0xbc, 0x04, 0x68, 0xfa, 0x3d, 0x20, 0x47, 0x2a, 0x3e,
  0x77, 0xc7, 0x84, 0xbd, 0x0d, 0xb5, 0x94, 0xbe, 0xc0, 0x2a, 0x25, 0xbe,
  0x74, 0x73, 0x86, 0xbd, 0x4a, 0xe2, 0x6d, 0xbe, 0xb6, 0xe3, 0x0f, 0xbe,
  0x48, 0x13, 0x33, 0x3e, 0x65, 0xff, 0x9c, 0xbe, 0x98, 0x9c, 0xfb, 0x3c,
  0xaa, 0x4c, 0x2f, 0xbd, 0x83, 0xe4, 0x4e, 0xbe, 0x3a, 0xd0, 0xb5, 0x3d,
  0xa2, 0x68, 0x95, 0xbe, 0xd8, 0xe7, 0x77, 0xbe, 0xb1, 0x4e, 0x48, 0xbe,
  0x1f, 0x7a, 0xb7, 0xbd, 0x7f, 0xf4, 0x5d, 0xbe, 0x8b, 0x88, 0x35, 0x3a,
  0xf7, 0xd3, 0xfd, 0xbd, 0x64, 0x9c, 0xf6, 0xba, 0x4e, 0xb6, 0xbd, 0xbe,
  0xa4, 0xee, 0x50, 0x3e, 0x58, 0xb8, 0x88, 0xbe, 0xc6, 0x32, 0x94, 0xbe,
  0x52, 0x47, 0xed, 0x3d, 0x4a, 0x89, 0x8a, 0xbe, 0x6b, 0xdc, 0x93, 0xbd,
  0x9e, 0xbc, 0x0f, 0xbf, 0xe7, 0x06, 0x46, 0xbe, 0x31, 0x6c, 0x77, 0xbf,
  0x9b, 0x24, 0x00, 0xbf, 0x3b, 0xec, 0x9a, 0xbd, 0xdd, 0x6c, 0x3f, 0xbe,
  0x6a, 0x5d, 0xb9, 0xbe, 0x66, 0x62, 0x3a, 0xbd, 0x98, 0xd9, 0x7b, 0xbe,
  0x63, 0xb0, 0x8d, 0xbe, 0x5e, 0x6c, 0xf0, 0xbd, 0x90, 0x37, 0xde, 0xbd,
  0x7e, 0x2e, 0x2c, 0x3e, 0x1b, 0x2b, 0x9a, 0x3e, 0x9b, 0x74, 0x7d, 0x3e,
  0x25, 0x73, 0x58, 0xbc, 0x96, 0x44, 0xff, 0xbd, 0x35, 0x1f, 0x70, 0x3e,
  0x61, 0x0c, 0x19, 0x3e, 0x13, 0x0e, 0x3e, 0x3e, 0x92, 0x0f, 0xda, 0x3a,
  0x3f, 0xd1, 0x83, 0xbc, 0xf7, 0x7b, 0x8a, 0x3e, 0xef, 0x30, 0x0e, 0xbe,
  0xb9, 0x83, 0x22, 0xbd, 0x91, 0x56, 0xa4, 0x3e, 0x3d, 0x96, 0x96, 0x3e,
  0x3e, 0x60, 0x0c, 0xbd, 0xe9, 0x99, 0xd7, 0xbe, 0x02, 0x05, 0x53, 0x3c,
  0x23, 0x97, 0x9c, 0x3e, 0xca, 0x55, 0x88, 0xbd, 0x9b, 0xf8, 0x09, 0x3e,
  0xaa, 0x59, 0xb6, 0x3e, 0xa2, 0xd9, 0x1f, 0x3e, 0x1b, 0xdd, 0x85, 0x3c,
  0x8e, 0x59, 0xbc, 0xbd, 0x28, 0x87, 0x59, 0xbe, 0x03, 0xb0, 0xce, 0xbe,
  0x06, 0xc8, 0x0a, 0x3e, 0xb7, 0x81, 0x66, 0x3d, 0x7a, 0x3c, 0x80, 0xbf,
  0xe8, 0xbc, 0x66, 0xbe, 0x2f, 0xfb, 0xfc, 0x3d, 0xb4, 0x82, 0x48, 0x3e,
  0x0e, 0x19, 0x09, 0x3e, 0x0b, 0x0f, 0x5c, 0xbe, 0xf1, 0x18, 0xd2, 0xbe,
  0x13, 0x61, 0x92, 0xbe, 0x9d, 0x17, 0x40, 0x3e, 0x73, 0x4f, 0x83, 0x3a,
  0xce, 0x52, 0xa1, 0x3e, 0x78, 0x40, 0x1e, 0xbf, 0x21, 0xe1, 0x40, 0x3e,
  0xe2, 0x80, 0x58, 0x3e, 0x52, 0x4f, 0x14, 0xbf, 0x75, 0x2f, 0xb2, 0x3d,
  0x33, 0x17, 0xda, 0xbe, 0x96, 0x93, 0xff, 0x3c, 0x25, 0xcf, 0xba, 0x3d,
  0x31, 0x14, 0xcd, 0x3d, 0xf8, 0xfe, 0x78, 0xbe, 0xc8, 0x1a, 0x78, 0x3e,
  0xa0, 0xfd, 0xa8, 0xbc, 0xa9, 0xe4, 0x01, 0xbe, 0xe6, 0xaa, 0x23, 0xbf,
  0xba, 0xf0, 0x07, 0xbf, 0xc1, 0x09, 0x7a, 0xbe, 0x91, 0x72, 0x9b, 0xbe,
  0x94, 0x80, 0x8d, 0x3e, 0x74, 0x6a, 0x3f, 0x3d, 0x7b, 0xf2, 0x94, 0xbd,
  0xf8, 0x2e, 0x65, 0xbe, 0x87, 0xb4, 0x4e, 0x3e, 0x52, 0xf2, 0xb3, 0xbe,
  0xd9, 0xcf, 0x03, 0x3e, 0xd6, 0x9c, 0x9f, 0xbc, 0x66, 0x8c, 0x15, 0x3e,
  0x17, 0x91, 0xa2, 0xbd, 0xc3, 0xdc, 0xa2, 0xbe, 0x24, 0x24, 0xb7, 0x3c,
  0xfe, 0x62, 0xba, 0xbb, 0x9f, 0xe9, 0x31, 0x3e, 0x1b, 0xbd, 0x01, 0xbe,
  0xbf, 0xdd, 0xed, 0xbd, 0xbe, 0x24, 0x8f, 0x3e, 0xdc, 0x6f, 0x94, 0xbf,
  0x16, 0x60, 0xb6, 0x3d, 0x14, 0x5e, 0x54, 0x3c, 0xc6, 0xb5, 0xa1, 0x3e,
  0x2b, 0x4a, 0x5e, 0xbe, 0x7d, 0xc3, 0xa3, 0xbd, 0xb7, 0x16, 0x0b, 0xbf,
  0xdb, 0x1f, 0x13, 0xbf, 0xf7, 0x3e, 0xd0, 0xbe, 0x44, 0x8c, 0x74, 0x3e,
  0x1c, 0xc4, 0x95, 0x3e, 0xea, 0x7f, 0xf4, 0x3e, 0x3c, 0x32, 0xe4, 0x3d,
  0xaa, 0xb2, 0x56, 0x3e, 0x7b, 0xb2, 0x09, 0x3e, 0x9f, 0x07, 0x97, 0x3d,
  0x04, 0xc3, 0x07, 0x3e, 0x0b, 0xd5, 0xc4, 0xbd, 0x54, 0xd9, 0x8e, 0x3e,
  0x91, 0xd9, 0xc5, 0x3d, 0x37, 0x54, 0x3b, 0xbf, 0xbd, 0x1a, 0xcc, 0x3d,
  0xfc, 0x15, 0x37, 0xbe, 0x05, 0x4e, 0x3a, 0x3e, 0xf8, 0x73, 0xa4, 0x3c,
  0xb7, 0x17, 0x57, 0xbe, 0x36, 0xe5, 0x45, 0xbe, 0x6a, 0x7b, 0xeb, 0x3d,
  0x0b, 0xc6, 0xb6, 0x3c, 0x51, 0x05, 0x22, 0x3d, 0x35, 0xe8, 0xab, 0xbd,
  0xdd, 0xc5, 0xb0, 0x3c, 0x24, 0x9d, 0x4c, 0xbe, 0x1a, 0xb4, 0x32, 0x3e,
  0x1b, 0x3b, 0xf1, 0xbc, 0xaa, 0xf5, 0x83, 0xbe, 0x31, 0xcb, 0x69, 0xbd,
  0x22, 0xaa, 0x0e, 0xbe, 0xb7, 0xfa, 0x63, 0x3e, 0x1d, 0x82, 0xc4, 0x3e,
  0x64, 0x2a, 0x29, 0xbe, 0x78, 0x47, 0x8a, 0x3d, 0xad, 0x08, 0x57, 0xbd,
  0xfd, 0x20, 0x0b, 0xbe, 0x01, 0xe3, 0x12, 0xbf, 0x88, 0xf4, 0xa6, 0xbd,
  0xeb, 0x90, 0x2b, 0x3e, 0x4b, 0x76, 0x53, 0xbe, 0x33, 0x74, 0x9b, 0xbd,
  0xc9, 0xc9, 0xfd, 0x3e, 0x67, 0x7f, 0x3d, 0x3e, 0xe9, 0x81, 0x48, 0xbe,
  0x4c, 0x3d, 0x7f, 0xbe, 0x48, 0xaa, 0x01, 0xbc, 0x69, 0xfb, 0xb2, 0xbc,
  0xb5, 0xe5, 0xc5, 0x3d, 0x4b, 0x2b, 0xeb, 0x3d, 0xfe, 0x92, 0xe2, 0x3b,
  0x32, 0x79, 0x31, 0x3e, 0x70, 0x9f, 0x38, 0xbe, 0xa4, 0xcb, 0xbc, 0xbd,
  0x7c, 0x40, 0xbe, 0xbc, 0x2f, 0xce, 0xb9, 0x3e, 0xed, 0x63, 0x62, 0x3e,
  0x10, 0xbb, 0xa7, 0x3e, 0xd3, 0x39, 0x25, 0xbe, 0xd2, 0x2a, 0xba, 0xbd,
  0x1b, 0xa7, 0x89, 0x3e, 0x9f, 0x28, 0x9d, 0x3e, 0xa2, 0xf6, 0xb5, 0xbe,
  0xa4, 0xf4, 0x2b, 0x3d, 0x26, 0x52, 0x89, 0xbe, 0x0e, 0x98, 0xff, 0x3d,
  0x0a, 0x4e, 0xc0, 0x3d, 0x55, 0xed, 0x74, 0xbd, 0x41, 0x11, 0x62, 0xbe,
  0x4f, 0x4c, 0x3d, 0xbd, 0xcb, 0xaa, 0xf9, 0xbe, 0x55, 0xc7, 0x0c, 0xbe,
  0xdf, 0xfc, 0x8b, 0x3e, 0xbd, 0xf1, 0x68, 0x3e, 0x0b, 0xb3, 0x33, 0x3e,
  0xef, 0x10, 0xcf, 0xbd, 0xf9, 0xca, 0xb4, 0x3d, 0xeb, 0x46, 0xf4, 0x3e,
  0xe5, 0x2f, 0x79, 0xbd, 0x8b, 0x26, 0xff, 0x3d, 0x4c, 0xd0, 0xc2, 0x3e,
  0x31, 0x50, 0x8c, 0x3d, 0x6d, 0x37, 0x4c, 0xbe, 0x70, 0xff, 0x7c, 0x3e,
  0xcf, 0x02, 0x93, 0xbe, 0x14, 0x9b, 0x74, 0xbd, 0xa4, 0x51, 0x8a, 0xbe,
  0x59, 0x29, 0xa3, 0x3d, 0xa4, 0xbf, 0x08, 0xbd, 0x4d, 0x75, 0xb5, 0x3e,
  0x47, 0x01, 0x03, 0xbf, 0x75, 0x32, 0xed, 0xbc, 0x49, 0x36, 0x92, 0x3c,
  0xcf, 0xb2, 0xc7, 0x3c, 0x07, 0x43, 0xa7, 0x3d, 0x51, 0x6d, 0x8d, 0xbe,
  0x2d, 0x7b, 0x93, 0x3e, 0x2d, 0x48, 0xf8, 0x3e, 0x6c, 0x59, 0x9f, 0xbe,
  0x36, 0x9a, 0x87, 0x3e, 0x4b, 0xb3, 0x26, 0x3e, 0x4c, 0xea, 0xa6, 0xbe,
  0x5a, 0x39, 0xbf, 0x3e, 0xa1, 0xb6, 0xd8, 0x3d, 0x2b, 0xf4, 0x09, 0xbe,
  0x79, 0xb2, 0x79, 0x3e, 0x75, 0x2d, 0xd1, 0xbd, 0x53, 0xb6, 0x9e, 0xbd,
  0xda, 0xf7, 0x97, 0x3e, 0x25, 0x5a, 0x50, 0xbf, 0xfa, 0xe1, 0x97, 0xbe,
  0x07, 0x91, 0xab, 0xbd, 0x5c, 0x92, 0x64, 0xbe, 0x61, 0xa2, 0xf7, 0x3d,
  0x71, 0xb4, 0xc6, 0x3d, 0x4f, 0x64, 0x23, 0xbe, 0x40, 0x7a, 0xcd, 0x3d,
  0x18, 0x38, 0xac, 0x3e, 0x6b, 0x50, 0x49, 0xbd, 0xc3, 0x79, 0x0a, 0xbe,
  0x6a, 0x45, 0x30, 0xbe, 0xc1, 0x15, 0xbc, 0x3e, 0x26, 0x3d, 0xa1, 0x3e,
  0x1f, 0xfb, 0x0b, 0x3e, 0xd2, 0xca, 0xdf, 0xbb, 0xb4, 0xaf, 0x5e, 0x3d,
  0x97, 0x2c, 0xe9, 0x3d, 0xce, 0xfb, 0x92, 0x3e, 0x10, 0xac, 0xf8, 0x3b,
  0x1a, 0x65, 0xec, 0x3e, 0x8d, 0x4a, 0xa2, 0xbd, 0xca, 0x09, 0x24, 0xbf,
  0x45, 0xb9, 0x59, 0xbe, 0x91, 0xdc, 0x9f, 0x3d, 0x44, 0x33, 0x92, 0xbe,
  0x92, 0xfb, 0x7c, 0xbe, 0x77, 0x93, 0x70, 0xbf, 0x84, 0x67, 0x18, 0xbe,
  0x16, 0x0e, 0xca, 0x3e, 0xd8, 0xac, 0x43, 0x3e, 0xaa, 0xb1, 0x6a, 0xbf,
  0x41, 0xd2, 0x87, 0xbf, 0xc5, 0xd2, 0x85, 0xbd, 0x42, 0x6e, 0xe6, 0x3d,
  0xba, 0x9f, 0xbf, 0xbe, 0x5d, 0x84, 0x35, 0xbf, 0x64, 0x80, 0x32, 0x3e,
  0xbb, 0xac, 0xb0, 0xbd, 0x0c, 0x75, 0x04, 0xbf, 0x13, 0x50, 0xa9, 0xba,
  0x8c, 0xa9, 0x4f, 0xbf, 0xb3, 0xc0, 0xa5, 0xbe, 0x4e, 0x02, 0xd2, 0xbe,
  0xc9, 0x1b, 0xe6, 0xbe, 0xf5, 0x11, 0x2b, 0xbf, 0x44, 0x06, 0xbe, 0xbf,
  0xa4, 0x91, 0xf5, 0x3d, 0x9c, 0x3a, 0x44, 0xbe, 0x08, 0xe7, 0xd4, 0x3d,
  0xdd, 0x4f, 0x2b, 0x3e, 0x10, 0x17, 0xc1, 0x3e, 0x65, 0xbe, 0x77, 0x3d,
  0x7a, 0xf0, 0x05, 0x3e, 0xdb, 0xb2, 0xe1, 0xbd, 0x8a, 0xc1, 0x55, 0x3e,
  0xc9, 0x14, 0x4a, 0x3c, 0x65, 0x5e, 0x7f, 0xbd, 0xfe, 0xec, 0x84, 0xbe,
  0x31, 0xec, 0x29, 0x3d, 0x31, 0x80, 0xd3, 0x3e, 0x60, 0x9a, 0xbf, 0x3e,
  0x13, 0xf6, 0x1c, 0xbe, 0x71, 0x0b, 0x82, 0x3e, 0xe5, 0xe0, 0x21, 0x3e,
  0xfa, 0x48, 0x49, 0x3e, 0xb2, 0x9d, 0x79, 0x3e, 0x7d, 0xd0, 0xbc, 0x3d,
  0xce, 0x26, 0x27, 0x3e, 0x8f, 0xeb, 0x07, 0x3e, 0xc8, 0x50, 0x82, 0xbc,
  0x9b, 0x25, 0x33, 0x3e, 0x56, 0x23, 0x5c, 0xbe, 0xe8, 0xed, 0xbc, 0x3d,
  0xad, 0xeb, 0x8e, 0x3e, 0x0e, 0x6b, 0x28, 0x3d, 0x31, 0x15, 0x1d, 0x3e,
  0x59, 0xa2, 0xf0, 0x3d, 0x41, 0x09, 0x9c, 0x3d, 0xf6, 0x51, 0xc2, 0xbd,
  0x05, 0xd3, 0x22, 0xbd, 0x74, 0xd3, 0x96, 0xbc, 0x0f, 0x01, 0x0a, 0x3e,
  0xc1, 0x74, 0x4b, 0xbe, 0xe1, 0x3c, 0x0c, 0xbc, 0xa8, 0x60, 0xdf, 0xbe,
  0x9e, 0x14, 0xa8, 0xbe, 0x18, 0x94, 0x8b, 0x3c, 0x3c, 0xc3, 0xb3, 0xbe,
  0x12, 0x8c, 0x2f, 0x3e, 0x69, 0x97, 0x98, 0xbe, 0xda, 0x7a, 0x85, 0x3e,
  0x1e, 0xa1, 0x83, 0xbe, 0x32, 0x09, 0x28, 0x3e, 0xad, 0x1d, 0x5b, 0x3e,
  0x2b, 0x6d, 0xc9, 0xbe, 0xde, 0x64, 0x3c, 0xbd, 0xe5, 0x89, 0xbf, 0xbe,
  0x58, 0x1d, 0x06, 0xbe, 0x66, 0xd4, 0x90, 0xbe, 0x6d, 0x3d, 0x6d, 0x3d,
  0x8b, 0x50, 0xcc, 0x3c, 0x32, 0x0e, 0x30, 0x3e, 0x4d, 0xad, 0xb3, 0xbd,
  0xce, 0x14, 0xbc, 0xbe, 0xad, 0x76, 0x5b, 0xbe, 0xf6, 0xac, 0x29, 0x3e,
  0x54, 0x5a, 0xaf, 0xbe, 0x89, 0x72, 0x38, 0xbd, 0xa6, 0xc6, 0x9b, 0xbe,
  0xe9, 0xfe, 0x8e, 0xbe, 0xcd, 0x0d, 0x0e, 0xbe, 0x54, 0x75, 0x65, 0xbe,
  0x05, 0x42, 0xff, 0xbd, 0x1c, 0xc4, 0x98, 0x3e, 0xcd, 0xd3, 0x28, 0xbe,
  0x1a, 0x77, 0x3d, 0xbe, 0x8c, 0x1c, 0x90, 0x3e, 0x42, 0x9c, 0xca, 0xbe,
  0x5c, 0xd4, 0xfe, 0x3d, 0x49, 0xc4, 0xca, 0x3e, 0x9d, 0x05, 0xa4, 0xbe,
  0x3c, 0x0a, 0x46, 0x3e, 0xde, 0x24, 0x56, 0xbe, 0xd9, 0x2c, 0x8c, 0x3e,
  0xa1, 0x30, 0x9d, 0xbe, 0xe9, 0xdf, 0x1b, 0x3e, 0x44, 0xf4, 0x11, 0xbd,
  0xe7, 0xf3, 0x39, 0x3d, 0x98, 0x58, 0xdd, 0xbc, 0x67, 0x46, 0x6e, 0xbe,
  0x43, 0x1b, 0x3d, 0xbb, 0x2c, 0x84, 0x04, 0x3e, 0x70, 0x57, 0xf9, 0xbc,
  0x02, 0x41, 0x2b, 0x3e, 0xc8, 0xc3, 0x20, 0x3e, 0x7f, 0x4b, 0x85, 0xbd,
  0xe7, 0x57, 0x03, 0x3e, 0xb5, 0x65, 0x81, 0x3d, 0x0d, 0xee, 0x34, 0xbd,
  0xe0, 0x31, 0x96, 0xbe, 0xd9, 0xb8, 0x13, 0xbe, 0x79, 0x14, 0x56, 0x3e,
  0xf3, 0xec, 0xd2, 0xbd, 0xb5, 0xea, 0x99, 0xbe, 0x98, 0x29, 0xa2, 0x3e,
  0x85, 0x4a, 0xc0, 0xbe, 0xe9, 0x43, 0xc7, 0x3d, 0x43, 0x77, 0xa9, 0x3e,
  0x79, 0x01, 0xc9, 0x3d, 0x92, 0x0d, 0xe3, 0xbe, 0xce, 0x62, 0x11, 0x3e,
  0x01, 0x4d, 0x5c, 0x3e, 0xc7, 0x6c, 0x39, 0x3e, 0x16, 0x76, 0xe6, 0xbd,
  0x8b, 0xcf, 0x9f, 0x3d, 0xd2, 0x4d, 0x97, 0x3c, 0xb8, 0x45, 0xde, 0x3c,
  0x2b, 0xe2, 0x37, 0x3e, 0xd6, 0xfb, 0x47, 0x3e, 0x9e, 0x56, 0xce, 0x3d,
  0xa1, 0x6a, 0x8c, 0xbe, 0x4f, 0x82, 0x67, 0xbe, 0xf6, 0x4d, 0xfc, 0x3d,
  0x42, 0xc6, 0x9a, 0xbe, 0x0f, 0x03, 0x7e, 0x3c, 0x84, 0x5c, 0xd3, 0xbd,
  0xf1, 0x44, 0xf4, 0xbd, 0x4a, 0x55, 0x0f, 0x3e, 0xef, 0x77, 0x06, 0xbf,
  0xd0, 0x5f, 0x8c, 0x3e, 0xdd, 0x5d, 0x15, 0x3e, 0xee, 0xc2, 0xc9, 0xbf,
  0xef, 0x09, 0x22, 0xbe, 0x3b, 0x16, 0x27, 0x3e, 0x06, 0xd0, 0x47, 0xbd,
  0xbc, 0xf0, 0x85, 0xbe, 0x64, 0xce, 0xc7, 0xbd, 0x7b, 0x0f, 0xe1, 0xbe,
  0x4c, 0x74, 0x5c, 0xbe, 0xf9, 0xc1, 0x2c, 0x3c, 0x04, 0x47, 0x06, 0xbe,
  0x80, 0xcc, 0xf4, 0x3e, 0x7b, 0x28, 0xec, 0x3c, 0xa0, 0x05, 0x9d, 0xbd,
  0x9a, 0x86, 0x83, 0x3e, 0x51, 0x29, 0x83, 0xbe, 0xbf, 0xf7, 0xaf, 0xbe,
  0x05, 0x8f, 0x9a, 0x3e, 0xa7, 0x5e, 0xc7, 0xbe, 0xd8, 0x6e, 0xaf, 0x3e,
  0xad, 0xce, 0x42, 0xba, 0xb8, 0x4c, 0x7f, 0x3e, 0xda, 0x62, 0x54, 0xbe,
  0xc3, 0x45, 0x94, 0xbe, 0xe9, 0x7f, 0xa7, 0x3d, 0x4f, 0x23, 0x0a, 0x3e,
  0xf7, 0x82, 0x13, 0xbe, 0x39, 0x4c, 0xc3, 0x3c, 0xb0, 0x58, 0xc9, 0xbe,
  0xb9, 0x9e, 0x91, 0x3e, 0xb9, 0x8d, 0x1a, 0xbe, 0xf6, 0x62, 0xb8, 0xbe,
  0x0a, 0xb3, 0x92, 0xbe, 0xe6, 0x0a, 0x18, 0x3f, 0x25, 0x41, 0xc5, 0x3e,
  0xcc, 0x87, 0x93, 0xbb, 0xdc, 0x9c, 0xc0, 0x3e, 0xeb, 0x38, 0x03, 0x3f,
  0x2b, 0x31, 0xed, 0xbc, 0xd7, 0x91, 0xa5, 0x3e, 0x02, 0x56, 0xd5, 0xbe,
  0x77, 0x85, 0x44, 0x3e, 0x0a, 0xc6, 0x04, 0x3e, 0xb3, 0x6b, 0x61, 0x3d,
  0x24, 0x85, 0x66, 0xbe, 0xed, 0xc9, 0x3f, 0xbe, 0xf4, 0x2a, 0x39, 0x3e,
  0x25, 0x19, 0x9a, 0x3e, 0x63, 0xb5, 0x9c, 0x3c, 0xde, 0x3a, 0x1d, 0xbe,
  0x26, 0xe8, 0x95, 0x3e, 0x18, 0x5a, 0x71, 0x3e, 0xef, 0xe5, 0x42, 0x3c,
  0x4f, 0xab, 0x79, 0x3e, 0x47, 0x81, 0x67, 0x3e, 0x9c, 0xc0, 0x87, 0xbc,
  0xa1, 0xda, 0x05, 0x3e, 0xcd, 0xba, 0x5d, 0xbd, 0x50, 0xc6, 0x76, 0xbd,
  0xa3, 0x99, 0x7e, 0x3e, 0xd3, 0x9c, 0x5d, 0xbe, 0x5b, 0x31, 0xf7, 0xbc,
  0x12, 0xc1, 0x05, 0xbd, 0xa8, 0x40, 0xaf, 0xbe, 0x5c, 0xc9, 0xd7, 0x3b,
  0x15, 0x47, 0x78, 0x3d, 0xb2, 0x0c, 0x91, 0xbe, 0x8f, 0x68, 0x5a, 0xbd,
  0x81, 0xf0, 0x51, 0x3e, 0x5c, 0xe1, 0x30, 0x3e, 0x39, 0x71, 0x24, 0x3e,
  0xf8, 0x0b, 0x98, 0xbe, 0x2e, 0x8c, 0x2a, 0x3e, 0xc8, 0xde, 0xe8, 0xbc,
  0xdb, 0x0c, 0x51, 0xbd, 0x34, 0x98, 0x2f, 0x3e, 0x98, 0x75, 0x56, 0x3e,
  0x72, 0xd7, 0xca, 0xbd, 0xcc, 0xa2, 0xff, 0x3e, 0x29, 0x32, 0xa9, 0xbd,
  0x95, 0xe9, 0xab, 0xbe, 0x98, 0x02, 0x99, 0x3d, 0xcc, 0x05, 0xf8, 0xbb,
  0xad, 0x8b, 0x52, 0x3e, 0x67, 0xb1, 0x82, 0x3e, 0x19, 0x81, 0x84, 0xbe,
  0xf3, 0xab, 0x8e, 0xbe, 0xd7, 0x00, 0xf2, 0x3e, 0xb9, 0x55, 0x9a, 0xbe,
  0x45, 0x7f, 0x2d, 0x3d, 0x8a, 0x28, 0x69, 0x3d, 0xa6, 0xd8, 0xdd, 0xbd,
  0x08, 0x79, 0x38, 0xbf, 0xa7, 0xce, 0x01, 0x3e, 0xc9, 0x60, 0x0a, 0xbd,
  0xb6, 0xe7, 0xdb, 0xbc, 0x86, 0xa9, 0x2e, 0x3e, 0x65, 0x25, 0xf9, 0xbc,
  0x09, 0xd2, 0xd3, 0xbc, 0xda, 0x47, 0xd6, 0xbd, 0xa2, 0xf3, 0x90, 0xbd,
  0x4f, 0x98, 0x25, 0x3e, 0xf6, 0x5b, 0xf4, 0x3d, 0x37, 0xb2, 0xc1, 0x3c,
  0x5c, 0xa7, 0x20, 0xbe, 0xa3, 0x01, 0xe4, 0x3d, 0x00, 0x00, 0x06, 0x00,
  0x08, 0x00, 0x04, 0x00, 0x06, 0x00, 0x00, 0x00, 0x04, 0x00, 0x00, 0x00,
  0x40, 0x00, 0x00, 0x00, 0x2b, 0x75, 0x01, 0x3f, 0xd6, 0x26, 0x1f, 0x3e,
  0x4f, 0x2c, 0xb7, 0x3e, 0x86, 0xbd, 0xf6, 0x3e, 0x1e, 0x1f, 0x1a, 0xbf,
  0x32, 0x1f, 0x92, 0xbe, 0xe7, 0xec, 0x53, 0xbf, 0x55, 0x19, 0xa0, 0xbf,
  0x88, 0x35, 0xb8, 0x3e, 0xe8, 0x22, 0xaa, 0xbe, 0x9d, 0x46, 0x85, 0x3d,
  0x57, 0x12, 0x16, 0x3f, 0x75, 0x86, 0x07, 0x3f, 0x73, 0xec, 0x2f, 0xbf,
  0xec, 0x1e, 0x3a, 0x3e, 0x84, 0x15, 0x10, 0xbf, 0x90, 0xfa, 0xff, 0xff,
  0x94, 0xfa, 0xff, 0xff, 0x0f, 0x00, 0x00, 0x00, 0x4d, 0x4c, 0x49, 0x52,
  0x20, 0x43, 0x6f, 0x6e, 0x76, 0x65, 0x72, 0x74, 0x65, 0x64, 0x2e, 0x00,
  0x01, 0x00, 0x00, 0x00, 0x14, 0x00, 0x00, 0x00, 0x00, 0x00, 0x0e, 0x00,
  0x18, 0x00, 0x14, 0x00, 0x10, 0x00, 0x0c, 0x00, 0x08, 0x00, 0x04, 0x00,
  0x0e, 0x00, 0x00, 0x00, 0x14, 0x00, 0x00, 0x00, 0x1c, 0x00, 0x00, 0x00,
  0x08, 0x01, 0x00, 0x00, 0x0c, 0x01, 0x00, 0x00, 0x10, 0x01, 0x00, 0x00,
  0x04, 0x00, 0x00, 0x00, 0x6d, 0x61, 0x69, 0x6e, 0x00, 0x00, 0x00, 0x00,
  0x04, 0x00, 0x00, 0x00, 0xb0, 0x00, 0x00, 0x00, 0x68, 0x00, 0x00, 0x00,
  0x34, 0x00, 0x00, 0x00, 0x10, 0x00, 0x00, 0x00, 0x00, 0x00, 0x0a, 0x00,
  0x10, 0x00, 0x0c, 0x00, 0x08, 0x00, 0x04, 0x00, 0x0a, 0x00, 0x00, 0x00,
  0x0c, 0x00, 0x00, 0x00, 0x10, 0x00, 0x00, 0x00, 0x01, 0x00, 0x00, 0x00,
  0x01, 0x00, 0x00, 0x00, 0x0a, 0x00, 0x00, 0x00, 0x01, 0x00, 0x00, 0x00,
  0x09, 0x00, 0x00, 0x00, 0x9a, 0xff, 0xff, 0xff, 0x10, 0x00, 0x00, 0x00,
  0x00, 0x00, 0x00, 0x08, 0x0c, 0x00, 0x00, 0x00, 0x10, 0x00, 0x00, 0x00,
  0x3c, 0xfb, 0xff, 0xff, 0x01, 0x00, 0x00, 0x00, 0x09, 0x00, 0x00, 0x00,
  0x03, 0x00, 0x00, 0x00, 0x08, 0x00, 0x00, 0x00, 0x01, 0x00, 0x00, 0x00,
  0x04, 0x00, 0x00, 0x00, 0xca, 0xff, 0xff, 0xff, 0x10, 0x00, 0x00, 0x00,
  0x00, 0x00, 0x00, 0x08, 0x10, 0x00, 0x00, 0x00, 0x14, 0x00, 0x00, 0x00,
  0xba, 0xff, 0xff, 0xff, 0x00, 0x00, 0x00, 0x01, 0x01, 0x00, 0x00, 0x00,
  0x08, 0x00, 0x00, 0x00, 0x03, 0x00, 0x00, 0x00, 0x07, 0x00, 0x00, 0x00,
  0x02, 0x00, 0x00, 0x00, 0x03, 0x00, 0x00, 0x00, 0x00, 0x00, 0x0e, 0x00,
  0x16, 0x00, 0x00, 0x00, 0x10, 0x00, 0x0c, 0x00, 0x0b, 0x00, 0x04, 0x00,
  0x0e, 0x00, 0x00, 0x00, 0x18, 0x00, 0x00, 0x00, 0x00, 0x00, 0x00, 0x08,
  0x18, 0x00, 0x00, 0x00, 0x1c, 0x00, 0x00, 0x00, 0x00, 0x00, 0x06, 0x00,
  0x08, 0x00, 0x07, 0x00, 0x06, 0x00, 0x00, 0x00, 0x00, 0x00, 0x00, 0x01,
  0x01, 0x00, 0x00, 0x00, 0x07, 0x00, 0x00, 0x00, 0x03, 0x00, 0x00, 0x00,
  0x00, 0x00, 0x00, 0x00, 0x06, 0x00, 0x00, 0x00, 0x05, 0x00, 0x00, 0x00,
  0x01, 0x00, 0x00, 0x00, 0x0a, 0x00, 0x00, 0x00, 0x01, 0x00, 0x00, 0x00,
  0x00, 0x00, 0x00, 0x00, 0x0b, 0x00, 0x00, 0x00, 0xec, 0x03, 0x00, 0x00,
  0x94, 0x03, 0x00, 0x00, 0x3c, 0x03, 0x00, 0x00, 0xe4, 0x02, 0x00, 0x00,
  0x8c, 0x02, 0x00, 0x00, 0x38, 0x02, 0x00, 0x00, 0xf0, 0x01, 0x00, 0x00,
  0x68, 0x01, 0x00, 0x00, 0xd8, 0x00, 0x00, 0x00, 0x60, 0x00, 0x00, 0x00,
  0x04, 0x00, 0x00, 0x00, 0x56, 0xfc, 0xff, 0xff, 0x00, 0x00, 0x00, 0x01,
  0x14, 0x00, 0x00, 0x00, 0x1c, 0x00, 0x00, 0x00, 0x1c, 0x00, 0x00, 0x00,
  0x0b, 0x00, 0x00, 0x00, 0x34, 0x00, 0x00, 0x00, 0x02, 0x00, 0x00, 0x00,
  0xff, 0xff, 0xff, 0xff, 0x01, 0x00, 0x00, 0x00, 0x40, 0xfc, 0xff, 0xff,
  0x19, 0x00, 0x00, 0x00, 0x53, 0x74, 0x61, 0x74, 0x65, 0x66, 0x75, 0x6c,
  0x50, 0x61, 0x72, 0x74, 0x69, 0x74, 0x69, 0x6f, 0x6e, 0x65, 0x64, 0x43,
  0x61, 0x6c, 0x6c, 0x3a, 0x30, 0x00, 0x00, 0x00, 0x02, 0x00, 0x00, 0x00,
  0x01, 0x00, 0x00, 0x00, 0x01, 0x00, 0x00, 0x00, 0xae, 0xfc, 0xff, 0xff,
  0x00, 0x00, 0x00, 0x01, 0x14, 0x00, 0x00, 0x00, 0x1c, 0x00, 0x00, 0x00,
  0x1c, 0x00, 0x00, 0x00, 0x0a, 0x00, 0x00, 0x00, 0x50, 0x00, 0x00, 0x00,
  0x02, 0x00, 0x00, 0x00, 0xff, 0xff, 0xff, 0xff, 0x01, 0x00, 0x00, 0x00,
  0x98, 0xfc, 0xff, 0xff, 0x34, 0x00, 0x00, 0x00, 0x73, 0x65, 0x71, 0x75,
  0x65, 0x6e, 0x74, 0x69, 0x61, 0x6c, 0x2f, 0x64, 0x65, 0x6e, 0x73, 0x65,
  0x5f, 0x32, 0x2f, 0x4d, 0x61, 0x74, 0x4d, 0x75, 0x6c, 0x3b, 0x73, 0x65,
  0x71, 0x75, 0x65, 0x6e, 0x74, 0x69, 0x61, 0x6c, 0x2f, 0x64, 0x65, 0x6e,
  0x73, 0x65, 0x5f, 0x32, 0x2f, 0x42, 0x69, 0x61, 0x73, 0x41, 0x64, 0x64,
  0x00, 0x00, 0x00, 0x00, 0x02, 0x00, 0x00, 0x00, 0x01, 0x00, 0x00, 0x00,
  0x01, 0x00, 0x00, 0x00, 0x22, 0xfd, 0xff, 0xff, 0x00, 0x00, 0x00, 0x01,
  0x14, 0x00, 0x00, 0x00, 0x1c, 0x00, 0x00, 0x00, 0x1c, 0x00, 0x00, 0x00,
  0x09, 0x00, 0x00, 0x00, 0x68, 0x00, 0x00, 0x00, 0x02, 0x00, 0x00, 0x00,
  0xff, 0xff, 0xff, 0xff, 0x10, 0x00, 0x00, 0x00, 0x0c, 0xfd, 0xff, 0xff,
  0x4c, 0x00, 0x00, 0x00, 0x73, 0x65, 0x71, 0x75, 0x65, 0x6e, 0x74, 0x69,
  0x61, 0x6c, 0x2f, 0x64, 0x65, 0x6e, 0x73, 0x65, 0x5f, 0x31, 0x2f, 0x4d,
  0x61, 0x74, 0x4d, 0x75, 0x6c, 0x3b, 0x73, 0x65, 0x71, 0x75, 0x65, 0x6e,
  0x74, 0x69, 0x61, 0x6c, 0x2f, 0x64, 0x65, 0x6e, 0x73, 0x65, 0x5f, 0x31,
  0x2f, 0x52, 0x65, 0x6c, 0x75, 0x3b, 0x73, 0x65, 0x71, 0x75, 0x65, 0x6e,
  0x74, 0x69, 0x61, 0x6c, 0x2f, 0x64, 0x65, 0x6e, 0x73, 0x65, 0x5f, 0x31,
  0x2f, 0x42, 0x69, 0x61, 0x73, 0x41, 0x64, 0x64, 0x00, 0x00, 0x00, 0x00,
  0x02, 0x00, 0x00, 0x00, 0x01, 0x00, 0x00, 0x00, 0x10, 0x00, 0x00, 0x00,
  0xae, 0xfd, 0xff, 0xff, 0x00, 0x00, 0x00, 0x01, 0x14, 0x00, 0x00, 0x00,
  0x1c, 0x00, 0x00, 0x00, 0x1c, 0x00, 0x00, 0x00, 0x08, 0x00, 0x00, 0x00,
  0x60, 0x00, 0x00, 0x00, 0x02, 0x00, 0x00, 0x00, 0xff, 0xff, 0xff, 0xff,
  0x20, 0x00, 0x00, 0x00, 0x98, 0xfd, 0xff, 0xff, 0x46, 0x00, 0x00, 0x00,
  0x73, 0x65, 0x71, 0x75, 0x65, 0x6e, 0x74, 0x69, 0x61, 0x6c, 0x2f, 0x64,
  0x65, 0x6e, 0x73, 0x65, 0x2f, 0x4d, 0x61, 0x74, 0x4d, 0x75, 0x6c, 0x3b,
  0x73, 0x65, 0x71, 0x75, 0x65, 0x6e, 0x74, 0x69, 0x61, 0x6c, 0x2f, 0x64,
