/*
 * Copyright (c) 2023, Alliance for Open Media. All rights reserved
 *
 * This source code is subject to the terms of the BSD 2 Clause License and
 * the Alliance for Open Media Patent License 1.0. If the BSD 2 Clause License
 * was not distributed with this source code in the LICENSE file, you can
 * obtain it at www.aomedia.org/license/software. If the Alliance for Open
 * Media Patent License 1.0 was not distributed with this source code in the
 * PATENTS file, you can obtain it at www.aomedia.org/license/patent.
 */
const struct ModelParams sms_part_split_prune_tflite_model_params[] = {
    {0.01, 0.7, 75, 160}, {0.01, 0.7, 75, 160},  {0.01, 0.4, 75, 160},
    {0.075, 0.25, 75, 160}, {0.075, 0.25, 75, 160}, {0.075, 0.25, 75, 160}};

// git_part_prune_inter_bs3_6_9_12_qp_110_135_160_nnz_psnr_vect_satdq_32_16_tflite_model.cc
unsigned char sms_part_split_prune_tflite_model[] = {
  0x1c, 0x00, 0x00, 0x00, 0x54, 0x46, 0x4c, 0x33, 0x14, 0x00, 0x20, 0x00,
  0x1c, 0x00, 0x18, 0x00, 0x14, 0x00, 0x10, 0x00, 0x0c, 0x00, 0x00, 0x00,
  0x08, 0x00, 0x04, 0x00, 0x14, 0x00, 0x00, 0x00, 0x1c, 0x00, 0x00, 0x00,
  0x80, 0x00, 0x00, 0x00, 0xd8, 0x00, 0x00, 0x00, 0x84, 0x1a, 0x00, 0x00,
  0x94, 0x1a, 0x00, 0x00, 0x18, 0x20, 0x00, 0x00, 0x03, 0x00, 0x00, 0x00,
  0x01, 0x00, 0x00, 0x00, 0x04, 0x00, 0x00, 0x00, 0x2e, 0xe5, 0xff, 0xff,
  0x0c, 0x00, 0x00, 0x00, 0x1c, 0x00, 0x00, 0x00, 0x38, 0x00, 0x00, 0x00,
  0x0f, 0x00, 0x00, 0x00, 0x73, 0x65, 0x72, 0x76, 0x69, 0x6e, 0x67, 0x5f,
  0x64, 0x65, 0x66, 0x61, 0x75, 0x6c, 0x74, 0x00, 0x01, 0x00, 0x00, 0x00,
  0x04, 0x00, 0x00, 0x00, 0x9c, 0xff, 0xff, 0xff, 0x0a, 0x00, 0x00, 0x00,
  0x04, 0x00, 0x00, 0x00, 0x07, 0x00, 0x00, 0x00, 0x64, 0x65, 0x6e, 0x73,
  0x65, 0x5f, 0x32, 0x00, 0x01, 0x00, 0x00, 0x00, 0x04, 0x00, 0x00, 0x00,
  0x3a, 0xe6, 0xff, 0xff, 0x04, 0x00, 0x00, 0x00, 0x07, 0x00, 0x00, 0x00,
  0x69, 0x6e, 0x70, 0x75, 0x74, 0x5f, 0x31, 0x00, 0x02, 0x00, 0x00, 0x00,
  0x34, 0x00, 0x00, 0x00, 0x04, 0x00, 0x00, 0x00, 0xdc, 0xff, 0xff, 0xff,
  0x0d, 0x00, 0x00, 0x00, 0x04, 0x00, 0x00, 0x00, 0x13, 0x00, 0x00, 0x00,
  0x43, 0x4f, 0x4e, 0x56, 0x45, 0x52, 0x53, 0x49, 0x4f, 0x4e, 0x5f, 0x4d,
  0x45, 0x54, 0x41, 0x44, 0x41, 0x54, 0x41, 0x00, 0x08, 0x00, 0x0c, 0x00,
  0x08, 0x00, 0x04, 0x00, 0x08, 0x00, 0x00, 0x00, 0x0c, 0x00, 0x00, 0x00,
  0x04, 0x00, 0x00, 0x00, 0x13, 0x00, 0x00, 0x00, 0x6d, 0x69, 0x6e, 0x5f,
  0x72, 0x75, 0x6e, 0x74, 0x69, 0x6d, 0x65, 0x5f, 0x76, 0x65, 0x72, 0x73,
  0x69, 0x6f, 0x6e, 0x00, 0x0e, 0x00, 0x00, 0x00, 0xa8, 0x19, 0x00, 0x00,
  0xa0, 0x19, 0x00, 0x00, 0x50, 0x19, 0x00, 0x00, 0x38, 0x11, 0x00, 0x00,
  0xe8, 0x10, 0x00, 0x00, 0xd4, 0x10, 0x00, 0x00, 0x44, 0x10, 0x00, 0x00,
  0xb4, 0x00, 0x00, 0x00, 0xac, 0x00, 0x00, 0x00, 0xa4, 0x00, 0x00, 0x00,
  0x9c, 0x00, 0x00, 0x00, 0x94, 0x00, 0x00, 0x00, 0x74, 0x00, 0x00, 0x00,
  0x04, 0x00, 0x00, 0x00, 0xe6, 0xe6, 0xff, 0xff, 0x04, 0x00, 0x00, 0x00,
  0x60, 0x00, 0x00, 0x00, 0x10, 0x00, 0x00, 0x00, 0x00, 0x00, 0x00, 0x00,
  0x08, 0x00, 0x0e, 0x00, 0x08, 0x00, 0x04, 0x00, 0x08, 0x00, 0x00, 0x00,
  0x10, 0x00, 0x00, 0x00, 0x24, 0x00, 0x00, 0x00, 0x00, 0x00, 0x06, 0x00,
  0x08, 0x00, 0x04, 0x00, 0x06, 0x00, 0x00, 0x00, 0x04, 0x00, 0x00, 0x00,
  0x00, 0x00, 0x00, 0x00, 0x0c, 0x00, 0x18, 0x00, 0x14, 0x00, 0x10, 0x00,
  0x0c, 0x00, 0x04, 0x00, 0x0c, 0x00, 0x00, 0x00, 0x81, 0x13, 0xf7, 0xa3,
  0x48, 0x69, 0x7f, 0x5b, 0x02, 0x00, 0x00, 0x00, 0x02, 0x00, 0x00, 0x00,
  0x04, 0x00, 0x00, 0x00, 0x06, 0x00, 0x00, 0x00, 0x32, 0x2e, 0x31, 0x37,
  0x2e, 0x30, 0x00, 0x00, 0x52, 0xe7, 0xff, 0xff, 0x04, 0x00, 0x00, 0x00,
  0x10, 0x00, 0x00, 0x00, 0x31, 0x2e, 0x31, 0x34, 0x2e, 0x30, 0x00, 0x00,
  0x00, 0x00, 0x00, 0x00, 0x00, 0x00, 0x00, 0x00, 0xac, 0xe1, 0xff, 0xff,
  0xb0, 0xe1, 0xff, 0xff, 0xb4, 0xe1, 0xff, 0xff, 0xb8, 0xe1, 0xff, 0xff,
  0x7e, 0xe7, 0xff, 0xff, 0x04, 0x00, 0x00, 0x00, 0x80, 0x0f, 0x00, 0x00,
  0x34, 0xb5, 0x81, 0x3e, 0xd8, 0x71, 0x3a, 0x3e, 0x03, 0x3a, 0x60, 0x3f,
  0x63, 0x39, 0x60, 0x3f, 0xf5, 0x60, 0xfc, 0x3c, 0xf0, 0x5f, 0xe2, 0x3f,
  0x70, 0xa9, 0xc9, 0x3e, 0x7d, 0xca, 0x9a, 0xbc, 0xb9, 0xa9, 0xa3, 0x3f,
  0xd0, 0xf4, 0xbc, 0x3f, 0x9e, 0x3d, 0xfb, 0x3d, 0xf5, 0xd1, 0x18, 0x3e,
  0xfc, 0xe2, 0xc0, 0x3f, 0x2b, 0xed, 0xb9, 0xbc, 0xf1, 0x55, 0xee, 0x3f,
  0xf8, 0x00, 0xd7, 0x3f, 0x6e, 0xa1, 0x9c, 0xbe, 0x22, 0xa4, 0x91, 0x3e,
  0x6a, 0x12, 0xc5, 0x3d, 0x03, 0x5d, 0x14, 0x3e, 0x47, 0x51, 0xce, 0xbd,
  0x48, 0x79, 0xa2, 0x3d, 0x04, 0xa7, 0x2e, 0xbd, 0x02, 0x49, 0x96, 0x3d,
  0xd6, 0x0e, 0xc1, 0xbd, 0xfa, 0xc2, 0x10, 0x3d, 0xd3, 0x75, 0x19, 0x3d,
  0x72, 0xb7, 0x42, 0xbd, 0x88, 0xd8, 0xd3, 0x3e, 0xdc, 0x4a, 0x0e, 0x3f,
  0xfd, 0xcd, 0xbb, 0x3e, 0x26, 0x4a, 0x03, 0x3e, 0xcd, 0x24, 0x0a, 0x3e,
  0x40, 0x5d, 0xe1, 0x40, 0xc6, 0x5d, 0x5b, 0x3f, 0x3f, 0x47, 0x41, 0x3e,
  0x16, 0x13, 0x3e, 0x3f, 0x72, 0xd5, 0x63, 0x3f, 0x9e, 0x92, 0xff, 0x3d,
  0xf9, 0xe9, 0x03, 0x3f, 0xd8, 0x31, 0x38, 0x3f, 0x85, 0x65, 0x00, 0xbe,
  0x7b, 0x6b, 0x1e, 0x3e, 0x53, 0x43, 0x65, 0x3f, 0xb0, 0xb2, 0x68, 0xbe,
  0x42, 0x53, 0xf0, 0x3e, 0x70, 0xc3, 0x15, 0x3f, 0x95, 0xc8, 0xbb, 0x3e,
  0x57, 0x41, 0xf4, 0x3d, 0xf6, 0x84, 0xf1, 0x3c, 0xfd, 0xb1, 0x38, 0x3e,
  0x42, 0x41, 0x88, 0xbd, 0x51, 0x1a, 0x17, 0xbc, 0xc0, 0x26, 0xd4, 0xbc,
  0x5f, 0x40, 0x35, 0x3d, 0x73, 0x0c, 0xf3, 0x3c, 0xf3, 0x44, 0x05, 0x3e,
  0x75, 0xfe, 0xa6, 0xbc, 0xe4, 0x8a, 0xa9, 0xbd, 0xcc, 0x52, 0x8a, 0x3d,
  0x1f, 0x02, 0x40, 0xbe, 0x59, 0xe9, 0x9c, 0xbe, 0x41, 0xad, 0xde, 0x3e,
  0xa2, 0x86, 0x9d, 0x3e, 0xf1, 0x09, 0x9d, 0xc0, 0x84, 0x5a, 0xe6, 0xbd,
  0xdf, 0x84, 0x91, 0xbd, 0x83, 0x59, 0x81, 0xbf, 0x9a, 0x8f, 0x74, 0x3e,
  0x59, 0x6d, 0x27, 0x3e, 0x92, 0xfd, 0xc0, 0xbf, 0xb1, 0x5e, 0x8b, 0x3e,
  0x5b, 0x9a, 0xf2, 0x3d, 0x18, 0xaf, 0x6a, 0xbf, 0x14, 0x5e, 0xb6, 0xbe,
  0x6a, 0x80, 0x05, 0x3d, 0x54, 0x70, 0x82, 0x3d, 0xb2, 0x5b, 0x44, 0x3e,
  0x05, 0x92, 0xb1, 0xbd, 0xb5, 0xd8, 0xd2, 0xbd, 0x7c, 0xc8, 0xa9, 0xbc,
  0xe8, 0xba, 0x34, 0xbd, 0x13, 0xc6, 0x14, 0x3e, 0x76, 0x5d, 0x32, 0xbe,
  0xf5, 0x25, 0x24, 0x3c, 0x51, 0xf9, 0xd7, 0xbd, 0x26, 0x72, 0xec, 0xbc,
  0x0d, 0x03, 0x5b, 0xbd, 0x1b, 0x8a, 0x19, 0xbe, 0x5b, 0x37, 0x67, 0xbd,
  0x67, 0xda, 0xe6, 0xbd, 0xf7, 0xa3, 0x1c, 0xbe, 0xc2, 0x30, 0x00, 0xbe,
  0xd2, 0xac, 0x3c, 0x3e, 0x2c, 0xc1, 0x8b, 0xbe, 0x97, 0x60, 0x2d, 0xbe,
  0xeb, 0x65, 0x1c, 0xbf, 0xde, 0x19, 0x85, 0x3d, 0x33, 0x10, 0x3f, 0xc0,
  0x08, 0x4c, 0x12, 0xbf, 0xdd, 0xdd, 0xf8, 0x3d, 0x7f, 0x66, 0x22, 0xc0,
  0xce, 0xa5, 0xb9, 0xbf, 0xb5, 0xdf, 0xbb, 0xbd, 0xb7, 0xa4, 0x79, 0xc0,
  0x37, 0xc2, 0x5f, 0xbe, 0x9c, 0xfa, 0x4d, 0x3e, 0x0e, 0xb2, 0x72, 0xc0,
  0x6a, 0xba, 0x4e, 0xbf, 0x3e, 0x0e, 0x9a, 0x3d, 0xe3, 0x3d, 0x17, 0xbe,
  0xef, 0x06, 0x0a, 0x3e, 0x78, 0xda, 0xb4, 0xbe, 0x34, 0xf7, 0xcb, 0x3c,
  0x6d, 0x3d, 0x01, 0xbd, 0xbf, 0x7e, 0x45, 0x3b, 0xf1, 0x2c, 0x3e, 0xbe,
  0x98, 0x48, 0xb8, 0xbc, 0x50, 0x09, 0x92, 0x3e, 0xbd, 0x98, 0x07, 0x3f,
  0xde, 0xae, 0xbd, 0xbe, 0xb0, 0x93, 0x05, 0xbe, 0x41, 0x62, 0xca, 0x3d,
  0x70, 0x72, 0x0b, 0xbe, 0xf7, 0x50, 0x85, 0x3e, 0x31, 0x49, 0x47, 0x3e,
  0x55, 0xd3, 0xe1, 0xc0, 0xd3, 0x1a, 0x86, 0xbf, 0xfd, 0x57, 0x3b, 0x3d,
  0xb8, 0xfe, 0x22, 0xc0, 0xfa, 0x0d, 0x4f, 0xbf, 0xec, 0x89, 0x29, 0x3e,
  0x76, 0x6a, 0x33, 0xbf, 0xfc, 0xa8, 0xd5, 0xbf, 0x10, 0x12, 0x41, 0x3e,
  0xe4, 0xb7, 0xb4, 0xbf, 0x5e, 0xb1, 0xfc, 0xbf, 0x18, 0x61, 0xa0, 0xbb,
  0x67, 0x30, 0x03, 0xbd, 0x87, 0xb1, 0x97, 0xbf, 0x3e, 0x7c, 0x03, 0x3e,
  0x74, 0x81, 0x54, 0xbd, 0x74, 0x11, 0x41, 0xbd, 0x41, 0x50, 0x81, 0xbd,
  0x6a, 0x60, 0x07, 0xbe, 0x1f, 0xec, 0x14, 0x3e, 0x9e, 0x3d, 0xcd, 0xbd,
  0x0d, 0x8c, 0x63, 0x3d, 0x25, 0xfb, 0x32, 0x3c, 0xe6, 0xdd, 0x47, 0x3d,
  0xf8, 0x43, 0x38, 0x3e, 0x7f, 0xb2, 0xa3, 0x3e, 0x9e, 0xbf, 0x15, 0x3e,
  0x11, 0xba, 0xb9, 0xbd, 0xe9, 0x70, 0x4c, 0x3e, 0x4d, 0xbe, 0x46, 0x3e,
  0x4f, 0x7d, 0x23, 0x3e, 0xa3, 0xcc, 0x9a, 0xc0, 0x73, 0x99, 0x49, 0x3f,
  0xeb, 0xdf, 0xd3, 0x3d, 0x5c, 0xf3, 0x81, 0xbf, 0xf0, 0xf8, 0x05, 0x3f,
  0x59, 0x29, 0xbf, 0x3d, 0x12, 0x0c, 0x79, 0xbf, 0x87, 0xc9, 0x1f, 0x3f,
  0x07, 0xdb, 0x41, 0xbb, 0xf3, 0xb4, 0xf7, 0xbe, 0xe4, 0xe5, 0x79, 0xbe,
  0x68, 0x01, 0x95, 0x3d, 0xa8, 0x5b, 0xbe, 0xbd, 0xb2, 0x9a, 0x57, 0x3e,
  0x5d, 0x26, 0x76, 0xbc, 0x86, 0x4c, 0x22, 0x3e, 0xf0, 0xfa, 0xab, 0x3d,
  0x2d, 0x46, 0x72, 0xbe, 0x29, 0xb8, 0x20, 0xbe, 0x0a, 0xed, 0x78, 0x3d,
  0x61, 0x0b, 0x1f, 0x3c, 0x13, 0x41, 0x5f, 0xbe, 0x0a, 0x5a, 0xc2, 0x3d,
  0x81, 0x0d, 0xaf, 0xbd, 0x04, 0x99, 0x51, 0x3e, 0xc5, 0xc5, 0xa2, 0x3d,
  0x2b, 0xd3, 0x3c, 0x3d, 0x1c, 0x68, 0xb8, 0xbe, 0xdc, 0x5a, 0x06, 0x3e,
  0x0f, 0xaa, 0x56, 0x3e, 0x8e, 0xf3, 0x23, 0xbe, 0x6d, 0x9d, 0xa3, 0xc0,
  0x71, 0xf0, 0x80, 0xbf, 0x06, 0xbe, 0xa0, 0x3d, 0xfc, 0x42, 0x35, 0xbf,
  0xbf, 0xed, 0xdb, 0xbe, 0x28, 0x75, 0x2b, 0xbd, 0x28, 0x79, 0xeb, 0xbe,
  0x40, 0x93, 0xc7, 0xbe, 0xa2, 0x74, 0x18, 0xbd, 0x35, 0x20, 0x1c, 0xbf,
  0xbf, 0xa8, 0xbd, 0xbe, 0xfd, 0xf5, 0xd4, 0x3c, 0x81, 0x60, 0x42, 0xbf,
  0xd9, 0x1c, 0x82, 0x3e, 0x07, 0xe0, 0x48, 0x3e, 0x44, 0xf7, 0x39, 0xbc,
  0x6b, 0xa4, 0xa7, 0xbd, 0xae, 0x6d, 0x0a, 0xbd, 0x00, 0xc1, 0x9d, 0x3d,
  0x95, 0xea, 0xdb, 0xbc, 0x83, 0xe5, 0xf3, 0x3d, 0x75, 0x62, 0x4b, 0xbd,
  0x8d, 0xb5, 0xe4, 0x3d, 0x03, 0x30, 0xaf, 0xbd, 0xfe, 0x25, 0x06, 0xbf,
  0xee, 0x67, 0x79, 0xbe, 0xd2, 0x7f, 0xb2, 0x3e, 0x1b, 0xbd, 0x8a, 0xbd,
  0xef, 0x79, 0xb4, 0xbe, 0x90, 0xa9, 0xec, 0x3d, 0x39, 0xf2, 0x73, 0xbe,
  0x83, 0x90, 0xe5, 0x3f, 0x6d, 0x71, 0xaf, 0xbf, 0xe4, 0x9a, 0xdd, 0xbc,
  0x5c, 0xfe, 0xe9, 0xbe, 0xcc, 0xe8, 0x98, 0xbf, 0x85, 0x35, 0x4d, 0x3e,
  0xcb, 0x66, 0x23, 0x3f, 0xca, 0x38, 0x7c, 0xbf, 0x72, 0xbd, 0x08, 0xbd,
  0x18, 0x2f, 0x37, 0xbf, 0x0a, 0xb5, 0x42, 0xbf, 0x55, 0x74, 0x84, 0x3c,
  0xd4, 0x21, 0x8f, 0xbf, 0xb0, 0x03, 0x5f, 0xbf, 0xfb, 0xfd, 0xbe, 0xbe,
  0x66, 0xff, 0x9e, 0x3e, 0xe7, 0xa5, 0x16, 0x3e, 0xa7, 0xb3, 0x5c, 0x3e,
  0x11, 0x4d, 0x33, 0xbe, 0xfd, 0xeb, 0x11, 0x3c, 0x04, 0x7e, 0x8c, 0xbd,
  0x98, 0xe2, 0x56, 0x3e, 0x6c, 0x37, 0x1a, 0xbe, 0x21, 0x31, 0x6e, 0xbd,
  0x99, 0x23, 0x80, 0x3e, 0xf8, 0xd3, 0xc1, 0x3d, 0xd7, 0x38, 0x9b, 0x3e,
  0x36, 0x29, 0x17, 0x3e, 0xb5, 0x61, 0x7a, 0x3e, 0x9f, 0xfd, 0x84, 0x3d,
  0xa6, 0xa4, 0x3b, 0xbe, 0x6c, 0x74, 0x9d, 0x40, 0xc6, 0x34, 0x17, 0x3f,
  0xe0, 0x67, 0xf2, 0xbc, 0x0b, 0xfb, 0x88, 0x3f, 0xfc, 0x6a, 0xaa, 0x3f,
  0x93, 0x18, 0xcb, 0xbd, 0x63, 0xaf, 0x09, 0x40, 0xcd, 0x2e, 0x3c, 0x3f,
  0x68, 0x0e, 0xc2, 0xbd, 0x62, 0x15, 0x61, 0x40, 0x0d, 0x89, 0x8f, 0x3e,
  0x60, 0xd0, 0xb8, 0x3d, 0xc5, 0xa4, 0x61, 0x40, 0x9a, 0xdf, 0xc3, 0x3e,
  0x6f, 0x7a, 0xcc, 0x3c, 0x3a, 0xfa, 0x53, 0x3e, 0x3a, 0xea, 0xe5, 0xbd,
  0x41, 0x33, 0xda, 0x3d, 0xe7, 0xb0, 0xf5, 0x3d, 0x55, 0x82, 0x0d, 0xbe,
  0xf1, 0x9f, 0x5e, 0x3d, 0x9d, 0x1e, 0x7e, 0xbd, 0x47, 0x22, 0x40, 0x3e,
  0x5e, 0xd0, 0x28, 0xbe, 0xc2, 0xca, 0x8d, 0xbe, 0x15, 0x08, 0xbd, 0xbe,
  0xf6, 0xe0, 0x72, 0x3c, 0x05, 0xd0, 0x5b, 0xbe, 0x73, 0xc0, 0x92, 0xbd,
  0x19, 0xc4, 0x9d, 0xbc, 0xb5, 0xc6, 0x80, 0x3c, 0x1c, 0x45, 0x8b, 0xc0,
  0x49, 0xf5, 0xf9, 0x3f, 0xd4, 0x51, 0xd4, 0xbd, 0xd2, 0xfc, 0xd9, 0x3e,
  0xe6, 0xe7, 0xef, 0x3e, 0xde, 0x11, 0xac, 0xbd, 0x36, 0x13, 0x0c, 0xbf,
  0xf4, 0x5b, 0x54, 0x3f, 0x39, 0x13, 0x47, 0xbe, 0x88, 0xf7, 0xaa, 0x3f,
  0x7a, 0x94, 0xc7, 0x3f, 0x6d, 0xe9, 0xed, 0x3c, 0xe4, 0x3a, 0x9d, 0x3d,
  0x48, 0xed, 0xa1, 0x3f, 0x44, 0x36, 0x59, 0xbe, 0x20, 0x9a, 0xdf, 0x3c,
  0xa5, 0x48, 0x3c, 0xbe, 0x76, 0xbb, 0xbc, 0x3d, 0xba, 0x7d, 0x4a, 0x3d,
  0x67, 0xb1, 0x5e, 0xbd, 0x5a, 0x7d, 0x9b, 0xbd, 0x9e, 0x3d, 0x1e, 0x3e,
  0xf8, 0xc6, 0xa4, 0xbc, 0x94, 0xcb, 0x90, 0x3e, 0x66, 0x5f, 0x05, 0x3e,
  0x35, 0xaf, 0x3c, 0x3d, 0x13, 0x92, 0x60, 0xbe, 0x8a, 0x69, 0x28, 0x3c,
  0x34, 0xdc, 0xf1, 0xbd, 0xf2, 0x32, 0x37, 0x3d, 0xe9, 0x14, 0x43, 0x3e,
  0x35, 0xe8, 0xd8, 0x40, 0x5a, 0xac, 0x71, 0xbe, 0xd6, 0xbd, 0x1a, 0xbe,
  0x66, 0x27, 0xd0, 0x3f, 0x47, 0x6a, 0x93, 0x3e, 0x96, 0x73, 0x29, 0xbe,
  0x00, 0x68, 0x56, 0x3f, 0xaf, 0xad, 0xed, 0x3e, 0x88, 0x70, 0x45, 0x3e,
  0x2f, 0xe8, 0x1f, 0x3e, 0x4b, 0xea, 0x6d, 0x3e, 0x30, 0xd9, 0xe4, 0xbc,
  0x4f, 0xe5, 0x8f, 0x3f, 0xdd, 0xde, 0xb8, 0x3e, 0x83, 0x38, 0x9f, 0x3e,
  0x5c, 0x0f, 0x66, 0x3e, 0x81, 0x98, 0x79, 0x3d, 0x7b, 0x0c, 0x28, 0xbe,
  0x94, 0x5f, 0x56, 0xbd, 0x4a, 0xcc, 0xb2, 0x3c, 0xaf, 0xfd, 0x2a, 0xbc,
  0x54, 0x38, 0x16, 0x3e, 0x39, 0x43, 0x3c, 0x3e, 0x15, 0xc2, 0x7c, 0xbd,
  0xa0, 0x62, 0xf2, 0xbe, 0xa3, 0xc7, 0x01, 0xbc, 0x7d, 0xe4, 0xe2, 0x3d,
  0xf6, 0xda, 0x8d, 0x3e, 0xac, 0x51, 0xc6, 0x3e, 0x13, 0x7b, 0x40, 0xbe,
  0x68, 0xe3, 0x99, 0xbd, 0xc1, 0x98, 0xd6, 0x3f, 0xe9, 0x3e, 0xd1, 0x3f,
  0xed, 0x7a, 0x6c, 0xbe, 0xe3, 0x48, 0x55, 0xbf, 0x3c, 0x0c, 0xf6, 0x3f,
  0xfe, 0x9a, 0x01, 0x3e, 0x25, 0x83, 0x59, 0x3f, 0xa0, 0xd8, 0x01, 0x3f,
  0x29, 0x26, 0xd3, 0xbd, 0x34, 0xea, 0xa6, 0xbe, 0x73, 0x98, 0x4d, 0x3d,
  0x4e, 0x5b, 0xe4, 0x3d, 0x06, 0x9e, 0xd1, 0x3f, 0x28, 0x3c, 0xd4, 0x3e,
  0xc5, 0x6d, 0xf9, 0x3d, 0x9d, 0x0e, 0xd7, 0xbe, 0xf2, 0x06, 0x04, 0xbd,
  0x3d, 0xba, 0xae, 0x3d, 0x63, 0xe4, 0xb8, 0x3c, 0x7d, 0xa8, 0xba, 0xbe,
  0xf4, 0x16, 0x77, 0xbe, 0x2c, 0xbc, 0xfe, 0x3e, 0xf9, 0xd5, 0x4b, 0xbe,
  0x8d, 0x36, 0xce, 0xbd, 0x38, 0x5a, 0x09, 0x3e, 0x89, 0xcb, 0x2f, 0xbe,
  0x52, 0x8f, 0x14, 0xbf, 0xdf, 0x15, 0x02, 0x3e, 0xb4, 0x6b, 0x6c, 0xbe,
  0xee, 0x1c, 0xa9, 0x3c, 0xf8, 0x4a, 0xf3, 0x3c, 0xe6, 0xf4, 0x8b, 0x40,
  0xa9, 0x20, 0x87, 0xbf, 0x4e, 0x0b, 0x48, 0xbd, 0x1e, 0xe0, 0x15, 0x40,
  0xe6, 0x10, 0xb9, 0xbd, 0x2d, 0xe6, 0x79, 0x3e, 0x65, 0x47, 0xae, 0x3f,
  0xcf, 0xbe, 0x3c, 0xbe, 0x6e, 0x36, 0x94, 0x3d, 0x05, 0xd6, 0xd7, 0x3f,
  0xf7, 0x8d, 0x3c, 0x3e, 0x68, 0x64, 0xfc, 0x3a, 0x9e, 0x5a, 0x2d, 0x3f,
  0x7b, 0x16, 0xbb, 0x3d, 0xbf, 0xe3, 0x9c, 0xbe, 0x02, 0x86, 0x69, 0xbe,
  0xa3, 0x27, 0x16, 0x3c, 0x11, 0xa8, 0x23, 0xbe, 0xe8, 0xf6, 0x5e, 0xbe,
  0x54, 0x74, 0xcf, 0x3d, 0x88, 0x70, 0x85, 0xbd, 0x11, 0x8d, 0x64, 0x3e,
  0x02, 0xaa, 0xc4, 0x3d, 0xe2, 0x21, 0xf8, 0x3d, 0x86, 0xd8, 0x1a, 0xbe,
  0x12, 0x91, 0x54, 0x3e, 0x10, 0x66, 0xa3, 0x3e, 0x5d, 0xe8, 0x79, 0xbc,
  0xbe, 0x2c, 0x84, 0x3e, 0xa9, 0xc0, 0xe2, 0xbe, 0xa3, 0xa6, 0x1d, 0xbe,
  0x83, 0x6f, 0x96, 0xc0, 0xf7, 0x9c, 0xd6, 0x3e, 0xb6, 0xba, 0x3b, 0xbe,
  0x0d, 0x29, 0xa2, 0xbf, 0x54, 0xbd, 0xd2, 0xbe, 0xbd, 0x53, 0x2b, 0xbd,
  0xba, 0x38, 0x88, 0xbf, 0x16, 0xf0, 0x97, 0x3e, 0xcb, 0x5a, 0x11, 0xbe,
  0xa7, 0x16, 0xba, 0x3e, 0x62, 0x12, 0x20, 0x3f, 0x56, 0xbe, 0xdd, 0x3a,
  0xde, 0x8d, 0x08, 0xbf, 0x0e, 0x5a, 0x2a, 0xbe, 0xaa, 0xd7, 0xb7, 0x3e,
  0xe0, 0xd7, 0x4a, 0xbe, 0xca, 0xa9, 0xa9, 0xbc, 0x23, 0xfa, 0x1e, 0xbe,
  0x91, 0x9f, 0xc2, 0x3d, 0xaf, 0x45, 0x81, 0xbe, 0x6c, 0x3c, 0x95, 0xbd,
  0xcd, 0xf0, 0xbf, 0x3d, 0xd3, 0x40, 0x9c, 0xbc, 0xd5, 0x1f, 0x22, 0x3e,
  0x04, 0x50, 0x63, 0x3e, 0x04, 0x96, 0x66, 0x3d, 0x9d, 0xdf, 0x5e, 0xbd,
  0x3f, 0x2d, 0x0a, 0xbd, 0xda, 0x7c, 0x21, 0xbe, 0xc3, 0xff, 0x0e, 0xbe,
  0xf6, 0x1d, 0xd8, 0xbe, 0x27, 0x97, 0x4f, 0x40, 0x52, 0xb4, 0x63, 0xbf,
  0x8b, 0xff, 0xdd, 0xbd, 0x68, 0x78, 0x6b, 0x3f, 0x0c, 0xa3, 0xc7, 0x3e,
  0x82, 0x79, 0x2d, 0xbe, 0xf4, 0x74, 0x8d, 0x3f, 0xae, 0x77, 0xd7, 0xbd,
  0x95, 0x53, 0xbe, 0xbd, 0xc6, 0xcd, 0x30, 0xbf, 0x11, 0xff, 0xa1, 0xbe,
  0xb3, 0xc9, 0x63, 0xbd, 0x47, 0x1a, 0x22, 0xbd, 0xf2, 0xcd, 0x29, 0xbf,
  0x15, 0x8b, 0x9f, 0x3d, 0xef, 0x52, 0x85, 0xbe, 0xff, 0x77, 0xc1, 0xbe,
  0xa6, 0x87, 0x60, 0x3d, 0x12, 0x0e, 0x8c, 0x3e, 0x62, 0x39, 0x5e, 0x3e,
  0x75, 0xbb, 0x99, 0xbe, 0xe2, 0xed, 0x74, 0x3e, 0x0b, 0xe6, 0x0e, 0xbe,
  0xf2, 0x9a, 0x74, 0x3e, 0xd3, 0x7c, 0xf2, 0xbd, 0x00, 0xe9, 0x4d, 0x3e,
  0xc9, 0x08, 0x0d, 0x3d, 0xf6, 0xe3, 0xe8, 0x3d, 0x2f, 0x78, 0x09, 0x3d,
  0xbe, 0x23, 0x55, 0x3e, 0x64, 0x5d, 0x66, 0xbe, 0x69, 0x9c, 0xc8, 0x40,
  0xae, 0x85, 0x86, 0x3b, 0xe2, 0x9b, 0x3d, 0xbe, 0xb6, 0x85, 0xe0, 0x3f,
  0x3c, 0x3e, 0x7d, 0x3a, 0x4a, 0x1f, 0x82, 0xbe, 0x2d, 0x7e, 0x10, 0x40,
  0x21, 0x1b, 0xac, 0x3e, 0xd6, 0x9b, 0x38, 0xbd, 0x6b, 0x8d, 0x8c, 0x3f,
  0xa4, 0x33, 0x8b, 0xbe, 0x1e, 0x77, 0xe6, 0xbd, 0xf8, 0x15, 0x2a, 0x40,
  0x11, 0xb6, 0x91, 0x3e, 0x85, 0x2b, 0x42, 0xbe, 0xe9, 0xb1, 0x9a, 0x3e,
  0x97, 0x4e, 0x82, 0xbd, 0x56, 0x66, 0x28, 0x3d, 0x28, 0xb2, 0xbc, 0x3c,
  0x1a, 0x35, 0xaa, 0x3c, 0x27, 0x3c, 0xf0, 0x3d, 0x1e, 0x5c, 0x11, 0x3d,
  0x20, 0x8a, 0xa3, 0xba, 0xf8, 0xb7, 0x19, 0x3e, 0xa1, 0xa3, 0xa2, 0xbe,
  0x7f, 0xb7, 0x3a, 0xbd, 0x62, 0xc5, 0x27, 0x3e, 0x6e, 0x2e, 0x2d, 0x3e,
  0x7a, 0x2d, 0x2b, 0x3e, 0x21, 0x29, 0x85, 0x3e, 0x4d, 0xce, 0x7a, 0xbe,
  0x1d, 0x93, 0x9e, 0x40, 0x51, 0x39, 0x35, 0xbf, 0x8f, 0xc3, 0x3d, 0x3d,
  0x80, 0x91, 0x21, 0x3f, 0x9b, 0x94, 0x04, 0xbf, 0x82, 0x09, 0x4d, 0xbe,
  0x52, 0x8a, 0xfe, 0x3e, 0xc5, 0x38, 0x06, 0xbf, 0xc3, 0x09, 0x6a, 0xbc,
  0x32, 0x75, 0xe5, 0xbe, 0x46, 0x11, 0x3b, 0xbf, 0x1e, 0xa0, 0x06, 0x3e,
  0x7f, 0xa9, 0xdb, 0x3e, 0x10, 0xf9, 0xce, 0xbd, 0x61, 0xd4, 0x5f, 0xbe,
  0xf9, 0xbc, 0x45, 0x3e, 0xbb, 0xad, 0x73, 0xbb, 0x38, 0xd3, 0x27, 0xbd,
  0xe8, 0xb2, 0x72, 0xbd, 0x4b, 0xf1, 0xcd, 0x3c, 0x43, 0xbf, 0x3c, 0xbd,
  0xb4, 0x0b, 0x2a, 0xbd, 0xd3, 0xfc, 0xc9, 0x3d, 0x1f, 0x4f, 0xe8, 0x3d,
  0x7f, 0x53, 0x74, 0x3d, 0xb7, 0xd8, 0x61, 0x3b, 0x44, 0x34, 0xbd, 0x3d,
  0xfe, 0xd7, 0x18, 0x3e, 0x6a, 0x6f, 0x03, 0x3d, 0x93, 0x8f, 0x24, 0xbd,
  0x8b, 0x32, 0x83, 0xbe, 0x9f, 0x0f, 0xb2, 0xc0, 0xd3, 0x36, 0x60, 0xbe,
  0xff, 0x05, 0x86, 0xbe, 0x30, 0xd0, 0x90, 0xbf, 0xd8, 0xc9, 0x82, 0xbe,
  0x10, 0xcc, 0x0b, 0xbe, 0xc6, 0x31, 0xe5, 0xbf, 0xf0, 0x69, 0x10, 0x3e,
  0x67, 0x1d, 0xbb, 0xbd, 0x90, 0xfe, 0xc5, 0x3e, 0x40, 0x11, 0x31, 0xbe,
  0xe7, 0xfe, 0x19, 0x3d, 0xbb, 0x67, 0x04, 0xc0, 0x4c, 0x7c, 0xd3, 0x3e,
  0xa2, 0x2a, 0x59, 0x3e, 0xf9, 0x26, 0xc0, 0x3e, 0xbc, 0x85, 0x18, 0xbe,
  0x89, 0xff, 0xc6, 0x3c, 0xf0, 0x62, 0x57, 0xbd, 0x8a, 0xd2, 0x9a, 0x3d,
  0xc7, 0x20, 0xff, 0x3d, 0x92, 0x21, 0xd9, 0x3d, 0x6e, 0x0e, 0x90, 0x3d,
  0x11, 0x94, 0x1d, 0xbe, 0xc1, 0x7b, 0x04, 0x3e, 0xbc, 0xb0, 0x44, 0x3e,
  0xcf, 0x09, 0x8b, 0xbc, 0x1d, 0xce, 0x52, 0x3a, 0x9f, 0x9f, 0x60, 0x3e,
  0x13, 0xce, 0xf8, 0xbd, 0x16, 0xfd, 0x48, 0x3e, 0x76, 0xbe, 0xf2, 0xc0,
  0x03, 0x04, 0x6e, 0x3e, 0x2f, 0x9c, 0x04, 0x3e, 0xe5, 0x8b, 0xe0, 0xbf,
  0x8b, 0xdb, 0x92, 0xbe, 0x65, 0xa9, 0x4f, 0xbe, 0xac, 0xc7, 0xa4, 0xbf,
  0x07, 0xc2, 0x20, 0x3e, 0x68, 0x5b, 0xd7, 0x3a, 0xc7, 0x56, 0x59, 0xbf,
  0x0c, 0x62, 0x37, 0x3e, 0x36, 0x55, 0x52, 0xbe, 0x1f, 0x94, 0xc0, 0xbf,
  0xcb, 0xb7, 0x22, 0x3e, 0x94, 0x7a, 0xd8, 0x3d, 0xa6, 0xb8, 0x5f, 0x3e,
  0x8d, 0xc2, 0x38, 0x3e, 0x8a, 0xfb, 0x46, 0xbe, 0x03, 0xed, 0x84, 0xbd,
  0xf9, 0xbb, 0x89, 0x3d, 0x0c, 0x31, 0x66, 0xbd, 0x94, 0x10, 0x47, 0xbe,
  0x6f, 0x20, 0xe3, 0x3d, 0xf4, 0x4a, 0x2c, 0xbd, 0xd2, 0x38, 0xfe, 0x3d,
  0xda, 0x3a, 0x0c, 0x3b, 0x51, 0xbf, 0xd8, 0x3e, 0xbb, 0xcd, 0x50, 0xbe,
  0xb3, 0xe6, 0x37, 0x3e, 0xb4, 0x59, 0xcc, 0xbc, 0x90, 0xdd, 0x84, 0x3d,
  0xe7, 0xc9, 0x72, 0x40, 0x08, 0xfc, 0x96, 0x3f, 0xf1, 0x99, 0xca, 0x3d,
  0x9d, 0x58, 0x7d, 0x3e, 0x77, 0xc8, 0xbf, 0x3f, 0x47, 0x8b, 0x4a, 0x3e,
  0x6c, 0x01, 0xbd, 0x3e, 0xee, 0xe0, 0x99, 0x3f, 0x18, 0x9a, 0x88, 0xbd,
  0xcd, 0x99, 0x4b, 0x3e, 0x18, 0x8f, 0x9c, 0x3f, 0x62, 0xaf, 0x64, 0x3d,
  0x69, 0x2c, 0x09, 0x3f, 0xfb, 0x59, 0x97, 0x3f, 0x13, 0x53, 0x54, 0x3e,
  0x88, 0x62, 0x63, 0xbe, 0x15, 0xb4, 0x74, 0x3e, 0x07, 0x42, 0x3d, 0x3b,
  0x08, 0xcc, 0x1f, 0xbd, 0x42, 0x80, 0xa6, 0xbd, 0xff, 0xeb, 0x28, 0xbe,
  0x31, 0x5a, 0x09, 0xbd, 0x10, 0x6e, 0xa6, 0xbe, 0x4a, 0xcf, 0xd1, 0x3d,
  0x9d, 0x9c, 0x92, 0xbe, 0xf9, 0xd8, 0xa7, 0xbe, 0x71, 0x62, 0x2c, 0xbe,
  0x88, 0xd4, 0xc0, 0xbe, 0xee, 0x46, 0x85, 0x3d, 0x54, 0xb3, 0x2d, 0xbe,
  0x82, 0xaa, 0x42, 0x3d, 0xf3, 0x56, 0x0e, 0x40, 0x79, 0xde, 0x95, 0x3f,
  0x1c, 0x08, 0xe7, 0x3d, 0x24, 0xa2, 0x0c, 0x3f, 0xf9, 0x6d, 0x9e, 0x3f,
  0xd4, 0x28, 0x3b, 0xbe, 0x7a, 0x2c, 0x0e, 0xbf, 0x0d, 0x1b, 0x72, 0x3e,
  0x26, 0x06, 0x28, 0xbe, 0xc3, 0xba, 0x8f, 0x3f, 0x10, 0xc2, 0x12, 0xbf,
  0x09, 0x27, 0x93, 0xbc, 0x82, 0x0f, 0xf3, 0xbd, 0xc4, 0x05, 0x48, 0x3f,
  0x69, 0xa7, 0x66, 0x3d, 0x01, 0xed, 0x8d, 0xbe, 0xa8, 0x1e, 0xbd, 0x3d,
  0xe9, 0xe0, 0x6e, 0xbd, 0x95, 0xb6, 0x0a, 0x3e, 0xef, 0x9d, 0x1b, 0xbf,
  0xf8, 0xdb, 0x00, 0xbf, 0xd5, 0x56, 0x86, 0x3d, 0xc0, 0xf9, 0xf8, 0xbb,
  0x6a, 0x1e, 0x2f, 0xbd, 0x3d, 0x5f, 0xce, 0xbd, 0x9b, 0x8a, 0x26, 0xbe,
  0x46, 0x5a, 0x48, 0xbd, 0x87, 0xee, 0x1b, 0xbf, 0x38, 0x38, 0x22, 0x3e,
  0x9f, 0x77, 0x48, 0x3e, 0x61, 0xe4, 0x5d, 0x3c, 0x9b, 0xe2, 0xc2, 0x40,
  0xb7, 0x08, 0xaa, 0xbf, 0xe9, 0x7f, 0x9d, 0x3e, 0xf6, 0xe4, 0xd4, 0x3f,
  0xb8, 0x2f, 0x2c, 0xbf, 0xad, 0x4d, 0xb7, 0x3d, 0xf4, 0x0a, 0x24, 0x40,
  0x86, 0x2d, 0x88, 0xbf, 0x63, 0xea, 0x04, 0x3e, 0x6a, 0x3b, 0x9d, 0x3f,
  0xfc, 0x55, 0x64, 0xbf, 0xa7, 0x1d, 0x02, 0x3d, 0x96, 0x54, 0x9b, 0x3f,
  0xdc, 0x11, 0x60, 0xbe, 0x6b, 0x36, 0x80, 0xbe, 0x28, 0x33, 0x9f, 0x3d,
  0xb9, 0x88, 0x29, 0x3d, 0x0b, 0xf0, 0xb8, 0x3e, 0x52, 0x0e, 0xf1, 0x3d,
  0xbe, 0x64, 0xb2, 0x3d, 0xd3, 0x83, 0x09, 0x3e, 0x79, 0xd4, 0xd8, 0xbe,
  0x65, 0xa1, 0x61, 0x3e, 0x80, 0x59, 0xf9, 0x3d, 0xa1, 0xed, 0x6b, 0xbe,
  0x1d, 0x35, 0xd1, 0x3e, 0xb5, 0xe6, 0x70, 0x3d, 0x82, 0x14, 0x86, 0xbe,
  0xc1, 0x46, 0x1e, 0x3e, 0x87, 0xa1, 0x18, 0xbd, 0x99, 0x56, 0x70, 0xbd,
  0x0b, 0x76, 0x6a, 0x40, 0x29, 0x58, 0xf9, 0x3f, 0xd0, 0x21, 0x80, 0x3d,
  0xf3, 0xaf, 0x7b, 0x3f, 0x5f, 0xe4, 0xb9, 0x3f, 0xf7, 0x5a, 0x82, 0xbe,
  0x2c, 0x4e, 0x96, 0x3f, 0x77, 0x5c, 0xc1, 0x3f, 0xb7, 0x7b, 0x23, 0x3d,
  0xb9, 0x86, 0x35, 0x3f, 0xfe, 0x34, 0x72, 0x3e, 0xb5, 0xc5, 0xa7, 0x3b,
  0xab, 0x39, 0xb9, 0x3f, 0x47, 0x1f, 0x11, 0x3f, 0xa4, 0x8a, 0xce, 0xbd,
  0x8a, 0xe7, 0xd7, 0x3e, 0xc1, 0x72, 0xe3, 0x3d, 0x9c, 0x05, 0x97, 0x3e,
  0x2d, 0xbd, 0x80, 0x3d, 0x81, 0x61, 0x25, 0xbf, 0x59, 0xc2, 0x9b, 0x3e,
  0xf6, 0x7c, 0xb4, 0xbe, 0xbc, 0xf5, 0x8b, 0xbc, 0x06, 0xe2, 0xdb, 0xbd,
  0x34, 0x02, 0x1b, 0x3d, 0x55, 0x9f, 0xa4, 0xbe, 0x33, 0x9f, 0xf6, 0xbe,
  0xe8, 0xa9, 0xba, 0xbe, 0xf1, 0xb4, 0xc3, 0xbe, 0xe7, 0x80, 0x3e, 0x3e,
  0xc9, 0xb1, 0xc7, 0x3e, 0x92, 0xf6, 0xb4, 0x40, 0xe8, 0xb6, 0x22, 0x3f,
  0x90, 0x04, 0x2a, 0xbe, 0xfa, 0xbf, 0x20, 0x40, 0x99, 0xa9, 0xc5, 0x3e,
  0x37, 0xd0, 0x0d, 0xbe, 0xf9, 0x07, 0x71, 0x3f, 0x54, 0xab, 0xa9, 0x3e,
  0xa3, 0xe5, 0x4c, 0x3e, 0x82, 0x38, 0xc9, 0x3f, 0xce, 0x92, 0x9f, 0x3f,
  0x32, 0x1a, 0x5f, 0x3e, 0x3b, 0x49, 0x98, 0xbe, 0x32, 0xe0, 0x1c, 0x3f,
  0x9a, 0xff, 0x8e, 0x3e, 0x25, 0xcd, 0x21, 0xbe, 0xa5, 0x72, 0x84, 0xbd,
  0x55, 0x20, 0xe6, 0xbe, 0xe6, 0xcf, 0xe3, 0x3d, 0xa6, 0x1a, 0xc0, 0x3c,
  0xcf, 0x6d, 0x17, 0xbd, 0x42, 0xe2, 0x2c, 0xbe, 0x3e, 0x62, 0x56, 0xbd,
  0x8e, 0xaa, 0xc7, 0xbd, 0x8b, 0x22, 0x42, 0xbe, 0xaa, 0x49, 0x28, 0xbc,
  0xe0, 0x66, 0xb4, 0xbe, 0xb2, 0x70, 0x0b, 0xbe, 0x4e, 0xe8, 0x89, 0x3d,
  0x54, 0x5f, 0x0b, 0x3e, 0xc0, 0x52, 0xf6, 0x3c, 0x81, 0x47, 0xd0, 0x40,
  0xc9, 0xc4, 0x70, 0x3f, 0x1d, 0x14, 0x27, 0xbe, 0x1a, 0x4e, 0x1c, 0x40,
  0x21, 0x51, 0x6d, 0x3f, 0x43, 0x56, 0xfb, 0xbc, 0x74, 0xd2, 0x1d, 0x40,
  0xc6, 0x6b, 0x65, 0x3f, 0x29, 0xf5, 0x47, 0x3d, 0xcd, 0xf0, 0xd5, 0x3e,
  0xd5, 0x14, 0xa1, 0x3e, 0x91, 0xe7, 0x3c, 0x3c, 0x88, 0x21, 0x04, 0x40,
  0x3c, 0x34, 0x17, 0x3f, 0x8a, 0xd3, 0x7e, 0xbe, 0xba, 0xb3, 0x0b, 0x3e,
  0x24, 0xe3, 0xc1, 0x3e, 0x20, 0xa3, 0x3d, 0xbe, 0xef, 0xb1, 0x8f, 0x3e,
  0xdd, 0x32, 0x07, 0x3e, 0x48, 0xac, 0xac, 0xbd, 0x25, 0x08, 0xff, 0xbc,
  0x83, 0xe9, 0xfc, 0xbd, 0x38, 0xbb, 0x09, 0xbe, 0xe7, 0xc1, 0xa3, 0xbe,
  0x1f, 0xd9, 0xd5, 0xbe, 0xae, 0x70, 0x28, 0xbe, 0x59, 0x1b, 0x14, 0x3d,
  0xfd, 0x25, 0x2a, 0xbd, 0x30, 0xee, 0x27, 0x3c, 0xcd, 0x89, 0x46, 0xbe,
  0xd2, 0x82, 0x0e, 0x40, 0x8c, 0x16, 0x70, 0x3f, 0x72, 0xec, 0x01, 0x3e,
  0x2f, 0x3e, 0x7c, 0x3e, 0xb0, 0x5a, 0x9c, 0xbe, 0x38, 0x66, 0xd0, 0xbc,
  0xe7, 0xe8, 0x0a, 0x3e, 0xff, 0xa3, 0x13, 0x3f, 0x2e, 0xe5, 0x36, 0x3e,
  0x38, 0xd0, 0xbf, 0x3e, 0x46, 0x11, 0x0d, 0xbf, 0x6e, 0xa1, 0x03, 0xbe,
  0xf0, 0x68, 0x5e, 0xbf, 0x6f, 0xf3, 0xf2, 0x3e, 0x81, 0x91, 0x04, 0x3e,
  0xa5, 0xcb, 0xc3, 0x3d, 0x8c, 0xb3, 0xad, 0xbe, 0x3e, 0x00, 0xa1, 0xbe,
  0x1c, 0xf9, 0xc0, 0xbe, 0x62, 0x12, 0x04, 0x3d, 0x74, 0x78, 0xd3, 0xbe,
  0x1e, 0x62, 0xf6, 0x3b, 0x77, 0x29, 0xf5, 0x3c, 0xed, 0x3a, 0x87, 0xbe,
  0x1d, 0xa9, 0xe1, 0x3e, 0xf8, 0x39, 0xbe, 0xbe, 0x28, 0x4e, 0x3c, 0xbe,
  0x77, 0x04, 0x03, 0xbe, 0xdd, 0xfd, 0x8a, 0xbe, 0x27, 0xd9, 0x68, 0x3d,
  0x5b, 0x12, 0xae, 0xbe, 0x59, 0x41, 0x97, 0xc0, 0x5a, 0x25, 0x17, 0x3f,
  0x1e, 0x28, 0xae, 0xbd, 0x4e, 0x01, 0x12, 0xbf, 0xf2, 0x20, 0xfa, 0x3d,
  0x68, 0xf1, 0x1d, 0xbd, 0x56, 0x93, 0xc8, 0xbf, 0xe4, 0x36, 0x0a, 0x3f,
  0xa1, 0x24, 0xa2, 0x3c, 0x34, 0x83, 0x43, 0x3f, 0x0d, 0xb8, 0x5e, 0x3f,
  0xa7, 0xf0, 0x6d, 0x3d, 0x3e, 0x8f, 0x26, 0xbf, 0xd5, 0x38, 0xcb, 0xbd,
  0x2e, 0xe1, 0x93, 0x3b, 0x35, 0x4d, 0xdf, 0xbb, 0xf6, 0xce, 0x62, 0xbd,
  0x7e, 0xba, 0xa1, 0xbd, 0xb0, 0x3f, 0xfd, 0xbd, 0xe5, 0xcc, 0xb4, 0x3d,
  0x00, 0x75, 0x11, 0xbe, 0x50, 0xd4, 0x43, 0x3e, 0xdb, 0xc9, 0x6a, 0x3c,
  0x1e, 0x81, 0x65, 0x3e, 0x3c, 0x36, 0x44, 0x3f, 0x13, 0xee, 0xde, 0x3c,
  0x55, 0x17, 0x4f, 0x3e, 0xf5, 0x0f, 0x11, 0x3e, 0x9c, 0xa8, 0x79, 0x3e,
  0x1b, 0x92, 0x0c, 0x3e, 0x5c, 0x71, 0x05, 0xbc, 0x20, 0xa4, 0x0e, 0x40,
  0xba, 0x86, 0x59, 0xbf, 0x5a, 0xaa, 0x3a, 0xbe, 0x8b, 0xbf, 0x9f, 0x3f,
  0x55, 0xc6, 0xa4, 0xbd, 0x05, 0xeb, 0x97, 0x3e, 0xba, 0x1d, 0xca, 0x3f,
  0xa0, 0x33, 0x87, 0xbc, 0x6e, 0x01, 0x92, 0xbe, 0xe2, 0x5f, 0x60, 0xbf,
  0x3a, 0x20, 0x13, 0xbf, 0x4d, 0xda, 0x46, 0xbe, 0x67, 0x4b, 0xc7, 0x3f,
  0x6e, 0x61, 0x8d, 0xbd, 0x3f, 0x13, 0xa4, 0xbe, 0x1b, 0x66, 0x89, 0x3d,
  0x3b, 0x66, 0xe2, 0x3d, 0xe5, 0x39, 0x22, 0x3e, 0x5d, 0x95, 0x0b, 0xbe,
  0x2d, 0xc8, 0x01, 0xbf, 0x56, 0x9c, 0x3d, 0xbe, 0x3b, 0x12, 0x76, 0x3e,
  0x94, 0xd4, 0x5b, 0x3d, 0x4d, 0xe1, 0x9e, 0x3e, 0x11, 0x46, 0x58, 0xbe,
  0xba, 0x36, 0x48, 0xbd, 0xe1, 0xfb, 0x72, 0x3e, 0x74, 0xce, 0x8c, 0xbe,
  0xd6, 0x15, 0x66, 0x3e, 0x01, 0x38, 0x6b, 0x3e, 0x7d, 0x5d, 0xd6, 0xbd,
  0x7c, 0xee, 0xd3, 0xc0, 0x4c, 0xc7, 0xa4, 0xbe, 0x5f, 0xd2, 0x13, 0x3e,
  0x85, 0xbf, 0x50, 0xbf, 0xb1, 0x50, 0x67, 0xbf, 0x12, 0x81, 0xa6, 0x3c,
  0xca, 0x12, 0x68, 0xbe, 0xf1, 0xfa, 0xa1, 0xbe, 0x4f, 0x04, 0xbb, 0x3d,
  0x14, 0xad, 0x28, 0x3f, 0x35, 0xb2, 0xfa, 0xbe, 0xd3, 0xff, 0x7f, 0xbe,
  0xae, 0x21, 0x90, 0xbe, 0x05, 0x44, 0xe1, 0xbe, 0x5c, 0xdc, 0x15, 0x3d,
  0x17, 0xff, 0x5a, 0x3e, 0x1b, 0x53, 0x75, 0x3d, 0x22, 0xdb, 0x30, 0x3e,
  0x60, 0x99, 0xfd, 0x3c, 0xb6, 0xd7, 0x85, 0xbd, 0xcf, 0x50, 0x01, 0xbe,
  0x30, 0x42, 0x45, 0x3e, 0x20, 0xfd, 0xf8, 0xbd, 0x5e, 0xe9, 0xae, 0x3d,
  0xd6, 0x8c, 0x80, 0x3e, 0x2b, 0xd4, 0x3b, 0xbe, 0x84, 0x49, 0x14, 0x3c,
  0x02, 0x58, 0x47, 0x3e, 0x2f, 0x29, 0x85, 0x3e, 0x94, 0x2f, 0x42, 0xbe,
  0x63, 0x6b, 0xf9, 0xbd, 0x31, 0x4c, 0xcc, 0x3f, 0xf7, 0xea, 0x4a, 0xbf,
  0x33, 0xd5, 0xa9, 0x3c, 0x53, 0x59, 0x48, 0x3f, 0x7b, 0xa6, 0x71, 0xbf,
  0xe0, 0xda, 0x86, 0xbd, 0xe6, 0x74, 0xd7, 0x3f, 0x2b, 0x12, 0x5a, 0xbf,
  0xc8, 0xfd, 0x0d, 0x3e, 0x9a, 0xdf, 0x43, 0x40, 0x79, 0x40, 0xfd, 0xbf,
  0xb9, 0xbc, 0xc8, 0x3d, 0x49, 0x5d, 0xda, 0x3f, 0xc0, 0x69, 0x96, 0xbf,
  0xd4, 0x09, 0x32, 0xbd, 0x7c, 0x3e, 0xf1, 0x3d, 0x34, 0x99, 0x35, 0x3e,
  0x84, 0xdf, 0x01, 0xbe, 0x91, 0x1d, 0x45, 0xbe, 0x5b, 0xe3, 0x39, 0x3e,
  0xe2, 0x55, 0x22, 0x3d, 0x3e, 0xdf, 0x48, 0xbd, 0x0b, 0x08, 0x4f, 0x3d,
  0x54, 0xf2, 0x35, 0x3e, 0xc2, 0x51, 0x22, 0x3e, 0x75, 0x78, 0x86, 0x3e,
  0x10, 0xa4, 0x43, 0x3e, 0x92, 0xbf, 0x13, 0x3f, 0x9c, 0xe7, 0x0a, 0x3f,
  0x03, 0x2e, 0x82, 0x3e, 0x2d, 0xc4, 0x77, 0x3d, 0x85, 0xcc, 0xf9, 0x40,
  0x9b, 0x5c, 0x0e, 0x3f, 0x9a, 0x5d, 0x98, 0xbc, 0x53, 0x02, 0xca, 0x3f,
  0x35, 0xc0, 0x85, 0x3f, 0xf1, 0xe3, 0x6c, 0x3d, 0xd4, 0x33, 0xad, 0x3f,
  0xbc, 0x90, 0xc6, 0x3e, 0x0f, 0xb6, 0xb9, 0xbd, 0xa5, 0xcc, 0x1f, 0x40,
  0x0c, 0x73, 0xa5, 0x3e, 0x5d, 0x21, 0xf1, 0xbb, 0x33, 0xbe, 0xc2, 0x3e,
  0x1f, 0x9e, 0x60, 0xbe, 0x03, 0x9a, 0x26, 0xbe, 0x8c, 0xa5, 0x27, 0xbe,
  0x10, 0x17, 0xe1, 0xbd, 0x60, 0x00, 0x95, 0xbd, 0xd7, 0xc5, 0x87, 0xbd,
  0x1c, 0x57, 0x46, 0xbd, 0xf3, 0xb1, 0x25, 0x3e, 0xd3, 0xaf, 0x3d, 0x39,
  0xd2, 0x6f, 0x0b, 0x3e, 0x99, 0x2e, 0xa4, 0xbc, 0x51, 0xaa, 0xe9, 0xbe,
  0xd5, 0x30, 0x89, 0xbd, 0xe5, 0xb2, 0x4e, 0xbd, 0x14, 0x6c, 0xae, 0xbe,
  0x8f, 0xaf, 0xb9, 0xbc, 0x09, 0x31, 0xc3, 0x3d, 0x3d, 0x1c, 0x24, 0x3e,
  0xc8, 0x5d, 0x04, 0x41, 0x6c, 0xf2, 0x74, 0xbf, 0x08, 0xe7, 0xc6, 0xbc,
  0x3d, 0xd0, 0x10, 0x40, 0xb5, 0x00, 0xd4, 0x3e, 0xfd, 0x85, 0xe9, 0x3c,
  0x2f, 0x95, 0xfd, 0x3f, 0x1f, 0x86, 0xbf, 0x3d, 0x6e, 0x5d, 0xee, 0xbd,
  0xcc, 0xd7, 0xb4, 0x3f, 0xb9, 0xf6, 0xa7, 0x3d, 0x44, 0xdb, 0xcf, 0xbd,
  0xd6, 0xef, 0x0a, 0x40, 0x1b, 0x92, 0x6b, 0x3f, 0xc3, 0xbf, 0x06, 0x3e,
  0x51, 0x2c, 0xa0, 0x3d, 0x35, 0x80, 0x12, 0xbd, 0xe3, 0x1b, 0x66, 0xbe,
  0xe6, 0xd5, 0xbf, 0xbd, 0x5b, 0x33, 0x78, 0x3a, 0xbb, 0x9b, 0xed, 0xbd,
  0x8a, 0x61, 0xbf, 0xbd, 0x3e, 0xdd, 0x86, 0xbe, 0xb3, 0xa3, 0x8c, 0x3d,
  0xe1, 0x83, 0x1b, 0xbe, 0x07, 0xb1, 0x6a, 0x3e, 0x89, 0x1c, 0x84, 0x3e,
  0x85, 0xd2, 0x5a, 0x3e, 0xfb, 0x1c, 0x59, 0x3e, 0x0a, 0xf7, 0xff, 0xff,
  0x04, 0x00, 0x00, 0x00, 0x80, 0x00, 0x00, 0x00, 0x8f, 0x57, 0xa2, 0xbe,
  0xcc, 0xf6, 0x8c, 0x3e, 0x7a, 0x3d, 0xa4, 0xbe, 0x78, 0x43, 0x02, 0x3e,
  0xea, 0x3e, 0xe1, 0xbe, 0x48, 0x67, 0xc0, 0xbe, 0x3f, 0xd9, 0x36, 0xbe,
  0x5d, 0x51, 0x0a, 0x3f, 0xe5, 0x97, 0xf7, 0xbe, 0x96, 0x3d, 0xcf, 0x3e,
  0xab, 0xb0, 0x97, 0x3e, 0x0a, 0xf4, 0x6e, 0xbd, 0x37, 0x17, 0x70, 0x3e,
  0xf5, 0xf4, 0x97, 0x3e, 0xbb, 0x35, 0x38, 0xbe, 0xdd, 0x8b, 0x8f, 0xbd,
  0xec, 0xb3, 0x7f, 0x3e, 0x04, 0x5d, 0x73, 0xbe, 0x95, 0xc4, 0xf0, 0x3e,
  0x6b, 0xf1, 0xda, 0x3d, 0x0c, 0xf2, 0xe9, 0x3d, 0xa3, 0x9d, 0xc4, 0x3e,
  0xab, 0x53, 0x9b, 0x3e, 0x85, 0xe7, 0x99, 0x3e, 0x6d, 0x46, 0x85, 0x3e,
  0xbd, 0x5b, 0xa5, 0x3c, 0x7e, 0x42, 0x85, 0xbe, 0xd4, 0xc9, 0xfd, 0xbc,
  0x1e, 0x2a, 0x05, 0xbe, 0x98, 0x46, 0xe4, 0x3d, 0xa0, 0x33, 0x6f, 0x3e,
  0x8c, 0x50, 0x0e, 0x3e, 0x96, 0xf7, 0xff, 0xff, 0x04, 0x00, 0x00, 0x00,
  0x04, 0x00, 0x00, 0x00, 0xbb, 0x58, 0x71, 0xbe, 0xa6, 0xf7, 0xff, 0xff,
  0x04, 0x00, 0x00, 0x00, 0x40, 0x00, 0x00, 0x00, 0x87, 0x1a, 0x82, 0x3e,
  0x95, 0x91, 0x94, 0x3e, 0xb7, 0x77, 0x95, 0x3e, 0x50, 0xe7, 0x90, 0xbc,
  0xdd, 0x18, 0x30, 0xbe, 0x2b, 0xf5, 0x0d, 0xbd, 0x01, 0xc6, 0x22, 0x3f,
  0xc5, 0xc6, 0x98, 0x3e, 0xfe, 0x4b, 0x8a, 0xbd, 0xed, 0xa8, 0x54, 0x3e,
  0x20, 0x39, 0x7b, 0x3d, 0xb8, 0x0c, 0x98, 0x3e, 0x5b, 0x31, 0x1f, 0x3f,
  0xb2, 0x67, 0x3a, 0x3f, 0xa1, 0x1e, 0x6b, 0xbe, 0x4c, 0xcf, 0x83, 0xbc,
  0xf2, 0xf7, 0xff, 0xff, 0x04, 0x00, 0x00, 0x00, 0x00, 0x08, 0x00, 0x00,
  0x60, 0xc5, 0xbf, 0xbd, 0x16, 0x1c, 0xa3, 0xbd, 0x92, 0xd0, 0xef, 0xbd,
  0x33, 0x07, 0xca, 0x3d, 0xc2, 0xdb, 0x2d, 0xbe, 0x9d, 0x1d, 0xcd, 0x3e,
  0xde, 0xb3, 0xed, 0x3d, 0x68, 0x4a, 0x57, 0x3e, 0x89, 0xee, 0xc0, 0x3d,
  0x11, 0x9d, 0xeb, 0x3e, 0x3a, 0x65, 0x9e, 0xbd, 0xca, 0x7f, 0x8d, 0xbe,
  0xfe, 0x5f, 0xbc, 0xbe, 0x03, 0x8f, 0x9c, 0x3e, 0x0e, 0xbe, 0xf2, 0xbc,
  0xe0, 0x5c, 0x25, 0xbe, 0xeb, 0x6d, 0xfa, 0xbe, 0xb6, 0x69, 0x62, 0xbd,
  0xb3, 0x8e, 0x82, 0xbd, 0xc7, 0xa6, 0xd8, 0x3e, 0x47, 0xec, 0x05, 0x3f,
  0x21, 0x2f, 0x89, 0x3e, 0x53, 0xdf, 0xa8, 0xbd, 0xd1, 0x5b, 0x9b, 0xbe,
  0xf7, 0x29, 0x26, 0x3f, 0xfc, 0x55, 0x0f, 0xbd, 0x87, 0x99, 0x4c, 0xbd,
  0xef, 0xf0, 0xa0, 0xbe, 0x7f, 0x96, 0x18, 0x3e, 0xbc, 0x22, 0xff, 0xbc,
  0x76, 0xbb, 0x1d, 0x3d, 0x69, 0x0b, 0x00, 0xbd, 0x90, 0x91, 0x00, 0x3e,
  0xe0, 0x90, 0xd2, 0xbc, 0x99, 0x4a, 0xdf, 0xbe, 0x2e, 0xcf, 0xef, 0x3d,
  0xa8, 0x80, 0x79, 0xbe, 0x86, 0x22, 0xb2, 0x3e, 0x05, 0xd3, 0x5c, 0xbd,
  0x95, 0x68, 0x27, 0xbc, 0x32, 0x59, 0xca, 0xbd, 0x0c, 0x0b, 0x86, 0x3d,
  0xfb, 0xe0, 0x59, 0x3e, 0x6d, 0x10, 0xa6, 0x3e, 0x79, 0xa2, 0x2d, 0xbe,
  0x57, 0x72, 0xbf, 0xbe, 0xd4, 0xee, 0x04, 0x3e, 0x0c, 0x27, 0x7a, 0x3e,
  0x05, 0x92, 0x97, 0x3d, 0x53, 0x6e, 0x23, 0xbe, 0xd4, 0x9b, 0x4f, 0xbd,
  0x2b, 0x59, 0xfd, 0x3e, 0x6b, 0xb3, 0x2f, 0x3d, 0x3e, 0x96, 0x45, 0xbe,
  0x10, 0x47, 0x91, 0xbd, 0x45, 0x0f, 0xdd, 0x3e, 0x61, 0xdf, 0x55, 0xbd,
  0x1c, 0x5b, 0x8f, 0x3e, 0xa8, 0x0c, 0x4d, 0xbe, 0xfb, 0x8e, 0x5a, 0x3e,
  0x4b, 0x25, 0x75, 0xbe, 0x9b, 0x9f, 0x29, 0xbe, 0xcc, 0xb9, 0xbb, 0x3e,
  0xd3, 0xd3, 0xea, 0x3d, 0xfb, 0xb0, 0x1d, 0x3d, 0xd5, 0x86, 0xb9, 0x3e,
  0xfe, 0x55, 0xe4, 0x3d, 0x37, 0xf2, 0xb1, 0xbe, 0x17, 0x8f, 0x9c, 0xbe,
  0x2c, 0x4f, 0x33, 0xbe, 0x36, 0xa9, 0x71, 0xbe, 0x38, 0x02, 0xa6, 0xbe,
  0x9c, 0xeb, 0xa5, 0x3c, 0x2c, 0xc9, 0x24, 0xbe, 0x85, 0x1a, 0xac, 0x3e,
  0x13, 0x77, 0xba, 0x3d, 0xa2, 0x81, 0xce, 0x3e, 0x39, 0xea, 0x1c, 0x3e,
  0x98, 0xe6, 0x9b, 0xbd, 0xd6, 0xb0, 0x1b, 0x3e, 0x25, 0x32, 0x0f, 0x3f,
  0xc1, 0xc2, 0x9f, 0xbe, 0xd9, 0x15, 0xcb, 0xbe, 0x19, 0x46, 0xef, 0x3d,
  0xb1, 0x1a, 0xe7, 0x3d, 0xc6, 0x6b, 0xa8, 0x3d, 0xdf, 0xa8, 0xf1, 0x3c,
  0x60, 0x17, 0x16, 0x3e, 0xd1, 0x34, 0x89, 0x3e, 0xa7, 0x24, 0x90, 0x3e,
  0x14, 0xde, 0x09, 0xbe, 0x3f, 0x33, 0x01, 0x3e, 0x2c, 0x96, 0x32, 0xbd,
  0xb2, 0xdd, 0x15, 0xbe, 0xeb, 0x60, 0x9d, 0xbd, 0xac, 0xea, 0xd7, 0x3e,
  0xf6, 0xd6, 0x45, 0x3e, 0x23, 0x88, 0x8a, 0xbe, 0x2e, 0xe2, 0x7d, 0xbe,
  0x17, 0xd7, 0x6e, 0xbe, 0x9d, 0x45, 0xed, 0xbd, 0xfb, 0x19, 0x55, 0xbd,
  0x8c, 0xf2, 0xfd, 0xbe, 0xa9, 0xea, 0xb9, 0x3d, 0x9f, 0xcd, 0xff, 0x3e,
  0x1f, 0x86, 0x08, 0xbe, 0x93, 0x12, 0xa6, 0x3d, 0xc5, 0xc2, 0x86, 0x3e,
  0x59, 0x82, 0x97, 0xbd, 0xf5, 0x77, 0xb3, 0x3d, 0x32, 0xf9, 0x7d, 0x3e,
  0xea, 0xb6, 0x33, 0xbe, 0x5e, 0x9e, 0x2c, 0x3e, 0x3c, 0x52, 0xd9, 0xbd,
  0x88, 0xd3, 0xa3, 0xbe, 0xab, 0x49, 0x59, 0x3d, 0x0f, 0x04, 0x26, 0xbe,
  0x08, 0xa9, 0xb7, 0x3e, 0xae, 0x5d, 0xfc, 0x3e, 0x7a, 0xf7, 0x53, 0x3e,
  0xb9, 0x56, 0x95, 0x3e, 0x5e, 0x95, 0xc4, 0x3d, 0x78, 0xed, 0x6d, 0xbe,
  0xbe, 0xd6, 0x74, 0x3e, 0x0c, 0xa1, 0x69, 0x3d, 0x43, 0x8c, 0x31, 0xbe,
  0xcf, 0x7d, 0xd9, 0x3e, 0xe3, 0xa7, 0xd2, 0x3e, 0x56, 0x17, 0x42, 0x3e,
  0xdd, 0x86, 0x43, 0x3e, 0xae, 0x17, 0xc7, 0x3e, 0xaa, 0x46, 0x04, 0xbe,
  0xb5, 0x4b, 0x14, 0x3e, 0xc2, 0x5d, 0xb6, 0x3e, 0xbb, 0x72, 0x87, 0x3e,
  0xc8, 0x5a, 0xe1, 0x3d, 0x49, 0xfd, 0x30, 0x3d, 0xb2, 0xe7, 0x84, 0xbc,
  0xb2, 0x86, 0xc8, 0xbd, 0xfa, 0x1c, 0xac, 0xbe, 0xe6, 0x51, 0x27, 0xbe,
  0x0c, 0xa4, 0x6a, 0x3e, 0xf7, 0x71, 0x85, 0x3e, 0x4d, 0x6c, 0xf5, 0x3b,
  0x7c, 0x29, 0xe4, 0x3d, 0xc8, 0x72, 0x9b, 0xbb, 0x41, 0x3e, 0x1a, 0xbe,
  0xfb, 0x2f, 0x80, 0xbe, 0x83, 0x03, 0x1e, 0xbe, 0x86, 0xe6, 0xd2, 0xbd,
  0x59, 0xf2, 0x26, 0x3e, 0x57, 0xbc, 0xdf, 0xbd, 0x08, 0xbf, 0x59, 0x3c,
  0x64, 0xef, 0xa8, 0x3c, 0xc8, 0x2b, 0x71, 0x3d, 0x81, 0xe1, 0x9b, 0xbd,
  0xec, 0x4c, 0xe8, 0x3e, 0x7a, 0xab, 0x19, 0x3e, 0x29, 0xa3, 0x9b, 0xbe,
  0x78, 0x2e, 0xff, 0xbe, 0xb6, 0x78, 0x3a, 0xbf, 0xc9, 0x42, 0x25, 0xbd,
  0xc5, 0x87, 0x60, 0x3c, 0xe9, 0x44, 0x8e, 0xbe, 0x47, 0xd1, 0x0f, 0xbe,
  0xc7, 0x14, 0xc9, 0x3c, 0x90, 0xee, 0x1a, 0xbe, 0xdb, 0xd4, 0x02, 0x3f,
  0x06, 0x04, 0xa9, 0x3e, 0x43, 0xdd, 0x95, 0x3e, 0x18, 0x8b, 0x8e, 0x3e,
  0xb4, 0x2f, 0xa9, 0x3e, 0x4e, 0x5f, 0x8b, 0x3c, 0x75, 0x08, 0xdb, 0x3c,
  0x1f, 0x88, 0x29, 0x3e, 0x6c, 0x7a, 0x2d, 0xbe, 0xbe, 0xb4, 0x24, 0xbe,
  0x54, 0xf4, 0x1f, 0xbd, 0x59, 0xe5, 0x21, 0xbe, 0x78, 0x44, 0x9d, 0x3e,
  0xe2, 0xa5, 0x1e, 0xbe, 0xd0, 0xb6, 0xca, 0x3e, 0x0a, 0x21, 0x8a, 0xbe,
  0x6d, 0xa5, 0xce, 0x3d, 0x40, 0xc0, 0x09, 0xbe, 0x51, 0x64, 0xad, 0xbd,
  0xc3, 0x78, 0xe9, 0x3d, 0x34, 0x56, 0xcd, 0x3d, 0xce, 0x79, 0x18, 0x3e,
  0x7a, 0x50, 0xde, 0x3e, 0x78, 0xc1, 0x21, 0x3e, 0x3d, 0xed, 0xff, 0x3e,
  0xc0, 0xa9, 0x86, 0x3d, 0x1c, 0xc7, 0x0d, 0xbe, 0xc5, 0x53, 0x69, 0xbe,
  0xf5, 0x68, 0x9a, 0x3e, 0xb7, 0xbc, 0x6e, 0x3e, 0x40, 0xd7, 0xd4, 0xbe,
  0xc6, 0x13, 0x9f, 0x3e, 0xf3, 0x73, 0xb7, 0x3e, 0x33, 0xb2, 0x42, 0xbe,
  0x08, 0xcd, 0x9c, 0xbc, 0xd5, 0x0a, 0x49, 0x3e, 0x7c, 0xc4, 0xf2, 0xbe,
  0x7b, 0x42, 0x9b, 0x3e, 0x46, 0xd8, 0x8b, 0xbd, 0x56, 0x1f, 0x3a, 0xbe,
  0x24, 0x93, 0x8b, 0xbd, 0x15, 0x82, 0xd6, 0xbd, 0xb5, 0x67, 0xdf, 0xbd,
  0x01, 0x01, 0xe8, 0x3e, 0x57, 0xb0, 0x80, 0xbe, 0x64, 0xe0, 0x96, 0x3e,
  0x7b, 0xa8, 0x1c, 0xbe, 0x81, 0xdb, 0xf0, 0x3e, 0x2f, 0x2f, 0x4a, 0x3e,
  0xe4, 0x27, 0x14, 0xbe, 0xc5, 0xd6, 0x5a, 0xbd, 0x52, 0x55, 0xb8, 0xbd,
  0x1b, 0x45, 0x8d, 0xbe, 0x94, 0xdf, 0x05, 0xbe, 0x13, 0x55, 0x89, 0xbe,
  0x7b, 0x2e, 0x7c, 0xbe, 0xc6, 0xa7, 0x40, 0x3d, 0x50, 0x41, 0x00, 0xbe,
  0x96, 0x22, 0xd1, 0x3e, 0x14, 0x8f, 0x9b, 0x3e, 0x8c, 0xaa, 0x45, 0x3e,
  0x1f, 0x33, 0xea, 0xbe, 0x7c, 0x81, 0x89, 0x3e, 0x81, 0x8d, 0x04, 0xbe,
  0xda, 0x30, 0x90, 0xbd, 0x31, 0xa9, 0x50, 0x3e, 0x10, 0xdd, 0x36, 0x3e,
  0x97, 0xbd, 0x8a, 0x3e, 0xde, 0xe1, 0x52, 0x3e, 0x32, 0xbf, 0xd4, 0xbd,
  0xb0, 0xbd, 0x79, 0x3e, 0xdd, 0x63, 0xbd, 0x3d, 0x4a, 0x1e, 0x14, 0xbe,
  0x47, 0x36, 0x07, 0xbe, 0x8a, 0x5a, 0x31, 0xba, 0xe2, 0xd3, 0x3e, 0x3e,
  0x81, 0x33, 0x17, 0xbf, 0xf3, 0x3b, 0xa2, 0x3e, 0xcf, 0x9c, 0x7c, 0xbe,
  0x34, 0xdd, 0x19, 0xbd, 0x33, 0xe5, 0xb3, 0xbe, 0x08, 0x37, 0x47, 0xbe,
  0x36, 0x23, 0x03, 0x3e, 0xb4, 0x8f, 0x80, 0xbe, 0x50, 0x9d, 0x55, 0x3d,
  0x65, 0x41, 0x39, 0xbe, 0x85, 0xfa, 0xa7, 0x3d, 0x9f, 0x43, 0x0c, 0x3f,
  0x9c, 0xfe, 0x83, 0x3e, 0x14, 0xf4, 0x87, 0xbc, 0x72, 0xb1, 0x0e, 0x3f,
  0xa9, 0xd6, 0x25, 0x3d, 0x4b, 0xc7, 0xee, 0xbe, 0xdc, 0xe1, 0xcd, 0x3d,
  0xd3, 0x50, 0x7e, 0xbd, 0x12, 0x1f, 0xb4, 0x3d, 0x2a, 0x5c, 0x2d, 0xbe,
  0xd8, 0x15, 0xc2, 0xbd, 0xbd, 0x2a, 0xfc, 0xbe, 0x75, 0x3f, 0xa8, 0xbe,
  0x51, 0xb8, 0xda, 0x3d, 0x97, 0x74, 0x23, 0x3b, 0xe5, 0xfb, 0x9e, 0x3e,
  0x65, 0x27, 0x1e, 0xbd, 0x26, 0x3d, 0xd4, 0xbd, 0x98, 0xa4, 0x2f, 0x3e,
  0xbc, 0x25, 0x20, 0x3e, 0xf8, 0xdd, 0x24, 0xbe, 0x37, 0x37, 0x5e, 0x3c,
  0x2e, 0xd7, 0x81, 0x3e, 0xa4, 0xac, 0x79, 0xbd, 0xfe, 0x7f, 0x93, 0x3e,
  0x8e, 0xc4, 0x14, 0x3d, 0x38, 0xfc, 0x5a, 0x3e, 0x21, 0xd6, 0xfe, 0x3e,
  0xe1, 0xcc, 0x7c, 0xbd, 0xc3, 0x08, 0x8a, 0x3e, 0xde, 0x16, 0x5a, 0xbe,
  0x75, 0x1c, 0x09, 0xbf, 0xc5, 0x51, 0xe4, 0x3e, 0x84, 0xf8, 0x03, 0x3f,
  0xf9, 0xce, 0xe2, 0x3c, 0xdc, 0xaf, 0x7d, 0x3d, 0x97, 0xc3, 0xa5, 0x3d,
  0xf1, 0xcc, 0x5f, 0x3d, 0x37, 0x1b, 0x95, 0x3e, 0x2a, 0xe3, 0xc1, 0xbd,
  0xee, 0xc9, 0xa4, 0x3d, 0x49, 0x99, 0xd8, 0x3d, 0xba, 0xdc, 0x4c, 0xbd,
  0x79, 0x51, 0x8c, 0xbd, 0x12, 0xe6, 0xd2, 0x3e, 0xad, 0x26, 0xca, 0x3d,
  0x01, 0x42, 0x6c, 0xbc, 0x9b, 0xfd, 0xf4, 0x3d, 0x36, 0x67, 0xb7, 0x3e,
  0x3c, 0xd9, 0x9d, 0x3e, 0xcd, 0x02, 0x9c, 0x3e, 0xfc, 0x90, 0x65, 0xbe,
  0x32, 0xa6, 0xb5, 0xbe, 0xea, 0xaa, 0x8f, 0x3e, 0x4a, 0x5d, 0x52, 0x3e,
  0x7b, 0xf8, 0x45, 0x3e, 0xb9, 0xac, 0x86, 0x3d, 0xc6, 0x1d, 0x3d, 0xbe,
  0xf9, 0x23, 0x51, 0xbd, 0x2c, 0x38, 0xfb, 0xbd, 0xef, 0xef, 0x57, 0xbe,
  0x1a, 0xa1, 0xa7, 0x3e, 0xba, 0xaf, 0x21, 0xbe, 0x88, 0x3b, 0xa3, 0xbe,
  0x8f, 0xc6, 0xba, 0x3e, 0x0e, 0x01, 0x8e, 0x3e, 0x7c, 0x67, 0x8e, 0x3e,
  0xa4, 0x24, 0x01, 0x3f, 0x2f, 0x63, 0x07, 0xbd, 0x24, 0xb7, 0x9d, 0x3d,
  0x69, 0xf4, 0x5f, 0xbe, 0xfe, 0x43, 0x0b, 0xbe, 0x9a, 0x44, 0x1a, 0x3e,
  0x25, 0x1f, 0x9c, 0xbe, 0xea, 0x24, 0xb4, 0x3d, 0xe1, 0xda, 0x1a, 0x3e,
  0xa4, 0xdc, 0x9d, 0x3e, 0x24, 0x1c, 0x14, 0xbc, 0x98, 0xc6, 0x82, 0x3c,
  0x17, 0xb0, 0xae, 0xbd, 0x4c, 0x98, 0xca, 0x3e, 0xb9, 0x76, 0x17, 0xbe,
  0xf2, 0xe4, 0x41, 0x3d, 0x86, 0x4d, 0x3c, 0xbe, 0x52, 0xfa, 0x4b, 0xbe,
  0xd4, 0x71, 0x5b, 0x3f, 0x7f, 0xab, 0x87, 0xbc, 0x07, 0x53, 0xcd, 0xbe,
  0x50, 0x7f, 0x8e, 0x3c, 0x21, 0x42, 0x88, 0x3e, 0x24, 0xdd, 0xbe, 0x3e,
  0x51, 0xbb, 0xb4, 0xbd, 0xd0, 0x46, 0x6b, 0xbc, 0x44, 0x22, 0x77, 0x3e,
  0xc1, 0xd0, 0x82, 0xbe, 0x8e, 0xb8, 0x45, 0x3d, 0x96, 0x01, 0xfe, 0xbd,
  0x04, 0x80, 0xc6, 0xbd, 0x6d, 0xa6, 0x20, 0xbe, 0x60, 0x9e, 0x9a, 0x3e,
  0x50, 0x55, 0xab, 0xbe, 0x86, 0xa8, 0x0c, 0xbd, 0x7f, 0x59, 0x35, 0xbe,
  0x54, 0x96, 0x0b, 0xbe, 0xc0, 0x64, 0x58, 0xbd, 0x6f, 0xd5, 0xba, 0x3d,
  0x16, 0x1c, 0x83, 0x3e, 0x5d, 0xd6, 0x76, 0xbe, 0xaa, 0x9d, 0xb1, 0x3e,
  0x7a, 0xb8, 0x64, 0x3e, 0x08, 0x70, 0x22, 0x3e, 0x48, 0x3a, 0x23, 0xbe,
  0xe4, 0x84, 0xc7, 0x3e, 0xac, 0xca, 0x5c, 0x3e, 0xda, 0x65, 0x0e, 0x3e,
  0x9b, 0xb3, 0x1d, 0x3d, 0xc8, 0x9f, 0x17, 0x3d, 0x8e, 0x0e, 0x54, 0xbc,
  0x6a, 0x45, 0x16, 0x3e, 0x72, 0xcf, 0x60, 0x3e, 0x2c, 0xad, 0x43, 0x3e,
  0x7a, 0xd8, 0x9f, 0x3e, 0xa8, 0xee, 0x07, 0xbd, 0x4a, 0x61, 0x00, 0xbf,
  0xa1, 0xaa, 0xe9, 0xbd, 0xa3, 0x82, 0xba, 0xbd, 0x2d, 0x61, 0x82, 0x3e,
  0x11, 0x41, 0xf0, 0x3d, 0xd1, 0xd0, 0x03, 0x3e, 0x63, 0xec, 0x87, 0x3e,
  0xf9, 0xb9, 0xea, 0xbd, 0xf8, 0xd3, 0xcf, 0x3e, 0x97, 0x13, 0xaa, 0x3d,
  0x59, 0x4f, 0x4b, 0x3e, 0x05, 0xe7, 0xb5, 0xbd, 0x23, 0x17, 0x47, 0x3e,
  0xc6, 0x0f, 0x3b, 0xbf, 0x60, 0xd7, 0x39, 0x3e, 0xd9, 0x22, 0x0a, 0xbf,
  0x38, 0xf5, 0xf5, 0xbb, 0xd7, 0x52, 0xcb, 0x3d, 0xa5, 0x6c, 0x56, 0x3e,
  0x34, 0xa3, 0x5b, 0xbe, 0xce, 0xb9, 0x14, 0x3d, 0xa8, 0x30, 0x07, 0xbf,
  0x12, 0x94, 0x99, 0xbe, 0xaf, 0x76, 0x0d, 0x3e, 0xb8, 0x05, 0x5d, 0xbc,
  0x1d, 0xf9, 0x9e, 0x3e, 0x18, 0x0f, 0x33, 0x3e, 0x7b, 0xde, 0x74, 0x3e,
  0x1d, 0x1b, 0x9d, 0x3e, 0xf4, 0xd8, 0x95, 0x3e, 0x9a, 0xf6, 0x8d, 0x3e,
  0xed, 0x57, 0xe0, 0x3e, 0x41, 0x06, 0xa2, 0x3e, 0x24, 0x5a, 0xfe, 0xbe,
  0x46, 0x8a, 0x87, 0x3e, 0xeb, 0xdc, 0x85, 0x3c, 0x06, 0x00, 0x5c, 0xbd,
  0xfc, 0x0e, 0x90, 0x3e, 0x01, 0xb8, 0xaa, 0x3d, 0x89, 0xf6, 0xec, 0x3c,
  0xfb, 0xa8, 0x03, 0xbe, 0xe3, 0x38, 0x3c, 0xbe, 0xca, 0x38, 0x7f, 0xbd,
  0xf6, 0x7b, 0xa0, 0xbe, 0x72, 0x30, 0xa2, 0xbe, 0x0e, 0xf0, 0x04, 0x3e,
  0xc9, 0x8d, 0x46, 0xbe, 0x0a, 0xd6, 0x74, 0xbe, 0x61, 0x38, 0xdc, 0x3e,
  0x05, 0x7e, 0x57, 0xbd, 0x4d, 0x95, 0x16, 0xbe, 0xdd, 0x03, 0xa0, 0xbe,
  0x21, 0xa8, 0xdd, 0x3e, 0x7e, 0x3e, 0x80, 0x3d, 0xa1, 0xe5, 0xb7, 0xbe,
  0xe6, 0xc0, 0x27, 0xbe, 0x93, 0x9e, 0x08, 0x3e, 0x8d, 0x74, 0xac, 0x3e,
  0x50, 0xfa, 0x2f, 0xbf, 0x83, 0x70, 0x31, 0xbe, 0x3f, 0x03, 0xd6, 0x3d,
  0xce, 0xd1, 0xfa, 0x3d, 0xd7, 0xc6, 0xaa, 0xbe, 0xbc, 0x6e, 0x72, 0x3e,
  0x89, 0xc0, 0xdb, 0xbe, 0x45, 0xd8, 0x99, 0xbe, 0xec, 0x0c, 0x9e, 0x3e,
  0xcd, 0x4b, 0x8d, 0x3e, 0x2c, 0x2d, 0xca, 0xbe, 0x75, 0x39, 0xac, 0x3e,
  0x8a, 0xf2, 0x2e, 0x3e, 0x2c, 0x75, 0x93, 0x3e, 0xb2, 0xbe, 0x69, 0xbe,
  0xa5, 0xb6, 0x8f, 0x3e, 0xf7, 0x6b, 0x2f, 0x3d, 0x09, 0x6d, 0x45, 0x3e,
  0x70, 0x46, 0xdd, 0x3e, 0x4a, 0xf9, 0xc1, 0x3e, 0x50, 0x91, 0xe2, 0xbe,
  0x2b, 0xdb, 0x92, 0x3e, 0xa6, 0x96, 0xa4, 0x3e, 0x7c, 0xaf, 0x34, 0xbe,
  0x8d, 0x9d, 0xc9, 0xbe, 0x83, 0xf8, 0x6c, 0xbe, 0xde, 0x01, 0x8d, 0x3e,
  0x4c, 0x8b, 0x36, 0xbe, 0x69, 0xa9, 0x80, 0xbc, 0xef, 0xf1, 0xf0, 0xbc,
  0x91, 0xe2, 0x25, 0x3e, 0xde, 0x1e, 0xcd, 0x3e, 0x72, 0xc2, 0x9c, 0x3e,
  0xb2, 0xd6, 0xc2, 0x3d, 0x4a, 0xe5, 0xa3, 0xbe, 0xef, 0xdc, 0xc4, 0x3e,
  0x30, 0x36, 0x4c, 0x3e, 0x60, 0x54, 0xb1, 0x3d, 0x14, 0xc6, 0xd9, 0xbb,
  0x40, 0xb2, 0xaf, 0x3e, 0x5a, 0x60, 0x33, 0xbe, 0x57, 0xd9, 0xcc, 0x3e,
  0x20, 0xe9, 0x80, 0xbd, 0x0a, 0xeb, 0x93, 0xbe, 0xcb, 0xc2, 0x43, 0xbe,
  0xa5, 0xbd, 0x92, 0xbd, 0xa3, 0xba, 0xc4, 0xbe, 0x1e, 0xfd, 0x98, 0x3b,
  0xc4, 0x39, 0x5b, 0x3b, 0xe4, 0x19, 0x7e, 0x3e, 0x9b, 0x27, 0x59, 0xbd,
  0x53, 0xeb, 0x4c, 0x3e, 0xa5, 0x1b, 0x8f, 0xbd, 0x9a, 0x2f, 0x2d, 0xbe,
  0xa0, 0xb6, 0x2d, 0x3e, 0xd0, 0xe8, 0x80, 0xbe, 0x72, 0x32, 0xe2, 0x3d,
  0xc8, 0x95, 0xce, 0xbd, 0xe6, 0xa7, 0xa7, 0xbd, 0xc0, 0xd8, 0xa1, 0xbd,
  0xdf, 0xf1, 0x90, 0xbe, 0xfd, 0x2f, 0xd1, 0xbc, 0xcb, 0x9f, 0xc3, 0x3e,
  0xf8, 0x67, 0x44, 0x3d, 0x61, 0xaa, 0x3f, 0x3e, 0xfb, 0x2b, 0x84, 0xbd,
  0xb9, 0x13, 0x9c, 0xbd, 0xbc, 0x3c, 0x6d, 0xbd, 0x02, 0x11, 0x88, 0x3c,
  0xf6, 0x44, 0xc5, 0xbd, 0x12, 0xbf, 0x56, 0x3f, 0xbd, 0x11, 0x04, 0x3e,
  0xff, 0x70, 0x41, 0xbd, 0x13, 0x61, 0x9e, 0x3e, 0x67, 0xee, 0xf0, 0x3d,
  0xaf, 0x58, 0xfe, 0xbe, 0xa6, 0xf1, 0xa5, 0xbe, 0x00, 0x00, 0x06, 0x00,
  0x08, 0x00, 0x04, 0x00, 0x06, 0x00, 0x00, 0x00, 0x04, 0x00, 0x00, 0x00,
  0x40, 0x00, 0x00, 0x00, 0xfd, 0x91, 0xbf, 0xbe, 0xc5, 0x6c, 0x77, 0xbf,
  0x7d, 0xc6, 0xaf, 0xbf, 0x6f, 0x7f, 0xf6, 0xbe, 0x41, 0x71, 0x43, 0x3e,
  0x5d, 0x88, 0x47, 0x3f, 0x4d, 0xd4, 0x4c, 0xbf, 0x29, 0x28, 0x34, 0xbf,
  0xd8, 0xf3, 0x6b, 0xbf, 0x05, 0x4c, 0xec, 0xbe, 0x11, 0x04, 0xd6, 0xbe,
  0xf0, 0x33, 0x20, 0xbf, 0x71, 0x58, 0xc6, 0xbe, 0x69, 0x00, 0x93, 0x3f,
  0x4b, 0x18, 0x34, 0x3f, 0xf1, 0x64, 0x56, 0xbf, 0x90, 0xfa, 0xff, 0xff,
  0x94, 0xfa, 0xff, 0xff, 0x0f, 0x00, 0x00, 0x00, 0x4d, 0x4c, 0x49, 0x52,
  0x20, 0x43, 0x6f, 0x6e, 0x76, 0x65, 0x72, 0x74, 0x65, 0x64, 0x2e, 0x00,
  0x01, 0x00, 0x00, 0x00, 0x14, 0x00, 0x00, 0x00, 0x00, 0x00, 0x0e, 0x00,
  0x18, 0x00, 0x14, 0x00, 0x10, 0x00, 0x0c, 0x00, 0x08, 0x00, 0x04, 0x00,
  0x0e, 0x00, 0x00, 0x00, 0x14, 0x00, 0x00, 0x00, 0x1c, 0x00, 0x00, 0x00,
  0x08, 0x01, 0x00, 0x00, 0x0c, 0x01, 0x00, 0x00, 0x10, 0x01, 0x00, 0x00,
  0x04, 0x00, 0x00, 0x00, 0x6d, 0x61, 0x69, 0x6e, 0x00, 0x00, 0x00, 0x00,
  0x04, 0x00, 0x00, 0x00, 0xb0, 0x00, 0x00, 0x00, 0x68, 0x00, 0x00, 0x00,
  0x34, 0x00, 0x00, 0x00, 0x10, 0x00, 0x00, 0x00, 0x00, 0x00, 0x0a, 0x00,
  0x10, 0x00, 0x0c, 0x00, 0x08, 0x00, 0x04, 0x00, 0x0a, 0x00, 0x00, 0x00,
  0x0c, 0x00, 0x00, 0x00, 0x10, 0x00, 0x00, 0x00, 0x01, 0x00, 0x00, 0x00,
  0x01, 0x00, 0x00, 0x00, 0x0a, 0x00, 0x00, 0x00, 0x01, 0x00, 0x00, 0x00,
  0x09, 0x00, 0x00, 0x00, 0x9a, 0xff, 0xff, 0xff, 0x10, 0x00, 0x00, 0x00,
  0x00, 0x00, 0x00, 0x08, 0x0c, 0x00, 0x00, 0x00, 0x10, 0x00, 0x00, 0x00,
  0x3c, 0xfb, 0xff, 0xff, 0x01, 0x00, 0x00, 0x00, 0x09, 0x00, 0x00, 0x00,
  0x03, 0x00, 0x00, 0x00, 0x08, 0x00, 0x00, 0x00, 0x01, 0x00, 0x00, 0x00,
  0x04, 0x00, 0x00, 0x00, 0xca, 0xff, 0xff, 0xff, 0x10, 0x00, 0x00, 0x00,
  0x00, 0x00, 0x00, 0x08, 0x10, 0x00, 0x00, 0x00, 0x14, 0x00, 0x00, 0x00,
  0xba, 0xff, 0xff, 0xff, 0x00, 0x00, 0x00, 0x01, 0x01, 0x00, 0x00, 0x00,
  0x08, 0x00, 0x00, 0x00, 0x03, 0x00, 0x00, 0x00, 0x07, 0x00, 0x00, 0x00,
  0x02, 0x00, 0x00, 0x00, 0x03, 0x00, 0x00, 0x00, 0x00, 0x00, 0x0e, 0x00,
  0x16, 0x00, 0x00, 0x00, 0x10, 0x00, 0x0c, 0x00, 0x0b, 0x00, 0x04, 0x00,
  0x0e, 0x00, 0x00, 0x00, 0x18, 0x00, 0x00, 0x00, 0x00, 0x00, 0x00, 0x08,
  0x18, 0x00, 0x00, 0x00, 0x1c, 0x00, 0x00, 0x00, 0x00, 0x00, 0x06, 0x00,
  0x08, 0x00, 0x07, 0x00, 0x06, 0x00, 0x00, 0x00, 0x00, 0x00, 0x00, 0x01,
  0x01, 0x00, 0x00, 0x00, 0x07, 0x00, 0x00, 0x00, 0x03, 0x00, 0x00, 0x00,
  0x00, 0x00, 0x00, 0x00, 0x06, 0x00, 0x00, 0x00, 0x05, 0x00, 0x00, 0x00,
  0x01, 0x00, 0x00, 0x00, 0x0a, 0x00, 0x00, 0x00, 0x01, 0x00, 0x00, 0x00,
  0x00, 0x00, 0x00, 0x00, 0x0b, 0x00, 0x00, 0x00, 0xec, 0x03, 0x00, 0x00,
  0x94, 0x03, 0x00, 0x00, 0x3c, 0x03, 0x00, 0x00, 0xe4, 0x02, 0x00, 0x00,
  0x8c, 0x02, 0x00, 0x00, 0x38, 0x02, 0x00, 0x00, 0xf0, 0x01, 0x00, 0x00,
  0x68, 0x01, 0x00, 0x00, 0xd8, 0x00, 0x00, 0x00, 0x60, 0x00, 0x00, 0x00,
  0x04, 0x00, 0x00, 0x00, 0x56, 0xfc, 0xff, 0xff, 0x00, 0x00, 0x00, 0x01,
  0x14, 0x00, 0x00, 0x00, 0x1c, 0x00, 0x00, 0x00, 0x1c, 0x00, 0x00, 0x00,
  0x0b, 0x00, 0x00, 0x00, 0x34, 0x00, 0x00, 0x00, 0x02, 0x00, 0x00, 0x00,
  0xff, 0xff, 0xff, 0xff, 0x01, 0x00, 0x00, 0x00, 0x40, 0xfc, 0xff, 0xff,
  0x19, 0x00, 0x00, 0x00, 0x53, 0x74, 0x61, 0x74, 0x65, 0x66, 0x75, 0x6c,
  0x50, 0x61, 0x72, 0x74, 0x69, 0x74, 0x69, 0x6f, 0x6e, 0x65, 0x64, 0x43,
  0x61, 0x6c, 0x6c, 0x3a, 0x30, 0x00, 0x00, 0x00, 0x02, 0x00, 0x00, 0x00,
  0x01, 0x00, 0x00, 0x00, 0x01, 0x00, 0x00, 0x00, 0xae, 0xfc, 0xff, 0xff,
  0x00, 0x00, 0x00, 0x01, 0x14, 0x00, 0x00, 0x00, 0x1c, 0x00, 0x00, 0x00,
  0x1c, 0x00, 0x00, 0x00, 0x0a, 0x00, 0x00, 0x00, 0x50, 0x00, 0x00, 0x00,
  0x02, 0x00, 0x00, 0x00, 0xff, 0xff, 0xff, 0xff, 0x01, 0x00, 0x00, 0x00,
  0x98, 0xfc, 0xff, 0xff, 0x34, 0x00, 0x00, 0x00, 0x73, 0x65, 0x71, 0x75,
  0x65, 0x6e, 0x74, 0x69, 0x61, 0x6c, 0x2f, 0x64, 0x65, 0x6e, 0x73, 0x65,
  0x5f, 0x32, 0x2f, 0x4d, 0x61, 0x74, 0x4d, 0x75, 0x6c, 0x3b, 0x73, 0x65,
  0x71, 0x75, 0x65, 0x6e, 0x74, 0x69, 0x61, 0x6c, 0x2f, 0x64, 0x65, 0x6e,
  0x73, 0x65, 0x5f, 0x32, 0x2f, 0x42, 0x69, 0x61, 0x73, 0x41, 0x64, 0x64,
  0x00, 0x00, 0x00, 0x00, 0x02, 0x00, 0x00, 0x00, 0x01, 0x00, 0x00, 0x00,
  0x01, 0x00, 0x00, 0x00, 0x22, 0xfd, 0xff, 0xff, 0x00, 0x00, 0x00, 0x01,
  0x14, 0x00, 0x00, 0x00, 0x1c, 0x00, 0x00, 0x00, 0x1c, 0x00, 0x00, 0x00,
  0x09, 0x00, 0x00, 0x00, 0x68, 0x00, 0x00, 0x00, 0x02, 0x00, 0x00, 0x00,
  0xff, 0xff, 0xff, 0xff, 0x10, 0x00, 0x00, 0x00, 0x0c, 0xfd, 0xff, 0xff,
  0x4c, 0x00, 0x00, 0x00, 0x73, 0x65, 0x71, 0x75, 0x65, 0x6e, 0x74, 0x69,
  0x61, 0x6c, 0x2f, 0x64, 0x65, 0x6e, 0x73, 0x65, 0x5f, 0x31, 0x2f, 0x4d,
  0x61, 0x74, 0x4d, 0x75, 0x6c, 0x3b, 0x73, 0x65, 0x71, 0x75, 0x65, 0x6e,
  0x74, 0x69, 0x61, 0x6c, 0x2f, 0x64, 0x65, 0x6e, 0x73, 0x65, 0x5f, 0x31,
  0x2f, 0x52, 0x65, 0x6c, 0x75, 0x3b, 0x73, 0x65, 0x71, 0x75, 0x65, 0x6e,
  0x74, 0x69, 0x61, 0x6c, 0x2f, 0x64, 0x65, 0x6e, 0x73, 0x65, 0x5f, 0x31,
  0x2f, 0x42, 0x69, 0x61, 0x73, 0x41, 0x64, 0x64, 0x00, 0x00, 0x00, 0x00,
  0x02, 0x00, 0x00, 0x00, 0x01, 0x00, 0x00, 0x00, 0x10, 0x00, 0x00, 0x00,
  0xae, 0xfd, 0xff, 0xff, 0x00, 0x00, 0x00, 0x01, 0x14, 0x00, 0x00, 0x00,
  0x1c, 0x00, 0x00, 0x00, 0x1c, 0x00, 0x00, 0x00, 0x08, 0x00, 0x00, 0x00,
  0x60, 0x00, 0x00, 0x00, 0x02, 0x00, 0x00, 0x00, 0xff, 0xff, 0xff, 0xff,
  0x20, 0x00, 0x00, 0x00, 0x98, 0xfd, 0xff, 0xff, 0x46, 0x00, 0x00, 0x00,
  0x73, 0x65, 0x71, 0x75, 0x65, 0x6e, 0x74, 0x69, 0x61, 0x6c, 0x2f, 0x64,
  0x65, 0x6e, 0x73, 0x65, 0x2f, 0x4d, 0x61, 0x74, 0x4d, 0x75, 0x6c, 0x3b,
  0x73, 0x65, 0x71, 0x75, 0x65, 0x6e, 0x74, 0x69, 0x61, 0x6c, 0x2f, 0x64,
  0x65, 0x6e, 0x73, 0x65, 0x2f, 0x52, 0x65, 0x6c, 0x75, 0x3b, 0x73, 0x65,
  0x71, 0x75, 0x65, 0x6e, 0x74, 0x69, 0x61, 0x6c, 0x2f, 0x64, 0x65, 0x6e,
  0x73, 0x65, 0x2f, 0x42, 0x69, 0x61, 0x73, 0x41, 0x64, 0x64, 0x00, 0x00,
  0x02, 0x00, 0x00, 0x00, 0x01, 0x00, 0x00, 0x00, 0x20, 0x00, 0x00, 0x00,
  0x86, 0xfe, 0xff, 0xff, 0x00, 0x00, 0x00, 0x01, 0x10, 0x00, 0x00, 0x00,
  0x10, 0x00, 0x00, 0x00, 0x07, 0x00, 0x00, 0x00, 0x24, 0x00, 0x00, 0x00,
  0x0c, 0xfe, 0xff, 0xff, 0x17, 0x00, 0x00, 0x00, 0x73, 0x65, 0x71, 0x75,
  0x65, 0x6e, 0x74, 0x69, 0x61, 0x6c, 0x2f, 0x64, 0x65, 0x6e, 0x73, 0x65,
  0x2f, 0x4d, 0x61, 0x74, 0x4d, 0x75, 0x6c, 0x00, 0x02, 0x00, 0x00, 0x00,
  0x20, 0x00, 0x00, 0x00, 0x1f, 0x00, 0x00, 0x00, 0xca, 0xfe, 0xff, 0xff,
  0x00, 0x00, 0x00, 0x01, 0x10, 0x00, 0x00, 0x00, 0x10, 0x00, 0x00, 0x00,
  0x06, 0x00, 0x00, 0x00, 0x34, 0x00, 0x00, 0x00, 0x50, 0xfe, 0xff, 0xff,
  0x27, 0x00, 0x00, 0x00, 0x73, 0x65, 0x71, 0x75, 0x65, 0x6e, 0x74, 0x69,
  0x61, 0x6c, 0x2f, 0x64, 0x65, 0x6e, 0x73, 0x65, 0x2f, 0x42, 0x69, 0x61,
  0x73, 0x41, 0x64, 0x64, 0x2f, 0x52, 0x65, 0x61, 0x64, 0x56, 0x61, 0x72,
  0x69, 0x61, 0x62, 0x6c, 0x65, 0x4f, 0x70, 0x00, 0x01, 0x00, 0x00, 0x00,
  0x20, 0x00, 0x00, 0x00, 0x1a, 0xff, 0xff, 0xff, 0x00, 0x00, 0x00, 0x01,
  0x10, 0x00, 0x00, 0x00, 0x10, 0x00, 0x00, 0x00, 0x05, 0x00, 0x00, 0x00,
  0x38, 0x00, 0x00, 0x00, 0xa0, 0xfe, 0xff, 0xff, 0x29, 0x00, 0x00, 0x00,
  0x73, 0x65, 0x71, 0x75, 0x65, 0x6e, 0x74, 0x69, 0x61, 0x6c, 0x2f, 0x64,
  0x65, 0x6e, 0x73, 0x65, 0x5f, 0x32, 0x2f, 0x42, 0x69, 0x61, 0x73, 0x41,
  0x64, 0x64, 0x2f, 0x52, 0x65, 0x61, 0x64, 0x56, 0x61, 0x72, 0x69, 0x61,
  0x62, 0x6c, 0x65, 0x4f, 0x70, 0x00, 0x00, 0x00, 0x01, 0x00, 0x00, 0x00,
  0x01, 0x00, 0x00, 0x00, 0x6e, 0xff, 0xff, 0xff, 0x00, 0x00, 0x00, 0x01,
  0x10, 0x00, 0x00, 0x00, 0x10, 0x00, 0x00, 0x00, 0x04, 0x00, 0x00, 0x00,
  0x38, 0x00, 0x00, 0x00, 0xf4, 0xfe, 0xff, 0xff, 0x29, 0x00, 0x00, 0x00,
  0x73, 0x65, 0x71, 0x75, 0x65, 0x6e, 0x74, 0x69, 0x61, 0x6c, 0x2f, 0x64,
  0x65, 0x6e, 0x73, 0x65, 0x5f, 0x31, 0x2f, 0x42, 0x69, 0x61, 0x73, 0x41,
  0x64, 0x64, 0x2f, 0x52, 0x65, 0x61, 0x64, 0x56, 0x61, 0x72, 0x69, 0x61,
  0x62, 0x6c, 0x65, 0x4f, 0x70, 0x00, 0x00, 0x00, 0x01, 0x00, 0x00, 0x00,
  0x10, 0x00, 0x00, 0x00, 0xc2, 0xff, 0xff, 0xff, 0x00, 0x00, 0x00, 0x01,
  0x10, 0x00, 0x00, 0x00, 0x10, 0x00, 0x00, 0x00, 0x03, 0x00, 0x00, 0x00,
  0x1c, 0x00, 0x00, 0x00, 0x48, 0xff, 0xff, 0xff, 0x0f, 0x00, 0x00, 0x00,
  0x61, 0x72, 0x69, 0x74, 0x68, 0x2e, 0x63, 0x6f, 0x6e, 0x73, 0x74, 0x61,
  0x6e, 0x74, 0x31, 0x00, 0x02, 0x00, 0x00, 0x00, 0x10, 0x00, 0x00, 0x00,
  0x20, 0x00, 0x00, 0x00, 0x00, 0x00, 0x16, 0x00, 0x18, 0x00, 0x14, 0x00,
  0x00, 0x00, 0x10, 0x00, 0x0c, 0x00, 0x08, 0x00, 0x00, 0x00, 0x00, 0x00,
  0x00, 0x00, 0x07, 0x00, 0x16, 0x00, 0x00, 0x00, 0x00, 0x00, 0x00, 0x01,
  0x10, 0x00, 0x00, 0x00, 0x10, 0x00, 0x00, 0x00, 0x02, 0x00, 0x00, 0x00,
  0x1c, 0x00, 0x00, 0x00, 0x9c, 0xff, 0xff, 0xff, 0x0e, 0x00, 0x00, 0x00,
  0x61, 0x72, 0x69, 0x74, 0x68, 0x2e, 0x63, 0x6f, 0x6e, 0x73, 0x74, 0x61,
  0x6e, 0x74, 0x00, 0x00, 0x02, 0x00, 0x00, 0x00, 0x01, 0x00, 0x00, 0x00,
  0x10, 0x00, 0x00, 0x00, 0x00, 0x00, 0x16, 0x00, 0x1c, 0x00, 0x18, 0x00,
  0x00, 0x00, 0x14, 0x00, 0x10, 0x00, 0x0c, 0x00, 0x00, 0x00, 0x00, 0x00,
  0x08, 0x00, 0x07, 0x00, 0x16, 0x00, 0x00, 0x00, 0x00, 0x00, 0x00, 0x01,
  0x14, 0x00, 0x00, 0x00, 0x20, 0x00, 0x00, 0x00, 0x20, 0x00, 0x00, 0x00,
  0x01, 0x00, 0x00, 0x00, 0x38, 0x00, 0x00, 0x00, 0x02, 0x00, 0x00, 0x00,
  0xff, 0xff, 0xff, 0xff, 0x1f, 0x00, 0x00, 0x00, 0x04, 0x00, 0x04, 0x00,
  0x04, 0x00, 0x00, 0x00, 0x19, 0x00, 0x00, 0x00, 0x73, 0x65, 0x72, 0x76,
  0x69, 0x6e, 0x67, 0x5f, 0x64, 0x65, 0x66, 0x61, 0x75, 0x6c, 0x74, 0x5f,
  0x69, 0x6e, 0x70, 0x75, 0x74, 0x5f, 0x31, 0x3a, 0x30, 0x00, 0x00, 0x00,
  0x02, 0x00, 0x00, 0x00, 0x01, 0x00, 0x00, 0x00, 0x1f, 0x00, 0x00, 0x00,
  0x02, 0x00, 0x00, 0x00, 0x20, 0x00, 0x00, 0x00, 0x04, 0x00, 0x00, 0x00,
  0xf4, 0xff, 0xff, 0xff, 0x0e, 0x00, 0x00, 0x00, 0x00, 0x00, 0x00, 0x0e,
  0x0c, 0x00, 0x0c, 0x00, 0x0b, 0x00, 0x00, 0x00, 0x00, 0x00, 0x04, 0x00,
  0x0c, 0x00, 0x00, 0x00, 0x09, 0x00, 0x00, 0x00, 0x00, 0x00, 0x00, 0x09
};
//unsigned int _tmp_stan_tflite_len = 8316;

// final_part_prune_inter_bs3_6_9_12_qp_110_135_160_nnz_psnr_vect_satdq_32_16_tflite_model.cc
/*
unsigned char sms_part_split_prune_tflite_model[] = {
  0x1c, 0x00, 0x00, 0x00, 0x54, 0x46, 0x4c, 0x33, 0x14, 0x00, 0x20, 0x00,
  0x1c, 0x00, 0x18, 0x00, 0x14, 0x00, 0x10, 0x00, 0x0c, 0x00, 0x00, 0x00,
  0x08, 0x00, 0x04, 0x00, 0x14, 0x00, 0x00, 0x00, 0x1c, 0x00, 0x00, 0x00,
  0x80, 0x00, 0x00, 0x00, 0xd8, 0x00, 0x00, 0x00, 0x84, 0x1a, 0x00, 0x00,
  0x94, 0x1a, 0x00, 0x00, 0x18, 0x20, 0x00, 0x00, 0x03, 0x00, 0x00, 0x00,
  0x01, 0x00, 0x00, 0x00, 0x04, 0x00, 0x00, 0x00, 0x2e, 0xe5, 0xff, 0xff,
  0x0c, 0x00, 0x00, 0x00, 0x1c, 0x00, 0x00, 0x00, 0x38, 0x00, 0x00, 0x00,
  0x0f, 0x00, 0x00, 0x00, 0x73, 0x65, 0x72, 0x76, 0x69, 0x6e, 0x67, 0x5f,
  0x64, 0x65, 0x66, 0x61, 0x75, 0x6c, 0x74, 0x00, 0x01, 0x00, 0x00, 0x00,
  0x04, 0x00, 0x00, 0x00, 0x9c, 0xff, 0xff, 0xff, 0x0a, 0x00, 0x00, 0x00,
  0x04, 0x00, 0x00, 0x00, 0x07, 0x00, 0x00, 0x00, 0x64, 0x65, 0x6e, 0x73,
  0x65, 0x5f, 0x32, 0x00, 0x01, 0x00, 0x00, 0x00, 0x04, 0x00, 0x00, 0x00,
  0x3a, 0xe6, 0xff, 0xff, 0x04, 0x00, 0x00, 0x00, 0x07, 0x00, 0x00, 0x00,
  0x69, 0x6e, 0x70, 0x75, 0x74, 0x5f, 0x31, 0x00, 0x02, 0x00, 0x00, 0x00,
  0x34, 0x00, 0x00, 0x00, 0x04, 0x00, 0x00, 0x00, 0xdc, 0xff, 0xff, 0xff,
  0x0d, 0x00, 0x00, 0x00, 0x04, 0x00, 0x00, 0x00, 0x13, 0x00, 0x00, 0x00,
  0x43, 0x4f, 0x4e, 0x56, 0x45, 0x52, 0x53, 0x49, 0x4f, 0x4e, 0x5f, 0x4d,
  0x45, 0x54, 0x41, 0x44, 0x41, 0x54, 0x41, 0x00, 0x08, 0x00, 0x0c, 0x00,
  0x08, 0x00, 0x04, 0x00, 0x08, 0x00, 0x00, 0x00, 0x0c, 0x00, 0x00, 0x00,
  0x04, 0x00, 0x00, 0x00, 0x13, 0x00, 0x00, 0x00, 0x6d, 0x69, 0x6e, 0x5f,
  0x72, 0x75, 0x6e, 0x74, 0x69, 0x6d, 0x65, 0x5f, 0x76, 0x65, 0x72, 0x73,
  0x69, 0x6f, 0x6e, 0x00, 0x0e, 0x00, 0x00, 0x00, 0xa8, 0x19, 0x00, 0x00,
  0xa0, 0x19, 0x00, 0x00, 0x50, 0x19, 0x00, 0x00, 0x38, 0x11, 0x00, 0x00,
  0xe8, 0x10, 0x00, 0x00, 0xd4, 0x10, 0x00, 0x00, 0x44, 0x10, 0x00, 0x00,
  0xb4, 0x00, 0x00, 0x00, 0xac, 0x00, 0x00, 0x00, 0xa4, 0x00, 0x00, 0x00,
  0x9c, 0x00, 0x00, 0x00, 0x94, 0x00, 0x00, 0x00, 0x74, 0x00, 0x00, 0x00,
  0x04, 0x00, 0x00, 0x00, 0xe6, 0xe6, 0xff, 0xff, 0x04, 0x00, 0x00, 0x00,
  0x60, 0x00, 0x00, 0x00, 0x10, 0x00, 0x00, 0x00, 0x00, 0x00, 0x00, 0x00,
  0x08, 0x00, 0x0e, 0x00, 0x08, 0x00, 0x04, 0x00, 0x08, 0x00, 0x00, 0x00,
  0x10, 0x00, 0x00, 0x00, 0x24, 0x00, 0x00, 0x00, 0x00, 0x00, 0x06, 0x00,
  0x08, 0x00, 0x04, 0x00, 0x06, 0x00, 0x00, 0x00, 0x04, 0x00, 0x00, 0x00,
  0x00, 0x00, 0x00, 0x00, 0x0c, 0x00, 0x18, 0x00, 0x14, 0x00, 0x10, 0x00,
  0x0c, 0x00, 0x04, 0x00, 0x0c, 0x00, 0x00, 0x00, 0x81, 0x13, 0xf7, 0xa3,
  0x48, 0x69, 0x7f, 0x5b, 0x02, 0x00, 0x00, 0x00, 0x02, 0x00, 0x00, 0x00,
  0x04, 0x00, 0x00, 0x00, 0x06, 0x00, 0x00, 0x00, 0x32, 0x2e, 0x31, 0x37,
  0x2e, 0x30, 0x00, 0x00, 0x52, 0xe7, 0xff, 0xff, 0x04, 0x00, 0x00, 0x00,
  0x10, 0x00, 0x00, 0x00, 0x31, 0x2e, 0x31, 0x34, 0x2e, 0x30, 0x00, 0x00,
  0x00, 0x00, 0x00, 0x00, 0x00, 0x00, 0x00, 0x00, 0xac, 0xe1, 0xff, 0xff,
  0xb0, 0xe1, 0xff, 0xff, 0xb4, 0xe1, 0xff, 0xff, 0xb8, 0xe1, 0xff, 0xff,
  0x7e, 0xe7, 0xff, 0xff, 0x04, 0x00, 0x00, 0x00, 0x80, 0x0f, 0x00, 0x00,
  0xdc, 0x79, 0x90, 0x3e, 0x95, 0x2e, 0xb7, 0xbe, 0xf3, 0xad, 0x79, 0x3f,
  0x65, 0x4e, 0xce, 0x3c, 0xa7, 0x56, 0x8c, 0xbe, 0xa1, 0x9f, 0xae, 0x3f,
  0xb6, 0x8e, 0xa5, 0x3f, 0x34, 0x33, 0x45, 0xbc, 0x94, 0x3f, 0xde, 0x3c,
  0x89, 0x70, 0xad, 0x3f, 0x88, 0x9f, 0x2d, 0xbd, 0x9a, 0x2a, 0x0d, 0x40,
  0x00, 0x1b, 0x17, 0xc0, 0x45, 0x43, 0xe1, 0xbe, 0x44, 0x4d, 0x57, 0x3e,
  0x77, 0x34, 0x4e, 0x3f, 0xb7, 0x50, 0x76, 0xbe, 0xab, 0x28, 0xaf, 0x3e,
  0x2e, 0x87, 0x7a, 0xbe, 0x80, 0xfe, 0x3c, 0x3e, 0x9b, 0xcd, 0x23, 0x3e,
  0x5e, 0x48, 0x51, 0xbf, 0x20, 0x94, 0xeb, 0x3c, 0xe7, 0xd6, 0x39, 0x3d,
  0x35, 0x01, 0x85, 0xbe, 0x0b, 0xb0, 0x09, 0x3e, 0x13, 0x0e, 0x74, 0x3d,
  0x42, 0xe8, 0x8f, 0xbe, 0xce, 0x7f, 0x50, 0x3d, 0x26, 0x86, 0xdc, 0xbe,
  0x9e, 0x4c, 0x69, 0x3d, 0x4e, 0x93, 0x33, 0xbd, 0x71, 0x65, 0x21, 0x3e,
  0xad, 0xa0, 0x45, 0x40, 0x2a, 0xdf, 0x8b, 0x3f, 0x9d, 0x59, 0x7a, 0x3e,
  0x14, 0x2a, 0x10, 0x40, 0x62, 0xc1, 0xdd, 0xbe, 0xfe, 0x6a, 0x91, 0xbe,
  0xd0, 0x4e, 0x1f, 0x40, 0x9d, 0x1f, 0xe1, 0x3f, 0x61, 0x8c, 0x0d, 0x3e,
  0xbe, 0x85, 0x2b, 0x40, 0x2c, 0xea, 0x08, 0x3f, 0x91, 0xd5, 0x9f, 0x3d,
  0x8b, 0x8d, 0xb8, 0x40, 0x86, 0x6b, 0x0d, 0x40, 0xdc, 0xa4, 0x8b, 0x3e,
  0xe0, 0xfc, 0x75, 0x3d, 0x7b, 0x03, 0x93, 0x3e, 0x7c, 0xee, 0xdd, 0xbe,
  0x77, 0xec, 0x87, 0x3b, 0xdd, 0xef, 0x96, 0xbd, 0xb9, 0x11, 0x89, 0x3e,
  0x75, 0xe1, 0x16, 0xbf, 0x24, 0xce, 0x72, 0x3d, 0x5e, 0x65, 0xc4, 0xbd,
  0xde, 0x3a, 0xc8, 0x3d, 0x28, 0x29, 0x92, 0xbe, 0x68, 0x1c, 0x5f, 0xbe,
  0x15, 0xda, 0x7c, 0xbe, 0xe1, 0xa7, 0xe8, 0xbe, 0x7f, 0x8a, 0xa1, 0x3e,
  0x9f, 0xa6, 0xa1, 0x3d, 0x78, 0x17, 0xe7, 0x40, 0x3c, 0xad, 0x49, 0x3c,
  0x97, 0x19, 0xa0, 0x3e, 0xbe, 0x0b, 0x6e, 0x40, 0x8f, 0x8b, 0x6e, 0xbe,
  0x28, 0xfa, 0x0c, 0x3e, 0xc0, 0x6f, 0x1f, 0x40, 0xc4, 0xed, 0xe1, 0x3e,
  0x47, 0xae, 0x14, 0xbe, 0xe0, 0x05, 0x09, 0xbf, 0xf7, 0x7e, 0xa8, 0x3f,
  0x6f, 0xe5, 0x3f, 0xbe, 0x57, 0x68, 0x5a, 0xbf, 0x6f, 0x94, 0x11, 0x3f,
  0xf3, 0xed, 0x87, 0xbd, 0x7b, 0xcb, 0x0b, 0x3c, 0x73, 0x62, 0xc2, 0x3d,
  0xe2, 0x5f, 0x2e, 0x3e, 0xba, 0x15, 0xb9, 0xbd, 0xc3, 0x8d, 0xb8, 0x3d,
  0xf9, 0xfe, 0x0e, 0x3e, 0x1a, 0xa9, 0xbb, 0xbc, 0x4b, 0x67, 0x68, 0x3e,
  0x84, 0xd9, 0xcc, 0x3e, 0x39, 0xf5, 0xe4, 0xbd, 0xeb, 0x6e, 0x76, 0xbc,
  0xc1, 0x0b, 0xa6, 0x3e, 0xa1, 0x53, 0x8c, 0xbd, 0xbe, 0x3c, 0xd2, 0xbe,
  0xf9, 0x69, 0x7c, 0xbe, 0x16, 0xd3, 0x90, 0x3e, 0xb4, 0x3d, 0x3c, 0x40,
  0x16, 0x3b, 0x8a, 0xbf, 0xf9, 0x1c, 0xbe, 0xbe, 0x33, 0xdc, 0xac, 0xbe,
  0x4f, 0xc0, 0x85, 0xbd, 0x4b, 0xbd, 0x28, 0x3e, 0x47, 0x53, 0xb5, 0x3f,
  0x4f, 0x5f, 0x3c, 0xbd, 0x41, 0xcf, 0x09, 0x3e, 0xd7, 0x63, 0x6e, 0xc0,
  0x1d, 0x46, 0x9d, 0x3d, 0x4e, 0x49, 0xf8, 0x3d, 0xdb, 0x4d, 0xd8, 0x3d,
  0x8a, 0xf7, 0x45, 0x3e, 0xd8, 0x11, 0xa7, 0x3d, 0xb3, 0xe9, 0x12, 0xbe,
  0xed, 0x08, 0x55, 0xbe, 0x19, 0x17, 0x10, 0xbe, 0xee, 0x54, 0x9c, 0x3b,
  0x07, 0x2c, 0xa4, 0xbd, 0x66, 0x91, 0x74, 0x3d, 0xfa, 0x20, 0xf6, 0xbd,
  0xde, 0xd0, 0x28, 0x3d, 0x26, 0x81, 0x83, 0xbe, 0x21, 0x5b, 0x20, 0xbe,
  0xc2, 0x5a, 0xd3, 0xbd, 0x7b, 0x9d, 0x2b, 0xbd, 0x22, 0x11, 0x34, 0x3e,
  0x9b, 0xd2, 0x93, 0x3e, 0x65, 0xdc, 0x75, 0xbe, 0x2a, 0xad, 0x77, 0x3e,
  0xc7, 0xe2, 0xfb, 0xc0, 0x75, 0x87, 0x93, 0x3f, 0x0f, 0x2b, 0x23, 0xbe,
  0xd6, 0x23, 0xba, 0x3f, 0x6f, 0x65, 0x82, 0xbf, 0xcb, 0x77, 0x73, 0x3d,
  0x2c, 0x02, 0x8c, 0xbf, 0xe6, 0x61, 0xe1, 0x3f, 0x8b, 0xed, 0x6c, 0x3e,
  0xc2, 0xc3, 0x36, 0xc0, 0x47, 0x81, 0x45, 0x40, 0xc6, 0x66, 0x4f, 0x3c,
  0xa5, 0x43, 0xe7, 0xbf, 0x75, 0xb9, 0x2d, 0x40, 0xb0, 0x3e, 0x25, 0x3e,
  0x90, 0xac, 0x55, 0x3e, 0x63, 0x03, 0xf1, 0xbd, 0xd3, 0xb8, 0x4d, 0xbc,
  0x6f, 0x29, 0xa8, 0x3e, 0xba, 0x31, 0xd5, 0xbd, 0xfd, 0x7a, 0x39, 0x3e,
  0xcd, 0x0c, 0x2f, 0xbe, 0x68, 0x4f, 0x1e, 0xbe, 0x77, 0xc6, 0xe5, 0xbe,
  0x38, 0x7d, 0x2d, 0xbf, 0x67, 0x23, 0xf2, 0xbc, 0xb6, 0x70, 0xfa, 0xbe,
  0xa6, 0xd0, 0xdd, 0xbe, 0x77, 0xac, 0x54, 0x3d, 0x22, 0x14, 0xcb, 0x3d,
  0x19, 0xc8, 0x5c, 0x3e, 0x5c, 0x75, 0x17, 0x41, 0x5e, 0x50, 0x0b, 0xbf,
  0x95, 0xd1, 0xff, 0xbd, 0x94, 0xae, 0x60, 0x3f, 0x90, 0xaa, 0x83, 0x3f,
  0x46, 0x8f, 0xdd, 0x3c, 0x88, 0x5f, 0x6f, 0x40, 0x3f, 0x36, 0xfb, 0x3e,
  0x8a, 0xbf, 0x47, 0xbe, 0x39, 0xc5, 0x97, 0x3f, 0x05, 0x87, 0x6f, 0x3d,
  0x0c, 0x11, 0x01, 0x3e, 0x83, 0x07, 0x3d, 0x40, 0x46, 0x14, 0x24, 0x3f,
  0xa8, 0x93, 0x2b, 0xbe, 0x1a, 0x23, 0x91, 0xbd, 0x31, 0x2f, 0x65, 0x3e,
  0x5d, 0x22, 0x6b, 0x3e, 0x49, 0x27, 0xc1, 0x3e, 0x9e, 0xaf, 0x53, 0xbd,
  0xbc, 0xa3, 0xbd, 0x3e, 0xde, 0x40, 0x41, 0xbd, 0x1c, 0x78, 0x0c, 0xbd,
  0x0f, 0xf8, 0x88, 0x3e, 0xc2, 0x10, 0x0c, 0xbf, 0xcf, 0x5b, 0x6b, 0x3e,
  0x2a, 0xa3, 0x04, 0x3d, 0xf2, 0xba, 0xfe, 0x3d, 0x7b, 0x3b, 0xf4, 0x3d,
  0xe2, 0x11, 0x36, 0xbc, 0x42, 0x97, 0x16, 0x3e, 0x68, 0x77, 0x53, 0x40,
  0xab, 0x99, 0xf3, 0x3f, 0x8d, 0xf1, 0x37, 0xbe, 0xdd, 0x40, 0x0f, 0xc0,
  0xa8, 0xdf, 0x7c, 0x40, 0x65, 0x6a, 0xdf, 0xbc, 0xc4, 0xc2, 0x79, 0x3f,
  0x73, 0xe7, 0x05, 0x40, 0xc1, 0xac, 0x82, 0x3c, 0x89, 0xc3, 0xae, 0x40,
  0x62, 0x5d, 0xe4, 0x3f, 0x3c, 0xcd, 0xff, 0x3d, 0x2f, 0xd9, 0x49, 0xbf,
  0x41, 0xe0, 0xd5, 0xbf, 0x9c, 0x30, 0xa6, 0x3e, 0xa1, 0x5b, 0xb8, 0xbe,
  0x87, 0x30, 0x9a, 0x3e, 0x6b, 0x61, 0x78, 0xbe, 0x36, 0x23, 0xcb, 0x3d,
  0x3b, 0xb6, 0x37, 0x3d, 0x47, 0x32, 0x2a, 0xbe, 0x15, 0xb6, 0xaa, 0x3e,
  0xd2, 0x25, 0x47, 0xbe, 0x2e, 0x18, 0x93, 0xbd, 0xb0, 0x0e, 0x18, 0xbf,
  0xe5, 0xd6, 0xc5, 0xbe, 0xed, 0x7e, 0x9e, 0xbd, 0x70, 0x39, 0x0d, 0x3e,
  0x46, 0x3b, 0xf7, 0xbc, 0xd2, 0x60, 0x09, 0x3e, 0x69, 0x0c, 0xb5, 0x3c,
  0x9d, 0x61, 0x44, 0x40, 0xd1, 0xfd, 0x86, 0xbf, 0xe1, 0x77, 0x68, 0xbe,
  0x10, 0x71, 0x2c, 0xbf, 0xd6, 0x37, 0x32, 0xbf, 0x6e, 0x3f, 0x70, 0x3e,
  0x3e, 0x74, 0x85, 0x3f, 0xb4, 0x94, 0xb4, 0xbf, 0xff, 0xb8, 0x13, 0x3e,
  0x09, 0x1f, 0x1a, 0xc0, 0x4c, 0x4f, 0x01, 0xbd, 0xe0, 0x1d, 0xc5, 0xbc,
  0x7d, 0xd2, 0xd7, 0xbf, 0x01, 0x7c, 0x75, 0xbf, 0xe3, 0xbb, 0x00, 0x3e,
  0xe8, 0x33, 0x92, 0x3e, 0x53, 0xb7, 0xdd, 0xbd, 0x5c, 0xa8, 0x39, 0x3d,
  0x5b, 0x25, 0xdc, 0xbd, 0x8b, 0xc9, 0xbb, 0x3e, 0xd6, 0x85, 0xcc, 0x3e,
  0x4e, 0x66, 0x06, 0x3e, 0xaa, 0xbd, 0x37, 0xbe, 0x50, 0x46, 0x1a, 0xbe,
  0xd8, 0x42, 0xea, 0x3d, 0x9a, 0x5b, 0x55, 0x3e, 0xb7, 0x1a, 0x88, 0x3d,
  0x1a, 0x39, 0xc2, 0x3e, 0xf9, 0x0b, 0x3e, 0xbe, 0xdf, 0x05, 0xd1, 0x3e,
  0x37, 0x49, 0x3b, 0x3e, 0x53, 0x62, 0xb2, 0xc0, 0x0b, 0xc2, 0xad, 0xbe,
  0x40, 0xa2, 0x87, 0xbd, 0xb9, 0x02, 0x2e, 0xc0, 0x03, 0x7c, 0x05, 0x3f,
  0x08, 0xc7, 0xb9, 0x3d, 0xe4, 0xd3, 0x32, 0xc0, 0x9d, 0x71, 0x9e, 0xbf,
  0x35, 0x31, 0x8f, 0x3e, 0x50, 0x96, 0x0f, 0x40, 0xa1, 0x6c, 0xbc, 0xbf,
  0xce, 0x97, 0x10, 0x3e, 0xcb, 0x4c, 0x75, 0x3f, 0xd3, 0x41, 0xf1, 0xbf,
  0x3b, 0x3e, 0x83, 0x3e, 0xd8, 0xc6, 0x0b, 0xbd, 0x20, 0x03, 0x98, 0x3d,
  0xea, 0x8f, 0x18, 0xbd, 0x80, 0xe2, 0x68, 0x3e, 0xd3, 0xc0, 0x0f, 0xbe,
  0x8f, 0x21, 0x09, 0xbe, 0xde, 0x6e, 0x87, 0x3d, 0xfe, 0x69, 0x95, 0xbe,
  0x75, 0x4f, 0x25, 0xbe, 0x26, 0xc9, 0x75, 0xbd, 0xda, 0xd2, 0x98, 0x3d,
  0xde, 0x7d, 0xb9, 0xbd, 0x51, 0x1e, 0x51, 0x3d, 0x9d, 0x1b, 0xc3, 0x3e,
  0xec, 0xf3, 0xfd, 0x3d, 0x3d, 0x22, 0xfb, 0xbd, 0xc0, 0xfe, 0x8d, 0xc0,
  0xe2, 0x0b, 0xd6, 0x3e, 0x8b, 0x8b, 0x89, 0x3c, 0x72, 0x86, 0x59, 0xbf,
  0x78, 0x3a, 0xc0, 0xbe, 0xde, 0x00, 0xbe, 0xbe, 0xb2, 0xec, 0xf8, 0xbe,
  0x58, 0xf1, 0xda, 0x3e, 0xe5, 0x65, 0x9b, 0xbd, 0x87, 0x0f, 0xb3, 0x3f,
  0x22, 0x13, 0xb5, 0xbe, 0x62, 0x45, 0x90, 0x3d, 0xe9, 0xfd, 0xfb, 0x3f,
  0x31, 0xf6, 0x2c, 0x3f, 0x8b, 0x8a, 0x86, 0x3c, 0x0b, 0x89, 0x5f, 0x3e,
  0xe1, 0x9c, 0x32, 0x3e, 0x78, 0x4a, 0xe6, 0xbd, 0x13, 0xb3, 0x46, 0x3e,
  0xfb, 0xec, 0x21, 0x3e, 0x88, 0xd3, 0x75, 0x3e, 0x10, 0xb4, 0x04, 0x3e,
  0xff, 0xa7, 0x52, 0x3e, 0x0e, 0xe4, 0xdc, 0x3d, 0x34, 0x00, 0x0a, 0x3f,
  0xb4, 0x6b, 0x41, 0xbe, 0x74, 0x77, 0xcb, 0x3e, 0xa1, 0xdc, 0xe1, 0xbc,
  0x44, 0xe8, 0xb0, 0x3d, 0x04, 0xc3, 0x7d, 0x3c, 0x54, 0x0e, 0xf6, 0x3d,
  0x9c, 0x58, 0x3e, 0x40, 0xf3, 0x7c, 0xa5, 0xbf, 0x2c, 0x21, 0x02, 0x3d,
  0x27, 0x82, 0xea, 0xbf, 0x8f, 0xc9, 0x4e, 0xbf, 0xe5, 0x01, 0x40, 0x3d,
  0xea, 0xa4, 0xf9, 0x3f, 0x58, 0x77, 0x02, 0xbd, 0x12, 0xff, 0x03, 0xbe,
  0x70, 0xd6, 0x10, 0x40, 0x71, 0x69, 0xcb, 0x3e, 0x28, 0xdf, 0x25, 0xbe,
  0x87, 0x6b, 0x33, 0x40, 0x5d, 0x49, 0x37, 0x3e, 0x93, 0x6c, 0xaf, 0x3d,
  0xb4, 0x2c, 0x12, 0x3e, 0xc5, 0xd3, 0x51, 0xbc, 0x6e, 0x2a, 0x97, 0xbe,
  0xba, 0x1a, 0x5a, 0xbe, 0xe6, 0xe6, 0x0b, 0x3d, 0x8a, 0xb7, 0x27, 0xbe,
  0x0c, 0x50, 0x3f, 0xbe, 0x48, 0xef, 0xa9, 0xbe, 0x0f, 0xaa, 0xff, 0x3d,
  0x6c, 0x44, 0x3e, 0x3e, 0xd2, 0x86, 0x95, 0x3e, 0x10, 0x51, 0xdc, 0x3e,
  0xd0, 0xef, 0xb6, 0x3e, 0x8f, 0x5e, 0xa3, 0x3e, 0xd4, 0x66, 0xa4, 0xbd,
  0xd4, 0x93, 0x80, 0xbe, 0x19, 0x7b, 0xf2, 0x40, 0xe5, 0x8c, 0x62, 0xbf,
  0x04, 0x7e, 0x3e, 0x3e, 0x40, 0x79, 0xfd, 0x3f, 0x51, 0x14, 0x9c, 0xbf,
  0x46, 0x1c, 0x5a, 0xbe, 0xaf, 0x65, 0x96, 0x3f, 0x8d, 0xe7, 0xb7, 0xbf,
  0x39, 0x2d, 0x88, 0x3e, 0x75, 0x56, 0xdf, 0x3f, 0xa8, 0x7a, 0x6c, 0xbf,
  0x41, 0x65, 0xb2, 0x3e, 0x23, 0xfb, 0xed, 0x3f, 0x3c, 0xd1, 0x80, 0x3e,
  0x8b, 0xa8, 0xac, 0x3e, 0x9b, 0x53, 0x82, 0xbe, 0x3e, 0x7e, 0x87, 0xbe,
  0xf8, 0x93, 0x70, 0x3e, 0x56, 0xac, 0x8f, 0x3e, 0x5f, 0x14, 0xd3, 0x3d,
  0xa4, 0x84, 0x36, 0xbe, 0x06, 0xd5, 0xe7, 0x3d, 0xd6, 0x83, 0x85, 0xbe,
  0x83, 0x17, 0xf3, 0xbd, 0x0d, 0x64, 0x23, 0x3e, 0x46, 0x8a, 0xc3, 0x3e,
  0x8f, 0x8e, 0xf3, 0x3c, 0xb6, 0xbd, 0xed, 0xbc, 0x10, 0xdd, 0x89, 0xbd,
  0x66, 0x76, 0x09, 0x3d, 0x9c, 0x3d, 0xda, 0x3e, 0x97, 0x94, 0x9d, 0x40,
  0x71, 0x6d, 0xe9, 0xbf, 0x07, 0x4f, 0x19, 0x3e, 0x0e, 0xa2, 0x9c, 0x3f,
  0x79, 0x4c, 0x63, 0xbf, 0x1b, 0x8a, 0x3b, 0xbd, 0xe9, 0xea, 0xf6, 0x3f,
  0x41, 0xd6, 0x09, 0xc0, 0x0a, 0x53, 0xfb, 0xbd, 0xbd, 0xaa, 0x53, 0xbf,
  0xad, 0x28, 0x9b, 0xbc, 0x20, 0x64, 0x36, 0xbe, 0xd0, 0x14, 0x49, 0x40,
  0xfc, 0xb9, 0xc1, 0x3d, 0x89, 0x57, 0xdc, 0x3d, 0x7f, 0xdf, 0x72, 0x3e,
  0x70, 0x74, 0x2d, 0x3e, 0xb6, 0x98, 0x1a, 0xbd, 0x0a, 0x97, 0x28, 0x3c,
  0x38, 0x08, 0x00, 0x3e, 0x3a, 0xfb, 0x41, 0x3d, 0xf3, 0xda, 0xdc, 0xbe,
  0x28, 0xc3, 0xfe, 0x3b, 0x91, 0xba, 0xaa, 0x3d, 0xaa, 0xb8, 0x04, 0xbf,
  0x9e, 0x94, 0x06, 0x3e, 0xb4, 0xdd, 0xe7, 0x3b, 0xbf, 0xc1, 0xd2, 0xbd,
  0x1f, 0x24, 0x08, 0x3c, 0x58, 0x13, 0x3d, 0x3e, 0xda, 0xef, 0x57, 0xbe,
  0x6c, 0x44, 0x85, 0xc0, 0x0f, 0x10, 0x2f, 0xc0, 0xd7, 0x1b, 0xf5, 0x3d,
  0x66, 0x44, 0xd8, 0x3f, 0xf6, 0xf9, 0x1b, 0xc0, 0x13, 0x2d, 0x96, 0xbd,
  0xa8, 0x6e, 0xfc, 0xbf, 0x89, 0x8e, 0xb5, 0xbf, 0x20, 0x5c, 0x01, 0x3d,
  0x74, 0x31, 0x89, 0xbf, 0x38, 0x36, 0xbc, 0xbd, 0x54, 0x1d, 0xd1, 0xbc,
  0x35, 0xbd, 0x9e, 0xc0, 0xac, 0x92, 0x75, 0xbf, 0x9e, 0x01, 0xef, 0x3e,
  0xc2, 0x29, 0x6e, 0x3d, 0x23, 0x19, 0x0c, 0x3e, 0x46, 0x3d, 0x1f, 0xbe,
  0x1a, 0xad, 0xa6, 0x3e, 0x77, 0x72, 0x83, 0x3d, 0x32, 0xb6, 0x82, 0x3b,
  0x29, 0x04, 0x98, 0xbe, 0xa7, 0x12, 0x49, 0x3e, 0x15, 0x96, 0x8e, 0xbd,
  0xc7, 0xfb, 0xb3, 0xbe, 0x8c, 0x2e, 0xd7, 0xbd, 0xcc, 0x51, 0x4e, 0x3c,
  0x6f, 0xab, 0x1e, 0xbe, 0x4d, 0xfe, 0xc5, 0xbe, 0x52, 0x5d, 0x8c, 0xbd,
  0x15, 0xb5, 0x75, 0x3e, 0xa8, 0x76, 0x53, 0x40, 0xe0, 0x4f, 0x94, 0x3e,
  0xec, 0xe2, 0xf7, 0x3d, 0xa0, 0xa6, 0x03, 0x40, 0x64, 0x0b, 0x79, 0x3d,
  0xab, 0xd6, 0xbb, 0x3d, 0x46, 0xd8, 0x00, 0x40, 0x11, 0xa0, 0x53, 0x3f,
  0x69, 0x6d, 0xdf, 0xbd, 0x89, 0x90, 0xed, 0xbf, 0x80, 0xb2, 0x1a, 0x3f,
  0x29, 0x14, 0x4e, 0xbe, 0x06, 0x21, 0xa9, 0xbf, 0x2b, 0xd2, 0xb2, 0x3f,
  0x2a, 0x01, 0x65, 0x3e, 0x07, 0x5e, 0xe2, 0xbe, 0x99, 0xee, 0x44, 0xbe,
  0xbe, 0xdc, 0xa1, 0x3e, 0x8d, 0x96, 0xa2, 0xbe, 0x77, 0xa0, 0xc6, 0xbd,
  0x6c, 0x98, 0x50, 0xbd, 0x53, 0x93, 0xad, 0x3e, 0x62, 0xc3, 0xca, 0xbb,
  0xcd, 0x3f, 0x39, 0x3e, 0x0f, 0x29, 0x52, 0xbd, 0x0e, 0x3d, 0x1c, 0x3f,
  0x59, 0x74, 0x2e, 0xbd, 0xb4, 0x69, 0x88, 0x3d, 0x54, 0x55, 0x59, 0x3c,
  0xed, 0x36, 0x6c, 0x3e, 0x64, 0x36, 0x1f, 0x3f, 0x51, 0x45, 0x41, 0x40,
  0x26, 0x01, 0x21, 0x3f, 0x99, 0xbf, 0x23, 0x3e, 0xf5, 0xa3, 0xb6, 0xbf,
  0xb4, 0xc1, 0x15, 0x40, 0x5e, 0xd6, 0x74, 0x3e, 0xdf, 0xd6, 0xd2, 0x3f,
  0xe1, 0xb2, 0x96, 0x3f, 0x17, 0xe2, 0xfe, 0x3b, 0xa9, 0x46, 0x54, 0x40,
  0x80, 0x52, 0x94, 0x3d, 0xab, 0x4d, 0xe7, 0xbb, 0xa1, 0x63, 0x1e, 0x3f,
  0x0e, 0x11, 0x0a, 0x3f, 0x98, 0x52, 0xde, 0x3d, 0xfd, 0xfc, 0x42, 0xbc,
  0x80, 0x3a, 0xe6, 0x3e, 0x85, 0xdb, 0x21, 0xbe, 0x18, 0x74, 0xfc, 0xbd,
  0xe7, 0xf3, 0xca, 0xbe, 0x48, 0x38, 0xf5, 0xbd, 0xe6, 0xa4, 0xba, 0xbd,
  0xbc, 0x8d, 0x1a, 0xbc, 0x71, 0xe2, 0x9a, 0xbd, 0x85, 0xdc, 0x5b, 0x3e,
  0x7a, 0xf7, 0x0b, 0xbe, 0xcc, 0xfd, 0xd1, 0xbe, 0xe3, 0x1e, 0xbb, 0xbe,
  0x85, 0xa1, 0xd9, 0xbc, 0x52, 0x08, 0x85, 0xbd, 0x8f, 0x7e, 0xb3, 0x3e,
  0xed, 0x37, 0x09, 0xc1, 0xd0, 0xd4, 0x9d, 0xbe, 0xe6, 0xb3, 0x9a, 0x3e,
  0x23, 0x8d, 0x73, 0xbf, 0xd0, 0x17, 0x98, 0xbf, 0x6f, 0x26, 0x89, 0x3e,
  0x23, 0x92, 0x36, 0xc0, 0x66, 0x10, 0x77, 0x3f, 0xa1, 0x12, 0xa7, 0xbd,
  0xcb, 0x9c, 0x69, 0xbf, 0x25, 0x9a, 0x26, 0x3f, 0x17, 0xe3, 0x2f, 0x3e,
  0xce, 0x6a, 0xa7, 0xbe, 0x8a, 0x31, 0x04, 0xc0, 0x66, 0xb5, 0x9e, 0xbe,
  0x32, 0xd1, 0x57, 0xbf, 0x34, 0x72, 0x2e, 0x3e, 0x9c, 0xbc, 0x51, 0xbd,
  0x71, 0xf9, 0x29, 0xbe, 0x3a, 0x8b, 0x86, 0xbd, 0x72, 0xd4, 0x49, 0x3d,
  0xca, 0x2a, 0x41, 0x3e, 0x66, 0x42, 0xcd, 0xbd, 0x17, 0x77, 0xac, 0x3e,
  0x5f, 0x93, 0x05, 0x3e, 0x82, 0xf1, 0xcb, 0xbe, 0xcf, 0xbf, 0xa2, 0x3e,
  0xdd, 0xe2, 0xe9, 0x3e, 0x16, 0x13, 0x21, 0xbf, 0x1f, 0x97, 0x15, 0xbe,
  0xd6, 0x5a, 0xdb, 0x39, 0xfe, 0xf7, 0x2b, 0x3f, 0x19, 0x9b, 0x87, 0x3f,
  0xe0, 0xb8, 0x45, 0xbc, 0x49, 0xc2, 0xe9, 0xbd, 0xd0, 0x83, 0xcf, 0xbe,
  0x5f, 0x68, 0x90, 0xbe, 0xc4, 0xe5, 0xc0, 0x3f, 0xa7, 0x9f, 0x8b, 0x3f,
  0x77, 0x09, 0x03, 0x3e, 0xe4, 0x68, 0x5d, 0x3f, 0xf9, 0x39, 0xf0, 0x3f,
  0x2b, 0x20, 0x76, 0x3e, 0xfb, 0x4e, 0x7c, 0x3e, 0xc8, 0x24, 0x07, 0x3f,
  0x9a, 0x3f, 0x95, 0x3e, 0xa6, 0xd6, 0x17, 0x3f, 0xc4, 0xaa, 0x6e, 0xbd,
  0xf6, 0x76, 0x3a, 0x3e, 0x7f, 0x8d, 0xa2, 0xbe, 0xfb, 0xc0, 0x86, 0xbf,
  0xb3, 0x6f, 0xfa, 0x3d, 0x1f, 0x55, 0x43, 0x3e, 0xa1, 0x92, 0x47, 0x3e,
  0x35, 0x5f, 0xb4, 0xbe, 0x51, 0xe8, 0xe1, 0xbe, 0xde, 0x23, 0xed, 0xbe,
  0xb6, 0x77, 0x88, 0xbe, 0xa5, 0x27, 0xa0, 0xbd, 0x04, 0x92, 0x31, 0x3e,
  0xe3, 0xcd, 0x15, 0x3e, 0x8a, 0x24, 0x4d, 0xbe, 0x7b, 0xa3, 0x85, 0x40,
  0x4e, 0xf5, 0x36, 0xbf, 0x60, 0xf6, 0x63, 0xbd, 0xee, 0xff, 0x88, 0x3f,
  0x58, 0xc8, 0x1d, 0xbf, 0x2b, 0xfc, 0x76, 0xbd, 0xf3, 0xc0, 0x2d, 0x3f,
  0x34, 0xc2, 0xf7, 0xbe, 0x5b, 0x5e, 0x81, 0x3e, 0xde, 0x02, 0x4f, 0xbe,
  0x41, 0x1f, 0xa3, 0xbc, 0x7b, 0x0a, 0x98, 0x3d, 0x4c, 0xdb, 0x5e, 0x40,
  0xe4, 0xc5, 0xc9, 0x3c, 0xd1, 0xd9, 0x3c, 0xbf, 0x7e, 0x19, 0x80, 0x3e,
  0x76, 0x05, 0x58, 0x3e, 0xe2, 0xfd, 0x84, 0x3e, 0xb0, 0x0c, 0xcf, 0x3d,
  0x28, 0xe5, 0x66, 0x3c, 0xd4, 0xd1, 0xad, 0xbc, 0x66, 0x97, 0xa4, 0x3c,
  0xfd, 0xe6, 0x5b, 0xbe, 0x65, 0x9e, 0x74, 0xbe, 0xa8, 0x5e, 0x39, 0x3d,
  0x76, 0x5b, 0xae, 0xbd, 0x49, 0xe4, 0x00, 0x3c, 0x91, 0xab, 0x53, 0x3e,
  0x7e, 0x4e, 0x84, 0x3e, 0xbb, 0xdd, 0x42, 0xbe, 0x92, 0xef, 0x9d, 0x3e,
  0xd1, 0x78, 0x49, 0xc0, 0x4a, 0xd2, 0x0b, 0xbe, 0x51, 0x32, 0x5a, 0xbe,
  0x45, 0xc4, 0x0d, 0x40, 0x95, 0xa7, 0xb6, 0x3e, 0x60, 0x46, 0xb5, 0x3c,
  0x72, 0xe2, 0x03, 0x40, 0x68, 0x7a, 0xdc, 0x3f, 0x84, 0x9c, 0x30, 0xbe,
  0x21, 0x2f, 0x95, 0xc0, 0x38, 0x4e, 0x58, 0x3f, 0xa7, 0xd3, 0x97, 0xbe,
  0x7f, 0xfc, 0x9b, 0x3e, 0xe7, 0x3a, 0x97, 0x3f, 0xb5, 0x3e, 0xd4, 0x3d,
  0x19, 0xe9, 0xb3, 0xbe, 0x0b, 0x59, 0x1e, 0x3e, 0x14, 0x6a, 0xb3, 0xbd,
  0x50, 0x3f, 0x58, 0x3e, 0xcf, 0xfa, 0x0b, 0xbf, 0x23, 0x71, 0x2d, 0xbe,
  0x06, 0x8a, 0x94, 0x3d, 0xd8, 0xed, 0xc1, 0xbd, 0xd1, 0xbd, 0x09, 0x3d,
  0x7a, 0xba, 0x59, 0xbe, 0x32, 0x11, 0x9d, 0x3e, 0xd1, 0x3e, 0x9a, 0xbe,
  0x4f, 0xbf, 0x16, 0xbf, 0x63, 0xd7, 0x16, 0xbe, 0x85, 0x31, 0x06, 0x3d,
  0x5b, 0x70, 0x13, 0xbe, 0x5e, 0x00, 0xa1, 0xc0, 0x45, 0x72, 0xc1, 0xbf,
  0xe2, 0xc5, 0x90, 0xbd, 0x8d, 0x33, 0x14, 0x3f, 0x16, 0x37, 0x8b, 0xbf,
  0xa2, 0x27, 0x4f, 0x3e, 0xdf, 0x4a, 0x81, 0xc0, 0xdb, 0x7b, 0xe4, 0xbe,
  0xaa, 0xd4, 0x16, 0xbe, 0xf1, 0xb8, 0x98, 0xc0, 0x79, 0xcb, 0xb7, 0xbf,
  0x32, 0x56, 0xcc, 0x3d, 0x7a, 0xf6, 0x63, 0xc0, 0xf0, 0xa2, 0x7d, 0x3e,
  0x94, 0xe7, 0x72, 0xbc, 0xb7, 0xdd, 0x18, 0xbd, 0x78, 0x8a, 0x63, 0xbd,
  0x1d, 0xde, 0xef, 0xbd, 0x3b, 0x78, 0x91, 0xbc, 0x7a, 0xb5, 0x8d, 0xbc,
  0x36, 0x6e, 0xa2, 0x3d, 0x22, 0x22, 0xb2, 0x3d, 0xac, 0x07, 0xe8, 0xbd,
  0xd4, 0xbe, 0xa6, 0x3e, 0x1d, 0xad, 0x2b, 0x3f, 0x3c, 0x28, 0x19, 0x3e,
  0x4a, 0xd7, 0xf7, 0xbe, 0xd7, 0xff, 0x29, 0x3e, 0x60, 0x18, 0x95, 0xbe,
  0xcf, 0x90, 0xdf, 0xbd, 0x01, 0xb7, 0x53, 0xbe, 0x6d, 0x04, 0xe2, 0xc0,
  0x46, 0x65, 0x2e, 0xbf, 0x02, 0x8b, 0xe9, 0x3d, 0x0a, 0x00, 0x8b, 0xc0,
  0x2b, 0x7f, 0x94, 0xbf, 0xf3, 0x98, 0x31, 0x3e, 0xd7, 0xd6, 0x10, 0xc0,
  0x36, 0x82, 0x9b, 0xbf, 0xf4, 0x3b, 0x65, 0x3e, 0xd8, 0xee, 0x98, 0xbf,
  0x98, 0x94, 0xa8, 0xbf, 0xa8, 0x2e, 0x5c, 0xbe, 0x83, 0x5b, 0xbf, 0xbe,
  0x52, 0xbe, 0xa2, 0xbf, 0x1c, 0x3e, 0xd8, 0xbc, 0x2d, 0xaa, 0x52, 0x3e,
  0xfc, 0xe3, 0x9f, 0x3e, 0x45, 0x4f, 0x82, 0x3e, 0x61, 0x1d, 0x7e, 0x3e,
  0x6f, 0x22, 0x2b, 0xbe, 0x0b, 0xd1, 0x49, 0x3e, 0x3c, 0xe0, 0x60, 0xbe,
  0x87, 0x57, 0xf3, 0x3b, 0x84, 0xc0, 0xf9, 0x3e, 0x93, 0x81, 0x2d, 0x3f,
  0xb4, 0xe8, 0x9b, 0x3d, 0x7c, 0x76, 0xa9, 0x3e, 0x10, 0x12, 0x18, 0x3e,
  0x15, 0xff, 0x02, 0xbc, 0x4e, 0xe7, 0x89, 0x3d, 0x92, 0xf4, 0x69, 0x3e,
  0xf4, 0x1e, 0x9b, 0x40, 0xb8, 0xaf, 0x97, 0xbf, 0xe3, 0xf2, 0x4a, 0xbe,
  0x32, 0x11, 0x4d, 0x3f, 0xf7, 0xb6, 0x8f, 0xbf, 0xed, 0x5d, 0x64, 0xbe,
  0x50, 0xb9, 0xac, 0x3f, 0xc3, 0xa4, 0x42, 0xbe, 0x24, 0x3c, 0x6f, 0x3e,
  0xec, 0xa2, 0x22, 0xbe, 0x51, 0x6e, 0x62, 0x3f, 0x80, 0xab, 0xca, 0xbd,
  0x0b, 0x34, 0xb4, 0x3f, 0x1f, 0xd4, 0x60, 0x3f, 0xb2, 0x98, 0x8b, 0x3e,
  0x45, 0x1d, 0x45, 0x3e, 0xea, 0x78, 0xab, 0x3d, 0xe8, 0x99, 0xd2, 0xbe,
  0x46, 0x30, 0x48, 0xbd, 0x6e, 0x69, 0x95, 0xbd, 0xc0, 0x06, 0x49, 0xbe,
  0x44, 0xb0, 0xee, 0x3e, 0x8d, 0x07, 0x31, 0x3e, 0x5c, 0xea, 0x86, 0x3d,
  0x94, 0x05, 0xcb, 0xbe, 0x4b, 0xe4, 0x78, 0x3d, 0xa1, 0xd6, 0x9e, 0x3d,
  0x62, 0x9b, 0xc7, 0x3e, 0x93, 0x67, 0xb2, 0x3e, 0x3f, 0x02, 0x99, 0x3e,
  0xed, 0x51, 0x3c, 0xbd, 0x18, 0xf8, 0xfd, 0xbf, 0x7b, 0x96, 0xf1, 0x3f,
  0xbd, 0x41, 0xba, 0x3d, 0x0c, 0x01, 0xf4, 0x3f, 0x7a, 0x1f, 0xde, 0xbf,
  0xa1, 0xfa, 0xc8, 0x3d, 0x86, 0xc5, 0x18, 0x40, 0x00, 0x07, 0x85, 0xbf,
  0xbd, 0x6a, 0x9b, 0x3d, 0x27, 0xb8, 0xf9, 0xc0, 0x9f, 0x0b, 0x5f, 0x40,
  0xe9, 0x8a, 0x31, 0x3e, 0xe9, 0x5e, 0x6a, 0xc0, 0x04, 0x6f, 0xc2, 0x3f,
  0x7d, 0x29, 0x10, 0x3e, 0x44, 0x02, 0x8e, 0x3d, 0xc2, 0x26, 0xac, 0xbd,
  0x61, 0x03, 0x77, 0xbe, 0x6b, 0xec, 0x85, 0x3e, 0x1b, 0xaa, 0xf3, 0xbd,
  0x16, 0xb5, 0xab, 0xbe, 0x99, 0x91, 0x07, 0xbd, 0xe2, 0x21, 0x84, 0xbe,
  0x09, 0x73, 0x97, 0xbb, 0x3e, 0xaf, 0x36, 0x3e, 0x47, 0x33, 0xfe, 0xbe,
  0xc1, 0x58, 0x29, 0x3e, 0xec, 0xd2, 0x13, 0xbe, 0x57, 0xc0, 0x95, 0x3c,
  0x74, 0x60, 0xfe, 0x3c, 0x62, 0x24, 0x85, 0x3d, 0x64, 0x5b, 0x7b, 0xc0,
  0x4a, 0x51, 0x82, 0x3f, 0xaa, 0x7d, 0xa3, 0xbe, 0x73, 0x90, 0x77, 0x40,
  0xba, 0x15, 0x46, 0x3f, 0xfe, 0x37, 0x8b, 0xbd, 0x81, 0xb8, 0xdf, 0xbf,
  0x39, 0x54, 0xee, 0x3f, 0x88, 0x1d, 0x86, 0xbe, 0xce, 0xcd, 0xb7, 0x40,
  0x28, 0xa0, 0xdb, 0x3f, 0xa3, 0xca, 0x6a, 0xbe, 0x4b, 0x1b, 0x61, 0x40,
  0x9c, 0x74, 0xc1, 0x3f, 0xe3, 0x01, 0x05, 0xbf, 0xfc, 0xdb, 0x71, 0xbb,
  0x2c, 0x1e, 0x7e, 0xbe, 0xaa, 0x2e, 0x35, 0x3f, 0xe5, 0xad, 0x96, 0x3d,
  0x10, 0x1d, 0xa1, 0xbe, 0x81, 0x06, 0xa2, 0x3d, 0x23, 0x26, 0x1a, 0x3f,
  0xc1, 0xee, 0x61, 0xbe, 0x53, 0x19, 0x61, 0xbd, 0x3f, 0xbc, 0x35, 0xbe,
  0x33, 0xb6, 0x0c, 0xbe, 0x5f, 0x1b, 0x48, 0x3d, 0xb8, 0xc9, 0x41, 0x3f,
  0x8b, 0x02, 0x27, 0xbd, 0xb7, 0xd2, 0x9e, 0xbd, 0x59, 0x0c, 0xd8, 0xbd,
  0xd4, 0x6a, 0xc7, 0x40, 0xfa, 0x9e, 0x3a, 0x3f, 0x8c, 0x58, 0x6b, 0xbd,
  0x2c, 0xc5, 0x47, 0xc0, 0xc8, 0xc8, 0xff, 0x3e, 0xdb, 0x88, 0x68, 0x3d,
  0xce, 0xd7, 0x27, 0x40, 0xea, 0x71, 0x1f, 0xbf, 0x4d, 0x74, 0x48, 0xbe,
  0x69, 0x6c, 0x02, 0x40, 0xcd, 0x10, 0x5c, 0xbf, 0x89, 0xed, 0x25, 0xbe,
  0x2f, 0xf6, 0x93, 0x3f, 0xa7, 0xaf, 0xf8, 0xbe, 0x6f, 0x3f, 0x73, 0xbe,
  0xb0, 0x09, 0x8a, 0xbd, 0xc2, 0xe4, 0x22, 0xbd, 0xe4, 0x93, 0x93, 0x3e,
  0x1f, 0xe7, 0x92, 0xbe, 0x4a, 0xa9, 0x11, 0xbf, 0x5b, 0x5e, 0x04, 0x3c,
  0x76, 0xf2, 0xd7, 0x3e, 0xa4, 0xea, 0x26, 0x3e, 0x69, 0x92, 0x83, 0xbe,
  0xf5, 0x85, 0x3f, 0xbd, 0xcc, 0x7d, 0xb9, 0x3b, 0x91, 0x64, 0xce, 0x3e,
  0xe3, 0xc3, 0x45, 0x3d, 0x7f, 0x19, 0x19, 0xbe, 0x48, 0x7c, 0x0f, 0xbd,
  0x1d, 0xdf, 0x00, 0xbe, 0x9d, 0x4a, 0x02, 0x40, 0xc1, 0x78, 0x2b, 0x3f,
  0x6f, 0x48, 0x19, 0x3d, 0x05, 0x3c, 0xdf, 0xbf, 0xdc, 0xc0, 0x29, 0xbf,
  0xa1, 0x03, 0x33, 0xbe, 0xe8, 0x30, 0xdc, 0x3f, 0x75, 0x23, 0x62, 0x3f,
  0x10, 0x96, 0x72, 0xbc, 0xd2, 0x93, 0x87, 0xbf, 0x0e, 0xf8, 0xc4, 0x3e,
  0xf9, 0xf1, 0x88, 0xbd, 0xc5, 0x82, 0x61, 0x3f, 0x86, 0xcc, 0x97, 0xbe,
  0x28, 0x23, 0x48, 0x3e, 0xde, 0x6f, 0x50, 0x3e, 0x17, 0x43, 0xee, 0x3d,
  0x99, 0x7f, 0x3d, 0x3e, 0x99, 0x2f, 0x89, 0x3e, 0x3b, 0x7d, 0xc5, 0xbd,
  0x9d, 0x00, 0x43, 0xbd, 0x65, 0xf0, 0x0a, 0xbe, 0xdd, 0x09, 0xa7, 0xbd,
  0x57, 0xd2, 0x45, 0xbd, 0xde, 0x17, 0x29, 0x3c, 0x94, 0x52, 0x0d, 0xbe,
  0xaf, 0x99, 0xd2, 0xbe, 0x1e, 0x6a, 0x92, 0x3d, 0x51, 0xc3, 0x56, 0xbe,
  0x85, 0xa2, 0x3f, 0x3c, 0x6e, 0x20, 0x5c, 0x3e, 0x2c, 0x8e, 0xb8, 0x40,
  0x37, 0x20, 0x25, 0xbf, 0xdb, 0xad, 0xcd, 0xbd, 0x82, 0x84, 0x9b, 0x3f,
  0xbe, 0x34, 0x1d, 0x3f, 0xc0, 0x9a, 0x1f, 0x3e, 0xf5, 0x47, 0xbb, 0x3f,
  0x0b, 0xba, 0xe5, 0xbe, 0xca, 0xc0, 0x5a, 0x3e, 0xba, 0x73, 0x23, 0x40,
  0x8a, 0x28, 0x98, 0xbf, 0x1e, 0xf9, 0xa6, 0xbe, 0x0d, 0xd3, 0x22, 0x3f,
  0x3a, 0xab, 0x56, 0x3f, 0xb4, 0xd1, 0x32, 0xbe, 0xa5, 0xbe, 0xf2, 0x3d,
  0xc0, 0x0d, 0xee, 0xbd, 0x2c, 0x93, 0x20, 0x3e, 0x5a, 0x2c, 0x01, 0x3e,
  0xc6, 0x70, 0x96, 0x3e, 0x7c, 0x22, 0x98, 0xbd, 0x38, 0xa1, 0x5d, 0x3e,
  0x19, 0x57, 0x15, 0x3e, 0x09, 0x02, 0x8e, 0xbe, 0xfe, 0x57, 0x6b, 0xbe,
  0x3f, 0xf5, 0xd6, 0x3c, 0x15, 0xcf, 0x2e, 0x3e, 0xfc, 0xb2, 0xa2, 0x3e,
  0x27, 0x70, 0x95, 0xbe, 0x24, 0x6d, 0x76, 0x3e, 0xad, 0x87, 0xb9, 0x3e,
  0x66, 0xca, 0xf0, 0xc0, 0x56, 0x9e, 0x83, 0x3e, 0xb8, 0x7c, 0x98, 0xbd,
  0x83, 0xad, 0x2a, 0x3f, 0x1f, 0x17, 0x88, 0x3e, 0xa3, 0x75, 0x6c, 0xbe,
  0xa3, 0xbb, 0x33, 0xc0, 0xcd, 0x1c, 0x2b, 0xbf, 0x0c, 0x5f, 0xb7, 0x3c,
  0xb3, 0x43, 0x8a, 0xc0, 0x4f, 0x96, 0x8a, 0x3f, 0x31, 0x6d, 0x3e, 0xbd,
  0xa9, 0xde, 0xca, 0xc0, 0xbc, 0xf2, 0x92, 0xbe, 0x5f, 0x23, 0x29, 0xbd,
  0x74, 0xb7, 0xb7, 0x3b, 0xda, 0x50, 0xc2, 0x3d, 0x8d, 0x87, 0x36, 0x3e,
  0xbc, 0xa3, 0x13, 0x3e, 0x97, 0x62, 0x48, 0x3e, 0xbc, 0x81, 0xfe, 0xbc,
  0x12, 0x4a, 0x19, 0x3e, 0x5f, 0xa6, 0x2e, 0x3b, 0x78, 0xd7, 0x76, 0x3d,
  0x85, 0x07, 0xb1, 0x3e, 0x8a, 0x0f, 0x0c, 0xbd, 0x25, 0x88, 0xdf, 0x3e,
  0xbd, 0xf8, 0xf3, 0x3e, 0xff, 0x4e, 0xd0, 0x3d, 0x59, 0xa1, 0x52, 0x3e,
  0xf1, 0x27, 0x05, 0xbe, 0x7c, 0x41, 0xd4, 0x40, 0x59, 0x86, 0x6e, 0x3e,
  0xd3, 0x9e, 0x63, 0x3e, 0x01, 0x69, 0xb6, 0xbe, 0x94, 0x54, 0x05, 0x3f,
  0x44, 0x2b, 0xbd, 0xbe, 0x73, 0x4f, 0xb7, 0x3f, 0x49, 0xf6, 0x84, 0xbe,
  0x33, 0xbe, 0x29, 0x3e, 0xe5, 0x77, 0x9d, 0xbf, 0xbb, 0x52, 0xae, 0xbf,
  0x1b, 0x57, 0x49, 0xbd, 0xd6, 0xb8, 0xbb, 0x3d, 0x85, 0x9b, 0x51, 0xbe,
  0xef, 0xcc, 0x8b, 0x3d, 0xb1, 0xe1, 0xb0, 0xbe, 0x0f, 0x23, 0xb6, 0xbd,
  0x4b, 0xfc, 0x00, 0xbe, 0xa6, 0x8e, 0xe5, 0x3d, 0x0e, 0x7b, 0x05, 0x3f,
  0x5c, 0xa7, 0x27, 0xbe, 0x4f, 0x2d, 0x3e, 0xbe, 0x9a, 0x54, 0x9b, 0x3e,
  0x82, 0x55, 0xb1, 0x3d, 0xb1, 0x85, 0x70, 0x3e, 0x51, 0x17, 0xa9, 0xbe,
  0x05, 0xe2, 0x1a, 0x3e, 0x87, 0x98, 0x33, 0xbd, 0xf1, 0x83, 0x3d, 0xbd,
  0x9b, 0x88, 0x99, 0x3e, 0x4f, 0xe8, 0x85, 0x3e, 0x64, 0x5f, 0x72, 0x40,
  0x73, 0x74, 0x2b, 0x3f, 0xd8, 0xcf, 0x64, 0xbe, 0x66, 0x9a, 0xca, 0x3f,
  0xbd, 0x01, 0xb0, 0xbe, 0xcc, 0x74, 0x3b, 0x3d, 0x1d, 0xbc, 0xda, 0x3f,
  0x92, 0xfb, 0xc6, 0x3f, 0x52, 0xf8, 0x43, 0x3d, 0xe1, 0xfb, 0x8d, 0x3f,
  0xa7, 0xe2, 0x80, 0x3c, 0xd0, 0xf9, 0xb4, 0xbd, 0xcb, 0x67, 0x09, 0x40,
  0x16, 0x79, 0x77, 0x3f, 0x74, 0x43, 0x9e, 0x3d, 0x97, 0x26, 0x86, 0x3c,
  0xa4, 0x47, 0x8f, 0x3d, 0xe7, 0xff, 0xca, 0xbd, 0x16, 0x42, 0x35, 0x3e,
  0xab, 0x9e, 0xd1, 0xbd, 0x25, 0xfb, 0xe7, 0xbd, 0xd0, 0x93, 0x3e, 0x3e,
  0xdc, 0x15, 0xf0, 0x3d, 0x3a, 0x73, 0x93, 0x3e, 0xb9, 0xcd, 0x59, 0xbd,
  0x91, 0xc1, 0x9c, 0x3c, 0x5e, 0xe0, 0xc0, 0xbe, 0x59, 0x38, 0x40, 0x3e,
  0xab, 0xb6, 0x7b, 0xbe, 0xb6, 0xf3, 0x90, 0xbd, 0xad, 0x85, 0x96, 0x3d,
  0x69, 0xf6, 0x92, 0xc0, 0xdf, 0xbf, 0xc4, 0x3f, 0x84, 0xcd, 0x94, 0x3d,
  0xb9, 0x73, 0x61, 0x3f, 0x1d, 0x69, 0x43, 0x3f, 0x75, 0xa8, 0x88, 0x3c,
  0xa6, 0xe4, 0x1b, 0xbf, 0x82, 0xae, 0x3f, 0x3c, 0x1e, 0xf0, 0x80, 0x3c,
  0x8a, 0xdc, 0x3d, 0xbf, 0x44, 0xf6, 0x37, 0x3f, 0x6c, 0x12, 0x64, 0xbe,
  0x84, 0x85, 0x9c, 0xbf, 0xad, 0xe4, 0x6b, 0x3f, 0x8c, 0xa1, 0x17, 0xbe,
  0x7e, 0xc6, 0x28, 0x3e, 0xf3, 0xba, 0x2a, 0x3e, 0xf4, 0xdf, 0x7f, 0xbe,
  0x61, 0x93, 0x28, 0xbe, 0xd5, 0x6c, 0x52, 0x3e, 0xee, 0x51, 0x25, 0xbd,
  0x2a, 0xe4, 0xba, 0xbe, 0xe3, 0xdf, 0x3d, 0xbe, 0xa7, 0x7d, 0x71, 0x3e,
  0xce, 0xf6, 0xef, 0x3e, 0x20, 0x74, 0xa7, 0x3e, 0x0e, 0x36, 0x9c, 0x3e,
  0x5f, 0x9f, 0x82, 0x3e, 0x58, 0x50, 0xfe, 0x3e, 0x0a, 0xf7, 0xff, 0xff,
  0x04, 0x00, 0x00, 0x00, 0x80, 0x00, 0x00, 0x00, 0x8f, 0xe3, 0x11, 0x3f,
  0x18, 0xf4, 0xd9, 0x3e, 0x96, 0x6c, 0x16, 0xbe, 0xf0, 0x9f, 0x8f, 0xbe,
  0x13, 0x74, 0x5d, 0x3f, 0x23, 0x45, 0x16, 0x3d, 0x3e, 0x50, 0xc5, 0x3e,
  0x63, 0x24, 0xa7, 0x3d, 0x0c, 0x08, 0x1d, 0xbf, 0xd8, 0x04, 0x03, 0xbc,
  0xcf, 0x0c, 0x17, 0x3f, 0xc9, 0xa0, 0x52, 0xbe, 0xc7, 0x8f, 0x81, 0xbd,
  0x2f, 0x04, 0x56, 0x3e, 0xe6, 0xa0, 0xef, 0xbd, 0x42, 0x8c, 0x4a, 0x3e,
  0x3a, 0xf8, 0xef, 0x3e, 0x81, 0x85, 0x6d, 0x3a, 0x29, 0x60, 0x14, 0x3f,
  0x0b, 0x5e, 0x78, 0x3e, 0x9c, 0x74, 0x06, 0xbf, 0x32, 0xe1, 0x45, 0x3e,
  0x79, 0x31, 0xb8, 0x3e, 0x64, 0xfa, 0x03, 0xbf, 0xe3, 0x78, 0xd7, 0x3e,
  0x43, 0x5c, 0xad, 0xbe, 0xe4, 0x19, 0xde, 0x3e, 0xee, 0xa2, 0x00, 0xbf,
  0x39, 0x8d, 0x83, 0xbe, 0x6b, 0x4b, 0x3e, 0xbe, 0xa4, 0xfc, 0x04, 0xbf,
  0xe8, 0x67, 0xd3, 0xbe, 0x96, 0xf7, 0xff, 0xff, 0x04, 0x00, 0x00, 0x00,
  0x04, 0x00, 0x00, 0x00, 0x5c, 0x4d, 0xc2, 0xbd, 0xa6, 0xf7, 0xff, 0xff,
  0x04, 0x00, 0x00, 0x00, 0x40, 0x00, 0x00, 0x00, 0x5b, 0xf8, 0xa9, 0x3e,
  0xf7, 0xe6, 0x11, 0x3e, 0x8a, 0x24, 0x6e, 0xbe, 0xc0, 0xa2, 0x4c, 0xbd,
  0xa0, 0xe1, 0xf7, 0x3d, 0xc4, 0x8b, 0x9d, 0xbe, 0x8c, 0x7a, 0x0e, 0x3e,
  0xd8, 0x65, 0x87, 0x3f, 0xd4, 0xdd, 0x09, 0xbf, 0xd7, 0x43, 0xee, 0xbe,
  0x3c, 0x04, 0x38, 0x3f, 0x39, 0xbf, 0x09, 0xbf, 0x04, 0x52, 0xf7, 0x3e,
  0x6c, 0xe2, 0xa3, 0xbe, 0xe7, 0x1b, 0x2c, 0x3e, 0xa9, 0xab, 0x4f, 0x3e,
  0xf2, 0xf7, 0xff, 0xff, 0x04, 0x00, 0x00, 0x00, 0x00, 0x08, 0x00, 0x00,
  0x3a, 0xad, 0x34, 0xc0, 0xc6, 0xea, 0x4f, 0xbe, 0x2f, 0xa8, 0x20, 0xbe,
  0xe5, 0x58, 0x9f, 0xbf, 0x90, 0x95, 0x6e, 0x3f, 0x4c, 0xb5, 0xa1, 0xbe,
  0x23, 0x60, 0xd2, 0x3e, 0xf1, 0x38, 0x81, 0x3e, 0x57, 0xbe, 0x73, 0xbd,
  0x4c, 0x71, 0x95, 0xbe, 0xce, 0xf9, 0xa3, 0xbe, 0x82, 0xcf, 0x85, 0xbe,
  0x35, 0xe3, 0xd9, 0xbf, 0xb8, 0xd6, 0x42, 0xbe, 0x56, 0xe7, 0x00, 0xbf,
  0x97, 0x17, 0xc0, 0x3e, 0x8c, 0x3e, 0x9e, 0x3d, 0x4f, 0xc8, 0x61, 0xc0,
  0xfc, 0x87, 0x6f, 0xbf, 0xc7, 0x08, 0x5e, 0x40, 0xb4, 0x26, 0x55, 0xbf,
  0x56, 0x77, 0x76, 0xbd, 0x41, 0xd0, 0x5b, 0xbf, 0xad, 0x18, 0x5a, 0xbe,
  0x57, 0x34, 0xc8, 0xbf, 0x3a, 0x51, 0xee, 0xbe, 0x0c, 0x33, 0xab, 0x3f,
  0xc4, 0x67, 0x1d, 0xbf, 0x5c, 0x0e, 0xe4, 0x3e, 0xea, 0x8d, 0x8e, 0xbe,
  0x80, 0xc5, 0x38, 0x3e, 0xa3, 0xaf, 0x2b, 0x3d, 0x3d, 0x5f, 0x0a, 0x3e,
  0x8b, 0x21, 0x4d, 0x3d, 0xb2, 0x6d, 0x8d, 0xbe, 0xa8, 0xac, 0x31, 0xbf,
  0xd1, 0x00, 0x39, 0xc0, 0x86, 0x2e, 0xac, 0xbe, 0x82, 0x39, 0xd9, 0x3d,
  0x50, 0x70, 0x13, 0xbd, 0xe0, 0x4f, 0xa0, 0xbe, 0x28, 0x4d, 0x9f, 0x3d,
  0xdd, 0xa1, 0x9b, 0xbd, 0x5c, 0x55, 0xe8, 0xbe, 0x7d, 0xd5, 0x3b, 0x3f,
  0x5d, 0x9d, 0x03, 0x3e, 0x99, 0x69, 0x4f, 0x3f, 0x50, 0xd5, 0xcb, 0xc0,
  0xcb, 0x3a, 0x0b, 0xbf, 0xa3, 0xce, 0x63, 0xc0, 0x70, 0x72, 0x7f, 0x3c,
  0xe7, 0xff, 0xdc, 0x3c, 0x30, 0x3f, 0xd8, 0xbd, 0x94, 0x81, 0x98, 0x3e,
  0x02, 0xcd, 0x86, 0x3d, 0x5b, 0xa5, 0xfb, 0xbe, 0xb8, 0x03, 0x21, 0x3e,
  0xc7, 0xaa, 0xca, 0xbe, 0x95, 0x4f, 0x25, 0x3d, 0xb3, 0x70, 0xd1, 0x3f,
  0x81, 0xbc, 0x64, 0x3b, 0xb7, 0x3f, 0x24, 0x3e, 0xa0, 0xeb, 0xa1, 0xbe,
  0x3e, 0x60, 0xa7, 0xbe, 0x10, 0x92, 0x45, 0xbf, 0xdf, 0x27, 0xe3, 0x3e,
  0xf6, 0xaa, 0xfa, 0x3d, 0xe5, 0xc8, 0x88, 0xbd, 0xc6, 0xf2, 0x4c, 0x3e,
  0xa1, 0x0e, 0xb8, 0x3e, 0xe6, 0xbc, 0x15, 0x3f, 0x24, 0xb8, 0x1b, 0xbd,
  0xf4, 0x99, 0x0c, 0x3e, 0x5f, 0x34, 0xd7, 0xbe, 0x47, 0x61, 0xee, 0x3d,
  0x4b, 0x43, 0x99, 0xbe, 0xa3, 0x85, 0x81, 0x3d, 0x60, 0xc0, 0x08, 0xbf,
  0x4b, 0xa1, 0xfe, 0x3e, 0x26, 0x68, 0x61, 0xbe, 0x0a, 0xb1, 0x8d, 0xbe,
  0x62, 0xca, 0xe2, 0xbd, 0xec, 0xef, 0xeb, 0xbd, 0x00, 0x94, 0xb4, 0x3f,
  0xde, 0x2b, 0x03, 0xbf, 0xa5, 0x09, 0x33, 0x3e, 0xa4, 0x36, 0xe8, 0xbe,
  0x3a, 0xfb, 0xf6, 0x3e, 0x54, 0x90, 0x45, 0x3f, 0x70, 0x2d, 0x79, 0x3f,
  0x6b, 0x56, 0x29, 0x3f, 0x3a, 0xc2, 0xac, 0x3e, 0x6b, 0xfc, 0xcf, 0xbd,
  0x2f, 0x4b, 0xc4, 0x3d, 0x61, 0xf1, 0x00, 0x3b, 0x02, 0xd6, 0xcf, 0xbe,
  0x9a, 0x90, 0xca, 0xbd, 0x41, 0x4c, 0x9c, 0x3e, 0x31, 0x89, 0x84, 0xbe,
  0x90, 0xc5, 0xd5, 0xbf, 0x76, 0xed, 0xb4, 0x3f, 0x9a, 0xb4, 0xbb, 0xbd,
  0xe6, 0x74, 0xbc, 0xbd, 0x77, 0x61, 0x18, 0x3e, 0x0e, 0x40, 0xa4, 0xbe,
  0x98, 0x1c, 0x1b, 0x3e, 0xc5, 0xd3, 0x6b, 0xbe, 0x3d, 0x97, 0x10, 0xbf,
  0x84, 0xb9, 0xbd, 0xbe, 0x93, 0xb5, 0xac, 0x3d, 0xb3, 0x3e, 0x04, 0x3b,
  0xa0, 0x7e, 0x61, 0x3e, 0xb1, 0x8d, 0x9f, 0xbd, 0x28, 0x35, 0x22, 0x3e,
  0xc2, 0x67, 0x45, 0xbd, 0xcb, 0x60, 0xf6, 0x3e, 0xfa, 0xa2, 0xc0, 0xbd,
  0xe3, 0x8f, 0x3c, 0x3e, 0xa9, 0xaa, 0x95, 0xbe, 0x6b, 0x53, 0x2a, 0x3e,
  0xd2, 0x65, 0x09, 0xbe, 0xb8, 0x51, 0x83, 0x3e, 0x89, 0x97, 0x0a, 0x3e,
  0xde, 0x13, 0x26, 0x3f, 0x70, 0x39, 0x76, 0x3d, 0x6d, 0xc3, 0x73, 0xbe,
  0x9b, 0x67, 0xc9, 0xbe, 0x02, 0x8e, 0x49, 0x3e, 0x6a, 0x50, 0x58, 0x3e,
  0x24, 0x08, 0x19, 0x3e, 0xf0, 0xd8, 0xc0, 0x3e, 0x83, 0x42, 0x46, 0x3d,
  0x5f, 0xd9, 0x13, 0xbf, 0x4e, 0x00, 0xdc, 0x3e, 0xe6, 0xb6, 0x0e, 0x3e,
  0x4d, 0xbf, 0xb5, 0xbd, 0xbe, 0x9c, 0x46, 0xbe, 0xe7, 0x81, 0xc4, 0xbd,
  0xce, 0xb2, 0x15, 0xbc, 0xe7, 0x3c, 0xb7, 0xbe, 0x07, 0x9c, 0x1d, 0xbf,
  0x60, 0xc4, 0xf4, 0x3d, 0x36, 0x74, 0x2a, 0xbe, 0xde, 0x43, 0xed, 0x3c,
  0xb3, 0xf4, 0x0f, 0x3e, 0xdb, 0x14, 0x03, 0xbd, 0x32, 0x4e, 0xa4, 0x3e,
  0x41, 0x28, 0xe8, 0xbd, 0xb6, 0x98, 0x27, 0xbd, 0x6b, 0xf3, 0xba, 0xbe,
  0xc3, 0x18, 0x7a, 0x3c, 0x38, 0x54, 0x4c, 0x3e, 0x27, 0xde, 0xce, 0x3d,
  0x65, 0xd2, 0xdd, 0xbd, 0x93, 0x67, 0x1c, 0xbf, 0x8a, 0x5e, 0x7e, 0xbb,
  0xc0, 0x1f, 0x64, 0xbe, 0x50, 0xd4, 0xfe, 0x3d, 0x49, 0x4b, 0xea, 0x3d,
  0xda, 0xfa, 0xaf, 0x3d, 0x6d, 0x5d, 0xc3, 0x3d, 0xb2, 0x75, 0x8f, 0xbf,
  0xde, 0xc0, 0xec, 0xbd, 0x33, 0xaa, 0xa7, 0x3f, 0x01, 0x46, 0x76, 0x3f,
  0x54, 0x14, 0x80, 0x3e, 0xf8, 0x30, 0x94, 0x3f, 0xaa, 0x16, 0xbc, 0xbe,
  0xfc, 0x03, 0x8f, 0x3e, 0xc4, 0x78, 0x35, 0xbd, 0x7b, 0x3a, 0xed, 0xbe,
  0xd5, 0x2e, 0xc5, 0xbf, 0x1b, 0x7a, 0xd8, 0x3f, 0x1b, 0xcb, 0x9e, 0xbd,
  0xa8, 0x9e, 0x9e, 0x3f, 0xde, 0xc6, 0xa5, 0x3c, 0xed, 0x12, 0x76, 0xbf,
  0x6d, 0x0f, 0x21, 0x3f, 0x30, 0x64, 0x23, 0xbf, 0xac, 0x4d, 0xb9, 0x3e,
  0x9b, 0x28, 0x27, 0xbc, 0xf6, 0xb5, 0x89, 0xbe, 0xfa, 0x4f, 0x84, 0xbd,
  0x8e, 0xde, 0xee, 0x3e, 0xe1, 0x7e, 0xd7, 0x3e, 0xe3, 0xfc, 0x63, 0xbe,
  0x8c, 0x7b, 0x80, 0x3e, 0xca, 0x02, 0x3a, 0x3e, 0x61, 0xa7, 0xe7, 0xbe,
  0xe5, 0x7d, 0x81, 0x3d, 0x73, 0x33, 0x95, 0x3e, 0x03, 0x16, 0xdb, 0x3c,
  0x50, 0xf0, 0x9a, 0x3e, 0x93, 0x39, 0x5b, 0x3e, 0xcb, 0x1b, 0xce, 0x3e,
  0x56, 0x05, 0x95, 0xbe, 0x23, 0xb2, 0x02, 0x3f, 0xb9, 0x00, 0x0d, 0x3e,
  0x54, 0x42, 0x24, 0x3f, 0x66, 0x5a, 0x5e, 0x3e, 0x41, 0xe2, 0xc5, 0xbe,
  0x8b, 0x72, 0x08, 0xbe, 0xf9, 0xea, 0x4c, 0x3c, 0x5d, 0x74, 0xd5, 0x3a,
  0xc2, 0xf4, 0x36, 0xbf, 0x43, 0xe1, 0xbf, 0xbd, 0xdf, 0x89, 0x0b, 0x3e,
  0xd3, 0xb3, 0x76, 0x3e, 0xa4, 0x6d, 0x42, 0xbe, 0x58, 0x12, 0x86, 0xbf,
  0x31, 0x5e, 0xc1, 0xbe, 0x63, 0x4b, 0xe6, 0x3e, 0x9d, 0x3d, 0xd6, 0xbe,
  0x85, 0xe6, 0xbc, 0xbe, 0x7c, 0x0c, 0x52, 0xbe, 0xe4, 0x28, 0x91, 0x3e,
  0xad, 0x65, 0x66, 0xbe, 0x3a, 0x7d, 0xbe, 0x3c, 0x39, 0x36, 0x58, 0x3e,
  0xed, 0x8e, 0xdd, 0x3d, 0xb8, 0xd6, 0x37, 0x3d, 0xfc, 0x5f, 0x46, 0xbe,
  0x67, 0xc0, 0x44, 0x3a, 0xf4, 0x96, 0x33, 0xbe, 0xb1, 0xa8, 0xbd, 0xbc,
  0x19, 0x0c, 0xca, 0x3c, 0xfc, 0xab, 0xf2, 0x3c, 0x38, 0xc8, 0xed, 0xbb,
  0xed, 0x2b, 0xb1, 0x3d, 0xf6, 0x99, 0x3a, 0xbe, 0x9b, 0x8a, 0x2c, 0x3f,
  0x51, 0x02, 0xa5, 0xbe, 0x69, 0x14, 0xe9, 0x3e, 0x11, 0x11, 0x0c, 0x3e,
  0x5a, 0xb5, 0x62, 0xbe, 0x58, 0x83, 0x9b, 0x3e, 0xd6, 0xa5, 0x3a, 0xbf,
  0x9c, 0xae, 0xb5, 0x3d, 0x3e, 0x6b, 0x06, 0xc0, 0x77, 0xbf, 0x34, 0x3a,
  0xb2, 0x9e, 0x13, 0x3f, 0xb4, 0x96, 0x0a, 0xc1, 0x5e, 0x3f, 0x2b, 0xbf,
  0x65, 0x6e, 0xe1, 0x3e, 0x3b, 0x46, 0x08, 0xbe, 0xb4, 0x81, 0x6d, 0xbd,
  0xba, 0xb9, 0x25, 0xbc, 0x84, 0xd4, 0xc2, 0xbf, 0x97, 0x6c, 0x0e, 0x3f,
  0x52, 0x65, 0xf0, 0xbe, 0xe5, 0xaf, 0xb7, 0xbd, 0xbe, 0xa1, 0x69, 0xc0,
  0xcd, 0x31, 0xa3, 0xbe, 0x61, 0xd0, 0x81, 0xbe, 0xfc, 0x1c, 0x8c, 0xbd,
  0xcc, 0x40, 0x17, 0xbe, 0x78, 0x78, 0x72, 0x3e, 0x39, 0x67, 0x35, 0xbc,
  0xaa, 0x18, 0x95, 0x3e, 0x56, 0xd8, 0xc3, 0x3d, 0x08, 0x6d, 0x88, 0x3d,
  0x09, 0x5b, 0xf2, 0xbf, 0x49, 0xd2, 0xc4, 0xbf, 0x78, 0x61, 0xe8, 0xbe,
  0xe4, 0xde, 0x81, 0xbe, 0x18, 0x21, 0x1c, 0x3d, 0x9b, 0x8d, 0x23, 0x3e,
  0x35, 0xe5, 0xff, 0xbe, 0x10, 0x6a, 0xde, 0xbf, 0x25, 0x5c, 0x6a, 0x3e,
  0xa7, 0x96, 0x69, 0x3e, 0x7b, 0x75, 0xb8, 0x3e, 0x22, 0xc3, 0xd0, 0xbe,
  0xb3, 0x58, 0xc9, 0xbf, 0xb6, 0xde, 0x1d, 0xbd, 0xed, 0xb3, 0x7f, 0xbf,
  0x1f, 0xaf, 0xa1, 0xbe, 0xab, 0x31, 0xc8, 0xbe, 0xa9, 0xe8, 0x47, 0xbe,
  0x28, 0xa2, 0xaa, 0x3e, 0x9b, 0xcf, 0x02, 0xc0, 0x6b, 0x58, 0x85, 0xbe,
  0x05, 0xd9, 0xc0, 0xbe, 0x7a, 0xea, 0x53, 0xc0, 0xee, 0x34, 0xbc, 0x3d,
  0x49, 0xb1, 0x8e, 0xbd, 0xfa, 0x14, 0x09, 0xbf, 0xf3, 0x46, 0xa1, 0xbd,
  0xa9, 0xbc, 0x84, 0xbe, 0x9a, 0x54, 0x90, 0x3e, 0x08, 0x37, 0xa0, 0xbc,
  0xd4, 0x2a, 0x5a, 0xbf, 0xfe, 0xad, 0x2b, 0x3f, 0x28, 0x29, 0x2b, 0xbf,
  0xa5, 0x39, 0x23, 0x3d, 0x87, 0xaa, 0x8b, 0xbe, 0xc8, 0x61, 0x52, 0xbe,
  0x83, 0xd2, 0xcd, 0xbe, 0x62, 0x8b, 0x0e, 0xbf, 0x35, 0x1b, 0x2e, 0x3e,
  0xdf, 0x29, 0xad, 0x3e, 0x4f, 0x65, 0x71, 0xbe, 0xfb, 0x84, 0x00, 0xbf,
  0x95, 0x45, 0x58, 0xbd, 0xf7, 0xa3, 0x39, 0x3e, 0xc2, 0x80, 0xa9, 0xbd,
  0x48, 0x2d, 0x9b, 0x3e, 0x38, 0x51, 0x2d, 0x3f, 0x3e, 0x3e, 0x41, 0x3f,
  0x75, 0x9c, 0xf1, 0xbe, 0x96, 0x3d, 0x5c, 0xbe, 0x3e, 0xc4, 0xdd, 0x3d,
  0x08, 0xf4, 0x84, 0x3e, 0xa8, 0x50, 0xc7, 0x3e, 0x9b, 0xca, 0x29, 0x3f,
  0xf9, 0x72, 0x08, 0x3e, 0xca, 0x4e, 0x32, 0xbe, 0x7b, 0xd3, 0x1c, 0x3e,
  0x60, 0xef, 0x19, 0x3f, 0xba, 0x95, 0x9c, 0x3e, 0x4f, 0x2f, 0xb2, 0x3d,
  0x8f, 0x36, 0x04, 0x3f, 0x29, 0xb8, 0xa3, 0xbe, 0x30, 0x7a, 0x1d, 0x3f,
  0x81, 0x2f, 0x54, 0xbe, 0x53, 0xf1, 0x57, 0x3e, 0x8b, 0x61, 0x08, 0xbe,
  0xc1, 0x8e, 0xf2, 0x3d, 0x64, 0x73, 0xa8, 0xbd, 0xff, 0x93, 0x0a, 0xbe,
  0xd4, 0x0a, 0xbf, 0x3d, 0x5b, 0x72, 0x12, 0xbd, 0xd6, 0x42, 0x1e, 0x3e,
  0x60, 0x2d, 0x5e, 0xbe, 0x05, 0xbf, 0x18, 0xbf, 0x8c, 0x14, 0xbb, 0xbd,
  0x3a, 0xc8, 0xc6, 0xbe, 0x1e, 0x4d, 0x49, 0xbd, 0xbb, 0x0f, 0x39, 0xbe,
  0x4b, 0xfb, 0x01, 0x3f, 0x97, 0x7a, 0x19, 0xbc, 0xb6, 0xd3, 0xba, 0xbe,
  0x3b, 0xef, 0x01, 0x3e, 0x58, 0x17, 0x60, 0x3d, 0x91, 0x33, 0x59, 0xbe,
  0x3e, 0x8f, 0xc1, 0x3c, 0x62, 0x1b, 0x05, 0xbe, 0xde, 0x17, 0xde, 0x3e,
  0x7f, 0xb4, 0x26, 0x3e, 0x8e, 0x63, 0x25, 0x3e, 0xd6, 0x56, 0x3e, 0x3e,
  0x7d, 0x9a, 0x18, 0xbe, 0xe2, 0xfa, 0x3d, 0xbe, 0x5f, 0x3a, 0x24, 0x3e,
  0x97, 0xe2, 0x0a, 0x3d, 0x86, 0xc0, 0xd6, 0xbd, 0x17, 0xa2, 0x07, 0xbf,
  0x2a, 0x58, 0xc0, 0xbd, 0x83, 0x31, 0xfc, 0x3c, 0xa6, 0x21, 0x94, 0xbe,
  0x56, 0xa9, 0xaf, 0x3e, 0xc9, 0xe8, 0x8d, 0x3d, 0x6e, 0x72, 0xda, 0xb9,
  0x0e, 0xb0, 0x1e, 0x3e, 0x66, 0xa3, 0x8f, 0xbf, 0xb9, 0xb2, 0x43, 0xbe,
  0xd8, 0x05, 0xb8, 0x3e, 0x2a, 0xeb, 0xad, 0x3b, 0xc2, 0xeb, 0x00, 0xbf,
  0xb3, 0xe5, 0x1f, 0xbd, 0xa6, 0xfe, 0x9d, 0xbd, 0x1a, 0x2a, 0xb0, 0x3e,
  0x19, 0xaa, 0x80, 0x3e, 0x4d, 0x36, 0x49, 0xbd, 0x47, 0x9c, 0x3b, 0xbc,
  0x72, 0xef, 0xf3, 0xbc, 0x96, 0x85, 0x94, 0xbb, 0x24, 0xa4, 0x1c, 0x3e,
  0x55, 0xfe, 0x2b, 0x3d, 0x84, 0xd7, 0xb5, 0x3e, 0x22, 0xc1, 0xa9, 0x3b,
  0x3c, 0x10, 0xbb, 0x3e, 0x65, 0x66, 0xc8, 0x3e, 0x51, 0xae, 0xf9, 0x3e,
  0xa3, 0x1d, 0xd5, 0xba, 0xbb, 0x77, 0x5c, 0x3d, 0xae, 0x63, 0x00, 0x3e,
  0xf3, 0xb4, 0x39, 0xbf, 0x0a, 0x96, 0x46, 0xbc, 0x81, 0x12, 0xbf, 0x3d,
  0xe2, 0x31, 0x2f, 0x3f, 0x9b, 0x56, 0xc9, 0xbd, 0x25, 0xeb, 0xac, 0xbd,
  0x71, 0x40, 0xa2, 0xbe, 0xe2, 0x2c, 0xa7, 0x3e, 0xfb, 0xa2, 0xff, 0x3d,
  0xd6, 0x06, 0xf5, 0xbe, 0x6a, 0x34, 0x68, 0x3e, 0x44, 0xb3, 0xbd, 0x3d,
  0x4a, 0xaf, 0x05, 0x3d, 0xe3, 0x56, 0xab, 0xbe, 0xd4, 0x02, 0x83, 0x3e,
  0x6a, 0x51, 0x67, 0x3e, 0x05, 0xd1, 0x06, 0xbe, 0xad, 0x91, 0x77, 0x3e,
  0xa3, 0xe9, 0x26, 0x3d, 0x25, 0xec, 0x9e, 0x3e, 0xa0, 0x2e, 0x80, 0x3d,
  0xed, 0x42, 0xfb, 0x3d, 0xda, 0xa0, 0x9d, 0xbd, 0x1a, 0xeb, 0xac, 0x3e,
  0xa5, 0x2b, 0x32, 0xbc, 0x49, 0x7f, 0x30, 0x3e, 0xbc, 0x9d, 0x02, 0x3f,
  0xab, 0xb3, 0xf3, 0x3d, 0x8d, 0x7c, 0xff, 0xbd, 0xf0, 0x8f, 0x17, 0x3e,
  0x7a, 0xc3, 0x8a, 0x3e, 0x47, 0xec, 0x81, 0x3e, 0x18, 0x93, 0x5d, 0xbf,
  0xfe, 0x5d, 0xa1, 0x3f, 0x00, 0x8b, 0xb9, 0xbe, 0x39, 0x32, 0xfd, 0xbd,
  0xd9, 0x8a, 0x3f, 0xbe, 0x4f, 0x0d, 0x99, 0x3e, 0xf6, 0x64, 0xb0, 0x3c,
  0x89, 0xd8, 0x28, 0xbf, 0x35, 0xa2, 0xb4, 0xbe, 0x2a, 0x8a, 0xc9, 0xbe,
  0x77, 0x0b, 0x90, 0x3e, 0xfb, 0x58, 0x73, 0xbe, 0x82, 0xa8, 0xef, 0xbe,
  0x06, 0x2a, 0xa2, 0x3e, 0xc7, 0x69, 0xad, 0xbf, 0xf5, 0xf4, 0x3a, 0xbd,
  0x30, 0x2d, 0xea, 0x3e, 0x15, 0x00, 0x70, 0xbd, 0xe2, 0x7c, 0x94, 0xbe,
  0x8b, 0x4c, 0x92, 0xbe, 0xbf, 0x58, 0x1e, 0x3e, 0xdd, 0xf5, 0x2b, 0x3e,
  0x53, 0xca, 0xf1, 0xbe, 0x88, 0x88, 0xa5, 0xbe, 0xb6, 0x7c, 0x84, 0xbe,
  0xce, 0x83, 0xba, 0x3e, 0xa9, 0xfd, 0xd3, 0xbe, 0x5f, 0x79, 0x68, 0x3e,
  0x6d, 0xc3, 0xf3, 0x3e, 0xd7, 0xb3, 0x07, 0x3e, 0x02, 0xd1, 0xad, 0x3e,
  0x1c, 0xd2, 0xab, 0x3e, 0x06, 0xe3, 0x8f, 0x3e, 0xd1, 0xc2, 0x81, 0xbe,
  0xc8, 0x66, 0xf3, 0x3e, 0xe6, 0xc0, 0xbb, 0xbe, 0x6e, 0x7d, 0x87, 0x3d,
  0x28, 0x63, 0x06, 0xbe, 0x37, 0x9d, 0xa0, 0xbe, 0x93, 0xd1, 0xd6, 0x3e,
  0x3f, 0x2c, 0x32, 0x3e, 0x06, 0x6f, 0x91, 0xbe, 0x28, 0x8d, 0xb0, 0xbe,
  0xd0, 0x5b, 0x34, 0x3e, 0x28, 0x37, 0xa9, 0xbd, 0xed, 0xfd, 0x45, 0xbe,
  0x78, 0xd3, 0x0e, 0x3d, 0x5e, 0xe9, 0x26, 0x3e, 0xd3, 0x5e, 0xa2, 0xbc,
  0x49, 0xae, 0x35, 0xbf, 0xac, 0xba, 0x7e, 0xbe, 0x65, 0x0d, 0x3a, 0x3e,
  0x30, 0x92, 0x54, 0x3d, 0x25, 0xa7, 0x65, 0xbe, 0x8f, 0x85, 0x8b, 0x3d,
  0xf7, 0xde, 0x1e, 0x3f, 0x41, 0xdc, 0xb6, 0x3d, 0x6a, 0x7e, 0x09, 0xbe,
  0x26, 0x97, 0xb7, 0x3d, 0x41, 0xd4, 0xf9, 0x3e, 0x32, 0x75, 0x62, 0xbe,
  0x14, 0xbe, 0x8f, 0xbe, 0xaa, 0xdc, 0x95, 0x3e, 0x0c, 0x5d, 0xd6, 0xbe,
  0x36, 0xdc, 0x86, 0xbf, 0x05, 0xbf, 0xe4, 0xbf, 0xd3, 0x77, 0x3d, 0xbc,
  0x39, 0xd4, 0x2f, 0x3e, 0x81, 0xf2, 0x1a, 0xbd, 0xc3, 0xe5, 0x38, 0xbf,
  0x2c, 0x63, 0xc2, 0x3e, 0x67, 0xc0, 0xa8, 0x3e, 0x48, 0x59, 0xc7, 0xbd,
  0x6a, 0x09, 0xb2, 0x3f, 0x9d, 0x67, 0x0f, 0x3e, 0xbf, 0xcb, 0x62, 0x3d,
  0xf6, 0xf6, 0x49, 0xc0, 0xad, 0x04, 0x12, 0xbf, 0xf0, 0xb7, 0xd4, 0xbf,
  0xf8, 0x27, 0x1e, 0xbe, 0x34, 0x76, 0xb9, 0xbd, 0xde, 0x81, 0xac, 0xbe,
  0xe6, 0xbb, 0xe2, 0x3e, 0x45, 0x19, 0x51, 0xbe, 0xb2, 0xc4, 0x63, 0x3e,
  0x77, 0xca, 0xab, 0x3e, 0xcb, 0xb4, 0x7f, 0x3d, 0x52, 0x69, 0x3f, 0x3e,
  0x58, 0x1d, 0x4f, 0x3e, 0x93, 0x0e, 0xd4, 0xbe, 0x64, 0x67, 0x9a, 0xbe,
  0xea, 0x0d, 0x7b, 0x3e, 0xd9, 0x01, 0x7d, 0xbe, 0x00, 0x00, 0x06, 0x00,
  0x08, 0x00, 0x04, 0x00, 0x06, 0x00, 0x00, 0x00, 0x04, 0x00, 0x00, 0x00,
  0x40, 0x00, 0x00, 0x00, 0x86, 0xf4, 0x86, 0x40, 0xbd, 0x89, 0xbf, 0x3e,
  0xe2, 0x26, 0x3a, 0xc0, 0xb3, 0x9f, 0x58, 0xbf, 0x39, 0x1d, 0x68, 0xbf,
  0x20, 0x6d, 0xe2, 0xbf, 0xf9, 0xbf, 0xf4, 0xbf, 0xab, 0xf4, 0x35, 0x40,
  0xa7, 0x44, 0x06, 0x40, 0xad, 0x6d, 0xe6, 0xbf, 0xfb, 0xd3, 0x03, 0xc0,
  0xc4, 0x92, 0x31, 0x3f, 0x3d, 0xb7, 0x2f, 0xbf, 0x0a, 0x73, 0x01, 0x40,
  0xd2, 0xd9, 0xe4, 0xbf, 0xcf, 0xbe, 0x18, 0x3f, 0x90, 0xfa, 0xff, 0xff,
  0x94, 0xfa, 0xff, 0xff, 0x0f, 0x00, 0x00, 0x00, 0x4d, 0x4c, 0x49, 0x52,
  0x20, 0x43, 0x6f, 0x6e, 0x76, 0x65, 0x72, 0x74, 0x65, 0x64, 0x2e, 0x00,
  0x01, 0x00, 0x00, 0x00, 0x14, 0x00, 0x00, 0x00, 0x00, 0x00, 0x0e, 0x00,
  0x18, 0x00, 0x14, 0x00, 0x10, 0x00, 0x0c, 0x00, 0x08, 0x00, 0x04, 0x00,
  0x0e, 0x00, 0x00, 0x00, 0x14, 0x00, 0x00, 0x00, 0x1c, 0x00, 0x00, 0x00,
  0x08, 0x01, 0x00, 0x00, 0x0c, 0x01, 0x00, 0x00, 0x10, 0x01, 0x00, 0x00,
  0x04, 0x00, 0x00, 0x00, 0x6d, 0x61, 0x69, 0x6e, 0x00, 0x00, 0x00, 0x00,
  0x04, 0x00, 0x00, 0x00, 0xb0, 0x00, 0x00, 0x00, 0x68, 0x00, 0x00, 0x00,
  0x34, 0x00, 0x00, 0x00, 0x10, 0x00, 0x00, 0x00, 0x00, 0x00, 0x0a, 0x00,
  0x10, 0x00, 0x0c, 0x00, 0x08, 0x00, 0x04, 0x00, 0x0a, 0x00, 0x00, 0x00,
  0x0c, 0x00, 0x00, 0x00, 0x10, 0x00, 0x00, 0x00, 0x01, 0x00, 0x00, 0x00,
  0x01, 0x00, 0x00, 0x00, 0x0a, 0x00, 0x00, 0x00, 0x01, 0x00, 0x00, 0x00,
  0x09, 0x00, 0x00, 0x00, 0x9a, 0xff, 0xff, 0xff, 0x10, 0x00, 0x00, 0x00,
  0x00, 0x00, 0x00, 0x08, 0x0c, 0x00, 0x00, 0x00, 0x10, 0x00, 0x00, 0x00,
  0x3c, 0xfb, 0xff, 0xff, 0x01, 0x00, 0x00, 0x00, 0x09, 0x00, 0x00, 0x00,
  0x03, 0x00, 0x00, 0x00, 0x08, 0x00, 0x00, 0x00, 0x01, 0x00, 0x00, 0x00,
  0x04, 0x00, 0x00, 0x00, 0xca, 0xff, 0xff, 0xff, 0x10, 0x00, 0x00, 0x00,
  0x00, 0x00, 0x00, 0x08, 0x10, 0x00, 0x00, 0x00, 0x14, 0x00, 0x00, 0x00,
  0xba, 0xff, 0xff, 0xff, 0x00, 0x00, 0x00, 0x01, 0x01, 0x00, 0x00, 0x00,
  0x08, 0x00, 0x00, 0x00, 0x03, 0x00, 0x00, 0x00, 0x07, 0x00, 0x00, 0x00,
  0x02, 0x00, 0x00, 0x00, 0x03, 0x00, 0x00, 0x00, 0x00, 0x00, 0x0e, 0x00,
  0x16, 0x00, 0x00, 0x00, 0x10, 0x00, 0x0c, 0x00, 0x0b, 0x00, 0x04, 0x00,
  0x0e, 0x00, 0x00, 0x00, 0x18, 0x00, 0x00, 0x00, 0x00, 0x00, 0x00, 0x08,
  0x18, 0x00, 0x00, 0x00, 0x1c, 0x00, 0x00, 0x00, 0x00, 0x00, 0x06, 0x00,
  0x08, 0x00, 0x07, 0x00, 0x06, 0x00, 0x00, 0x00, 0x00, 0x00, 0x00, 0x01,
  0x01, 0x00, 0x00, 0x00, 0x07, 0x00, 0x00, 0x00, 0x03, 0x00, 0x00, 0x00,
  0x00, 0x00, 0x00, 0x00, 0x06, 0x00, 0x00, 0x00, 0x05, 0x00, 0x00, 0x00,
  0x01, 0x00, 0x00, 0x00, 0x0a, 0x00, 0x00, 0x00, 0x01, 0x00, 0x00, 0x00,
  0x00, 0x00, 0x00, 0x00, 0x0b, 0x00, 0x00, 0x00, 0xec, 0x03, 0x00, 0x00,
  0x94, 0x03, 0x00, 0x00, 0x3c, 0x03, 0x00, 0x00, 0xe4, 0x02, 0x00, 0x00,
  0x8c, 0x02, 0x00, 0x00, 0x38, 0x02, 0x00, 0x00, 0xf0, 0x01, 0x00, 0x00,
  0x68, 0x01, 0x00, 0x00, 0xd8, 0x00, 0x00, 0x00, 0x60, 0x00, 0x00, 0x00,
  0x04, 0x00, 0x00, 0x00, 0x56, 0xfc, 0xff, 0xff, 0x00, 0x00, 0x00, 0x01,
  0x14, 0x00, 0x00, 0x00, 0x1c, 0x00, 0x00, 0x00, 0x1c, 0x00, 0x00, 0x00,
  0x0b, 0x00, 0x00, 0x00, 0x34, 0x00, 0x00, 0x00, 0x02, 0x00, 0x00, 0x00,
  0xff, 0xff, 0xff, 0xff, 0x01, 0x00, 0x00, 0x00, 0x40, 0xfc, 0xff, 0xff,
  0x19, 0x00, 0x00, 0x00, 0x53, 0x74, 0x61, 0x74, 0x65, 0x66, 0x75, 0x6c,
  0x50, 0x61, 0x72, 0x74, 0x69, 0x74, 0x69, 0x6f, 0x6e, 0x65, 0x64, 0x43,
  0x61, 0x6c, 0x6c, 0x3a, 0x30, 0x00, 0x00, 0x00, 0x02, 0x00, 0x00, 0x00,
  0x01, 0x00, 0x00, 0x00, 0x01, 0x00, 0x00, 0x00, 0xae, 0xfc, 0xff, 0xff,
  0x00, 0x00, 0x00, 0x01, 0x14, 0x00, 0x00, 0x00, 0x1c, 0x00, 0x00, 0x00,
  0x1c, 0x00, 0x00, 0x00, 0x0a, 0x00, 0x00, 0x00, 0x50, 0x00, 0x00, 0x00,
  0x02, 0x00, 0x00, 0x00, 0xff, 0xff, 0xff, 0xff, 0x01, 0x00, 0x00, 0x00,
  0x98, 0xfc, 0xff, 0xff, 0x34, 0x00, 0x00, 0x00, 0x73, 0x65, 0x71, 0x75,
  0x65, 0x6e, 0x74, 0x69, 0x61, 0x6c, 0x2f, 0x64, 0x65, 0x6e, 0x73, 0x65,
  0x5f, 0x32, 0x2f, 0x4d, 0x61, 0x74, 0x4d, 0x75, 0x6c, 0x3b, 0x73, 0x65,
  0x71, 0x75, 0x65, 0x6e, 0x74, 0x69, 0x61, 0x6c, 0x2f, 0x64, 0x65, 0x6e,
  0x73, 0x65, 0x5f, 0x32, 0x2f, 0x42, 0x69, 0x61, 0x73, 0x41, 0x64, 0x64,
  0x00, 0x00, 0x00, 0x00, 0x02, 0x00, 0x00, 0x00, 0x01, 0x00, 0x00, 0x00,
  0x01, 0x00, 0x00, 0x00, 0x22, 0xfd, 0xff, 0xff, 0x00, 0x00, 0x00, 0x01,
  0x14, 0x00, 0x00, 0x00, 0x1c, 0x00, 0x00, 0x00, 0x1c, 0x00, 0x00, 0x00,
  0x09, 0x00, 0x00, 0x00, 0x68, 0x00, 0x00, 0x00, 0x02, 0x00, 0x00, 0x00,
  0xff, 0xff, 0xff, 0xff, 0x10, 0x00, 0x00, 0x00, 0x0c, 0xfd, 0xff, 0xff,
  0x4c, 0x00, 0x00, 0x00, 0x73, 0x65, 0x71, 0x75, 0x65, 0x6e, 0x74, 0x69,
  0x61, 0x6c, 0x2f, 0x64, 0x65, 0x6e, 0x73, 0x65, 0x5f, 0x31, 0x2f, 0x4d,
  0x61, 0x74, 0x4d, 0x75, 0x6c, 0x3b, 0x73, 0x65, 0x71, 0x75, 0x65, 0x6e,
  0x74, 0x69, 0x61, 0x6c, 0x2f, 0x64, 0x65, 0x6e, 0x73, 0x65, 0x5f, 0x31,
  0x2f, 0x52, 0x65, 0x6c, 0x75, 0x3b, 0x73, 0x65, 0x71, 0x75, 0x65, 0x6e,
  0x74, 0x69, 0x61, 0x6c, 0x2f, 0x64, 0x65, 0x6e, 0x73, 0x65, 0x5f, 0x31,
  0x2f, 0x42, 0x69, 0x61, 0x73, 0x41, 0x64, 0x64, 0x00, 0x00, 0x00, 0x00,
  0x02, 0x00, 0x00, 0x00, 0x01, 0x00, 0x00, 0x00, 0x10, 0x00, 0x00, 0x00,
  0xae, 0xfd, 0xff, 0xff, 0x00, 0x00, 0x00, 0x01, 0x14, 0x00, 0x00, 0x00,
  0x1c, 0x00, 0x00, 0x00, 0x1c, 0x00, 0x00, 0x00, 0x08, 0x00, 0x00, 0x00,
  0x60, 0x00, 0x00, 0x00, 0x02, 0x00, 0x00, 0x00, 0xff, 0xff, 0xff, 0xff,
  0x20, 0x00, 0x00, 0x00, 0x98, 0xfd, 0xff, 0xff, 0x46, 0x00, 0x00, 0x00,
  0x73, 0x65, 0x71, 0x75, 0x65, 0x6e, 0x74, 0x69, 0x61, 0x6c, 0x2f, 0x64,
  0x65, 0x6e, 0x73, 0x65, 0x2f, 0x4d, 0x61, 0x74, 0x4d, 0x75, 0x6c, 0x3b,
  0x73, 0x65, 0x71, 0x75, 0x65, 0x6e, 0x74, 0x69, 0x61, 0x6c, 0x2f, 0x64,
  0x65, 0x6e, 0x73, 0x65, 0x2f, 0x52, 0x65, 0x6c, 0x75, 0x3b, 0x73, 0x65,
  0x71, 0x75, 0x65, 0x6e, 0x74, 0x69, 0x61, 0x6c, 0x2f, 0x64, 0x65, 0x6e,
  0x73, 0x65, 0x2f, 0x42, 0x69, 0x61, 0x73, 0x41, 0x64, 0x64, 0x00, 0x00,
  0x02, 0x00, 0x00, 0x00, 0x01, 0x00, 0x00, 0x00, 0x20, 0x00, 0x00, 0x00,
  0x86, 0xfe, 0xff, 0xff, 0x00, 0x00, 0x00, 0x01, 0x10, 0x00, 0x00, 0x00,
  0x10, 0x00, 0x00, 0x00, 0x07, 0x00, 0x00, 0x00, 0x24, 0x00, 0x00, 0x00,
