/*
 * Copyright (c) 2023, Alliance for Open Media. All rights reserved
 *
 * This source code is subject to the terms of the BSD 2 Clause License and
 * the Alliance for Open Media Patent License 1.0. If the BSD 2 Clause License
 * was not distributed with this source code in the LICENSE file, you can
 * obtain it at www.aomedia.org/license/software. If the Alliance for Open
 * Media Patent License 1.0 was not distributed with this source code in the
 * PATENTS file, you can obtain it at www.aomedia.org/license/patent.
 */

// 0.99: 0.01 0.7
// 0.95: 0.02 0.55
// 0.90: 0.05 0.44
// 0.85: 0.1 0.37
// 0.80: 0.15 0.31
const struct ModelParams sms_part_split_prune_tflite_model_params[] = {
    {0.01, 0.7, 75, 160},  {0.01, 0.7, 75, 160}, {0.02, 0.55, 75, 160},
    {0.05, 0.44, 75, 160}, {0.1, 0.37, 75, 160}, {0.15, 0.31, 75, 160}};

unsigned char sms_part_split_prune_tflite_model[] = {
  0x1c, 0x00, 0x00, 0x00, 0x54, 0x46, 0x4c, 0x33, 0x14, 0x00, 0x20, 0x00,
  0x1c, 0x00, 0x18, 0x00, 0x14, 0x00, 0x10, 0x00, 0x0c, 0x00, 0x00, 0x00,
  0x08, 0x00, 0x04, 0x00, 0x14, 0x00, 0x00, 0x00, 0x1c, 0x00, 0x00, 0x00,
  0x80, 0x00, 0x00, 0x00, 0xd8, 0x00, 0x00, 0x00, 0x04, 0x13, 0x00, 0x00,
  0x14, 0x13, 0x00, 0x00, 0x7c, 0x18, 0x00, 0x00, 0x03, 0x00, 0x00, 0x00,
  0x01, 0x00, 0x00, 0x00, 0x04, 0x00, 0x00, 0x00, 0xae, 0xec, 0xff, 0xff,
  0x0c, 0x00, 0x00, 0x00, 0x1c, 0x00, 0x00, 0x00, 0x38, 0x00, 0x00, 0x00,
  0x0f, 0x00, 0x00, 0x00, 0x73, 0x65, 0x72, 0x76, 0x69, 0x6e, 0x67, 0x5f,
  0x64, 0x65, 0x66, 0x61, 0x75, 0x6c, 0x74, 0x00, 0x01, 0x00, 0x00, 0x00,
  0x04, 0x00, 0x00, 0x00, 0x9c, 0xff, 0xff, 0xff, 0x0a, 0x00, 0x00, 0x00,
  0x04, 0x00, 0x00, 0x00, 0x07, 0x00, 0x00, 0x00, 0x64, 0x65, 0x6e, 0x73,
  0x65, 0x5f, 0x35, 0x00, 0x01, 0x00, 0x00, 0x00, 0x04, 0x00, 0x00, 0x00,
  0xba, 0xed, 0xff, 0xff, 0x04, 0x00, 0x00, 0x00, 0x07, 0x00, 0x00, 0x00,
  0x69, 0x6e, 0x70, 0x75, 0x74, 0x5f, 0x32, 0x00, 0x02, 0x00, 0x00, 0x00,
  0x34, 0x00, 0x00, 0x00, 0x04, 0x00, 0x00, 0x00, 0xdc, 0xff, 0xff, 0xff,
  0x0d, 0x00, 0x00, 0x00, 0x04, 0x00, 0x00, 0x00, 0x13, 0x00, 0x00, 0x00,
  0x43, 0x4f, 0x4e, 0x56, 0x45, 0x52, 0x53, 0x49, 0x4f, 0x4e, 0x5f, 0x4d,
  0x45, 0x54, 0x41, 0x44, 0x41, 0x54, 0x41, 0x00, 0x08, 0x00, 0x0c, 0x00,
  0x08, 0x00, 0x04, 0x00, 0x08, 0x00, 0x00, 0x00, 0x0c, 0x00, 0x00, 0x00,
  0x04, 0x00, 0x00, 0x00, 0x13, 0x00, 0x00, 0x00, 0x6d, 0x69, 0x6e, 0x5f,
  0x72, 0x75, 0x6e, 0x74, 0x69, 0x6d, 0x65, 0x5f, 0x76, 0x65, 0x72, 0x73,
  0x69, 0x6f, 0x6e, 0x00, 0x0e, 0x00, 0x00, 0x00, 0x28, 0x12, 0x00, 0x00,
  0x20, 0x12, 0x00, 0x00, 0xd0, 0x11, 0x00, 0x00, 0xb8, 0x09, 0x00, 0x00,
  0xa4, 0x09, 0x00, 0x00, 0x54, 0x09, 0x00, 0x00, 0xc4, 0x08, 0x00, 0x00,
  0xb4, 0x00, 0x00, 0x00, 0xac, 0x00, 0x00, 0x00, 0xa4, 0x00, 0x00, 0x00,
  0x9c, 0x00, 0x00, 0x00, 0x94, 0x00, 0x00, 0x00, 0x74, 0x00, 0x00, 0x00,
  0x04, 0x00, 0x00, 0x00, 0x66, 0xee, 0xff, 0xff, 0x04, 0x00, 0x00, 0x00,
  0x60, 0x00, 0x00, 0x00, 0x10, 0x00, 0x00, 0x00, 0x00, 0x00, 0x00, 0x00,
  0x08, 0x00, 0x0e, 0x00, 0x08, 0x00, 0x04, 0x00, 0x08, 0x00, 0x00, 0x00,
  0x10, 0x00, 0x00, 0x00, 0x24, 0x00, 0x00, 0x00, 0x00, 0x00, 0x06, 0x00,
  0x08, 0x00, 0x04, 0x00, 0x06, 0x00, 0x00, 0x00, 0x04, 0x00, 0x00, 0x00,
  0x00, 0x00, 0x00, 0x00, 0x0c, 0x00, 0x18, 0x00, 0x14, 0x00, 0x10, 0x00,
  0x0c, 0x00, 0x04, 0x00, 0x0c, 0x00, 0x00, 0x00, 0x81, 0x0b, 0x48, 0xab,
  0xf9, 0xd6, 0x73, 0x30, 0x02, 0x00, 0x00, 0x00, 0x02, 0x00, 0x00, 0x00,
  0x04, 0x00, 0x00, 0x00, 0x06, 0x00, 0x00, 0x00, 0x32, 0x2e, 0x31, 0x37,
  0x2e, 0x30, 0x00, 0x00, 0xd2, 0xee, 0xff, 0xff, 0x04, 0x00, 0x00, 0x00,
  0x10, 0x00, 0x00, 0x00, 0x31, 0x2e, 0x31, 0x34, 0x2e, 0x30, 0x00, 0x00,
  0x00, 0x00, 0x00, 0x00, 0x00, 0x00, 0x00, 0x00, 0x48, 0xe9, 0xff, 0xff,
  0x4c, 0xe9, 0xff, 0xff, 0x50, 0xe9, 0xff, 0xff, 0x54, 0xe9, 0xff, 0xff,
  0xfe, 0xee, 0xff, 0xff, 0x04, 0x00, 0x00, 0x00, 0x00, 0x08, 0x00, 0x00,
  0x19, 0x07, 0x02, 0xbe, 0x5e, 0x67, 0x9a, 0xbe, 0xaf, 0xa1, 0x0a, 0x40,
  0xb9, 0x5e, 0x6b, 0xbf, 0xd4, 0x80, 0xe1, 0xbb, 0xcb, 0x32, 0xee, 0x3e,
  0x87, 0x42, 0xdd, 0xbe, 0x39, 0x32, 0x49, 0xbe, 0xac, 0x94, 0xfe, 0xbd,
  0x8c, 0x82, 0x99, 0xbb, 0x99, 0xaa, 0x04, 0x3e, 0x77, 0xa1, 0x8d, 0x3e,
  0x57, 0xe9, 0x87, 0xbf, 0x92, 0x3a, 0x32, 0xbe, 0x60, 0x1c, 0x93, 0x3e,
  0x63, 0xb1, 0x4c, 0x3f, 0xe9, 0x74, 0xef, 0x3d, 0xb4, 0x78, 0xdb, 0x3e,
  0x8a, 0x7a, 0x5c, 0x40, 0xac, 0x64, 0x4e, 0x3e, 0x36, 0x04, 0x01, 0xbd,
  0xcd, 0x6b, 0x43, 0x40, 0x48, 0xb3, 0xc2, 0x3f, 0xc7, 0x44, 0xc7, 0xbd,
  0xe9, 0xde, 0xba, 0x3f, 0x84, 0x47, 0x77, 0x3f, 0x4f, 0xb0, 0xd2, 0x3c,
  0x2c, 0x88, 0x49, 0x40, 0xd4, 0xe2, 0x0d, 0x40, 0xb7, 0x2e, 0xc0, 0x3e,
  0x7e, 0x47, 0x9f, 0x3f, 0xaa, 0x9c, 0x64, 0x3f, 0xe5, 0xc1, 0x7c, 0x3e,
  0x61, 0x30, 0xe4, 0xbb, 0xe4, 0x73, 0x0a, 0x40, 0xf4, 0xbb, 0x0b, 0x40,
  0x86, 0xb2, 0x9a, 0x3e, 0xd8, 0xd5, 0xbb, 0x3f, 0x08, 0xd1, 0x7c, 0xbf,
  0xc2, 0xbe, 0xa6, 0xbe, 0xb1, 0xbc, 0x5b, 0x40, 0x46, 0x12, 0x1b, 0x3f,
  0x02, 0xae, 0xa3, 0x3d, 0x72, 0x08, 0x03, 0x40, 0x03, 0x36, 0x25, 0x3f,
  0x99, 0x60, 0xc4, 0xbc, 0x00, 0x2a, 0x0b, 0x40, 0x74, 0xdb, 0xdd, 0x3c,
  0xdd, 0xc4, 0xf9, 0xbe, 0xa1, 0xed, 0x8a, 0x3e, 0x20, 0x7f, 0x41, 0xbf,
  0x89, 0x79, 0xe7, 0xbf, 0xce, 0x3e, 0x11, 0xbe, 0xc6, 0xc5, 0xcb, 0xbf,
  0xca, 0x68, 0x0b, 0xbf, 0xd0, 0xd4, 0x66, 0x3e, 0x22, 0x0f, 0x0d, 0xc0,
  0x2f, 0x8e, 0xc4, 0xbf, 0x22, 0x56, 0x0a, 0x3e, 0x60, 0xd0, 0xbe, 0xbf,
  0xf4, 0x38, 0x48, 0xbf, 0x88, 0x0d, 0x51, 0xbd, 0xff, 0x62, 0xf3, 0xbf,
  0x82, 0x01, 0xc9, 0xbf, 0x05, 0x78, 0x78, 0xbd, 0x36, 0x27, 0xf5, 0xbd,
  0xc8, 0xd8, 0x83, 0x3f, 0x68, 0x48, 0x26, 0x40, 0xf9, 0x77, 0x7f, 0x3d,
  0xa3, 0x40, 0x07, 0x40, 0x6f, 0x3d, 0x8b, 0x3d, 0x7b, 0xd5, 0x5d, 0x3e,
  0x30, 0xaa, 0x1d, 0x40, 0xe5, 0xea, 0x06, 0x3f, 0xb4, 0x24, 0x05, 0x3e,
  0x25, 0x67, 0xb8, 0x3e, 0x6c, 0x4f, 0xbc, 0xbe, 0xda, 0x83, 0x59, 0x3c,
  0xdf, 0xee, 0x20, 0x40, 0x46, 0x56, 0xae, 0x3f, 0x21, 0x97, 0x76, 0xbd,
  0x33, 0xe7, 0x90, 0xbe, 0xbb, 0xb4, 0x86, 0x3f, 0x24, 0xbf, 0xeb, 0xbe,
  0x28, 0x9e, 0x34, 0x3e, 0x04, 0x2d, 0xa9, 0x3e, 0xd7, 0x70, 0xe4, 0x3f,
  0xf9, 0x50, 0xaf, 0x3e, 0xb8, 0xba, 0x95, 0xbf, 0x62, 0xbb, 0x78, 0x3e,
  0x42, 0xd8, 0x14, 0xbe, 0x4f, 0x07, 0x67, 0x3f, 0xd5, 0x3d, 0x1e, 0x3f,
  0xc7, 0x67, 0xfe, 0x3d, 0xbe, 0xb3, 0x47, 0xbf, 0x9b, 0xe4, 0x0e, 0x3f,
  0x29, 0x09, 0xab, 0x3e, 0x84, 0x90, 0x66, 0x3d, 0x81, 0xa2, 0x9d, 0xc0,
  0x41, 0x92, 0x13, 0xc0, 0x04, 0xd5, 0xec, 0xbd, 0x80, 0xb2, 0x65, 0xc0,
  0x0c, 0x33, 0x68, 0x3f, 0x98, 0x4d, 0x18, 0x3e, 0x0c, 0x6b, 0xb5, 0xc0,
  0x69, 0x75, 0x26, 0xbf, 0xb0, 0xf3, 0x3c, 0x3e, 0xd7, 0xac, 0x7a, 0xc0,
  0xba, 0x32, 0xc0, 0xbe, 0xf1, 0x5a, 0x27, 0xbe, 0xf5, 0xb3, 0x9c, 0xc0,
  0x89, 0x64, 0xe9, 0x3e, 0x04, 0x26, 0xa6, 0x3c, 0xe6, 0xf0, 0x80, 0xbe,
  0xa7, 0x10, 0xc5, 0x3f, 0xd6, 0x04, 0xac, 0x3d, 0xdc, 0xe9, 0xe0, 0xbd,
  0x38, 0x99, 0xd3, 0x3f, 0xaa, 0x94, 0x11, 0x3e, 0x4d, 0x0b, 0x2b, 0xbe,
  0x25, 0x71, 0x31, 0x40, 0x64, 0xf4, 0x5e, 0x3e, 0x6a, 0x15, 0x1c, 0x3e,
  0x96, 0x94, 0x82, 0x3f, 0x72, 0x2d, 0xd4, 0xbe, 0xa5, 0xfb, 0x0d, 0x3e,
  0xcb, 0x18, 0x54, 0x40, 0x03, 0x5a, 0xb5, 0x3e, 0xe6, 0x59, 0x81, 0xbd,
  0x1e, 0x32, 0xc5, 0xbe, 0xa5, 0x87, 0xa1, 0xc0, 0x46, 0xf5, 0x8a, 0xbf,
  0x87, 0xcb, 0x4e, 0x3e, 0xb9, 0x43, 0x4a, 0xc0, 0x71, 0x5a, 0xbe, 0x3e,
  0x3b, 0xe0, 0xce, 0xbc, 0x6e, 0xc9, 0x91, 0xc0, 0x42, 0x09, 0x09, 0x3f,
  0xaa, 0x7d, 0x8b, 0xbd, 0x51, 0xb8, 0x2a, 0xc0, 0xf0, 0x17, 0x7c, 0x3f,
  0x88, 0xd9, 0x05, 0xbe, 0x5a, 0xfd, 0x83, 0xc0, 0x46, 0xfc, 0x33, 0xbe,
  0x76, 0x55, 0x3c, 0xbe, 0x65, 0x1c, 0xa3, 0x3e, 0x2a, 0x68, 0x8b, 0xbf,
  0xcd, 0x5b, 0xa2, 0x3f, 0x53, 0x86, 0x8e, 0xbd, 0x6d, 0x07, 0x5d, 0xbd,
  0x0d, 0xdc, 0xc9, 0xbf, 0x86, 0xa5, 0x3a, 0x3e, 0xa8, 0x91, 0xa6, 0x3f,
  0xbc, 0x7b, 0x06, 0xbf, 0xf3, 0x7a, 0x27, 0x3e, 0xa9, 0x70, 0x0b, 0xbf,
  0xcb, 0x3c, 0x2f, 0xbf, 0xfe, 0x0d, 0x93, 0x3e, 0x3d, 0x17, 0x83, 0x3f,
  0x2e, 0xe2, 0x3f, 0xbc, 0x26, 0x2a, 0x80, 0xbe, 0x36, 0x25, 0xc0, 0xbd,
  0x45, 0xd3, 0x2a, 0x40, 0xec, 0xae, 0x34, 0x3f, 0xb7, 0x46, 0x84, 0xbd,
  0x03, 0x21, 0x02, 0x40, 0x80, 0x06, 0x27, 0x3f, 0xee, 0xb5, 0xfa, 0x3d,
  0xf0, 0xb9, 0xb0, 0x3f, 0x27, 0xc7, 0xb6, 0xbf, 0x64, 0xed, 0xdb, 0xbe,
  0xbf, 0x5e, 0x70, 0x3f, 0xbd, 0xc4, 0x54, 0xbe, 0x79, 0x39, 0x9a, 0xbe,
  0x67, 0x37, 0xf1, 0x3f, 0x0f, 0x3f, 0x42, 0xbf, 0xbf, 0xb2, 0xc0, 0xbe,
  0xef, 0x04, 0xeb, 0xbe, 0xc9, 0x11, 0x09, 0xc0, 0x4d, 0x57, 0xb3, 0x3e,
  0x47, 0x39, 0x36, 0x3d, 0xc1, 0xbb, 0xe2, 0xbf, 0x61, 0x63, 0x56, 0xbe,
  0x71, 0xd5, 0x53, 0xbe, 0xd0, 0x79, 0x24, 0xc0, 0xfd, 0xc2, 0x84, 0x3e,
  0xaf, 0x24, 0x1a, 0xbe, 0xc3, 0x34, 0x91, 0xbf, 0xe2, 0x16, 0x38, 0x3e,
  0x0b, 0x85, 0x89, 0x3e, 0x30, 0xe6, 0x22, 0xc0, 0xf9, 0xe2, 0x5c, 0x3e,
  0x0f, 0x16, 0x31, 0x3e, 0xa3, 0xcd, 0x5a, 0x3e, 0x1a, 0x17, 0x2e, 0x40,
  0x5f, 0xf1, 0x00, 0x3e, 0x4b, 0x6d, 0xac, 0xbc, 0xd3, 0xe3, 0x65, 0x40,
  0x68, 0x18, 0x14, 0x40, 0x39, 0x47, 0x87, 0x3e, 0xa0, 0x52, 0xe6, 0x3f,
  0x62, 0xce, 0x8b, 0x3f, 0x23, 0x2c, 0x7d, 0x3e, 0x42, 0x44, 0x0a, 0x40,
  0x7c, 0xd3, 0x60, 0x3f, 0x6f, 0x0b, 0xac, 0xbe, 0x2d, 0xab, 0x20, 0x40,
  0xd8, 0xce, 0xfa, 0x3f, 0x95, 0x29, 0x8f, 0x3d, 0x39, 0xe4, 0xf4, 0xbd,
  0x4d, 0x98, 0x43, 0xc0, 0xff, 0x04, 0x62, 0xc0, 0x56, 0x85, 0x1b, 0x3e,
  0x39, 0xc1, 0x4a, 0xc0, 0xf3, 0x7b, 0x7b, 0xbf, 0xf8, 0x97, 0x6f, 0x3e,
  0xfa, 0xe4, 0x3e, 0xc0, 0x23, 0x97, 0xb9, 0x3e, 0xba, 0x3f, 0x98, 0xbc,
  0x34, 0xa3, 0xfa, 0xbf, 0xce, 0xb5, 0x14, 0xbf, 0x1a, 0x84, 0x8a, 0xbe,
  0x6a, 0x7c, 0x74, 0xc0, 0x63, 0x34, 0x64, 0xbf, 0x0a, 0x59, 0x8b, 0xbe,
  0x96, 0xec, 0xac, 0x3e, 0x9a, 0x58, 0x8f, 0xbf, 0xc9, 0x24, 0xfa, 0xbd,
  0x03, 0x94, 0x90, 0xbe, 0x24, 0xcd, 0x7d, 0xbf, 0xb9, 0xbc, 0x9e, 0xbe,
  0x60, 0x4a, 0x92, 0x3e, 0x70, 0x73, 0x40, 0xbf, 0xa6, 0xa9, 0x11, 0xbf,
  0x61, 0xa5, 0xc5, 0xbe, 0x04, 0xad, 0xa4, 0xbe, 0x58, 0xe5, 0x55, 0x3f,
  0x48, 0x32, 0xb3, 0x3c, 0x0e, 0x9f, 0xb5, 0xbe, 0x00, 0x58, 0xba, 0xbd,
  0x75, 0x28, 0xc7, 0xbd, 0x9d, 0x74, 0x58, 0x3e, 0xf1, 0x08, 0xf3, 0xbf,
  0x42, 0xab, 0x2f, 0xc0, 0x63, 0xf5, 0x86, 0x3d, 0x6d, 0x22, 0x1c, 0xc0,
  0x9d, 0x27, 0x24, 0x3f, 0xdf, 0x60, 0xfb, 0x3c, 0xfe, 0xed, 0x6d, 0xc0,
  0x78, 0x17, 0x86, 0xbf, 0xf7, 0x25, 0xa7, 0x3e, 0xcb, 0x02, 0x11, 0xc0,
  0x77, 0xb3, 0x2f, 0xbf, 0x26, 0x41, 0x85, 0x3e, 0x41, 0xe8, 0x5e, 0xc0,
  0xbf, 0x8d, 0x81, 0xbf, 0x7b, 0xad, 0xbb, 0x3e, 0xdf, 0x40, 0x44, 0xbe,
  0xc3, 0xd4, 0xcf, 0xc0, 0xe6, 0x09, 0x04, 0xc0, 0xff, 0x5a, 0x50, 0x3e,
  0x84, 0xef, 0x92, 0xc0, 0xf9, 0xd8, 0x14, 0x3f, 0x23, 0x86, 0x10, 0xbe,
  0xfb, 0xbd, 0xbf, 0xc0, 0x74, 0xba, 0xed, 0xbe, 0x6a, 0x69, 0x4b, 0xbd,
  0xdc, 0x67, 0x7f, 0xc0, 0xda, 0x05, 0x2f, 0x3e, 0x6d, 0x11, 0x93, 0x3e,
  0x91, 0x90, 0xa8, 0xc0, 0xb3, 0x1c, 0xb8, 0xbe, 0xbc, 0xa9, 0x72, 0xbe,
  0x1e, 0x04, 0x59, 0x3e, 0xf4, 0xea, 0x13, 0x3f, 0xdf, 0x48, 0xc0, 0x3f,
  0x92, 0xd2, 0xcd, 0x3d, 0x16, 0x72, 0x20, 0x3e, 0x4e, 0xe3, 0x2f, 0xbf,
  0x55, 0x74, 0xd6, 0xbd, 0x15, 0xe0, 0x36, 0x40, 0xe6, 0xf4, 0x86, 0x3f,
  0x20, 0x24, 0x57, 0xbd, 0x2b, 0x1a, 0x95, 0x3f, 0x17, 0x93, 0xd9, 0x3e,
  0xc6, 0xe1, 0xb3, 0x3e, 0x25, 0x25, 0x00, 0x40, 0xe7, 0x33, 0x46, 0x3f,
  0x01, 0x86, 0x80, 0x3a, 0xf1, 0x29, 0x88, 0x3c, 0x2e, 0xd5, 0x74, 0x3f,
  0x73, 0x0d, 0x1f, 0x40, 0x63, 0x0d, 0x79, 0x3e, 0x30, 0x5e, 0x4d, 0x3f,
  0x28, 0x94, 0x8b, 0xbf, 0x08, 0x78, 0x5a, 0xbc, 0x7b, 0x5c, 0x50, 0x40,
  0x43, 0x16, 0x77, 0x3f, 0x34, 0xc2, 0x61, 0x3e, 0xff, 0x37, 0xa4, 0x3f,
  0x58, 0xc8, 0x0c, 0x3f, 0x54, 0x2f, 0xa2, 0x3e, 0x66, 0x6a, 0x0f, 0x40,
  0xf5, 0x53, 0x18, 0x3f, 0x66, 0x2a, 0xe7, 0xbd, 0xae, 0x4b, 0x73, 0xbe,
  0x4c, 0x43, 0xc4, 0x3e, 0x2b, 0xff, 0xcf, 0x3e, 0xa5, 0xa3, 0x5c, 0xbe,
  0x62, 0x0d, 0xc3, 0xbe, 0x30, 0xeb, 0x35, 0x3d, 0xef, 0x70, 0xc8, 0x3a,
  0x39, 0xa4, 0x90, 0xbf, 0x81, 0xfc, 0xf9, 0xbd, 0x08, 0xd4, 0xbc, 0xbd,
  0x64, 0x18, 0xc7, 0x3d, 0xb1, 0xbd, 0x83, 0x3e, 0xe8, 0xca, 0xf9, 0xbc,
  0x5f, 0x50, 0xb7, 0xbf, 0x61, 0x55, 0x45, 0xbf, 0xef, 0xf1, 0x61, 0xbe,
  0x52, 0xc0, 0xab, 0x3e, 0x7f, 0x75, 0x8c, 0xc0, 0xad, 0x71, 0x43, 0xbf,
  0x99, 0xf6, 0x40, 0xbe, 0xba, 0xc4, 0x46, 0xc0, 0x9c, 0xfe, 0x6f, 0x3d,
  0xbd, 0xff, 0xd8, 0xbd, 0x97, 0x96, 0x40, 0xc0, 0x58, 0x11, 0x91, 0x3f,
  0xec, 0xc0, 0xd0, 0xbd, 0x4a, 0x6c, 0xdc, 0xbf, 0x58, 0x5b, 0xab, 0x3f,
  0x56, 0x3c, 0x3f, 0xbe, 0x52, 0xf1, 0x13, 0xc0, 0xbb, 0xce, 0xa8, 0x3f,
  0xcc, 0x45, 0x9d, 0x3e, 0x7d, 0xa7, 0x21, 0x3e, 0x4b, 0xe9, 0x92, 0xc0,
  0x27, 0x9d, 0x5e, 0xc0, 0xe7, 0x2f, 0x52, 0x3e, 0xe1, 0x67, 0x64, 0xc0,
  0x0b, 0xe7, 0x15, 0x3f, 0xeb, 0xa6, 0x9b, 0xbe, 0xb3, 0x80, 0x8a, 0xc0,
  0x85, 0x24, 0x6b, 0x3d, 0xf5, 0x1d, 0x92, 0xbe, 0xa7, 0x03, 0x33, 0xc0,
  0xab, 0x7c, 0x7c, 0x3e, 0x06, 0x56, 0x22, 0x3e, 0x30, 0x14, 0x7f, 0xc0,
  0xef, 0xf7, 0x16, 0xbf, 0x18, 0xe9, 0x1d, 0x3e, 0xc4, 0x2c, 0x5c, 0x3d,
  0x42, 0xfc, 0xf9, 0xbf, 0x5c, 0xe9, 0x10, 0xc0, 0x8f, 0xe5, 0x3e, 0xbe,
  0x0e, 0x8f, 0xf4, 0xbf, 0x09, 0x9f, 0x1c, 0x3f, 0xf8, 0xcc, 0x93, 0xbe,
  0xc1, 0x71, 0x68, 0xc0, 0x7f, 0x91, 0x14, 0x3f, 0x95, 0x34, 0x5e, 0x3e,
  0xd1, 0xb7, 0xa7, 0xbf, 0x10, 0x45, 0x2b, 0x3f, 0x16, 0x39, 0x34, 0x3e,
  0x25, 0x99, 0x7c, 0xc0, 0xc0, 0x22, 0xa1, 0xbe, 0x5f, 0x4b, 0x34, 0x3d,
  0x39, 0xe2, 0xcd, 0x3c, 0xf5, 0xc7, 0xc5, 0x3f, 0x36, 0xe4, 0xc0, 0xbf,
  0xdd, 0x8c, 0xa0, 0x3d, 0xa9, 0x0d, 0xf3, 0x3e, 0x7e, 0xd4, 0x95, 0x3f,
  0xf5, 0x42, 0x99, 0x3e, 0x4c, 0x46, 0x94, 0xbf, 0x6c, 0xe2, 0x73, 0x3f,
  0xdf, 0x11, 0x29, 0x3e, 0xe6, 0x22, 0x84, 0x3f, 0xa9, 0x4f, 0xb8, 0x3f,
  0xb8, 0x8c, 0x8d, 0x3d, 0xed, 0x46, 0x52, 0xbf, 0xb9, 0x1b, 0x1e, 0xbe,
  0x67, 0x05, 0x11, 0x3e, 0x5b, 0xce, 0x45, 0xbe, 0x26, 0x95, 0xab, 0x3f,
  0xdf, 0x26, 0x5f, 0x3f, 0xbd, 0x50, 0xa0, 0xbc, 0x15, 0x3f, 0xb2, 0x3f,
  0x88, 0x85, 0x1b, 0xbf, 0x22, 0x69, 0x43, 0xbe, 0x3d, 0x62, 0x28, 0x40,
  0x6a, 0x44, 0xba, 0x3e, 0x68, 0xb6, 0xd5, 0xbe, 0xed, 0x51, 0xec, 0x3f,
  0x77, 0xf8, 0xd1, 0x3d, 0xee, 0xfb, 0xb5, 0xbd, 0xa6, 0xc3, 0xfe, 0x3f,
  0x12, 0xb9, 0xc7, 0x3e, 0xb3, 0x6f, 0x29, 0x3e, 0x00, 0x40, 0xf6, 0xbd,
  0x5b, 0x28, 0xa2, 0xc0, 0xcf, 0xe5, 0x1c, 0xc0, 0xd4, 0x8e, 0x30, 0x3e,
  0x05, 0x3a, 0x7c, 0xc0, 0x79, 0x05, 0x41, 0xbe, 0x48, 0x39, 0x29, 0x3d,
  0xff, 0x2c, 0x8f, 0xc0, 0x9b, 0x30, 0xa4, 0xbf, 0x9b, 0xe0, 0x8f, 0x3e,
  0x21, 0xc9, 0x8c, 0xc0, 0x7b, 0x34, 0xd1, 0xbf, 0x85, 0xd3, 0x37, 0x3e,
  0x27, 0x0d, 0x80, 0xc0, 0x76, 0x6d, 0xa8, 0xbf, 0xb7, 0x2f, 0x5d, 0x3e,
  0xd5, 0x5f, 0x57, 0xbe, 0x0c, 0x91, 0xa9, 0x40, 0xed, 0xd8, 0x4b, 0x40,
  0x79, 0xa2, 0xd3, 0x3d, 0xbd, 0x10, 0x8e, 0x40, 0x9a, 0x19, 0xc0, 0x3e,
  0xe7, 0x47, 0x5a, 0xbd, 0x20, 0xed, 0x99, 0x40, 0x1f, 0x34, 0x14, 0x3f,
  0x21, 0x52, 0x09, 0x3e, 0xad, 0xea, 0x61, 0x40, 0xc4, 0xed, 0xbd, 0x3e,
  0xfd, 0xfc, 0xb4, 0xbd, 0xf5, 0xac, 0x89, 0x40, 0x41, 0xc8, 0xb9, 0x3e,
  0x0b, 0x80, 0x9f, 0x3e, 0xdd, 0x1a, 0x3c, 0xbe, 0x3e, 0x1e, 0xfd, 0x3e,
  0x0e, 0x81, 0x04, 0x40, 0xa6, 0x83, 0xba, 0x3e, 0x8b, 0xae, 0x8a, 0x3f,
  0xc5, 0x08, 0xac, 0xbf, 0x4d, 0xf0, 0x11, 0xbd, 0x3a, 0x3b, 0x53, 0x40,
  0x42, 0xee, 0x2c, 0x3f, 0xc6, 0x71, 0x85, 0xbd, 0x5c, 0xa9, 0x89, 0x3f,
  0x24, 0x06, 0x98, 0xbe, 0x98, 0xb3, 0x9c, 0x3e, 0xdf, 0xa5, 0x23, 0x40,
  0x6a, 0x5d, 0x82, 0x3e, 0x21, 0xc7, 0x07, 0x3e, 0x77, 0x18, 0x69, 0xbe,
  0xec, 0x49, 0x95, 0x40, 0xfc, 0xe4, 0x5e, 0xbe, 0xff, 0xd8, 0x1e, 0x3e,
  0x1d, 0x9f, 0x68, 0x40, 0xd8, 0x8c, 0xe3, 0xbe, 0x4a, 0xe9, 0x93, 0xbe,
  0x25, 0xc1, 0x80, 0x40, 0x60, 0x5d, 0x08, 0xbe, 0xc0, 0x72, 0xa2, 0xbe,
  0xef, 0xba, 0x32, 0x40, 0x2d, 0x31, 0x63, 0xbf, 0xe9, 0xc5, 0x66, 0xbd,
  0x00, 0x88, 0x7d, 0x40, 0xcf, 0x6e, 0x92, 0xbd, 0x7d, 0x83, 0x35, 0x3e,
  0x9c, 0x4c, 0xa3, 0xbe, 0xcb, 0x60, 0xc3, 0x3f, 0x39, 0xa8, 0x01, 0x40,
  0xe2, 0x41, 0x63, 0xbd, 0xad, 0xad, 0xdf, 0x3f, 0x69, 0x0e, 0xff, 0xbe,
  0xa6, 0x46, 0x0c, 0x3e, 0x04, 0x35, 0x71, 0x40, 0x05, 0x93, 0xbf, 0xbe,
  0xe1, 0x9e, 0xeb, 0x3c, 0xa7, 0x9f, 0xb1, 0x3f, 0xb9, 0xfd, 0x8e, 0xbe,
  0xda, 0xfc, 0xf4, 0x3d, 0x0c, 0xf1, 0x34, 0x40, 0x51, 0x4b, 0xf7, 0xbd,
  0x7f, 0x78, 0x21, 0x3e, 0xc1, 0x93, 0x8b, 0xbe, 0x06, 0x24, 0x65, 0xc0,
  0x15, 0xe0, 0xd9, 0xbf, 0x52, 0x42, 0x00, 0x3e, 0xa7, 0x33, 0x35, 0xc0,
  0xc3, 0x79, 0xa2, 0x3e, 0xc0, 0x69, 0xb3, 0xbd, 0x65, 0x45, 0x91, 0xc0,
  0xff, 0x89, 0x42, 0x3e, 0xc2, 0x28, 0xb1, 0x3c, 0xee, 0x70, 0xf4, 0xbf,
  0x94, 0xb2, 0x2b, 0x3f, 0x1e, 0x51, 0xdd, 0xbd, 0x21, 0x41, 0x91, 0xc0,
  0xba, 0xf4, 0x7c, 0xbe, 0x3f, 0x3a, 0x42, 0xbd, 0xa6, 0x55, 0xb7, 0xbe,
  0xeb, 0xe3, 0x23, 0x40, 0x71, 0x94, 0x0b, 0x3f, 0x68, 0xef, 0xa9, 0x3e,
  0x8e, 0x95, 0x20, 0x40, 0x89, 0x38, 0xf7, 0x3e, 0x9c, 0x4c, 0x8e, 0xbe,
  0x9b, 0xa1, 0xa2, 0x3f, 0x55, 0x36, 0xa6, 0xbf, 0xa9, 0x36, 0xb1, 0x3d,
  0x25, 0xe3, 0x26, 0x3f, 0x16, 0x21, 0x14, 0x3e, 0x3e, 0x8b, 0x1c, 0xbd,
  0x56, 0x24, 0xcb, 0x3f, 0xd8, 0xfe, 0xac, 0xbf, 0x0a, 0xf7, 0xff, 0xff,
  0x04, 0x00, 0x00, 0x00, 0x80, 0x00, 0x00, 0x00, 0xb7, 0xa7, 0x41, 0x3f,
  0x19, 0x89, 0xdc, 0x3e, 0x65, 0x61, 0x02, 0xbb, 0x6b, 0xf6, 0x0c, 0xbf,
  0xa1, 0xb5, 0x1c, 0x3f, 0x7f, 0x2f, 0xfd, 0xbe, 0x03, 0x81, 0x0e, 0x3e,
  0x2c, 0x80, 0x81, 0xbe, 0x4d, 0xe1, 0x16, 0x3f, 0x1f, 0xc7, 0x09, 0x3f,
  0xbb, 0x2b, 0x9b, 0xbd, 0x0a, 0xca, 0x7d, 0x3d, 0xaf, 0xa0, 0x11, 0xbd,
  0xb5, 0x0c, 0x21, 0x3e, 0x61, 0xcf, 0xc8, 0x3d, 0xc0, 0xad, 0xef, 0xbe,
  0x5c, 0xfd, 0x63, 0xbd, 0x02, 0x1d, 0x47, 0x3f, 0x90, 0xd6, 0x3c, 0x3f,
  0xa6, 0x52, 0x99, 0x3f, 0x4c, 0x52, 0xbd, 0x3e, 0x93, 0x58, 0x53, 0xbe,
  0xdf, 0x51, 0x98, 0x3d, 0x48, 0x07, 0x94, 0xbe, 0x98, 0x80, 0x18, 0xbf,
  0x59, 0xbb, 0xe1, 0xbe, 0x8e, 0xa8, 0xc9, 0x3b, 0x93, 0x03, 0x06, 0x3d,
  0x07, 0xe0, 0x92, 0xbb, 0x23, 0x4d, 0x9f, 0xbd, 0x91, 0x17, 0x11, 0x3f,
  0x9d, 0xb0, 0x14, 0x3e, 0x96, 0xf7, 0xff, 0xff, 0x04, 0x00, 0x00, 0x00,
  0x40, 0x00, 0x00, 0x00, 0xce, 0x32, 0x1e, 0xbe, 0x47, 0x5f, 0x1c, 0xbf,
  0x37, 0x5c, 0x38, 0xbe, 0x19, 0xe4, 0x47, 0xbe, 0x2b, 0x18, 0x52, 0xbf,
  0x5a, 0x16, 0xbd, 0x3e, 0x09, 0x3c, 0xbf, 0x3e, 0x16, 0xf8, 0x32, 0xbd,
  0x9d, 0xfb, 0x27, 0x3e, 0xf4, 0xc4, 0x48, 0x3d, 0xde, 0x1c, 0xf1, 0xbc,
  0xc9, 0xba, 0xdf, 0xbe, 0xd2, 0x73, 0xd1, 0x3e, 0x02, 0x67, 0x64, 0xbf,
  0x09, 0x5d, 0xd7, 0xbd, 0x28, 0xeb, 0x08, 0xbe, 0xe2, 0xf7, 0xff, 0xff,
  0x04, 0x00, 0x00, 0x00, 0x04, 0x00, 0x00, 0x00, 0xc9, 0x24, 0xbc, 0xbe,
  0xf2, 0xf7, 0xff, 0xff, 0x04, 0x00, 0x00, 0x00, 0x00, 0x08, 0x00, 0x00,
  0x59, 0x5f, 0xa5, 0xbe, 0xaa, 0x97, 0x06, 0xbe, 0xfe, 0x3d, 0x90, 0x3e,
  0x8c, 0xef, 0x7d, 0xbe, 0x92, 0xd4, 0xb6, 0x3e, 0x74, 0xb4, 0xab, 0xbe,
  0x4f, 0x27, 0x05, 0x3e, 0x91, 0x6a, 0x31, 0xbd, 0xd4, 0xcc, 0x92, 0xbc,
  0x7c, 0x8b, 0x0c, 0x3e, 0x9c, 0xc0, 0xd7, 0xbe, 0x54, 0x53, 0xb3, 0x3e,
  0x64, 0x87, 0x18, 0xbe, 0x03, 0x66, 0x28, 0xbd, 0xa8, 0x38, 0x39, 0xbf,
  0x84, 0x2b, 0x37, 0x3e, 0x02, 0x43, 0xf8, 0x3d, 0xb5, 0x4d, 0xb3, 0x3e,
  0x24, 0x09, 0x7b, 0x3e, 0xae, 0xe2, 0xe4, 0xbe, 0x07, 0x38, 0x6e, 0xbf,
  0xc5, 0x35, 0x61, 0xbe, 0x9d, 0xc6, 0x65, 0xbe, 0xfc, 0x80, 0xcf, 0xbe,
  0x97, 0xc7, 0xaf, 0x3e, 0x23, 0xba, 0x48, 0x3e, 0xcf, 0x31, 0x6e, 0x3e,
  0x72, 0x92, 0x93, 0x3d, 0xfb, 0x50, 0x90, 0xbe, 0x3a, 0x27, 0x8e, 0x3e,
  0x41, 0xdd, 0xba, 0x3d, 0xde, 0xc7, 0xe8, 0xbe, 0x8c, 0x71, 0x95, 0x3c,
  0xe5, 0x14, 0xaa, 0x3d, 0x32, 0x28, 0x72, 0x3e, 0x16, 0x1b, 0x47, 0xbe,
  0x3c, 0xcb, 0x6f, 0xbe, 0x79, 0x81, 0xb3, 0xbe, 0xc6, 0x41, 0xb8, 0x3d,
  0x0c, 0xfe, 0x98, 0x3d, 0xb3, 0xc9, 0x7c, 0xbe, 0x85, 0xfb, 0x9d, 0x3d,
  0x1f, 0x9c, 0x96, 0x3e, 0x53, 0x4f, 0xae, 0x3e, 0xff, 0x18, 0x8e, 0xbe,
  0x33, 0x06, 0x9b, 0xbd, 0x75, 0x75, 0xc7, 0x3d, 0xd0, 0x57, 0x2c, 0xbe,
  0xb2, 0xf9, 0x91, 0x3e, 0x86, 0x2b, 0x07, 0xbf, 0xcd, 0xac, 0x3c, 0xbe,
  0xb2, 0x9b, 0x60, 0xbe, 0x08, 0xae, 0xb3, 0xbf, 0x4d, 0x81, 0x70, 0x3e,
  0x24, 0x97, 0x95, 0xbd, 0xe4, 0xde, 0xdd, 0x3c, 0x90, 0x03, 0x45, 0xbe,
  0xff, 0xe9, 0xb4, 0x3d, 0xdc, 0xa3, 0xe6, 0x3d, 0x4b, 0x18, 0x9e, 0x3e,
  0xec, 0x54, 0xd4, 0xbe, 0xf5, 0xb7, 0xaf, 0x3e, 0x59, 0x02, 0x14, 0xbd,
  0xb1, 0x8a, 0xfc, 0xbd, 0x4d, 0x66, 0x3f, 0x3e, 0xed, 0x59, 0x97, 0xbe,
  0x2a, 0x9c, 0xc0, 0xbe, 0x50, 0x7c, 0xe3, 0x3d, 0x1b, 0x13, 0x29, 0x3e,
  0xca, 0x61, 0xdd, 0x3e, 0x91, 0x2d, 0xa9, 0x3e, 0xe8, 0x41, 0xbc, 0x3e,
  0x38, 0x16, 0x54, 0xbe, 0x69, 0x25, 0x75, 0xbf, 0x81, 0x78, 0x96, 0x3e,
  0x82, 0x05, 0x22, 0xbf, 0x58, 0xc2, 0xc3, 0xbc, 0x07, 0xe4, 0x0b, 0xbe,
  0x2f, 0x5a, 0xd2, 0x3d, 0x59, 0xa6, 0x2d, 0xbf, 0x86, 0x10, 0xe5, 0x3c,
  0xb2, 0x75, 0x2c, 0xbf, 0xc8, 0xbc, 0x12, 0xbf, 0xbf, 0xd6, 0xc0, 0xbc,
  0x11, 0x31, 0x44, 0xbe, 0xd8, 0xfd, 0x43, 0x3e, 0x32, 0x31, 0x9b, 0xbe,
  0xaa, 0x40, 0xfc, 0xbc, 0xf7, 0x9f, 0x7a, 0xbe, 0x3f, 0x0c, 0x06, 0xbe,
  0xf4, 0xe0, 0x76, 0x3e, 0x96, 0x02, 0x8b, 0xbd, 0x9b, 0x73, 0x2c, 0x39,
  0x93, 0x24, 0xa0, 0x3d, 0x1f, 0x5e, 0x60, 0xbc, 0x3d, 0x6f, 0x20, 0x3e,
  0xec, 0x6b, 0x91, 0x3e, 0x32, 0x24, 0x06, 0xbe, 0x02, 0x1d, 0x87, 0xbe,
  0x04, 0xcd, 0x14, 0x3e, 0x99, 0xfb, 0x2e, 0xbf, 0x21, 0xd2, 0x7f, 0x3d,
  0x30, 0x45, 0xbf, 0x3e, 0xdc, 0x93, 0x7a, 0x3d, 0x60, 0xbd, 0x8e, 0x3e,
  0x0c, 0x2c, 0x88, 0xbc, 0x20, 0xe6, 0x3c, 0xbe, 0x42, 0x87, 0x28, 0x3d,
  0x1d, 0x3a, 0xc2, 0xbd, 0x4f, 0x9f, 0xde, 0x3e, 0xb5, 0x10, 0x3f, 0x3f,
  0x52, 0xad, 0xcc, 0x3e, 0x82, 0x4d, 0xa0, 0x3e, 0xc5, 0x2e, 0x93, 0xbe,
  0xf7, 0xc7, 0x68, 0xbe, 0x51, 0x02, 0xda, 0xbb, 0x66, 0x58, 0x44, 0x3e,
  0x8d, 0xa1, 0xa3, 0x3e, 0x62, 0x6a, 0xef, 0x3d, 0xa1, 0xde, 0x31, 0x3d,
  0xb8, 0x15, 0xaa, 0xbd, 0x1c, 0xd5, 0xcc, 0x3e, 0xde, 0x15, 0x33, 0xbf,
  0xa5, 0x3e, 0xd2, 0xbd, 0xa6, 0xbd, 0x45, 0xbd, 0xfa, 0x95, 0x05, 0xbf,
  0xa0, 0xd4, 0xa2, 0x3e, 0xb1, 0x43, 0x73, 0xbe, 0x69, 0xf4, 0xed, 0xbd,
  0xb7, 0x73, 0x89, 0xbe, 0x77, 0xb6, 0x22, 0x3e, 0x5d, 0x33, 0x8a, 0xbd,
  0x91, 0xc3, 0x19, 0xbe, 0x17, 0x8a, 0x1f, 0xbd, 0xa5, 0xf0, 0x61, 0xbd,
  0xad, 0x25, 0x07, 0xbc, 0x32, 0x33, 0x1f, 0x3e, 0x38, 0x1d, 0x22, 0x3c,
  0x78, 0x6d, 0x87, 0x3e, 0x8c, 0xf8, 0xa7, 0x3d, 0x84, 0xe3, 0xf6, 0x3e,
  0x2b, 0x43, 0x70, 0xbe, 0x86, 0x3a, 0x90, 0xbd, 0xf9, 0x56, 0x5e, 0x3e,
  0xcc, 0x2c, 0xb3, 0x3c, 0x28, 0x58, 0xf1, 0xbe, 0x6d, 0x0b, 0xea, 0xbe,
  0xbb, 0xf4, 0x7f, 0xbe, 0xc6, 0x46, 0xe0, 0xbd, 0x8b, 0x27, 0xa7, 0xbd,
  0x74, 0x00, 0x53, 0x3e, 0x59, 0x1e, 0x6f, 0xbe, 0x2b, 0x10, 0x1d, 0x3d,
  0x19, 0x91, 0x9e, 0x3e, 0x51, 0x4f, 0xa9, 0x3e, 0x1a, 0xec, 0x0f, 0xbe,
  0x2a, 0xab, 0x8c, 0x3e, 0xde, 0xcc, 0x51, 0x3d, 0xe9, 0x5d, 0x50, 0xbe,
  0x70, 0x3e, 0xd9, 0xbc, 0x9e, 0x1b, 0x37, 0x3e, 0x74, 0x32, 0x82, 0x3e,
  0xd0, 0xa5, 0x30, 0x3d, 0xea, 0xf5, 0xf5, 0x3e, 0x3c, 0xa9, 0x81, 0xbe,
  0x0f, 0xad, 0x2d, 0x3e, 0x46, 0x2a, 0x11, 0x3e, 0xa2, 0xdc, 0x57, 0x3d,
  0xcd, 0x88, 0x31, 0xbe, 0x73, 0x52, 0x99, 0x3e, 0x1b, 0x03, 0x1f, 0x3d,
  0x15, 0x51, 0x74, 0x3e, 0x80, 0x6d, 0x80, 0xbd, 0xa8, 0x03, 0xfa, 0xbc,
  0xae, 0xac, 0x9c, 0x3e, 0x1e, 0x02, 0x8b, 0xbc, 0x2d, 0xe1, 0xcb, 0x3e,
  0xf4, 0xd6, 0xfc, 0xbe, 0x53, 0x84, 0x19, 0x3e, 0x58, 0x36, 0x8b, 0x3e,
  0xf4, 0x98, 0x1a, 0x3f, 0xf4, 0x8b, 0x09, 0xbe, 0xf0, 0xbb, 0x81, 0x3e,
  0xb2, 0x01, 0xce, 0xbb, 0x83, 0x54, 0x85, 0x3e, 0xb5, 0x2f, 0x3e, 0x3e,
  0xe6, 0x7d, 0xb0, 0x3e, 0x39, 0x43, 0x9a, 0x3c, 0x28, 0x75, 0x33, 0xbc,
  0x89, 0xea, 0x9f, 0x3e, 0xed, 0x73, 0xc6, 0x3e, 0x52, 0xb1, 0x9b, 0xbb,
  0xa2, 0x5b, 0x93, 0xbd, 0xce, 0xac, 0x8e, 0x3e, 0xf5, 0x4d, 0x72, 0x3e,
  0xa8, 0x20, 0x80, 0x3e, 0x7d, 0x8b, 0x96, 0x3e, 0x20, 0xfa, 0xf7, 0x3d,
  0xb9, 0xeb, 0xb0, 0x3e, 0x98, 0xa0, 0x5e, 0xbe, 0x02, 0x30, 0xfb, 0x3e,
  0x6c, 0x82, 0xb2, 0xbe, 0x4d, 0x6b, 0x4c, 0xbd, 0x36, 0xbe, 0xf9, 0x3e,
  0x54, 0x7b, 0x02, 0x3e, 0x96, 0x59, 0x0d, 0x3e, 0xd8, 0xe8, 0x0c, 0xbe,
  0xff, 0x0b, 0x7e, 0x3e, 0x33, 0xe4, 0xc7, 0x3e, 0x6e, 0x10, 0x4e, 0xbe,
  0xcb, 0x2f, 0x45, 0xbe, 0x71, 0x49, 0xb7, 0xbd, 0x04, 0xfd, 0xc6, 0x3d,
  0x9a, 0x45, 0x00, 0xbe, 0x9d, 0xcb, 0xa4, 0x3e, 0xae, 0x74, 0x70, 0x3e,
  0xd0, 0xc1, 0x7c, 0x3d, 0x7d, 0xca, 0x7e, 0x3e, 0x36, 0xf0, 0x9a, 0x3e,
  0x1d, 0xfe, 0x07, 0xbe, 0x1a, 0xf3, 0xe9, 0xbd, 0x08, 0xfa, 0xba, 0xbd,
  0x37, 0xeb, 0x5b, 0x3e, 0x77, 0xf4, 0x91, 0xbd, 0xb2, 0x6f, 0x28, 0x3e,
  0x11, 0xa0, 0x97, 0x3e, 0x49, 0x51, 0x86, 0x3e, 0x3e, 0x4f, 0x90, 0xbf,
  0xd9, 0x82, 0x78, 0x3e, 0xfd, 0x34, 0x22, 0xbe, 0x20, 0xbf, 0x07, 0x3c,
  0x45, 0x5f, 0xa9, 0xbe, 0xc3, 0xb9, 0x3a, 0x3e, 0x26, 0xb3, 0x52, 0xbe,
  0xbd, 0x16, 0x17, 0x3d, 0x43, 0xb8, 0x80, 0xbe, 0x1b, 0x27, 0x21, 0xbe,
  0x8e, 0x42, 0x83, 0xbc, 0xa8, 0x82, 0xf6, 0x3d, 0x14, 0xbd, 0x86, 0xbe,
  0x3e, 0xbe, 0x4e, 0x3e, 0x1f, 0xb9, 0x4f, 0xbf, 0xb0, 0x5f, 0xb6, 0x3d,
  0xe1, 0xa6, 0x0e, 0xbf, 0xbe, 0x4a, 0x25, 0xbf, 0xa7, 0x8a, 0xa8, 0xbe,
  0x71, 0xca, 0xff, 0xbd, 0x58, 0xa8, 0xc6, 0xbd, 0x36, 0xc8, 0x38, 0x3e,
  0xfb, 0xeb, 0x43, 0x3e, 0x6a, 0xcf, 0x94, 0xbe, 0xc5, 0xcf, 0x0c, 0x3e,
  0x29, 0x61, 0xb8, 0xbd, 0xd6, 0xa4, 0xaf, 0xbd, 0x3b, 0x3c, 0x92, 0xbe,
  0x7f, 0x0b, 0xab, 0x3e, 0x31, 0x26, 0x5c, 0xbf, 0xfb, 0x81, 0xf9, 0x3d,
  0xb5, 0xbc, 0xb1, 0xbe, 0x86, 0xfb, 0x79, 0xbd, 0x03, 0x60, 0xcf, 0x3e,
  0x81, 0x62, 0x61, 0x3d, 0xea, 0x24, 0xf5, 0x3e, 0x5e, 0x05, 0xca, 0xbe,
  0xba, 0xf2, 0x77, 0xba, 0x29, 0xf8, 0xcc, 0x3d, 0xaf, 0x5e, 0xcf, 0x3d,
  0x17, 0xfd, 0x30, 0x3e, 0xcb, 0x81, 0x3c, 0x3e, 0x71, 0x62, 0x2c, 0xbe,
  0xd7, 0xde, 0xee, 0xbe, 0xc9, 0x5b, 0x09, 0xbe, 0xea, 0xf7, 0x89, 0x3d,
  0x04, 0xf7, 0x89, 0xbe, 0x72, 0x92, 0xac, 0xbd, 0x22, 0xa3, 0x14, 0x3e,
  0x26, 0x56, 0x11, 0xbf, 0x49, 0x66, 0x02, 0xbe, 0xcc, 0xa6, 0x1e, 0xbf,
  0xee, 0xc3, 0x91, 0xbe, 0x1f, 0xe5, 0x42, 0xbd, 0x0a, 0x6a, 0x2a, 0xbc,
  0x7b, 0x38, 0x80, 0xbe, 0xc4, 0xb1, 0x21, 0xbd, 0x65, 0x0d, 0x90, 0xbd,
  0xa8, 0xda, 0x48, 0xbe, 0x67, 0x11, 0xbf, 0xbd, 0x2a, 0x74, 0x66, 0xbf,
  0x8e, 0x24, 0x37, 0xbe, 0x96, 0x16, 0xba, 0xbd, 0x7a, 0x40, 0xc3, 0xbe,
  0xf7, 0xc6, 0x96, 0xbe, 0x6b, 0x29, 0x38, 0xbe, 0x85, 0x79, 0xd5, 0x3d,
  0x22, 0x17, 0x5b, 0x3e, 0x48, 0x69, 0x95, 0x3e, 0x3e, 0xa7, 0xa9, 0x3e,
  0xdd, 0x4c, 0xa5, 0xbe, 0xc3, 0x47, 0x85, 0x3e, 0x7b, 0x8f, 0x61, 0xbe,
  0x13, 0xb6, 0x50, 0xbd, 0xed, 0x30, 0xba, 0xbe, 0x94, 0x98, 0x25, 0xbd,
  0xcc, 0x0f, 0x6f, 0x3e, 0x7e, 0xfc, 0x86, 0x3e, 0x24, 0xda, 0xa2, 0xbd,
  0x4f, 0xbd, 0xaa, 0xbd, 0xad, 0x84, 0xd9, 0x3c, 0xd4, 0x95, 0xcd, 0x3d,
  0x83, 0x46, 0xd7, 0x3e, 0x64, 0xe8, 0xf2, 0x3b, 0xed, 0xeb, 0x83, 0x3e,
  0xf7, 0x4c, 0x54, 0xbe, 0xbd, 0x8b, 0x99, 0x3e, 0xa6, 0x86, 0x72, 0xbe,
  0x10, 0xcc, 0x69, 0xbe, 0xc6, 0xdd, 0x85, 0xbe, 0x6b, 0x30, 0x51, 0x3d,
  0x13, 0x8b, 0x3a, 0x3e, 0x6a, 0xd4, 0xaf, 0x3e, 0xca, 0x9f, 0x4c, 0x3c,
  0x8e, 0x07, 0xfd, 0xbd, 0xc1, 0x64, 0x98, 0xbd, 0xf3, 0xbe, 0xf9, 0x3e,
  0x71, 0xcd, 0xd2, 0x3e, 0xeb, 0x12, 0x03, 0x3e, 0xe1, 0x23, 0xc9, 0x3d,
  0xf9, 0x05, 0xa3, 0xbe, 0xf4, 0x94, 0xb4, 0xbf, 0x56, 0x64, 0xaa, 0xbc,
  0xb6, 0xab, 0x21, 0xbf, 0x0a, 0xaf, 0x0f, 0x3e, 0x1c, 0xf9, 0x85, 0x3e,
  0x5d, 0x44, 0x4a, 0xbf, 0xff, 0xbd, 0x38, 0xbe, 0xe8, 0x7e, 0x45, 0x3e,
  0x35, 0xc6, 0x44, 0x3e, 0xa9, 0x2b, 0xe0, 0xbe, 0x9d, 0x17, 0x42, 0xbe,
  0x4b, 0x1a, 0x00, 0xbf, 0x83, 0x66, 0xa9, 0xbf, 0x47, 0xff, 0x95, 0xbe,
  0xda, 0xeb, 0x33, 0x3e, 0x0c, 0xf7, 0x13, 0xbe, 0x31, 0x6e, 0x07, 0x3f,
  0xf3, 0x7b, 0x0a, 0x3e, 0xfc, 0xe3, 0x8f, 0x3e, 0x3b, 0xc8, 0xef, 0xbd,
  0x91, 0x60, 0x0b, 0xbf, 0xab, 0xe1, 0xcf, 0xbd, 0x93, 0x36, 0xbe, 0xbb,
  0x6c, 0x46, 0x1b, 0xbf, 0xe2, 0x49, 0xa4, 0x3e, 0x0e, 0xf2, 0x18, 0xbf,
  0x3a, 0xd1, 0x71, 0x3e, 0xf6, 0xc5, 0x1a, 0x3e, 0xd1, 0x43, 0xc2, 0xbe,
  0x72, 0x1e, 0x90, 0xbd, 0xb9, 0x88, 0x6e, 0xbe, 0x38, 0xa7, 0xd3, 0x3e,
  0xdc, 0xc9, 0x71, 0xbe, 0x80, 0x85, 0x0c, 0x3b, 0x12, 0x65, 0x1d, 0x3d,
  0xeb, 0x4d, 0x6c, 0xbe, 0xa4, 0xf0, 0x34, 0x3e, 0x3f, 0x37, 0x88, 0x3e,
  0xe8, 0x88, 0x08, 0x3d, 0xfc, 0xa8, 0x70, 0xbf, 0x4b, 0x19, 0xb4, 0xbd,
  0xf7, 0x1d, 0x14, 0xbf, 0x68, 0x5b, 0x49, 0xbe, 0x3e, 0x99, 0x38, 0x3d,
  0x5c, 0x01, 0xaf, 0xbe, 0xac, 0x30, 0x65, 0xbc, 0x0f, 0x18, 0x1c, 0xbe,
  0x77, 0x8e, 0xb6, 0xbf, 0x90, 0xaf, 0xbf, 0x3e, 0x53, 0x02, 0xa7, 0x3e,
  0xae, 0xb6, 0xae, 0xbc, 0x42, 0xf4, 0xbc, 0x3d, 0xcd, 0xb0, 0x7e, 0x3e,
  0xce, 0xd2, 0xcc, 0xbd, 0x29, 0xb8, 0x44, 0xbe, 0x30, 0x94, 0xf0, 0xbd,
  0x3e, 0xb6, 0x81, 0xbf, 0xcc, 0x4e, 0x99, 0xbd, 0x59, 0x5a, 0x78, 0xbe,
  0xf8, 0xa0, 0xf4, 0xbe, 0x73, 0x63, 0xbe, 0x3e, 0x11, 0xfa, 0x10, 0x3e,
  0x41, 0x1d, 0xc2, 0x3c, 0x5b, 0xab, 0xff, 0xbf, 0x4a, 0x49, 0xbf, 0xbf,
  0xf0, 0x82, 0x59, 0xb9, 0xad, 0x01, 0x80, 0xbf, 0x44, 0x00, 0xb9, 0xbe,
  0xc8, 0x37, 0x0e, 0xbd, 0x81, 0x05, 0xbe, 0x3d, 0xb1, 0x7f, 0x85, 0xbf,
  0x44, 0x79, 0x9c, 0xbe, 0xf6, 0xf5, 0xc5, 0x3d, 0xb9, 0x60, 0x02, 0x3e,
  0x8a, 0xef, 0x0d, 0x3e, 0xa5, 0x1d, 0x03, 0xbf, 0x04, 0x3e, 0xb1, 0xbe,
  0x57, 0x39, 0x30, 0xbe, 0x6b, 0x57, 0x56, 0xbc, 0xf8, 0xf4, 0x78, 0x3d,
  0x0a, 0xe1, 0x0f, 0xbf, 0x01, 0x55, 0x8d, 0x3e, 0x8d, 0x44, 0x39, 0xbe,
  0x47, 0xa7, 0xad, 0x3d, 0xe2, 0x3b, 0xcc, 0x3d, 0xd1, 0xc6, 0x8c, 0x3e,
  0x7a, 0xa7, 0x06, 0xbf, 0x0b, 0xb4, 0x21, 0xbf, 0x5c, 0x79, 0xec, 0xbd,
  0x09, 0x5c, 0x7d, 0xbe, 0xbd, 0x58, 0x49, 0xbe, 0xdd, 0x93, 0xbe, 0xbc,
  0x43, 0x76, 0x5f, 0xbf, 0x4a, 0x6e, 0xcc, 0xbd, 0xf3, 0x79, 0x55, 0xbd,
  0xe3, 0x04, 0xb5, 0x3e, 0x63, 0x08, 0x08, 0xbe, 0x6a, 0xcb, 0x24, 0xbf,
  0xf9, 0xb5, 0x63, 0xbe, 0xa1, 0x9e, 0x86, 0xbe, 0xec, 0x4c, 0xba, 0x3e,
  0xcf, 0xc8, 0x21, 0xbe, 0xa2, 0x73, 0x36, 0xbd, 0xfd, 0x4b, 0xb0, 0x3e,
  0x55, 0xb8, 0x51, 0x3d, 0x7c, 0xe0, 0xf0, 0x3b, 0xdb, 0x7e, 0xd6, 0xbe,
  0x40, 0xb2, 0x78, 0xbe, 0xcf, 0x47, 0x9a, 0x3d, 0xcb, 0xd6, 0x75, 0x3d,
  0xcf, 0xb0, 0x09, 0x3e, 0xb9, 0x1c, 0x16, 0x3e, 0xf7, 0x46, 0xb8, 0x3e,
  0x3e, 0xe9, 0xce, 0x3e, 0x48, 0x51, 0x87, 0x3e, 0xb3, 0x71, 0x4d, 0x3e,
  0x44, 0x21, 0xdb, 0x3b, 0x2c, 0xae, 0xa5, 0x3e, 0x0d, 0x1a, 0x53, 0xbe,
  0x43, 0x2e, 0x8d, 0x3e, 0x70, 0xec, 0xc3, 0xbe, 0xc0, 0xa5, 0x9d, 0xbe,
  0x5e, 0x70, 0x8c, 0xbc, 0xf4, 0x67, 0x60, 0xbd, 0x67, 0xd8, 0x89, 0xbe,
  0x23, 0xe8, 0x74, 0x3e, 0x2c, 0x13, 0x6d, 0xbc, 0xb7, 0xa9, 0x1e, 0xbd,
  0x69, 0x8a, 0xc2, 0xbe, 0x6c, 0xac, 0xb2, 0xbd, 0x21, 0xcd, 0x34, 0x3d,
  0xb9, 0xb5, 0x17, 0xbe, 0x62, 0xcf, 0x1e, 0x3e, 0x98, 0x1c, 0x49, 0xbe,
  0x3f, 0x70, 0xee, 0x3d, 0x56, 0xe6, 0xf2, 0xbd, 0xe7, 0x67, 0xe1, 0xbe,
  0x76, 0x06, 0x89, 0xbe, 0x8c, 0xf8, 0x4c, 0xbd, 0x0a, 0xb8, 0xa9, 0xbe,
  0xb8, 0xa7, 0x0d, 0x3d, 0x18, 0xd9, 0x3b, 0x3e, 0x78, 0xdd, 0x3c, 0x3d,
  0xe0, 0x05, 0x1c, 0x3d, 0x6d, 0xc6, 0x88, 0x3e, 0xc3, 0xb0, 0x11, 0x3d,
  0x16, 0x18, 0xd6, 0xbd, 0x44, 0x50, 0x7d, 0xbe, 0x6a, 0x16, 0x43, 0xbe,
  0x20, 0x4f, 0x9b, 0xbe, 0x66, 0x99, 0x6b, 0xbe, 0xbe, 0x4e, 0x9f, 0xbe,
  0xb5, 0x5b, 0xb0, 0xbe, 0x25, 0x69, 0x80, 0xbe, 0xe2, 0x75, 0x67, 0x3e,
  0x02, 0xb0, 0x6c, 0xbe, 0xcd, 0x19, 0xaf, 0xbd, 0xc4, 0x2f, 0x29, 0x3e,
  0x51, 0x1b, 0x81, 0xbe, 0x1a, 0xcb, 0x4a, 0x3b, 0xfc, 0x28, 0xeb, 0x3d,
  0x64, 0xec, 0x1d, 0xbd, 0xb1, 0x78, 0x84, 0xbe, 0x7e, 0x4d, 0x52, 0xbd,
  0x14, 0xc2, 0x62, 0xbd, 0xb0, 0x5a, 0xf2, 0x3d, 0x8c, 0x35, 0x7b, 0x3d,
  0x1c, 0x40, 0xa4, 0x3e, 0xd0, 0x81, 0x60, 0xbd, 0x3a, 0x0b, 0xba, 0xbe,
  0x83, 0xdb, 0x26, 0x3d, 0x80, 0x09, 0x04, 0xbe, 0x03, 0xcd, 0x26, 0x3d,
  0xf6, 0xfe, 0xce, 0xbe, 0x52, 0x30, 0xb7, 0xbe, 0x1d, 0xed, 0xd8, 0xbe,
  0x9a, 0xc7, 0x0d, 0x3e, 0x7e, 0x97, 0x87, 0x3b, 0x0d, 0xf3, 0x9e, 0xbe,
  0xcf, 0x15, 0xa7, 0xbd, 0x8b, 0x0f, 0x4e, 0x3e, 0x83, 0x66, 0x22, 0x3e,
  0x2e, 0xcf, 0xb9, 0xbe, 0xa3, 0x39, 0x4b, 0xbd, 0x00, 0x00, 0x06, 0x00,
  0x08, 0x00, 0x04, 0x00, 0x06, 0x00, 0x00, 0x00, 0x04, 0x00, 0x00, 0x00,
  0x40, 0x00, 0x00, 0x00, 0x22, 0x4c, 0x35, 0x3f, 0xf0, 0xe7, 0x0a, 0x3f,
  0xbc, 0x55, 0x62, 0x3f, 0x8d, 0x60, 0x58, 0xc0, 0xf0, 0xe6, 0x1e, 0x3f,
  0x9c, 0xb1, 0x08, 0xbe, 0xee, 0x40, 0x0d, 0xbf, 0x8c, 0xc0, 0xb4, 0x3e,
  0xfe, 0x82, 0x2b, 0x3f, 0x1b, 0xd7, 0xac, 0xbf, 0x14, 0xe3, 0x46, 0x3f,
  0xe3, 0x6e, 0xa2, 0x3e, 0x13, 0x65, 0x95, 0x3e, 0x40, 0xd6, 0x24, 0x3f,
  0x29, 0xd1, 0x50, 0x3e, 0x0c, 0x40, 0x02, 0x3e, 0xac, 0xfa, 0xff, 0xff,
  0xb0, 0xfa, 0xff, 0xff, 0x0f, 0x00, 0x00, 0x00, 0x4d, 0x4c, 0x49, 0x52,
  0x20, 0x43, 0x6f, 0x6e, 0x76, 0x65, 0x72, 0x74, 0x65, 0x64, 0x2e, 0x00,
  0x01, 0x00, 0x00, 0x00, 0x14, 0x00, 0x00, 0x00, 0x00, 0x00, 0x0e, 0x00,
  0x18, 0x00, 0x14, 0x00, 0x10, 0x00, 0x0c, 0x00, 0x08, 0x00, 0x04, 0x00,
  0x0e, 0x00, 0x00, 0x00, 0x14, 0x00, 0x00, 0x00, 0x1c, 0x00, 0x00, 0x00,
  0x08, 0x01, 0x00, 0x00, 0x0c, 0x01, 0x00, 0x00, 0x10, 0x01, 0x00, 0x00,
  0x04, 0x00, 0x00, 0x00, 0x6d, 0x61, 0x69, 0x6e, 0x00, 0x00, 0x00, 0x00,
  0x04, 0x00, 0x00, 0x00, 0xb0, 0x00, 0x00, 0x00, 0x68, 0x00, 0x00, 0x00,
  0x34, 0x00, 0x00, 0x00, 0x10, 0x00, 0x00, 0x00, 0x00, 0x00, 0x0a, 0x00,
  0x10, 0x00, 0x0c, 0x00, 0x08, 0x00, 0x04, 0x00, 0x0a, 0x00, 0x00, 0x00,
  0x0c, 0x00, 0x00, 0x00, 0x10, 0x00, 0x00, 0x00, 0x01, 0x00, 0x00, 0x00,
  0x01, 0x00, 0x00, 0x00, 0x0a, 0x00, 0x00, 0x00, 0x01, 0x00, 0x00, 0x00,
  0x09, 0x00, 0x00, 0x00, 0x9a, 0xff, 0xff, 0xff, 0x10, 0x00, 0x00, 0x00,
  0x00, 0x00, 0x00, 0x08, 0x0c, 0x00, 0x00, 0x00, 0x10, 0x00, 0x00, 0x00,
  0x58, 0xfb, 0xff, 0xff, 0x01, 0x00, 0x00, 0x00, 0x09, 0x00, 0x00, 0x00,
  0x03, 0x00, 0x00, 0x00, 0x08, 0x00, 0x00, 0x00, 0x01, 0x00, 0x00, 0x00,
  0x03, 0x00, 0x00, 0x00, 0xca, 0xff, 0xff, 0xff, 0x10, 0x00, 0x00, 0x00,
  0x00, 0x00, 0x00, 0x08, 0x10, 0x00, 0x00, 0x00, 0x14, 0x00, 0x00, 0x00,
  0xba, 0xff, 0xff, 0xff, 0x00, 0x00, 0x00, 0x01, 0x01, 0x00, 0x00, 0x00,
  0x08, 0x00, 0x00, 0x00, 0x03, 0x00, 0x00, 0x00, 0x07, 0x00, 0x00, 0x00,
  0x02, 0x00, 0x00, 0x00, 0x04, 0x00, 0x00, 0x00, 0x00, 0x00, 0x0e, 0x00,
  0x16, 0x00, 0x00, 0x00, 0x10, 0x00, 0x0c, 0x00, 0x0b, 0x00, 0x04, 0x00,
  0x0e, 0x00, 0x00, 0x00, 0x18, 0x00, 0x00, 0x00, 0x00, 0x00, 0x00, 0x08,
  0x18, 0x00, 0x00, 0x00, 0x1c, 0x00, 0x00, 0x00, 0x00, 0x00, 0x06, 0x00,
  0x08, 0x00, 0x07, 0x00, 0x06, 0x00, 0x00, 0x00, 0x00, 0x00, 0x00, 0x01,
  0x01, 0x00, 0x00, 0x00, 0x07, 0x00, 0x00, 0x00, 0x03, 0x00, 0x00, 0x00,
  0x00, 0x00, 0x00, 0x00, 0x06, 0x00, 0x00, 0x00, 0x05, 0x00, 0x00, 0x00,
  0x01, 0x00, 0x00, 0x00, 0x0a, 0x00, 0x00, 0x00, 0x01, 0x00, 0x00, 0x00,
  0x00, 0x00, 0x00, 0x00, 0x0b, 0x00, 0x00, 0x00, 0xd0, 0x03, 0x00, 0x00,
  0x78, 0x03, 0x00, 0x00, 0x20, 0x03, 0x00, 0x00, 0xe4, 0x02, 0x00, 0x00,
  0xa8, 0x02, 0x00, 0x00, 0x50, 0x02, 0x00, 0x00, 0x04, 0x02, 0x00, 0x00,
  0x70, 0x01, 0x00, 0x00, 0xdc, 0x00, 0x00, 0x00, 0x60, 0x00, 0x00, 0x00,
  0x04, 0x00, 0x00, 0x00, 0x72, 0xfc, 0xff, 0xff, 0x00, 0x00, 0x00, 0x01,
  0x14, 0x00, 0x00, 0x00, 0x1c, 0x00, 0x00, 0x00, 0x1c, 0x00, 0x00, 0x00,
  0x0b, 0x00, 0x00, 0x00, 0x34, 0x00, 0x00, 0x00, 0x02, 0x00, 0x00, 0x00,
  0xff, 0xff, 0xff, 0xff, 0x01, 0x00, 0x00, 0x00, 0x5c, 0xfc, 0xff, 0xff,
  0x19, 0x00, 0x00, 0x00, 0x53, 0x74, 0x61, 0x74, 0x65, 0x66, 0x75, 0x6c,
  0x50, 0x61, 0x72, 0x74, 0x69, 0x74, 0x69, 0x6f, 0x6e, 0x65, 0x64, 0x43,
  0x61, 0x6c, 0x6c, 0x3a, 0x30, 0x00, 0x00, 0x00, 0x02, 0x00, 0x00, 0x00,
  0x01, 0x00, 0x00, 0x00, 0x01, 0x00, 0x00, 0x00, 0xca, 0xfc, 0xff, 0xff,
  0x00, 0x00, 0x00, 0x01, 0x14, 0x00, 0x00, 0x00, 0x1c, 0x00, 0x00, 0x00,
  0x1c, 0x00, 0x00, 0x00, 0x0a, 0x00, 0x00, 0x00, 0x54, 0x00, 0x00, 0x00,
  0x02, 0x00, 0x00, 0x00, 0xff, 0xff, 0xff, 0xff, 0x01, 0x00, 0x00, 0x00,
  0xb4, 0xfc, 0xff, 0xff, 0x38, 0x00, 0x00, 0x00, 0x73, 0x65, 0x71, 0x75,
  0x65, 0x6e, 0x74, 0x69, 0x61, 0x6c, 0x5f, 0x31, 0x2f, 0x64, 0x65, 0x6e,
  0x73, 0x65, 0x5f, 0x35, 0x2f, 0x4d, 0x61, 0x74, 0x4d, 0x75, 0x6c, 0x3b,
  0x73, 0x65, 0x71, 0x75, 0x65, 0x6e, 0x74, 0x69, 0x61, 0x6c, 0x5f, 0x31,
  0x2f, 0x64, 0x65, 0x6e, 0x73, 0x65, 0x5f, 0x35, 0x2f, 0x42, 0x69, 0x61,
  0x73, 0x41, 0x64, 0x64, 0x00, 0x00, 0x00, 0x00, 0x02, 0x00, 0x00, 0x00,
  0x01, 0x00, 0x00, 0x00, 0x01, 0x00, 0x00, 0x00, 0x42, 0xfd, 0xff, 0xff,
  0x00, 0x00, 0x00, 0x01, 0x14, 0x00, 0x00, 0x00, 0x1c, 0x00, 0x00, 0x00,
  0x1c, 0x00, 0x00, 0x00, 0x09, 0x00, 0x00, 0x00, 0x6c, 0x00, 0x00, 0x00,
  0x02, 0x00, 0x00, 0x00, 0xff, 0xff, 0xff, 0xff, 0x10, 0x00, 0x00, 0x00,
  0x2c, 0xfd, 0xff, 0xff, 0x52, 0x00, 0x00, 0x00, 0x73, 0x65, 0x71, 0x75,
  0x65, 0x6e, 0x74, 0x69, 0x61, 0x6c, 0x5f, 0x31, 0x2f, 0x64, 0x65, 0x6e,
  0x73, 0x65, 0x5f, 0x34, 0x2f, 0x4d, 0x61, 0x74, 0x4d, 0x75, 0x6c, 0x3b,
  0x73, 0x65, 0x71, 0x75, 0x65, 0x6e, 0x74, 0x69, 0x61, 0x6c, 0x5f, 0x31,
  0x2f, 0x64, 0x65, 0x6e, 0x73, 0x65, 0x5f, 0x34, 0x2f, 0x52, 0x65, 0x6c,
  0x75, 0x3b, 0x73, 0x65, 0x71, 0x75, 0x65, 0x6e, 0x74, 0x69, 0x61, 0x6c,
  0x5f, 0x31, 0x2f, 0x64, 0x65, 0x6e, 0x73, 0x65, 0x5f, 0x34, 0x2f, 0x42,
  0x69, 0x61, 0x73, 0x41, 0x64, 0x64, 0x00, 0x00, 0x02, 0x00, 0x00, 0x00,
  0x01, 0x00, 0x00, 0x00, 0x10, 0x00, 0x00, 0x00, 0xd2, 0xfd, 0xff, 0xff,
  0x00, 0x00, 0x00, 0x01, 0x14, 0x00, 0x00, 0x00, 0x1c, 0x00, 0x00, 0x00,
  0x1c, 0x00, 0x00, 0x00, 0x08, 0x00, 0x00, 0x00, 0x6c, 0x00, 0x00, 0x00,
  0x02, 0x00, 0x00, 0x00, 0xff, 0xff, 0xff, 0xff, 0x20, 0x00, 0x00, 0x00,
  0xbc, 0xfd, 0xff, 0xff, 0x52, 0x00, 0x00, 0x00, 0x73, 0x65, 0x71, 0x75,
  0x65, 0x6e, 0x74, 0x69, 0x61, 0x6c, 0x5f, 0x31, 0x2f, 0x64, 0x65, 0x6e,
  0x73, 0x65, 0x5f, 0x33, 0x2f, 0x4d, 0x61, 0x74, 0x4d, 0x75, 0x6c, 0x3b,
  0x73, 0x65, 0x71, 0x75, 0x65, 0x6e, 0x74, 0x69, 0x61, 0x6c, 0x5f, 0x31,
  0x2f, 0x64, 0x65, 0x6e, 0x73, 0x65, 0x5f, 0x33, 0x2f, 0x52, 0x65, 0x6c,
  0x75, 0x3b, 0x73, 0x65, 0x71, 0x75, 0x65, 0x6e, 0x74, 0x69, 0x61, 0x6c,
  0x5f, 0x31, 0x2f, 0x64, 0x65, 0x6e, 0x73, 0x65, 0x5f, 0x33, 0x2f, 0x42,
  0x69, 0x61, 0x73, 0x41, 0x64, 0x64, 0x00, 0x00, 0x02, 0x00, 0x00, 0x00,
  0x01, 0x00, 0x00, 0x00, 0x20, 0x00, 0x00, 0x00, 0xb6, 0xfe, 0xff, 0xff,
  0x00, 0x00, 0x00, 0x01, 0x10, 0x00, 0x00, 0x00, 0x10, 0x00, 0x00, 0x00,
  0x07, 0x00, 0x00, 0x00, 0x28, 0x00, 0x00, 0x00, 0x3c, 0xfe, 0xff, 0xff,
  0x1b, 0x00, 0x00, 0x00, 0x73, 0x65, 0x71, 0x75, 0x65, 0x6e, 0x74, 0x69,
  0x61, 0x6c, 0x5f, 0x31, 0x2f, 0x64, 0x65, 0x6e, 0x73, 0x65, 0x5f, 0x33,
  0x2f, 0x4d, 0x61, 0x74, 0x4d, 0x75, 0x6c, 0x00, 0x02, 0x00, 0x00, 0x00,
  0x20, 0x00, 0x00, 0x00, 0x10, 0x00, 0x00, 0x00, 0xfe, 0xfe, 0xff, 0xff,
  0x00, 0x00, 0x00, 0x01, 0x10, 0x00, 0x00, 0x00, 0x10, 0x00, 0x00, 0x00,
  0x06, 0x00, 0x00, 0x00, 0x38, 0x00, 0x00, 0x00, 0x84, 0xfe, 0xff, 0xff,
  0x2b, 0x00, 0x00, 0x00, 0x73, 0x65, 0x71, 0x75, 0x65, 0x6e, 0x74, 0x69,
  0x61, 0x6c, 0x5f, 0x31, 0x2f, 0x64, 0x65, 0x6e, 0x73, 0x65, 0x5f, 0x33,
  0x2f, 0x42, 0x69, 0x61, 0x73, 0x41, 0x64, 0x64, 0x2f, 0x52, 0x65, 0x61,
  0x64, 0x56, 0x61, 0x72, 0x69, 0x61, 0x62, 0x6c, 0x65, 0x4f, 0x70, 0x00,
  0x01, 0x00, 0x00, 0x00, 0x20, 0x00, 0x00, 0x00, 0x52, 0xff, 0xff, 0xff,
  0x00, 0x00, 0x00, 0x01, 0x10, 0x00, 0x00, 0x00, 0x10, 0x00, 0x00, 0x00,
  0x05, 0x00, 0x00, 0x00, 0x1c, 0x00, 0x00, 0x00, 0xd8, 0xfe, 0xff, 0xff,
  0x0f, 0x00, 0x00, 0x00, 0x61, 0x72, 0x69, 0x74, 0x68, 0x2e, 0x63, 0x6f,
  0x6e, 0x73, 0x74, 0x61, 0x6e, 0x74, 0x33, 0x00, 0x01, 0x00, 0x00, 0x00,
  0x10, 0x00, 0x00, 0x00, 0x8a, 0xff, 0xff, 0xff, 0x00, 0x00, 0x00, 0x01,
  0x10, 0x00, 0x00, 0x00, 0x10, 0x00, 0x00, 0x00, 0x04, 0x00, 0x00, 0x00,
  0x1c, 0x00, 0x00, 0x00, 0x10, 0xff, 0xff, 0xff, 0x0f, 0x00, 0x00, 0x00,
  0x61, 0x72, 0x69, 0x74, 0x68, 0x2e, 0x63, 0x6f, 0x6e, 0x73, 0x74, 0x61,
  0x6e, 0x74, 0x32, 0x00, 0x01, 0x00, 0x00, 0x00, 0x01, 0x00, 0x00, 0x00,
  0xc2, 0xff, 0xff, 0xff, 0x00, 0x00, 0x00, 0x01, 0x10, 0x00, 0x00, 0x00,
  0x10, 0x00, 0x00, 0x00, 0x03, 0x00, 0x00, 0x00, 0x1c, 0x00, 0x00, 0x00,
  0x48, 0xff, 0xff, 0xff, 0x0f, 0x00, 0x00, 0x00, 0x61, 0x72, 0x69, 0x74,
  0x68, 0x2e, 0x63, 0x6f, 0x6e, 0x73, 0x74, 0x61, 0x6e, 0x74, 0x31, 0x00,
  0x02, 0x00, 0x00, 0x00, 0x10, 0x00, 0x00, 0x00, 0x20, 0x00, 0x00, 0x00,
  0x00, 0x00, 0x16, 0x00, 0x18, 0x00, 0x14, 0x00, 0x00, 0x00, 0x10, 0x00,
  0x0c, 0x00, 0x08, 0x00, 0x00, 0x00, 0x00, 0x00, 0x00, 0x00, 0x07, 0x00,
  0x16, 0x00, 0x00, 0x00, 0x00, 0x00, 0x00, 0x01, 0x10, 0x00, 0x00, 0x00,
  0x10, 0x00, 0x00, 0x00, 0x02, 0x00, 0x00, 0x00, 0x1c, 0x00, 0x00, 0x00,
  0x9c, 0xff, 0xff, 0xff, 0x0e, 0x00, 0x00, 0x00, 0x61, 0x72, 0x69, 0x74,
  0x68, 0x2e, 0x63, 0x6f, 0x6e, 0x73, 0x74, 0x61, 0x6e, 0x74, 0x00, 0x00,
  0x02, 0x00, 0x00, 0x00, 0x01, 0x00, 0x00, 0x00, 0x10, 0x00, 0x00, 0x00,
  0x00, 0x00, 0x16, 0x00, 0x1c, 0x00, 0x18, 0x00, 0x00, 0x00, 0x14, 0x00,
  0x10, 0x00, 0x0c, 0x00, 0x00, 0x00, 0x00, 0x00, 0x08, 0x00, 0x07, 0x00,
  0x16, 0x00, 0x00, 0x00, 0x00, 0x00, 0x00, 0x01, 0x14, 0x00, 0x00, 0x00,
  0x20, 0x00, 0x00, 0x00, 0x20, 0x00, 0x00, 0x00, 0x01, 0x00, 0x00, 0x00,
  0x38, 0x00, 0x00, 0x00, 0x02, 0x00, 0x00, 0x00, 0xff, 0xff, 0xff, 0xff,
  0x10, 0x00, 0x00, 0x00, 0x04, 0x00, 0x04, 0x00, 0x04, 0x00, 0x00, 0x00,
  0x19, 0x00, 0x00, 0x00, 0x73, 0x65, 0x72, 0x76, 0x69, 0x6e, 0x67, 0x5f,
  0x64, 0x65, 0x66, 0x61, 0x75, 0x6c, 0x74, 0x5f, 0x69, 0x6e, 0x70, 0x75,
  0x74, 0x5f, 0x32, 0x3a, 0x30, 0x00, 0x00, 0x00, 0x02, 0x00, 0x00, 0x00,
  0x01, 0x00, 0x00, 0x00, 0x10, 0x00, 0x00, 0x00, 0x02, 0x00, 0x00, 0x00,
  0x20, 0x00, 0x00, 0x00, 0x04, 0x00, 0x00, 0x00, 0xf4, 0xff, 0xff, 0xff,
  0x0e, 0x00, 0x00, 0x00, 0x00, 0x00, 0x00, 0x0e, 0x0c, 0x00, 0x0c, 0x00,
  0x0b, 0x00, 0x00, 0x00, 0x00, 0x00, 0x04, 0x00, 0x0c, 0x00, 0x00, 0x00,
  0x09, 0x00, 0x00, 0x00, 0x00, 0x00, 0x00, 0x09
};

//unsigned int sms_part_split_prune_tflite_model = 6368;

